Ð¾
ĠÐ
Ð°
ÑĤ
Ðµ
Ð¾Ð
Ð¸
ÑĢ
Ñģ
Ð°Ð
Ð½
Ñĥ
Ñı
Ð»
ÑĮ
Ðº
Ñĭ
ĠÐ¿
ÐµÐ
ĠÐ½
Ñĩ
ĠÑĤ
Ð²
ĠÐ²
Ð´
ĠÑģ
ÑĤÐ¾
ÑĤÑĮ
Ð¾Ð½
Ð¼
ÑĪ
ĠÐº
ĠÐ¼
Ð¾Ð²
Ñİ
Ð°Ðº
Ð¿
ĠÐ´
Ð¾ÑĤ
ÐµÐ½
Ñħ
Ð°Ð»
ÐµÑĤ
ĠÐ·
ĠÐ±
Ð¾ÑĢ
Ð¾Ð¼
ÐµÑĢ
ĠÐ½Ðµ
Ð¾Ð»
ĠÑĩ
Ð¾Ð´
ÐµÐ»
ĠÐ¿ÑĢ
ĠÑı
Ð¾Ð³
Ð¾Ñģ
Ð¹
Ð±
Ð³
Ð¾Ð¹
ÑĢÐ°Ð
Ð½Ð¾
ĠÐ¸
Ð°Ñģ
Ð¸ÑĤ
Ð¾Ð±
ĠÑ
ĠÑĥ
Ð°Ð¼
Ð´Ð°
ĠÐ³
Ð°Ð½
Ð¸Ð»
Ð½Ð°
Ð·
Ñĳ
ĠÑĩÑĤÐ¾
ÐµÐ±
Ð°ÑĤÑĮ
ĠÑĤÑĭ
ÑĪÑĮ
ÐµÐ¼
ÑģÑı
ÑģÑĤ
Ð¸Ðº
Ð°Ð²
Ð¶
ÑģÐº
Ð²Ð¾Ð½
Ð¾Ð¶
ĠÐ½Ð°
Ð¸Ð¼
ĠÑį
ÑĭÐ¹
Ð¾Ñĩ
Ð½Ðµ
Ð°ÑĤ
Ð°ÑĢ
ĠÑĤÐµÐ±
ÑĨ
Ð»Ð¸
Ñī
Ð°Ð¹
Ð½Ñĥ
Ð»Ñı
ĠÐºÐ°Ðº
ĠÐ²Ñĭ
ĠÑħ
ÑĢÑĥ
Ð¾Ðº
ÐµÐ´
ĠÐµ
Ð¸ÑĤÑĮ
ÑĦ
ĠÑĢÐ°Ð
ĠÑĤÐ°Ðº
ÐµÑĪÑĮ
ĠÐ»
ĠÐ°
Ð¾Ð³Ð¾
ÐµÐ¹
Ð¸Ð½
Ð¾Ð²Ð¾ÑĢ
Ð¸Ð²
ÐµÐ³
Ð¾Ð»ÑĮ
Ð°Ð·
ĠÐ·Ð²Ð¾Ð½
Ð°Ñİ
ĠÑįÑĤÐ¾
Ð°Ð´
ĠÐ¾ÑĤ
Ð¾Ð·
Ð¾Ð¿
ÐºÐ°
ÑĥÐ´
ÐºÑĥ
Ð¸Ñı
Ð¸Ðµ
Ð½ÑĭÐ¹
Ð¸ÑĤÐµ
ĠÐ¿Ð¾Ð½
ĠÑĢ
ÐºÐ¾
ĠÑĤÐ¾
ÑĢÐ°
ÐµÑģ
Ð»ÑıÑĤÑĮ
ĠÐ³Ð¾Ð²Ð¾ÑĢ
ĠÐ¼Ð½Ðµ
Ð¸Ñģ
ĠÐ²Ñģ
Ð°Ð¶
ĠÑģÐº
ĠÐ¶
Ð¸Ð´
Ð¾Ð¼Ñĥ
ÐµÐ²
ÐµÐ½Ñı
ĠÐ±Ñĭ
ÑĥÑĢ
Ð°Ñı
Ð¿ÑĢ
ĠÐ±Ð»ÑıÑĤÑĮ
ÑĤÐ¾ÑĢ
ÐºÐ°Ðº
ĠÑĢÐ°Ð·
ĠÑĤÐµÐ±Ðµ
Ð¸Ð¹
Ð°ÐµÑĤ
ĠÐ·Ð½Ð°
ĠÐ¿Ð¾
Ð°Ð»ÑĮ
ĠÐ¼ÐµÐ½Ñı
ĠÑĤÐµÐ±Ñı
Ð½Ð¸Ðº
ÑĥÑĪ
ÑĤÑĭ
ĠÐ¾Ð½
ĠÐ¾Ð±
Ñį
ÐµÐ·
Ð¸Ñĩ
ĠÑģÐ»
Ð°Ð¿
ÐµÐº
ÑĥÑĤ
Ð¾Ð»ÑĮÐºÐ¾
ĠÐ±ÑĥÐ´
ÑĩÐ°Ñģ
ĠÐ²Ð¾ÑĤ
ÐµÐ³Ð¾
ĠÐ²Ð¾
ÑĤÐ¸
Ð²Ð¾
Ð¾ÑĪ
ÐµÐ¹ÑĩÐ°Ñģ
ÑĥÐ´Ð°
ĠÐ¿Ð¾Ð´
ÐµÐ»Ðµ
Ð¾Ð³Ð´Ð°
Ð²Ñĭ
Ð°Ð±
ĠÐ¿ÑĢÐ¸
ÐºÐ¸
ĠÐ²ÑģÑĳ
ÑĦÐ¾Ð½
ĠÑĤÐ°Ð¼
Ð°Ð²Ð°Ð¹
Ð½Ñĭ
Ð»Ð¾
Ð¸ÑĪÑĮ
ĠÑģÑĤ
ĠÐ¿ÐµÑĢ
ÐµÐ»ÐµÑĦÐ¾Ð½
ÑĥÐ¶
ĠÐµÑģ
ÐµÐ½ÑĮ
ÐµÐ¼Ñĥ
Ð¸Ð»Ð¸
Ð°Ð»Ð¸
ĠÐ½ÐµÑĤ
ÐµÑĩ
ĠÑģÐµÐ¹ÑĩÐ°Ñģ
Ð¾ÑģÑĤ
Ð»Ñİ
ĠÐ´Ð°
ÑĭÐ²
ĠÐ¼Ð¾Ð¶
Ð¾ÑģÑĤÐ¾
ÑħÐ¾Ð´
ÑĩÑĤÐ¾
ĠÐ·Ð°
Ð¾Ð¸
Ð¾Ð·Ð²Ð¾Ð½
ĠÐ¿Ð¾Ð½Ñı
ĠÑĦ
ÑīÐµ
ĠÐ¿Ð¾Ð½Ð¸Ð¼
ÑĢÐ°Ð²
Ð¶Ðµ
Ð½Ñı
ĠÐ·Ð½Ð°Ñİ
ĠÐ½Ð°Ð´
ÐºÐ¾Ð¼
ĠÑĤÐµÐ»ÐµÑĦÐ¾Ð½
Ð»Ð°
ÑĤÐµ
Ð´ÐµÐ»
ÑĪÐµ
ĠÐ¿Ð¾Ð»
ÑĥÑĩ
Ð¾ÑĢÐ¾ÑĪ
Ð¸ÑĢ
Ð´Ðµ
Ð¾ÑĢÐ¾Ð´
Ð¾Ðµ
Ð°Ð»Ð°
ĠÐ»Ñİ
ĠÑĥÐ¶Ðµ
ÑĥÐ¼
ĠÐºÑĤÐ¾
ĠÐ½Ð°Ð´Ð¾
ĠÐ²Ð°Ð¼
Ð°ÐµÑĪÑĮ
ĠÑħÐ¾Ñĩ
Ð½Ð¸
ĠÑģÐºÐ°Ð·
ĠÐºÑĥÐ´Ð°
ÑĥÐ¹
ÑıÑĤ
ĠÐ²Ð°Ñģ
Ð¾Ð¼ÐµÑĢ
ÐµÐ»ÑĮ
ÑįÑĤÐ¾
ÐµÐ¶
Ð¾ÑĩÐµÐ¼Ñĥ
ÑĢÑĥÐ³
ĠÐ½Ð¸Ðº
ÑīÑĳ
Ð°ÑĪ
ÑģÑĤÐ²
ĠÑįÑĤ
Ð¸Ð½Ð°
Ð¾Ð¿ÑĢ
ĠÐ´ÐµÐ»
Ð¾ÑĢÐ¼
ĠÑģÐ²
Ð¸Ð·
ĠÐ¼Ñĭ
ÐµÐ¿
Ð½ÐµÑĤ
ÑĥÐ¿
Ð½Ð¾Ð³Ð¾
ÑģÐºÐ¸Ð¹
Ð¼Ñĥ
Ð¾Ð±ÑīÐµ
ÐµÐ½Ð¸Ðµ
Ð²Ð¾ÑĤ
ÑĨÐ¸
Ð´Ð¸
ĠÐ¸Ð·
Ð¸Ñħ
Ð¾ÑĤÑĢ
ÐµÑģÑĤ
ĠÐ¿Ð¾Ñģ
ÐºÑĥÐ´Ð°
ĠÐºÐ¾Ð½
ĠÐ´Ð°Ð²Ð°Ð¹
Ð½Ð°Ñı
ĠÐ¿ÑĢÐ¾ÑģÑĤÐ¾
Ð¸Ð±
ĠÐµÑīÑĳ
ÐºÐ¾Ð²
ĠÑģÐ°Ð¼
ÑģÐ»
±Ð¾ÑĤ
ÑĥÑİ
Ð¸Ð»ÑĮ
ĠÐ¸Ð»Ð¸
ĠÑĤÐ°ÐºÐ¾Ð¹
ĠÐºÐ°ÐºÐ¾Ð¹
ĠÐ³Ð¾Ð²Ð¾ÑĢÑİ
ÐºÐ¾Ð¼Ð°ÑĤ
ĠÐ¿Ð¾Ð·Ð²Ð¾Ð½
Ð¾ÑĢÐ¾ÑĪÐ¾
ĠÑģÐ¿
ĠÐ¿Ð¾Ð½ÑıÐ»
ÑĤÑĢ
Ð¾Ð±Ñĭ
ĠÐ½Ð¾Ð¼ÐµÑĢ
Ð»ÑĮ
ĠÐºÐ¾
ĠÐ²Ð¾Ð¾Ð±ÑīÐµ
Ð½ÑĭÐµ
ÑģÑĮ
Ð°Ð³
Ð¼Ð¾ÑĤÑĢ
ĠÑĤÐ¾Ð»ÑĮÐºÐ¾
ÐºÑĢ
ĠÐ²Ð¾ÐµÐ½
ĠÐ¸Ð½
ĠÐ¿Ð¾ÑĤ
ÐºÑĤÐ¾
ÑĤÐµÑĢ
ĠÐ½Ñĥ
ĠÐ¼Ð¾Ð³
ÑĭÑĪ
ĠÐµÑģÑĤÑĮ
ÑĢÐ°Ð½
ÑĳÐ¼
ĠÑģÐºÐ°Ð¶
ĠÐºÑĢ
Ð¾Ð²Ð°
Ð¸Ð»Ð°
ÐµÐ½Ð¸Ñı
ÑĤÐ¾Ð±Ñĭ
ĠÐ±Ð¾Ð»ÑĮ
ĠÐ¶Ðµ
ĠÐ»Ð¸
ĠÐ½Ð°Ñģ
Ð½Ð¾Ð¹
ÐµÐ»Ð¾Ð²
Ð½Ð¾Ðµ
ĠÐºÐ¾Ð³Ð´Ð°
Ð¾Ð¶Ðµ
Ð´Ñĥ
Ð»Ð°Ñģ
ĠÑħÐ¾ÑĤ
ĠÐºÐ¾Ð¼
ĠÑĢÐ°Ð·Ð³
ĠÐ·Ð²Ð¾Ð½Ð¸ÑĤÐµ
ĠÑĢÐ°Ð±Ð¾ÑĤ
Ð¸ÑĤÑģÑı
ĠÐµÑģÐ»Ð¸
ĠÐ³Ð´Ðµ
Ð¸ÑĩÐµÐ³Ð¾
ĠÐ»ÑİÐ±
Ð¾Ð¿ÑĢÐ¾Ñģ
ÑĢÐ°Ð·
ĠÐ½Ð°Ð¿
ĠÐ´Ð¾Ð»
Ð¸Ð³
ĠÑĩÑĤÐ¾Ð±Ñĭ
ĠÐ±ÑĥÐ´ÐµÑĤ
ĠÐ·Ð°Ð¿
ĠÐ¿Ð¾Ð½Ð¸Ð¼Ð°Ñİ
ĠÐ³Ð¾ÑĢÐ¾Ð´
ÑĨÐ°
Ð¾Ð²Ð°ÑĢ
ÑĤÐ°Ðº
ĠÑĢÑĥ
ĠÑĤÐ¾Ð¶Ðµ
ÑĬ
ÐºÐ°ÐºÐ¾Ð¹
ÑģÐºÐ°Ñı
ÑĭÐµ
Ð´Ð°Ð²Ð°Ð¹
ÐµÐ¶ÑĥÑĢ
ĠÐ²Ð¾ÐµÐ½ÐºÐ¾Ð¼Ð°ÑĤ
ĠÑĤÐ²
ĠÑĩÐµÐ»Ð¾Ð²
ĠÐ½Ð¸ÑĩÐµÐ³Ð¾
ÐµÐ³Ð¾Ð´
ĠÐ·Ð²Ð¾Ð½Ð¸ÑĤÑĮ
ĠÑħÐ¾ÑĢÐ¾ÑĪÐ¾
ĠÐ¿Ð¾Ðº
ÐµÑĤÐµ
Ð°ÑĤÑĮÑģÑı
ĠÑĢÐ°Ñģ
ĠÐ½ÑĥÐ¶
ÐµÐ³Ð¾Ð´Ð½Ñı
ĠÐºÐ¾ÑĤÐ¾ÑĢ
ĠÐ´Ð¾
ĠÐ¾Ð¿
ĠÐ¿Ð¾ÑĩÐµÐ¼Ñĥ
ĠÑħÐ¾ÑĩÑĥ
ĠÐ´ÑĢÑĥÐ³
ÑĥÐ±
ĠÐ¿ÑĢÐ¾
ĠÐ¼Ð¾
Ð°ÐµÑĤÑģÑı
ĠÑĪ
ĠÐ¾ÑĤÐ´ÐµÐ»
ĠÐ¾Ð½Ð°
ÑģÑĤÑĢ
Ð¾ÑĩÐµÐ½ÑĮ
ÑĢÐ°Ð¼
Ð¸ÑĪ
Ð½Ð°Ñĩ
ÑĤÐ°
ÐµÑĤÑĮ
ĠÑģÐ»ÑĥÑĪ
Ð¾Ð²Ð°ÑĢÐ¸Ð²
ĠÐ²Ð¾Ð¿ÑĢÐ¾Ñģ
ĠÐ¼Ð¾Ð³Ñĥ
ÑģÑĤÐ°
Ð¾Ð¶Ð°Ð»
ĠÐ¿Ð¾Ð¼
ĠÐ¿ÐµÑĢÐµÐ´
ĠÐ±ÑĥÐ´Ñĥ
Ð°ÑİÑĤ
Ð¸Ð¸
ĠÐ¿Ð¾Ð¹
ĠÐ¿ÑĢÐµÐ´
ĠÐ¾Ð´
ÑħÑĥ
ÑĥÑģ
Ð¾Ð±ÑĢ
ĠÐ¿ÑĢÐ¸Ð´
ĠÐ´Ð»Ñı
ĠÐ¾
Ð´ÑĢ
ĠÑģÐºÐ°Ð·Ð°Ð»
ÑĳÑĤ
ÑĢÐµÐ¼
ÑĩÐµÐ¼
Ð³Ð¾
ĠÐ·Ð°Ðº
Ð¿Ð¾Ð´
ĠÐ²Ð¸Ð´
ÐµÑĨ
Ð°Ð»ÑĮÐ½Ð¸Ðº
ĠÑģÐµÐ³Ð¾Ð´Ð½Ñı
Ð°Ð·ÑĭÐ²
Ð¼Ñĭ
ÐµÑĤÑģÑı
ĠÑĢÐ°Ð·Ð³Ð¾Ð²Ð°ÑĢÐ¸Ð²
ĠÐ·Ð°Ð±
Ð°Ð¼Ð¸
ĠÑĨ
Ð¾Ð¶Ð°Ð»ÑĥÐ¹
Ð²Ñģ
ĠÐ´Ð¾Ð¼
ĠÑģÐ»ÑĭÑĪ
Ð¾Ð±Ð¾Ð¹
ÐµÑĪ
ĠÐ¾ÑĤÐ²
Ð½Ð¾Ñģ
Ð¾Ð¶Ð°Ð»ÑĥÐ¹ÑģÑĤÐ°
Ð¸ÑģÑĮ
Ð°Ð»ÑĮÐ½Ð¾
ĠÐ½Ð°Ñĩ
ĠÐ³Ð¾Ð»
ÐµÐ½ÑĤ
ĠÑĤÐ²Ð¾
ÑĮÑı
Ð½Ð¾Ð²
Ð¿Ð¾ÑĩÐµÐ¼Ñĥ
Ð±Ñĭ
ĠÐ½Ð¾
ĠÐ¼Ð¾Ð¶Ð½Ð¾
Ð¿ÐµÑĢ
ĠÐ°Ð»
ĠÐ·Ð´
ĠÐ¿Ð¾Ð¶Ð°Ð»ÑĥÐ¹ÑģÑĤÐ°
ĠÐ²ÑģÐµ
ĠÐ¿Ð¾Ð²
ĠÐ¸Ð¼
ĠÐ¼Ð¾Ð¶ÐµÑĤ
ĠÐ±ÑĭÐ»Ð¾
ÐµÑĢÑĮ
ĠÑģÐµÐ±
ĠÐ´ÐµÐ½ÑĮ
ĠÐ¿Ð¾ÑģÐ»
ĠÐ±ÑĭÑĤÑĮ
ĠÐ¾Ð½Ð¸
ĠÑĤÐ¾Ð±Ð¾Ð¹
Ð¼Ð¾Ð¶
ĠÐ¿ÑĢÐ°Ð²
Ð»Ð°Ð´
ÑĥÑħ
ĠÐ·Ð½Ð°ÐµÑĪÑĮ
ĠÐ¶Ð¸Ð²
ĠÐ¸Ð½ÑĤÐµÑĢ
Ð¾Ð³Ð¾Ð²Ð¾ÑĢ
Ð¿Ð¾Ðº
ĠÐ´ÐµÐ¶ÑĥÑĢ
ÑĨÐ¸Ñı
ĠÑĳ
ĠÑĤÑĢ
Ð³Ð¾ÑĢÐ¾Ð´
ĠÐ±ÑĢ
ĠÐ±Ð¾Ð»ÑĮÑĪÐµ
ĠÐµÐ³Ð¾
Ð¼Ð½Ðµ
ĠÐºÐ¾ÑĢ
ĠÑħÐ¾ÑĩÐµÑĪÑĮ
ĠÐ¼ÑĥÐ¶
ÐµÑģÑĮ
ÑįÑĤ
Ð¾Ð´Ð°
ÑĩÐ¸ÑĤ
ĠÐ¾ÑĩÐµÐ½ÑĮ
ÑĤÑĢÐ°
ĠÐ´Ð¾Ð»Ð¶
Ð±Ð°Ð½
Ð±ÑĢ
ÑĢÑĥÐ±
ÑģÑĤÐ°Ð²
Ð°Ð¶Ðµ
ĠÐ²Ð·
ÑģÐºÐ¾Ð»ÑĮÐºÐ¾
ĠÐ¿Ð¾Ð½Ð¸Ð¼Ð°ÐµÑĪÑĮ
ÑĥÐ´ÑĮ
Ð°ÑĨÐ¸
ĠÑģÐ´ÐµÐ»
ĠÐ²Ð°ÑĪ
ĠÑĩÐµÐ»Ð¾Ð²ÐµÐº
ÑĢÑĭ
ĠÑģÐ¾
ĠÐ·Ð°Ð²
ÑģÐ»ÑĥÑĪ
ĠÐ½Ð¾ÑĢÐ¼
ĠÐ²Ð¾Ð·
ÑĥÐ»ÑĮ
ĠÑħÐ¾ÑĤÐµÐ»
ÑĥÐº
ÐµÑĩÐ½Ð¾
ÑĢÐ¾Ð²
ĠÐ¿Ð¾Ð»ÑĥÑĩ
ĠÐ¼Ð°Ð¼
ÑıÑĤÑĮ
ĠÑĤÐ°ÐºÐ¾Ðµ
Ð°ÑĢÐ¸
ÑĦÐ¾ÑĢÐ¼
ÐµÑģÐ»Ð¸
Ð¿Ð¾ÑĤ
ÑİÐ´Ð°
ÑıÐ·
ĠÑģÐ²Ð¾
Ð°Ð½Ð¸Ðµ
Ð¾ÑģÑĮ
ÑıÐ´
ĠÐ´Ð°Ð¶Ðµ
Ð°ÐµÑĤÐµ
ĠÐ½Ð°Ð²
ÑĭÑħ
ÑĢÐ°ÑĪ
Ð¿Ð¾Ð»
Ð²Ð°ÑĢ
Ð³Ð¸
ÑĳÐ»
Ð¿Ð¾
ÑĳÑĪÑĮ
ĠÐ·Ð²Ð¾Ð½Ð¸Ð»
Ð¾ÑģÐ»
Ð°Ð½Ð¸Ñı
Ð»Ð¸Ð½
ÐºÐµ
ĠÐ¿Ð¾ÑĤÐ¾Ð¼
ĠÐºÐ¾Ð»
Ð°Ð»ÑģÑı
ĠÑģÐºÐ¾Ð»ÑĮÐºÐ¾
ĠÐ¿Ð¾Ð·
Ð·Ñĭ
ÐºÐ¾Ð½
Ð°Ñĩ
ĠÐºÐ¾Ð¼Ñĥ
ĠÑĤÐ¾Ð³Ð´Ð°
ÑģÐºÐ°Ð¶
Ð¸ÑĢÐ¾Ð²
Ð¿Ð¾Ð½
Ð¸ÑģÑĤ
Ð¾Ð½Ð°
ĠÐ½Ð¾Ð²
ĠÐ¾Ð±Ð»Ð°Ñģ
ĠÐ²ÑĤÐ¾ÑĢ
Ð¿Ð¾Ð·Ð²Ð¾Ð½
ÐµÑĢÐ°
Ð·Ð°
ĠÑģÑİÐ´Ð°
Ð³Ð°Ð½
ÑıÑģ
ĠÐ¿Ð¾ÑģÑĤ
ÐµÐ½Ð½Ð¾
ÑģÐ¿
ĠÐ¿Ð¾ÑĤÐ¾Ð¼Ñĥ
Ð¸ÑĤÑĮÑģÑı
ĠÐ½Ð¸Ð±
ĠÐ½Ð¸Ð±ÑĥÐ´ÑĮ
ĠÐ½Ð°ÑħÐ¾Ð´
ĠÑĦÐ°Ð¼
ĠÐ½Ð°Ð¿Ð¸Ñģ
ÑįÑĤÐ¾Ð¼Ñĥ
ĠÐ²ÑĢÐµÐ¼
Ð¸Ð¶
ĠÐ°Ð½
Ð¸Ð»ÑĮÐ½Ð¾
ĠÐ´ÐµÐ»Ð°ÑĤÑĮ
ĠÐ¿ÑĢÐ¸Ð²
ÐµÐ½Ð°
ĠÐ±ÑĭÐ»
ĠÐ¾ÑĤÐ´ÐµÐ»ÐµÐ½Ð¸Ñı
Ð»ÑİÑĩ
ÐºÐ¾Ð³Ð´Ð°
ĠÐ¾ÑĤÐºÑĥÐ´Ð°
ĠÐ´ÑĥÐ¼
ĠÑĥÐ·
ĠÑģÐ¼Ð¾ÑĤÑĢ
ĠÐ¼Ð¾Ð¹
ĠÑģÐ¾Ð±
Ð°ÐµÐ¼
Ð½Ð¸Ð¼
ÑıÐ½
Ð¿ÑĢÐ¾ÑģÑĤÐ¾
ĠÐ¼Ð¾Ð»
Ð»ÑİÐ±
ĠÑĤÐµÐ»ÐµÑĦÐ¾Ð½Ð°
ĠÐ·Ð²Ð¾Ð½Ð¸ÑĪÑĮ
Ð¼Ð¾
Ð²ÐµÑĢ
ĠÐ¸Ð³
ĠÐ½ÑĥÐ¶Ð½Ð¾
Ð»ÐµÐ¼
Ð¸Ð»ÑģÑı
ĠÐ²ÐµÑĢ
ÑĮÑİ
Ð¼Ð¸
ĠÐ´Ð°Ð²
ÑģÐºÐ¾Ð³Ð¾
Ð³Ð´Ðµ
Ð²Ð¸Ð´
Ð°ÑĤÐ°
ĠÐ¿Ð¾Ð¿
ĠÐ¿ÑĢÐ¸Ð±Ñĭ
Ð°Ð½Ð¾Ð²
ĠÑģÐºÐ°Ð·Ð°ÑĤÑĮ
ÑģÑĤÐ²Ð¾
Ð½ÑĭÑħ
Ð°ÑĤÐµÐ»ÑĮ
Ð°ÑĤÑĥ
ĠÐ±Ð°Ð½
ĠÑĢÑĥÑģ
Ð½Ð¾ÑģÑĤÑĮ
ĠÐ¾Ð±ÑĬ
Ð¾ÑģÐº
ĠÑĥÐ±
ÑĤÐ½Ð¾
Ð°ÑĤÐ¸Ð²
Ð¸Ð»Ð¸Ñı
Ð½Ð°ÑĩÐ°Ð»ÑĮÐ½Ð¸Ðº
ĠÐ²ÑĤÐ¾ÑĢÐ¾Ð³Ð¾
ĠÐ¿ÑĢÐ¾Ð±
Ð¾Ð¶Ð´Ð¸
Ð¾ÑĤÐ¾Ð²
ĠÑĤÑĥÐ´Ð°
ÐµÐ´Ñĥ
Ð°Ñħ
Ð²ÑģÑĳ
ĠÐ½Ð°Ð²ÐµÑĢ
ĠÑĩÐµÐ³Ð¾
ĠÑįÑĤÐ¾Ð³Ð¾
ĠÑĤÑĥÑĤ
ĠÐ¾Ðº
ĠÐ·Ð°Ð½
ĠÐ·Ð²Ð¾Ð½Ð¸ÑĤ
ĠÐ¼Ð¾Ð¶ÐµÑĪÑĮ
Ð¾Ð²Ð¾
ĠÐ±ÑĥÐ´ÐµÑĪÑĮ
ÐºÐ¾Ð²Ð½Ð¸Ðº
ĠÑĢÐ°Ð¹
Ð¿ÑĢÐ°Ð²
ĠÐ´ÐµÐ²
Ð°ÑİÑģÑĮ
Ð½Ð°Ðº
ĠÑĤÐ²Ð¾Ð¹
ĠÑħÑĥ
ÐµÐ·Ð¶
ĠÑĤÑĢÑĥÐ±
ĠÐ¶ÐµÐ½
ÑĥÐ»
Ð¾ÑĩÐµ
Ð¾Ð²ÐµÑĢ
ĠÐ½ÐµÐ¿
ĠÐ¿Ð¾Ð³Ð¾Ð²Ð¾ÑĢ
ĠÑĩÐµÑĢ
ĠÐ¿ÑĢÐ¸Ð½
ĠÐ·Ð²Ð¾Ð½Ñİ
Ð»Ð¾Ñħ
ÑĥÐ³
ĠÐ³Ð¾Ð²Ð¾ÑĢÐ¸ÑĤ
ĠÐ¿Ð°ÑĢ
ĠÐºÑĢÐ°Ñģ
ĠÐºÐ¾ÑĤÐ¾ÑĢÑĭÐ¹
Ð»ÐµÐº
ĠÐ½Ð¾ÑĢÐ¼Ð°Ð»ÑĮÐ½Ð¾
ĠÑģÐ²Ð¾Ð¸
ĠÑĩÑĳÐ¼
ĠÐ½Ð°Ð·
ÐµÑħ
ÐºÐ»ÑİÑĩ
ĠÐ³Ð»
ĠÐ½Ð¸ÐºÐ°Ðº
ÐµÐ¾
Ð°Ð»Ð»Ð¾
Ð¸ÐºÐ¸
ÐµÐ½Ð½ÑĭÐ¹
ÑĥÐ½
Ð¿Ð°
ÑģÐµÐ¹ÑĩÐ°Ñģ
ĠÐ³Ð¾Ð²Ð¾ÑĢÐ¸ÑĤÑĮ
Ð°Ð¹ÑĤÐµ
ÑĢÐ°Ñģ
Ð½ÑĥÑİ
ÑĤÐµÐ»ÐµÑĦÐ¾Ð½
ÑĤÐ¾Ð»ÑĮÐºÐ¾
ÐµÑĢÐ°ÑĤÐ¸Ð²
ÑĤÐµÐ±
ÑĢÐ¾Ð´
ÐµÐ»Ð¸
ĠÐºÐ¾Ð½ÐµÑĩÐ½Ð¾
ĠÐ¶Ð¸Ð·
ĠÐ²ÑĢÐµÐ¼Ñı
ÐµÑī
ÐµÐ²Ð°
ÑģÐºÐ¾Ð¹
Ð°Ð½Ð°
Ð¼Ð°
ĠÐºÐ°ÐºÐ°Ñı
ĠÑģÐºÐ°Ð¶Ð¸
ĠÐ½Ð°Ð¹
ĠÐ³Ð¾Ð²Ð¾ÑĢÐ¸ÑĪÑĮ
Ð¿Ð¾ÑĤÐ¾Ð¼Ñĥ
ĠÐ¸Ð½ÑĤÐµÑĢÐµÑģ
ĠÐ½Ð°ÑĪ
ĠÑģÐµÑĢ
Ð¾Ð»Ð¾ÑĤ
ĠÑįÑĤÐ¾Ð¼
Ð²Ð°ÑĢÑĤÐ¸
ÑģÐºÐ°Ð·
ĠÐ¾ÑĢ
Ð¸ÑģÑģ
ÑİÑĤ
ÑĢÐ°Ð´
ĠÐµÐ¼Ñĥ
ÑĥÑĢÐ¾Ðº
ÑĤÑı
Ð¸ÑĤÐµÐ»ÑĮ
ÑĢÐ°ÑĪÐ¸Ð²
ĠÐ±Ð»Ð¸Ð½
ĠÐ´ÐµÐ½ÑĮÐ³Ð¸
ĠÐ¾ÑĤÐ²ÐµÑĤ
ÑģÐ¸
ÑħÐ¾ÑĢÐ¾ÑĪÐ¾
ĠÐ°Ð´ÑĢ
ĠÐ°Ð´ÑĢÐµÑģ
ÐµÐµ
ÐºÐ¾Ð¼Ñĥ
ÑħÐ¾Ð´Ð¸ÑĤ
Ð°Ð»ÑĮÑĪÐµ
ĠÑģÐ¸Ð´
ÑĢÐ°Ð²ÑģÑĤÐ²
ĠÐ¸Ð´
Ð½Ñİ
ÐµÐºÑģ
ÑĨÑĭ
ĠÐ¿Ð¾Ð·Ð²Ð¾Ð½Ñİ
ĠÐ·Ð°ÑĩÐµÐ¼
ĠÑģÐµÐ±Ñı
ÑĤÐ¾Ñĩ
ÑĥÑĢÐ°Ðº
ÑĢÐ°Ð²ÑģÑĤÐ²ÑĥÐ¹
ÑĢÑĥÐ¿
Ð¿Ñĥ
ĠÐºÐ°ÐºÐ¾Ð³Ð¾
Ð½Ð¾Ð¼ÐµÑĢ
ĠÐºÐ°ÑĢ
ĠÐ´ÐµÑĤ
ĠÑĳÐ±Ð°Ð½
Ð¸ÑĩÐµ
ĠÐ¸Ð½ÑĦÐ¾ÑĢÐ¼
ĠÑģÐ¿ÑĢÐ°ÑĪÐ¸Ð²
ĠÐ¼Ð½Ð¾Ð³Ð¾
Ð»Ð°ÑĤ
ÑĤÑĥ
ĠÑĤÐ²Ð¾Ñİ
ĠÐ´ÑĢÑĥ
ĠÐ·Ð°Ð¿Ð¸Ñģ
ĠÐºÑĥÑĢ
Ð¾ÑĢÐ¾Ð²
ĠÐ¾Ð´Ð¸Ð½
ĠÑĢÐ°Ð·Ð³Ð¾Ð²Ð°ÑĢÐ¸Ð²Ð°ÑĤÑĮ
ĠÐºÐ¾Ð¼Ð¸ÑģÑģ
ĠÐ³Ð¾Ð²Ð¾ÑĢÐ¸
ĠÐ»ÑİÐ´Ð¸
Ð³Ð¾Ð²Ð¾ÑĢ
Ð¸ÑĢÐ°
Ð±Ð°
Ð¸ÐºÐ°
ĠÑĤÑĢÑĥÐ±ÐºÑĥ
ÐµÐºÐ°
ĠÑĩÐ°Ñģ
Ð½Ð¾Ð¼Ñĥ
Ð»ÐµÐ½
ĠÐ¿Ð¾Ð´Ð¾Ð¶Ð´Ð¸
ĠÐ´ÐµÐ¶ÑĥÑĢÐ½ÑĭÐ¹
Ð¸Ð¼ÐµÑĢ
ĠÐ¿ÑĢÐµÐ´ÑģÑĤÐ°Ð²
Ð²Ð°
Ð½Ð¾Ð¼
ĠÑįÑĤÐ¾ÑĤ
Ð¸Ð½Ñĥ
ÑĭÑĤ
ĠÑĤÐ°ÐºÐ¸Ðµ
ĠÐ¿Ð¾ÑįÑĤÐ¾Ð¼Ñĥ
ĠÐ½ÐµÑĤÑĥ
ĠÑĤÐµÐ»
ÑĤÑĥÑĢ
ÑĨÐµ
ĠÐ³Ð¾Ð²Ð¾ÑĢÐ¸ÑĤÐµ
ĠÑģÐ¼
Ð²Ð°Ð»
ĠÑĥÐ·Ð½Ð°
ĠÐ²ÑĭÐ·
Ð¾Ð³ÑĢÐ°Ð¼
Ð°ÑģÑĮ
ĠÑģÐ»ÑĥÑĩ
ĠÑĤÐ°ÐºÐ°Ñı
ÑĢÐ°Ð·Ñĥ
Ð²Ð°ÑĤ
ĠÐ¿ÑĢÐ¸Ð±ÑĭÑĤÑĮ
ĠÐ½Ð¾Ñĩ
Ð¾ÑĤÐºÑĥÐ´Ð°
Ð²ÐµÑĤ
ĠÐ¿Ð¾Ð¹Ð¼Ñĥ
ÑĳÐ±
ĠÐ±Ð¾Ð»
ĠÐºÐ¾Ð¼Ð¸ÑģÑģÐ°ÑĢÐ¸
ÑĳÐ½
ÑĤÐµÐ±Ðµ
ĠÐ·Ð°Ð²ÑĤÑĢÐ°
ĠÐ¿Ð»Ð¾Ñħ
ĠÑģÑĤÐ¾ÑĢ
ĠÑĩÑĥ
ĠÐ±Ð°Ð±
ĠÐ»ÑİÐ´
Ð¾ÑģÑĤÐ¸
ĠÐ·Ð´ÐµÑģÑĮ
ÑħÐ¾Ð´Ð¸
Ð²Ð¸Ð½
ĠÐ½Ð°Ð²ÐµÑĢÐ½Ð¾Ðµ
ĠÐ¿Ð¾ÑģÐ¼Ð¾ÑĤÑĢ
ĠÑĢÐ°Ð´
ĠÑģÐ¾Ð²
ĠÐ¿ÑĢÐ¾Ð±Ð»ÐµÐ¼
ĠÑĥÐ³
ÐµÐ´ÐµÐ»
ĠÑħÐ¾ÑĤÐ¸ÑĤÐµ
ĠÐ¿Ð¾ÑĢ
ĠÐ³Ð¾Ð»Ð¾Ñģ
Ð¾ÑĤÐ¾
Ð¾Ð¸ÑĤ
ÐµÑĢÐ¶
Ð¾Ð³Ð¾Ð´Ð°
ÑĢÐ°ÑĤÑĮ
ĠÑĥÐ¼
ÑģÐ»ÑĥÑĪÐ°ÑĤÑĮ
Ð¸Ð¼ÑģÑı
ĠÐ´Ð°Ð»
ÑģÐ¼Ð¾ÑĤÑĢ
Ð½Ð°ÑĩÐ°Ð»ÑĮÐ½Ð¸ÐºÑĥ
ÑıÐ»
ĠÐ½Ð°Ð¼
ĠÐ¿ÐµÑĤ
Ð¾Ð¶Ñĥ
ÑĭÐ»
ĠÑģÐµÐ±Ðµ
ĠÐ½Ð°Ð·ÑĭÐ²
ĠÐ·Ð²Ð¾Ð½Ð¸
ÑĨÐ¸Ð¸
ĠÑģÐºÐ°Ð¶Ð¸ÑĤÐµ
ĠÑĢÐµÐ±
ĠÐ·Ð°Ñģ
Ð¸ÐµÑħ
ĠÐ´Ð°Ð½
ĠÑĥÐ´
Ð±Ð¾ÑĢ
ĠÑģÐ»ÑĥÑĪÐ°ÑĤÑĮ
ĠÐ¾ÑģÑĤ
ĠÐ¼Ð¾ÑĢ
ÑıÐ²
ĠÐ¿Ð¾ÑģÐ»ÑĥÑĪ
ĠÐ±ÐµÐ·
Ð°ÑĨÐ¸Ð¸
ĠÑĥÐ»Ð¸
ĠÐ·Ð¾Ð²
ÑĢÐ°Ð²Ð¸ÑĤÑģÑı
ĠÐºÐ¾Ð³Ð¾
ÑĥÑĪÐºÐ°
ĠÑģÑĢÐ°Ð·Ñĥ
Ð·Ð²Ð¾Ð½
ÑĢÐ°Ð²ÑģÑĤÐ²ÑĥÐ¹ÑĤÐµ
ĠÐ·Ð°Ð½Ð¸Ð¼
Ð°Ð½Ð¾
ĠÐ¾Ð±Ñī
ĠÑĤÐµÐ¿
ĠÑģÐ²ÑıÐ·
ÐµÐ½Ð¸
ĠÑģÐ»Ð¾Ð²Ð°
ÑĢÐ¾
ĠÐ¼Ð¾Ñı
ĠÐ²ÑģÑĤÑĢ
ÑĢÐ¾Ð¼
Ð²ÑĭÐ¹
ĠÐ½Ð°Ð±
ĠÐ´Ð¾Ð±ÑĢ
ĠÐ±ÐµÑĢ
ĠÐ´Ð°Ð»ÑĮÑĪÐµ
ĠÑħÐ¾ÑĢÐ¾ÑĪ
Ð¾Ð´Ñĥ
ÐµÐ·Ð²Ð¾Ð½
Ð°Ð½ÑĤ
Ð½Ð¾Ð³
ĠÐ½Ð¸
ĠÐºÐ°Ð¶
Ð¾Ð»Ð¾ÑĤÐ½ÑĭÐ¹
ĠÐºÐ°ÐºÐ¸Ðµ
ĠÐ¿ÑĢÐ¸ÐµÑħ
ĠÐºÐ²Ð°ÑĢÑĤÐ¸
ÐµÑĩÐµÑĢ
ĠÐºÑĥÐ¿
Ð»ÐµÐ½Ð¸Ðµ
ĠÐ¿Ð¸Ñģ
ĠÐ¿ÑĢÐ¾Ð´
ĠÑİ
ĠÐ¼Ð¾ÑģÐº
ĠÐ´Ð¾Ð¼Ð°
ĠÐ·Ð¾Ð²ÑĥÑĤ
ĠÐ¶ÐµÐ½Ñī
ĠÐ¿Ð¾Ð·Ð²Ð¾Ð½Ð¸ÑĤÑĮ
ĠÐ·Ð°ÐºÐ¾Ð½
Ð»Ð°Ñĩ
ĠÐ¾Ð±ÑĬÑıÑģ
Ð¾ÑĩÐ½Ð¾
ĠÐ·Ð°Ð´
ÑģÐºÐ°
Ð´ÐµÐ¶ÑĥÑĢ
Ð¾Ñħ
ĠÐ¾Ñģ
ĠÐ´Ð°Ð²Ð½Ð¾
ĠÑĤÐµÐ»ÐµÑĦÐ¾Ð½Ñĥ
ÑĢÐ°ÑĦ
Ð·Ð´
ÑĢÐ°Ð±Ð¾ÑĤ
ĠÑĳÐ±Ð°Ð½Ð½ÑĭÐ¹
ĠÐ¸Ð¼Ðµ
ĠÐ¼Ñĥ
ĠÑģÐ´ÐµÐ»Ð°ÑĤÑĮ
ÑĨÑĥ
ĠÐ²Ð¾Ð»
Ð¼ÐµÐ½Ñı
Ð¾Ð²Ð¾Ð¹
Ð¾ÑģÑģ
ĠÑĤÐ¾Ð³Ð¾
ĠÑĢÐ°Ð·Ð³Ð¾Ð²Ð¾ÑĢ
ÐµÑģÑĤÐµ
ĠÐ¿ÑĢÐ¾Ðº
Ð¸Ð²Ð°ÑĤÑĮ
ĠÐ¿Ð¾Ð´ÑĬ
ĠÐ·Ð½Ð°ÐµÑĤÐµ
ÑİÑģÑĮ
ĠÑĦÐ°Ð¼Ð¸Ð»Ð¸Ñı
ĠÑĢÐ°Ð¹Ð¾Ð½
Ð¾Ð±Ñī
Ð¸Ð±Ð¾
ĠÐ²Ð¾ÐµÐ½ÐºÐ¾Ð¼Ð°ÑĤÐ°
ĠÐ°Ð»Ð»Ð¾
ĠÐ´ÑĥÑĢÐ°Ðº
ÑıÐ¼
ĠÐºÐ¾ÑĢÐ¾ÑĩÐµ
ĠÐ´ÐµÐ»Ð°
ĠÑģÐºÐ°Ð¶Ñĥ
ĠÐ½Ð°ÑĩÐ°Ð»ÑĮÐ½Ð¸Ðº
ĠÐ´Ð¾ÑĢ
ĠÐ½ÐµÐ³Ð¾
ÑĢÐ°Ð¶
ĠÐºÐ¾ÑĤÐ¾ÑĢÑĭÐµ
ĠÑĢÐ¾ÑĤ
ĠÑģÑĤÑĢÐ°Ð½
ÑıÑĤÐ½Ð¾
ĠÐ¿Ð¾Ð»ÐºÐ¾Ð²Ð½Ð¸Ðº
Ð¼Ð°Ð½
ÑħÐ¾Ñĩ
ĠÐ·Ð½Ð°ÑĩÐ¸ÑĤ
ĠÑĤÐ²Ð¾Ð¸
ĠÑĤÐ¾Ð¼
Ð°Ð»ÑĮÐ½ÑĭÐ¹
ĠÐ¿Ð¾Ð²ÑĤÐ¾ÑĢ
ĠÐ¼Ð°ÑĪ
ĠÑģÐ»ÑĥÑĪÐ°Ñİ
ĠÑĤÐ°Ð½
ĠÐ¾Ð¿ÐµÑĢÐ°ÑĤÐ¸Ð²
ĠÐ¾ÑĤÐ²ÐµÑĩ
ĠÐ²Ð¸Ð´ÐµÐ¾
ĠÐ²Ð»Ð°Ð´
ÑĥÐ»ÑĮÑĤ
ĠÑĤÐµÐ¿ÐµÑĢÑĮ
ĠÐ²ÑĭÐ¿
ÑĤÐ¸Ð½
ĠÐ´Ð¾ÑģÑĤ
ĠÐºÐ°
Ð½ÑĥÐ»
ĠÐ³Ð¾ÑĢÐ¾Ð´Ð°
Ð»Ð°Ð³
ÐºÐ¾ÑĢ
ĠÑĢÐ¾Ð´
ĠÐ¼Ð°ÑĤ
ĠÐ¼Ð°Ð»
ĠÐ»ÑİÐ±Ð»Ñİ
ĠÐ¿Ð¾Ð½ÑıÑĤÐ½Ð¾
Ð¾Ð²Ð°ÑĤÑĮ
ĠÐ»ÑĥÑĩ
ĠÐ½Ð¸ÐºÑĤÐ¾
ĠÐ´ÑĥÐ¼Ð°Ñİ
Ð´Ð¾Ð±ÑĢ
ĠÐ½ÑĢÐ°Ð²Ð¸ÑĤÑģÑı
ĠÑģÑĢ
ĠÐ¿Ð¾ÐºÐ°
Ð³Ð°
Ð¸Ð»Ð¾ÑģÑĮ
ĠÐ½Ð°ÑħÐ¾Ð´Ð¸ÑĤÑģÑı
Ð¼Ð¾Ð¶Ð½Ð¾
Ð½Ð°ÐºÐ¾Ð¼
ÑĭÐ³
ĠÐ·Ð°Ð±Ð¾Ð»Ð¾ÑĤÐ½ÑĭÐ¹
Ð»ÐµÐºÑĤÑĢ
ÐµÑĤÐ°
Ð¸ÑĪÑĮÑģÑı
ÐºÐ°ÑĢ
ĠÐ°Ðº
ĠÐ´ÑĢÑĥÐ·
ĠÑģÐ²Ð¾Ñİ
ĠÐ¾Ð±Ð»Ð°ÑģÑĤÐ¸
ĠÐ³Ð¾ÑĢ
Ð°ÐµÑĪÑĮÑģÑı
ĠÑĦÐ°Ð¼Ð¸Ð»Ð¸
ĠÐ¿Ð¾ÑģÑĤÐ°Ð²
ĠÐºÐµÐ¼
ÑĭÐ²Ð°ÑĤÑĮ
Ð°ÑĨÐ¸Ñİ
ĠÐ»Ð°Ð´
Ð¸Ð¶Ñĥ
ĠÐ¿ÑĢÐ¸ÐµÐ´
ÐµÐ»ÑĮÐ½Ð¸Ðº
ĠÐ¼Ð¾Ð»Ð¾Ð´
ĠÑĢÐµÑĪ
Ð¾Ð½Ð¸
ĠÐ½Ð°Ðº
Ð´Ð°ÑĤÑĮ
Ð½ÑĥÑĤÑĮ
ĠÐ¿ÑĢÐ¾Ñģ
ĠÐ¾ÑĢÐ³Ð°Ð½
ĠÑĩÐµÐ»Ð¾Ð²ÐµÐºÐ°
ÑĭÐ¼
ÐµÑģÑĤÐ¸
ĠÐ¿ÑĢÐ°Ð²Ð¸Ð»ÑĮÐ½Ð¾
ĠÐ²ÐµÑĩÐµÑĢ
ĠÐ¾Ð±Ð»Ð°ÑģÑĤÑĮ
Ð¿Ð¾Ð·Ð²Ð¾Ð½Ð¸ÑĤÑĮ
Ð¸Ð»ÑĮÐ¼
ĠÐ¿ÑĢÐ¸Ð²ÐµÑĤ
Ð´ÐµÐ²
ĠÐ´Ð¾Ð»Ð¶ÐµÐ½
ĠÐ¿ÑĢÐ¸Ð´ÑĥÑĢÐ¾Ðº
Ð¾Ð¶Ð´
ĠÐ¸Ð½ÑĤÐµÑĢÐ½ÐµÑĤ
Ð·Ð°ÑĩÐµÐ¼
ĠÐ»Ð°Ð´Ð½Ð¾
ĠÐ¶Ð¸Ð·Ð½Ð¸
ĠÐ´Ð²
ĠÐ±ÑĥÐ´ÐµÐ¼
ĠÐ½Ð°Ð¿ÑĢ
ĠÐ·Ð°Ð¼
Ð¿ÐµÑģ
ĠÐ²Ð°Ð¼Ð¸
Ð¿ÑĢÐ¾Ñģ
ÑģÐºÐ¸Ðµ
ĠÑģÑĤÐ°ÑĢ
ĠÑĢÐ¾ÑģÑģ
ĠÐºÐ°ÐºÐ¾Ð¼Ñĥ
ÐºÐ¾Ð¹
ĠÐ±ÑĭÐ»Ð°
ĠÐ½ÑĥÐ¶ÐµÐ½
ĠÐ½Ð¸Ð¼
ÐºÐ¾Ð»
ĠÐ¿Ð»
ĠÐ°ÑĢ
Ð¼ÐµÐ½
ÑģÐ»ÑĥÑĪÐ°Ð¹
ĠÐ³Ð¾Ð»Ð¾Ð²
ÑĩÐ¸Ð½Ð°
ĠÐ²Ð½Ñĥ
ÐµÑĢÐ¸
Ð´ÐµÐ¶ÑĥÑĢÐ½ÑĭÐ¹
ĠÐ±Ð¾Ð³
ÐºÑĥÑĢ
ÐµÑīÑĳ
Ð¸Ð½ÑĤÐµÑĢ
Ð¿Ð¾Ð¼
ĠÑĢÐ°Ð·Ð±
ÑĤÐ²
ÐµÐ´ÑĮ
Ð°ÑĨÐ¸Ñı
ĠÐ½ÐµÐ¼
ÐºÑĢÐ°Ñģ
ĠÐ¾ÑĤÐºÑĢ
ĠÐ²Ð¾Ð´
ĠÐ¼Ð½Ð¾Ð¹
ĠÐ¿ÐµÑĢÐµÐ·Ð²Ð¾Ð½
ÑĤÑıÐ±ÑĢ
ÑĤÑıÐ±ÑĢÑĮ
ÑĢÐ°Ñĩ
ÐµÐ´ÐµÐ»ÑĮÐ½Ð¸Ðº
ÐºÐ°ÐºÐ¾Ð³Ð¾
ÑĥÐ»Ð¸
Ð¿Ð¾Ð³Ð¾Ð´Ð°
Ð¾Ð²ÑĮ
ÐµÐ³Ð´Ð°
Ð·Ð°Ð²
Ð»Ðµ
ĠÐºÐ°ÐºÐ¾Ð¼
ĠÑģÐµÑĢÑĮ
ĠÑģÐ¾Ð»
Ð¿Ð¾ÑģÐ»
ĠÐ´Ð¾Ð¼Ð¾Ð¹
ÑĤÐ°Ð¼
Ð²Ð°ÑĤÑĮ
Ð¸Ð½Ð¾
ÑĤÐ¾ÑĢÐ°
ĠÑĥÑģÑĤ
ĠÑģÐ»ÑĭÑĪÑĥ
ĠÑĩÐµÑĢÐµÐ·
ÐºÑĥÐ¿
ÐºÐ¸Ð¹
ĠÐ¿ÑĢÐ¾ÑĪ
ÐµÑĢÐµÐ²
ĠÑģÐºÐ°Ð·Ð°Ð»Ð°
ÑħÑĥÑı
Ð»Ð¾Ð²
ĠÐ¿Ð¾ÑģÐ»Ðµ
ĠÐ·Ð²Ð¾Ð½Ð¸Ð»Ð¸
ÑģÐ°Ð¼
Ð½Ð¸ÑĨÐ°
ÐºÐ°ÐºÐ°Ñı
Ð½Ð°Ð»
Ð²Ð¾ÐµÐ½
ĠÑĩÑĥÑĤÑĮ
ĠÐ½Ð¸ÐºÐ¾Ð³Ð´Ð°
Ð¾ÑĤÐºÑĢ
Ð½Ð¾ÑģÑĤÐ¸
ĠÐ¿Ð¾Ð½Ð¸Ð¼Ð°ÐµÑĤÐµ
ĠÐ±Ð°Ð½ÐºÐ¾Ð¼Ð°ÑĤ
Ð¼ÐµÑĢ
ĠÐ´ÑĢÑĥÐ·ÑĮÑı
Ð¾ÑĤÑĮ
Ð±Ð»ÑıÑĤÑĮ
ÑħÑĥÐ¹
Ð¾ÑĩÐºÐ°
ĠÐ½Ð°ÑĢ
ĠÐ¿ÑĢÐ¾Ð¸
ÑģÐºÐ°Ð¶Ð¸
ĠÐ½Ð¸Ñħ
Ð½Ð¸ÐºÐ¸
ĠÑĤÑĥÐ¿
Ð°Ð½Ð´ÑĢ
ĠÑĥÑĩ
ÑģÐµÐ¼
ÑĢÑĥÑĤ
ĠÐ¾ÑĤÐ¿ÑĢÐ°Ð²
ÐµÐ»Ð°
ĠÐ¼Ð¾Ð¸
ĠÐ¸Ð²
ĠÐ¿ÐµÑģ
ĠÑĥÐ²Ð¸Ð´
ĠÐ½Ð¸ÐºÑĥÐ´Ð°
ÑĩÐµÑĢÐ°
Ð»ÐµÑĤ
ĠÑĢÐ°Ð±Ð¾ÑĤÐ°ÐµÑĤ
ĠÐ¿Ð¾Ð½ÑıÑĤÑĮ
ĠÐºÐ¾Ð¼Ð¿
ĠÐ²ÑģÐµÐ³Ð¾
ĠÐ±ÐµÑģ
ĠÑģÑĥÐº
ĠÐ½Ð¸ÐºÐ¾Ð¼Ñĥ
ĠÐ»ÑİÐ´ÐµÐ¹
Ð°ÑĤÐµÐ»ÑĮÐ½Ð¾
ĠÐ¾Ð»
ĠÐ³ÑĢÑĥÐ¿
ĠÑģÐ¾Ñģ
Ð¾ÑģÑĤÑĮ
ĠÐ¾Ð¿ÑıÑĤÑĮ
ĠÐ°Ð²
Ð¼ÐµÑĤ
ĠÐºÐ°Ð¼
ĠÐ²Ð¾Ð·ÑĮ
ĠÐ¸Ð½ÑĤÐµÑĢÐµÑģÐ½Ð¾
ÐµÐ¹ÑģÑĤÐ²
Ð¸Ð¼Ð¸
ÑģÐ¼Ð¾ÑĤÑĢÐµÑĤÑĮ
Ð¾ÑĦ
Ð¾Ñī
ÐµÐ±Ð¸Ð»
ĠÑĥÐ·Ð½Ð°ÑĤÑĮ
Ð´ÑĢÑĥÐ³
ĠÐ¿Ð¾Ð³Ð¾Ð²Ð¾ÑĢÐ¸ÑĤÑĮ
Ð½Ð°Ð´
ĠÐ´Ð°Ð²Ð°Ð¹ÑĤÐµ
ĠÐ¼Ð¸Ð»Ð¸
ÑĢÐ°Ñī
ĠÐ¼Ð¾Ð¼
ĠÐ´ÐµÐ½
ĠÑĤÐ°ÐºÐ¾Ð³Ð¾
ĠÐ¿Ð¾Ð²Ð¾Ð´Ñĥ
Ð²Ð¾Ð´
ĠÐ²ÑĭÑħÐ¾Ð´
ÐµÐ²Ð¾Ð´
ĠÐ³ÑĢ
ĠÐ¿ÑĢÐ¸ÐµÐ·Ð¶
ÑĭÑĩ
ÑģÐºÐ°Ð¶Ð¸ÑĤÐµ
ÑĢÑĥÐ´
Ð°ÑĤÑĭ
Ð½Ð°Ð¿
Ð°Ð»Ð¸ÑģÑĮ
ĠÑįÑĤÐ¾Ð¹
ĠÐ·Ð²Ð¾Ð½Ð¾Ðº
Ð°Ð±Ð¸Ð½
Ð¾Ð¶Ð¸ÑĤÑĮ
ÑģÐºÐ¸
ÑĩÐ¸Ðº
Ð°ÑĤÑĢ
Ð¿ÑĢÐ¸Ð²
ĠÐ²ÑģÑĤÑĢÐµÑĤ
ĠÐ¿ÑĢÐ¸Ðº
ĠÑįÑĤÐ¸
ĠÐ´ÐµÐ»Ð¾
Ð½Ð¸Ð¹
Ð¸Ð»Ð¸ÑģÑĮ
ĠÑĥÑģ
ÑĥÑĪÐºÐ¸
ÑĢÐ°Ð¹
Ð³Ð¾ÑĢ
ĠÐ½ÐµÐ´
Ð¿Ðµ
ĠÐ¶ÐµÐ»
Ð¾ÑĤÐ°
ĠÐ²Ð°Ð»
ĠÐ¿Ð¸ÑĪ
Ð¾Ð¿ÑĢÐµÐ´ÐµÐ»
ĠÐ±Ð¾Ð»ÑĮÑĪ
ĠÐ¸Ñħ
ÐµÐ´Ð¸Ð½
Ð¾Ð³ÑĢÐ°Ð¼Ð¼Ð°
ĠÐ·Ð²Ð¾Ð½Ð¸Ð»Ð°
ĠÐ¿ÑĢÐ¾Ð¿
Ð¿ÑĢÐ¸
ĠÑĢÐµ
Ð½Ð¾ÑĪ
Ð»Ð¾Ðº
ÑģÑĤÐ²ÐµÐ½
ĠÑĤÐµÐ¼
ĠÐ¼ÑĥÐ·Ñĭ
ĠÐ¿ÐµÑĢÐµÐ´Ð°Ð»
Ð¾ÑĤÐ¸Ð²
ĠÐ¿Ð¾Ð½ÐµÐ´ÐµÐ»ÑĮÐ½Ð¸Ðº
ÐºÐ¸Ð½
ĠÐ°ÑħÑĥ
ĠÐ¿ÑĢÐ¸Ð´Ñĥ
ĠÐµÑīÐµ
ÑĤÐ¾Ð¼
ÑĥÐ»Ñı
Ð¿Ð¾Ð½Ð¸Ð¼
ĠÐ¿Ð¾Ñħ
ĠÐºÐ¾Ð·
ĠÐ²ÑģÐµÐ³Ð´Ð°
Ð¿Ð°ÑĢ
ĠÐ¸Ð·Ð²Ð¸Ð½
Ð½Ð°Ñģ
Ð°Ð»Ð¾
ĠÐ²ÑĭÐ¹
Ð¿Ð¾Ð·Ð²Ð¾Ð½Ð¸
Ð¸ÑģÐ»
ĠÐ¸ÑģÐ¿
ĠÐ¿ÐµÑĢÐ²ÑĭÐ¹
ĠÐ¼Ð¾Ð¼ÐµÐ½ÑĤ
ÑĭÐ²Ð°ÐµÑĤ
ĠÐ´Ð¾Ðº
ĠÐ¿Ð»Ð¾ÑħÐ¾
ÐµÐ½ÐºÐ¾
Ð½ÐµÐ¹
ĠÐ»ÑĥÑĩÑĪÐµ
Ð¸Ð½Ñĭ
ĠÐ¸Ð½ÑĦÐ¾ÑĢÐ¼Ð°ÑĨÐ¸Ñİ
Ð¼Ð¾Ð¶ÐµÑĤ
ĠÐ»ÐµÑĤ
ĠÐ¼Ð°Ð¼Ð°
ĠÐ¾Ð³
ĠÑĥÑģÐ»
Ð³ÐµÐ½
ĠÑģÐ¿ÑĢÐ°ÑĪÐ¸Ð²Ð°Ñİ
Ð¸ÑĨ
ÑĥÐ·
ĠÑģÐ²Ð¾Ð¹
ĠÐ¿ÑĢÐ¸ÑĪ
ĠÑĩÐµÐ¼
Ð¸Ñİ
ÑĪÐ¸Ð¹
Ð½ÑĮ
Ð¶ÐµÐ½
ĠÑħÑĥÐ»Ð¸
ÑĢÑĥÑģ
ĠÐºÐ°Ð·
ĠÐ¾ÑĢÐ³Ð°Ð½Ð¸Ð·
ÑĳÑĢ
ÑĥÑģÑĤ
Ð°Ð½Ñĭ
Ð´ÑĭÐ¹
ÑĢÐ¾Ð¿
Ð°ÑģÐ¸Ð±Ð¾
ÐµÑĤÑĭ
ĠÐ¼ÑĥÐ¶Ð¸Ðº
ĠÐ¿Ð¾Ð³Ð¾Ð²Ð¾ÑĢÐ¸Ð¼
ÐµÑģÑĤÑĮ
ÑģÑĥ
ÑģÑĤÐ²Ð°
ĠÐ¼Ð°Ð³
ĠÑģÑĤÐ¾ÑĢÐ¾Ð¶
ĠÐ¼Ð¾Ð³ÑĥÑĤ
ĠÑĢÑĭ
ÐµÑĢÐ³
ÐºÑĢÐµÑĤ
ĠÑģÐ»ÑĥÑĪÐ°Ð¹
ĠÐµÐ²
Ð¾Ð³ÑĢÐ°ÑĦ
ÑĥÑģÑĤÑĮ
ĠÑģÐºÐ¾ÑĢ
ÑģÐºÐ¾Ð¼
Ð¾ÑĢÐ°
Ð½Ð¾Ð³Ð¾ÑĢ
ĠÑĥÑĤÑĢ
ÑħÐ¾ÑĤ
ĠÑĥÐ´Ð°
ĠÐ²Ð½ÑĥÑĤÑĢ
ĠÐ½ÐµÐ¿Ð¾Ð½
ĠÐ²ÑĩÐµÑĢÐ°
ÑĦÐ°Ð¼
ĠÐ½Ð¾Ð³
ĠÑĥÐ²
Ð²Ðµ
Ð°Ð»Ð¾ÑģÑĮ
ÑĢÑĥÑĪ
ĠÐ²Ð¾Ñģ
ĠÐ·Ð´ÑĢÐ°Ð²ÑģÑĤÐ²ÑĥÐ¹ÑĤÐµ
ĠÐ½Ð°Ð¿Ð¸ÑģÐ°Ð½Ð¾
ĠÑģÑĤÐ¾Ð¸ÑĤ
ĠÐ±Ð¾
ÑĥÐµÑĤ
Ð¾Ð½ÑĤ
Ð½Ð¸ÑĤÑĮ
ĠÐ½ÐµÐ²
ÑĢÑĥÐº
ÑĢÐ°ÑĤ
ĠÑĢÐ°Ð²
Ð¿Ð¾ÑįÑĤÐ¾Ð¼Ñĥ
Ð¼ÑĥÐ»ÑĮ
Ð¿ÑĢÐ¸Ð²ÐµÑĤ
ĠÐ±ÑĭÐ²
ĠÐ¿Ð°
ĠÐ¼Ð°ÑĤÑĮ
ĠÐ¿Ð¾Ð¼Ð¾Ñī
ĠÑģÐ¼Ð¾ÑĤÑĢÐ¸
Ð¸Ð²Ð°ÐµÑĤ
ĠÐ¿ÑĢÐ¸Ð½ÑĨÐ¸
Ð¾Ð»ÑĮÐ·
Ð³Ð¾ÑĤÐ¾Ð²
Ð´Ñĭ
ĠÐ¿ÑĥÑĤ
ĠÑĢÐ°ÑģÑģÐºÐ°Ð·
ÐºÐ¾Ð½ÐµÑĩÐ½Ð¾
ĠÐ±Ð°Ð»
Ð±Ð¾Ð»
Ð´Ð°Ð½
ÑĦÐ¾ÑĤÐ¾
ĠÐ¿Ð¾Ð½ÑıÐ»Ð°
ĠÐ¿Ð¾ÑģÐ»ÑĥÑĪÐ°Ð¹
Ð½Ð¸ÐºÐ°
Ð±ÑĥÐ´
Ð¾ÑĤÑĭ
ĠÐ¼Ð¸ÑĢ
ÑĢÐµ
ÑıÐ»Ð¸
Ð¾Ð½Ñĭ
Ð¿Ð¾Ð»ÐºÐ¾Ð²Ð½Ð¸Ðº
ĠÑģÑĥÐ´
ĠÐ»ÑİÐ±Ð¸Ð¼
ÐºÐ¾ÑĤÐ¾ÑĢ
ĠÑģÐºÐ°Ð·Ð°Ð»Ð¸
ĠÑģÑĥÐºÐºÐ¾
Ð±Ð¾Ð»ÑĮ
ĠÑĩÐ¸Ñģ
ÐºÐ°ÐºÑĥÑİ
ĠÐ¿Ð¾Ñĩ
ÑģÐºÐ°Ð·ÑĭÐ²
ĠÐ²ÑģÐµÑħ
Ð±Ñĥ
ĠÑĥÐº
ĠÐ¿ÑĢÐ¸ÐµÐ´Ñĥ
Ð¼ÑĥÐ»ÑĮÑĤ
ĠÐ¿Ð¾Ð¹Ð´Ñĥ
ĠÐ·Ð°Ñı
ÑĩÐ¸
ĠÐ´ÐµÐ±Ð¸Ð»
ĠÐ¼Ð¾Ð¶ÐµÑĤÐµ
ĠÑĢÐ°Ð´Ð¸
ĠÐ´Ð¾Ð³Ð¾Ð²Ð¾ÑĢ
Ð¸Ð¼Ð¸ÑĢ
ÑıÐ´Ð¾Ð¼
ĠÐºÐ°ÐºÑĥÑİ
Ð¾Ð¿ÑĢÐ¾Ð±
ĠÑįÑĤÑĥ
ĠÐ¿Ð¸Ð·
ĠÐºÐ¾Ð¼Ð¸ÑģÑģÐ°ÑĢÐ¸Ð°ÑĤ
ĠÐ½Ð°Ð¿Ð¸ÑģÐ°Ð»
ĠÐ´ÐµÐ½ÐµÐ³
ĠÐ³Ð¾ÑĤÐ¾Ð²
Ð¾ÑĢÑĤ
Ð¿ÑĢÐ¾Ð´
Ð·Ð°Ðº
ĠÑģÐ°Ð¼Ð¾Ðµ
ĠÐºÐ¾Ð½ÐºÑĢÐµÑĤ
ÐµÐ³ÑĢÐ°Ð¼
ĠÑĳÐ¿
Ð°Ð²Ð°ÑĤÑĮ
Ð¿Ð¾ÐºÐ°Ð¶
Ð°ÑģÑģ
ÑħÐ¾Ð¶Ñĥ
ĠÑħÐ¾Ð´
ĠÐ¾ÑĤÐ½Ð¾ÑĪ
ÑĢÐ¾Ð´Ðµ
ĠÐ´Ð¾ÑĢÐ¾Ð³
ÐµÑĢÑĥ
ĠÐ³Ð¾Ð²Ð¾ÑĢÐ¸Ð»
ĠÐ½Ð°Ð·Ð²
Ð²Ð¾ÐµÐ½ÐºÐ¾Ð¼Ð°ÑĤ
Ð°ÑĪÐ°
ĠÐ¿Ð¾Ð·Ð²Ð¾Ð½Ð¸ÑĤÐµ
ĠÑħÐ¾ÑĤÐµÐ»Ð¸
ĠÐ¿ÑĭÑĤ
Ð°Ð±Ð¸Ð½ÐµÑĤ
Ð¸Ð¾Ð½
ĠÐ¿Ð¸Ð´
ÑĢÐ¾Ðº
Ð¿Ð»
ÑĩÐµÑĢ
ĠÐ¾ÑĤÐ´
ĠÐ¿Ð¾ÑģÑĤÑĥÐ¿
ĠÑģÐ¼Ð¾ÑĤÑĢÐµÑĤÑĮ
ÑĳÐ·
ĠÐ²Ð¼
Ð»Ð¸ÑĤÑĮ
ĠÐ·Ð²Ð¾Ð½ÑıÑĤ
ĠÐ¿Ð¾ÐºÐ°Ð¶
ÐºÐ¾ÑĢÐ¾ÑĩÐµ
ĠÐ±Ð¾ÑĢ
ĠÑģÐ²ÐµÑĤ
Ð°Ð»ÑĮÐ½Ð°Ñı
ĠÐ¼ÑĥÐ¶ÑĩÐ¸Ð½Ð°
ĠÐ¿ÑĢÐ¾Ð²ÐµÑĢ
ÑģÐºÐ¾Ð¼Ñĥ
ÑıÑĩ
ĠÑĢÐµÐ±ÑĳÐ½
ĠÐ¿ÑĢÐ¸Ð½ÑĨÐ¸Ð¿Ðµ
Ð»Ð¸Ñĩ
Ð°Ð¹ÑģÑı
Ð¸Ð½Ð°ÑħÑĥÐ¹
ĠÐ¾Ð¿ÑĢÐµÐ´ÐµÐ»
Ð½ÑĭÐ¼
ĠÐ±ÐµÐ»
ĠÐ¿Ð¾ÑĪ
Ð¾ÑģÑĤÐ°Ð²
ĠÐ¸Ð´Ð¸
ĠÐ³Ð¾Ð²Ð¾ÑĢÑıÑĤ
ĠÐ²ÐµÑī
Ð°Ð»Ðµ
ÑģÐºÐ¾Ðµ
Ð´Ð¾
ÐµÑģÑĤÐ¾
ĠÑĦÐ¾ÑĤ
Ð¸ÑĤÑĥ
ĠÑģÐ¾Ð²ÑģÐµÐ¼
Ð²Ð¸Ð´ÐµÐ¾
ĠÐ¿ÑĢÐ¸Ñĩ
Ð°ÑĤÑĥÑĢÐ°
Ð»ÑıÐµÑĤÑģÑı
Ð°Ð»Ð»Ð°
ĠÐ¶Ð¸Ð²Ð¾ÑĤ
Ð¸Ñī
Ð¿ÑĢÐµÐ´
ÑĭÑĤÑĮ
Ð¿Ð¸Ñģ
ĠÐ¼Ð°ÑĢ
ÑĢÑĥÐ³Ð°
ÑĢÐ°Ñħ
Ð¾Ð»ÐµÑĤ
ĠÐ¿ÐµÐ´
ĠÑģÑĩÐ¸ÑĤ
Ð¿ÑĢÐ¾
Ð¾ÑĩÐºÐ¸
ÑģÐ¾
ĠÐ½Ð°Ð¿Ð¸ÑĪ
ĠÐ¼Ð¸Ð½
ĠÐ´Ð°Ð¼
ÐµÑģÑĤÐ²Ð¾
Ð¿ÐµÑģÐ½Ñı
ĠÑģÐ¿ÑĢÐ¾Ñģ
ĠÑĨÐµÐ½
Ð°ÑİÑĤÑģÑı
Ð¸ÑĨÐ°
Ð²Ð¾Ð·
Ð¾Ð²Ð¸ÑĤÐµ
ĠÑĩÐ¸ÑĤ
ÑıÐ¼Ð¾
Ð¸Ð¼Ð¾
ĠÐ·Ð°ÑıÐ²
ĠÑĤÐ°ÐºÑģÐ¸
ĠÐ»Ð¸Ñĩ
Ð°Ð·Ð°ÑĢ
ĠÑĢÐ°Ð±Ð¾ÑĤÑĥ
ÐºÐ¾Ð³Ð¾
ÑĨÐ¾
ÑĥÐ»Ð¸ÑĨÐ°
ÑģÐºÐµ
ÐµÐ´Ð¸ÑĤ
ÑĢÐ¾Ð¹
Ð¸Ð½Ðµ
ĠÐ¿Ð¾Ð±
ĠÑģÐ¾Ð±Ð¸ÑĢ
ĠÐ¿Ð¾Ð·Ð²Ð¾Ð½Ð¸Ð»
ĠÐ¿ÐµÑĤÑĢÐ¾Ð²
ÑĤÐ¾ÑĢÐ¸Ñı
ĠÑıÐ·Ñĭ
ĠÑģÑĥ
ĠÐ´ÐµÑĢÐµÐ²
ĠÑħÐ¾ÑĤÑĮ
ĠÑĦÐ°Ð¼Ð¸Ð»Ð¸Ñİ
ĠÐ¿ÑĢÐ°Ð½
ĠÐ¿Ð¾ÑıÐ²
ĠÑĢÐ¾ÑģÑģÐ¸Ð¸
ÐºÐ°ÐºÐ¸Ðµ
ĠÑģÐ°Ð¼Ð¸
ÐµÐ»ÐµÐ¹
Ð°Ð»Ð¾Ð³
ĠÐ½Ð°Ð¹ÑĤÐ¸
ÑħÐ¾ÑĩÑĥ
Ð¾ÑģÐºÐ¾Ð²
ĠÐ¼ÑĥÑģ
ÑĩÐµÐ³Ð¾
ÑģÐ²
Ð¸Ð»Ð°ÑģÑĮ
ĠÑģÐ°Ð¼Ð¾Ð¼
Ð²ÑģÐµ
ÑĦÐ°Ð¼Ð¸Ð»Ð¸Ñı
Ð·Ð°Ð¿
Ð¾ÑĩÑĮ
Ð¸ÑħÐ°
ĠÐ³ÐµÐ½
ÑıÑī
ÑĨÐ¾Ð²
Ð¾Ð»Ð¾Ð´
Ð·Ñı
ĠÐºÐ»
ÑģÐµÐ³Ð¾Ð´Ð½Ñı
Ð¸ÑĢÑĥ
ÑģÐ¾Ð½
ĠÐ´Ñĥ
Ð²Ð¾Ð¾Ð±ÑīÐµ
Ð¿Ð¾Ð²
Ð¾Ð½Ð¾Ð²
Ð¾ÑģÐ¿Ð¾Ð´
ĠÐ¸Ñģ
ÑģÐµ
ĠÐ¶Ð¸Ð·Ð½ÑĮ
ÑİÑĩ
Ð°Ð¶Ð½Ð¾
ĠÐ³Ð¾Ð²Ð¾ÑĢÐ¸Ð»Ð¸
ĠÑĢÐ°Ð²Ð½Ð¾
Ð½ÐµÐµ
Ð°ÐµÐ²
ĠÐ¿ÑĢÐ¾ÑĤÐ¸Ð²
ĠÐµÐ´
ĠÐ¼Ð°Ð¼Ñĥ
ĠÐ´Ð¾Ð»Ð±Ð°
ĠÑģÑĤÐ°Ð²
ĠÐ¿Ð¾Ð¾Ð±Ñī
ĠÐ²Ð½Ð¸Ð¼
ĠÑģÑĥÐ¼
Ð½ÑĥÐ»ÑģÑı
ĠÑĢÐ°Ð¹Ð¾Ð½Ð°
ĠÑĢÑĥÐ³
Ð°ÑĤÑĮÑı
ĠÐ¿Ð¾Ð´Ð°ÑĢ
ĠÐ·Ð½Ð°ÑĤÑĮ
ÑĩÑĤÐ¾Ð±Ñĭ
ĠÑģÐ²Ð¸Ð´
ĠÑįÑĤÐ¾Ð¼Ñĥ
ÐµÐ·Ð´
ĠÐ¿Ð¾Ð¹Ð´
ĠÐ½Ð¸ÐºÐ¾Ð³Ð¾
ĠÐ±ÑĢÐ°ÑĤ
ĠÑĢÐ°Ð±Ð¾ÑĤÐ°Ñİ
ĠÑĥÐ»Ð¸ÑĨÐ°
Ð°Ð»Ð°ÑģÑĮ
Ð¾Ð¿ÐµÑĢÐ°ÑĤÐ¸Ð²
Ð¾Ð²Ð¸
ĠÐ¿ÑĢÐ¸Ð·
ÑħÐ¾ÑĢÐ¾ÑĪ
ĠÐ¿Ð¾Ð·Ð´
ÑĦÐµ
Ð¼ÑĭÑģÐ»
Ð°ÐºÐ¾Ð²
ĠÐ¿Ð¾Ð³
ÑģÐ¸Ñħ
Ð¾Ð¼Ðµ
Ð´ÐµÑĢÐ¶
Ð¿ÑĢÐ¸Ðº
ÑĩÐµÐ½
Ð¼Ðµ
ĠÐ¿Ð¾Ð¼Ð½Ñİ
ĠÐ½Ð°Ð¹Ð´
ĠÐ¸Ð¼ÐµÐ½Ð½Ð¾
ÐµÐ»Ð¾
ĠÐ¾ÐºÑĤÑıÐ±ÑĢÑĮ
ĠÐ¾ÑĪ
ĠÑĤÐ¾ÑĩÐ½Ð¾
ĠÐ°Ð»ÐµÐºÑģ
ĠÐ³Ð¾ÑĢÐ¾Ð´Ðµ
ĠÐ¿Ð¸ÑģÐ°ÑĤÑĮ
ĠÐ´ÐµÐ¹ÑģÑĤÐ²
ÑĦÐ¸Ð»ÑĮÐ¼
ÑĩÐ°ÑĤÑĮ
ĠÐ¿Ð°Ð²
ÑģÐ¾Ð»
ĠÐ¿ÑĢÐ¸ÐµÐ´ÐµÑĪÑĮ
ÑĥÑĢÐ³
Ð¼Ð¸Ð½
ĠÐ´ÑĢÑĥÐ³Ð¾Ð¹
ĠÑĢÑĥÑģÑģÐºÐ¸Ð¹
ĠÐ¿ÑĢÐ¸ÑħÐ¾Ð´
ÐºÐ°Ð¼
ĠÐ²ÑģÑı
ĠÐ½ÐµÑĳ
Ð¾ÐºÐ¾
ĠÐ²Ð·ÑĢ
ĠÐºÐ¾Ð·ÑĳÐ»
Ð°Ð½Ð°Ð»
ÑĢÐ¾Ñģ
Ð¸Ð½Ð³
Ð²Ð¾Ð¿ÑĢÐ¾Ñģ
Ð°ÑģÑĤ
ĠÑģÐµÑĢÑĮÑĳÐ·
ÑįÐ»ÐµÐºÑĤÑĢ
ÑĥÑĪÐ°ÑĤÑĮ
ÑĨÐ¸Ñİ
ĠÐºÐ°Ð¶Ð´ÑĭÐ¹
Ð°Ð·Ð°ÑĤÑĮ
ĠÐ´Ð¾Ð»Ð±Ð°ÑĳÐ±
ĠÑĢÑıÐ´Ð¾Ð¼
ĠÐ¿ÑĢÐ¾Ð²
ÑĤÐ¾ÑĢÐ°Ñı
ĠÐºÑĢÐµÐ´Ð¸ÑĤ
Ð»Ð¾Ð¶
ĠÑģÐ¿Ð°ÑģÐ¸Ð±Ð¾
ĠÐ¿ÑĢÐ¸Ð¼ÐµÑĢ
ĠÐ¾Ð±ÑĢÐ°Ð·
ĠÑģÐµÐ¼
ĠÐ²ÑĭÐ³
Ð¿Ð¾ÐºÐ¾Ð¹
ÐµÑĪÑĮÑģÑı
Ð¸Ð½ÑĤÐµÑĢÐµÑģ
Ð¾ÑģÑĤÐ¾ÑıÐ½
ĠÐ²ÐµÑīÐ¸
ĠÑģÑĭ
ĠÐºÐ¾Ð½ÐºÑĢÐµÑĤÐ½Ð¾
ĠÑĤÐµÐ»ÐµÐ³ÑĢÐ°Ð¼
Ð¾Ð²Ð¾Ð»ÑĮ
ÑĢÐ°Ð±Ð¾ÑĤÐ°
ĠÑĳÐ¿ÑĤÐ°
ÑĥÑĤÐ±Ð¾Ð»
Ð°Ð½Ð´
ĠÑĤÐµÑĢ
ĠÐ¸Ð·Ð´ÐµÐ²
Ð¾Ð²ÐµÑĢÑĪ
ÑĩÐµÐ»Ð¾Ð²
Ð°Ð¹ÑĤ
ĠÐ´Ð¾Ð»Ð¶Ð½Ð°
ÑĢÐ°Ð³
ĠÐºÐ²Ð°ÑĢÑĤÐ¸ÑĢÑĥ
ĠÐ½Ð¾Ð¼ÐµÑĢÑĥ
ĠÐ´Ð°ÑĤÑĮ
ĠÐ½Ð°ÑħÐ¾Ð´Ð¸ÑĪÑĮÑģÑı
ÑĢÐµÑģ
ĠÑģÐ»ÑĥÑĩÐ°
ĠÑĤÐ¸
Ð·Ð°Ð±
ĠÑĤÑĥ
ĠÐ²ÑĢÐ°Ñĩ
ĠÐ´ÐµÐ»Ðµ
Ð¾ÑĩÐºÑĥ
ÑĳÑĤÐµ
ĠÐ²Ð·ÑıÐ»
ĠÐ¸Ð¼Ñı
Ð¸ÑħÐ°Ð¸Ð»
Ð¿Ð¾Ñģ
ĠÐ½Ð°Ð¿ÑĢÐ¸Ð¼ÐµÑĢ
ÐºÐ°ÐºÐ¾Ðµ
ĠÐ¿ÑĢÑĭÐ³
ĠÐ¿ÑĢÐ°Ð½Ðº
ĠÐ½ÐµÑħÑĥÑı
ĠÐºÐ°ÐºÐ¾Ðµ
ĠÐ²ÐµÑģ
ĠÑģÐ¾Ð±Ð°Ðº
ÐºÐ¾Ð½ÑĤÐ°Ðº
ÐµÐ´Ð¸
ĠÑĤÑĭÑĢ
Ð½Ð°Ð¹
Ð°ÑİÑī
ĠÐ½Ð°Ð·ÑĭÐ²Ð°ÐµÑĤÑģÑı
Ð¾Ð»Ð¾Ð³
ĠÐ·Ð½Ð°ÐºÐ¾Ð¼
ĠÑģÐµÑĢÐ´
ÑĨÐµÐ½
Ð¾Ð²Ð¸Ñĩ
ĠÑģÐ»Ð¾Ð²Ð¾
ĠÐ²Ð¾Ð½
Ð¼Ð°ÑĢ
Ð¾Ð¹Ð´
ĠÐµÐ±
ĠÐ¿Ð°Ð¿
Ð¸ÑıÑĤÐ½Ð¾
ĠÐ²ÑģÑĤÑĢÐµÑĤÐ¸Ð¼ÑģÑı
ĠÐ±ÑĭÑģÑĤÑĢ
Ð¿Ð¾Ð½ÑıÑĤÐ½Ð¾
Ð°Ð½ÑĮ
ÐµÐºÑĤ
ÑĢÐ¾Ð±
ĠÐ¼ÐµÑģÑĤÐµ
ĠÐ²Ð¼ÐµÑģÑĤÐµ
Ð¼ÑĥÐ·Ñĭ
ĠÐ¿ÑĮÑı
ÐºÐ°Ñı
ĠÐ¼Ð¾Ñĳ
ÑıÐµÑĤ
ĠÑĢÐµÐ·
ĠÐ¼Ð¾ÐµÐ¼Ñĥ
ĠÐºÐ¸Ð½Ð¾
ĠÐµÐ¹
ĠÐ¿ÑĢÐ¾Ð±Ð»ÐµÐ¼Ñĭ
Ð¸Ð²Ð¾
ĠÐ¸Ð³ÑĢÐ°
ĠÐ²Ð°ÑģÐ¸Ð»ÑĮ
Ð·Ð½Ð°Ñĩ
ĠÐ²ÑģÐµÐ¼
ĠÐ¿ÐµÑĢÐµÐ²Ð¾Ð´
Ð½Ð¾ÑģÑĤÑĮÑİ
ÑĥÐ²
Ð·Ð´ÑĢÐ°Ð²ÑģÑĤÐ²ÑĥÐ¹ÑĤÐµ
Ð°Ð»ÑĮÐ½ÑĭÐµ
ĠÐ²ÐµÐ´ÑĮ
Ð´Ð¾Ð±ÑĢÑĭÐ¹
ĠÐ¿ÑĢÐ¾ÑģÑĤ
ÑħÐ°
ÑĢÐµÐ±
ĠÐ¼Ð°Ð»ÐµÐ½ÑĮ
Ð±Ð¾
ÑĩÐµÐ»Ð¾Ð²ÐµÐº
Ð·Ð°Ð²ÑĤÑĢÐ°
ĠÐ°Ð¿
Ð½ÐµÐ²
ĠÐ·Ð°Ð¹
ĠÐ¾Ð»ÐµÐ³
ĠÐ¿ÑĢÐµÐ´ÑģÑĤÐ°Ð²Ð»Ñı
Ð½Ð¸ÑĩÐµÐ³Ð¾
ĠÐ²Ð½ÑĥÑĤÑĢÐ¸
ÑĤÐ¾ÑĩÐ½Ð¾
ĠÐ½Ð¾ÑĩÑĮÑİ
ĠÐ¼ÑĥÐ»ÑĮÑĤ
ĠÐ¿ÐµÑĢÐµÐ¿
Ð¼Ð¾Ð¹
Ð´Ð°Ð²Ð°Ð¹ÑĤÐµ
ĠÑĢÐ°Ð·Ð²
ÐµÐºÑĥ
ĠÐ¸Ð³ÑĢÑĭ
ĠÑĥÑģÐ»ÑĭÑĪ
ÐºÑĥÐ¿Ð¸ÑĤÑĮ
Ð½Ð°ÑĤ
ÑĥÐ´Ð¾
ĠÐ¸Ð²Ð°Ð½Ð¾Ð²
Ð²Ñĥ
ĠÑĤÐ²Ð¾Ñı
ÑĢÐ¸
ĠÐ¼Ð¾ÐµÐ¹
Ð°Ð´Ð°
ÑĢÐµÑĤ
Ð¿ÐµÑĤ
ĠÐ¾ÑĪÐ¸Ð±
ĠÑĤÐ¾ÑĢ
ĠÐ³Ð»Ð°Ð·
ÑĢÐµÐ·
Ð¿Ð»Ð°ÑĤ
ÑĢÑĥÐ¶
ĠÑħÐ²Ð°ÑĤ
ĠÐºÐ°Ð±Ð¸Ð½ÐµÑĤ
ĠÐ¾ÑĤÐ²ÐµÑĤÐ¸ÑĤÑĮ
Ð»Ð¾Ð½
ĠÐºÐ°Ð¶ÐµÑĤÑģÑı
Ð³Ð»
ÑıÑĤÐ°
Ð±ÐµÐ·
ĠÐ¿ÑĢÐ¸ÑħÐ¾Ð´Ð¸
ĠÑħÐ¾ÑĩÐµÑĤ
Ð¾ÑĢÐ°Ñģ
Ð»Ð¸Ð²
ĠÐ¿Ð¾Ð¿Ð°Ð»Ð¸
ĠÐ°Ð±
ĠÑĢÐ°ÑģÑģÐºÐ°Ð·ÑĭÐ²
ĠÑįÐ»ÐµÐºÑĤÑĢ
ÑĢÐ°Ð±
ĠÐ¿ÑĢÑıÐ¼Ð¾
ÑĥÑĪÐ¸
ĠÐ´Ð¾Ð±
ĠÐ¿Ð¾Ð¹Ð¼
ÑĤÐ¾Ð²
ĠÐ±Ð°Ð·Ð°ÑĢ
ĠÐ¿Ð¾ÑģÐ»ÐµÐ´
ĠÐ²Ð·ÑĢÐ¾ÑģÐ»
ĠÐºÐ¾Ð¼Ð¸ÑģÑģÐ°ÑĢÐ¸Ð°ÑĤÐ°
Ð²Ð¾Ð»
ÑģÐ¸Ð¾Ð½
ĠÐ·Ð´Ð¾ÑĢÐ¾Ð²
ĠÑĩÐµÑģÑĤ
ĠÑģÐ¾Ð¾Ð±Ñī
ĠÐ¿Ð¾Ð¿ÑĢÐ¾Ð±
ÑĤÑĭÐ¹
ÑĨÐµÐ²
ĠÐ·Ð°ÐºÐ°Ð·
ÑģÐ½Ð¾
ĠÐ²Ð¸Ð´ÐµÐ»
ĠÐºÐ½Ð¸
Ð¿Ð¾ÑĤÐ¾Ð¼
Ð·Ð½Ð°ÑĩÐ¸ÑĤ
ĠÐ¼ÐµÑģÑĤ
ĠÑĥÐ¿
Ð¾ÑĤÑĢÐµÐ±
Ð¿ÑĢÐ¾Ð±
Ð¿Ð¾ÐºÐ¾Ð¹ÑģÑı
ĠÐ²Ð¾Ð¹
ĠÐ½ÐµÐ·
Ð¾Ð»Ð¶
ĠÐ¶Ð°Ð»
ĠÑĢÐ°Ð·Ð³Ð¾Ð²Ð°ÑĢÐ¸Ð²Ð°Ñİ
ĠÑģÐ¸Ð´Ð¸ÑĤ
ÑĤÐ²ÐµÑĢ
Ð²Ð°Ð¼
ĠÐ¸ÑģÐº
Ð½Ð¸ÑĤÐµ
ÐµÐ»Ð¸Ðº
ĠÐ°Ð´
ĠÐ½ÐµÐ¿ÑĢÐ°Ð²
ĠÑģÐ»ÑĭÑĪÐ¸ÑĪÑĮ
ĠÐ¼Ð°Ð³Ð°Ð·
Ð³Ð¾Ð»
Ð¾Ð²ÐµÑĢÑĪÐµÐ½Ð½Ð¾
ÐµÐ·Ð¸Ð´
ĠÑĤÐ°ÐºÐ¸Ñħ
ĠÑģÐ¾Ð³
Ð½ÐµÐ¿
ĠÑģÐ¼ÑĭÑģÐ»
ĠÐ·Ð°Ð»
Ð³Ñĥ
ĠÐ¿ÑĢÐ¸ÐµÑħÐ°Ð»
ĠÑģÐ°Ð¼ÑĭÐ¹
ĠÑģÐ»ÑĥÑĩÐ°Ðµ
ĠÑĥÐ´Ð°Ð»
ĠÐ¿Ð¾Ð·Ð²Ð¾Ð½Ð¸Ð»Ð¸
ĠÑĤÐ°ÐºÐ¸
ĠÐ·Ð°ÑĢ
ĠÑĤÐ°ÐºÑĥÑİ
ĠÑĥÐ¼Ðµ
Ð½Ð¾ÑĢÐ¼
ĠÑĢÑĥÐºÐ¸
ĠÐ¶Ð¸ÑĤÑĮ
ĠÐ°Ð½Ð´ÑĢ
ĠÑĢÐ°Ð±Ð¾ÑĤÐ°
Ð»Ð°ÑģÑĮ
ĠÐºÐ¾ÑĤ
Ð³ÐµÐ½Ð¸Ð¹
ĠÐ¼Ð¾ÑģÐºÐ²Ðµ
ĠÐ¶ÐµÐ½ÑīÐ¸Ð½Ð°
ÑģÑĭ
ĠÐ¿ÑĢÐ¾Ð±Ð»ÐµÐ¼Ð°
ĠÐ²ÑĢÐ¾Ð´Ðµ
ĠÑĪÑĤ
ĠÐ½ÐµÐ»ÑĮ
ĠÐ½ÐµÐ»ÑĮÐ·Ñı
ĠÐ±Ð°ÑĢ
ĠÑįÑĤÐ¸Ð¼
Ð»Ñĭ
Ð±Ð¸
ĠÑĢÐ°Ð½
ÑģÑĥÐ´
ĠÑģÑĤÐ°Ð½
ÐµÑĢÑĭ
Ð°ÐµÐ¼ÑģÑı
ĠÑģÐºÐ°
Ð¿ÑĥÑģÐº
ĠÐ½ÐµÐ¿Ð¾Ð½ÑıÑĤÐ½Ð¾
ÑģÐºÐ°Ñĩ
ÑĦÐ¸Ð³
ĠÐ´ÑĢÑĥÐ¶
ÑģÑĤÑĥÐ¿
ĠÐ±ÑĥÑħ
ĠÐºÐ°ÑĢÑĤÐ¸Ð½
Ð¾ÑĢÐ¾Ð¶
ĠÑħÑĥÐ»Ð¸Ð³Ð°Ð½
ĠÐ¿ÑĢÐ¸ÐµÑħÐ°ÑĤÑĮ
Ð»Ð¾Ð¼
ĠÐ¸Ð·Ð²Ð¸Ð½Ð¸
ĠÐ¾Ð±Ð¸Ð´
ĠÐ¿Ð°ÑĨ
ÑĩÑĳÑĤ
ĠÐ¿ÑĮÑıÐ½ÑĭÐ¹
ĠÐ½Ð¸ÐºÐ¾Ð»
ĠÐ¿ÑĢÐ°Ð²Ð´Ð°
ĠÐ°ÐºÑĤ
ĠÐ¿ÑĢÐ¾ÐºÑĥÑĢ
Ð¾Ð²ÑĭÐ¹
ĠÑĨÐµÐ½ÑĤÑĢ
ĠÐ²ÐµÑĤ
ĠÑģÑĤÑĢÐ°ÑĪ
ĠÐ±Ð¾Ð»ÐµÐµ
ĠÐ¾Ð·
Ð½Ð°Ð´Ð¾
Ð´Ð¾Ð¼
ĠÐ¾Ð±ÑĬÑıÐ²
ÐºÑĥÑĩ
ĠÐ²Ð°ÑģÐ¸Ð»ÑĮÐµÐ²
ĠÐ¾ÑĤÐ´ÑĭÑħ
ĠÐ¼Ð¾Ð´
Ð°Ð¹Ð½
Ð¾ÐµÑħ
ĠÐ¾ÑģÐ½Ð¾Ð²
Ð°ÐºÑĤ
Ð¸ÑĤÐ°
ĠÑĨÐ²ÐµÑĤ
ĠÐ¿Ñĥ
ĠÐ¿Ð¾ÑĢÑıÐ´
ĠÑģÐ¾Ð·
ÐºÐ¾Ð¼Ð°Ð½
ĠÑģÐ»ÑĭÑĪÐ°Ð»
ÑĮÑĤÐµ
ĠÑĢÐ°ÑģÐ¿
ÑıÑİÑĤ
ÑĤÐ¸Ñı
ĠÑĦÐ¾ÑĢÐ¼
Ð¾ÐºÐ¾Ð»
ĠÑĤÑĥÐ¿Ð¾Ð¹
ĠÑıÐ¹
ĠÑĩÑĥÐ²
ĠÐ±ÑĭÐ»Ð¸
ĠÐ¸Ð¼ÐµÑİ
Ð³ÑĢÑĥÐ¿
Ð¾Ð³ÑĢÐ°ÑĦÐ¸Ð¸
ĠÑĢÐ°Ð·Ð¾Ð±ÑĢ
ĠÐ³Ð»Ð°Ð²
ÑīÑĥ
Ð¼ÑĥÐ¶
ĠÑģÐ´ÐµÐ»Ð°Ð»
ÐºÐ°Ð¼Ð¸
ĠÐ¿Ð¾Ð´Ð½Ð¸Ð¼
Ð±Ð°ÑĢ
Ð½Ð¾Ð¶
ĠÐ²ÑĭÑģ
Ð¸Ð³ÑĢÑĭ
ĠÐ¼Ð¾Ð»Ñĩ
ĠÑģÐ¿Ð¾Ðº
ĠÑģÐ¿Ð¾ÐºÐ¾Ð¹
ĠÐ½Ð¾Ñģ
ĠÐ¿ÑĢÐ¸ÐµÐ·Ð¶Ð°Ð¹
ĠÐ¿ÐµÐ½
Ð»Ð¸Ðº
ĠÑĳÐ±
ĠÑĢÐµÐ°Ð»ÑĮÐ½Ð¾
ĠÐ½Ð¸ÐºÐ°ÐºÐ¸Ñħ
ĠÐ²Ð¾Ð¿ÑĢÐ¾ÑģÑĭ
ĠÑģÐµÑĢÐ³
ĠÐ·Ð°Ð¿Ð¸ÑģÐ°Ð»
ĠÐ°ÑħÑĥÐµÐ»
ĠÑĥÐ¶
ÐµÑħÐ°ÑĤÑĮ
ĠÐ³Ð¾Ð²Ð¾ÑĢÑı
Ð¿ÑĢÐ¸Ð´
ÐµÐ½ÑĤÐ°
ĠÐ·Ð°ÑģÑĤ
ĠÐ½Ð°ÑĩÐ¸Ð½Ð°
Ð¿Ð¾Ð´Ð¾Ð¶Ð´Ð¸
Ð½Ð¸Ñĩ
ÑİÑĢ
ĠÐ´Ð°Ð»ÐµÐµ
ĠÑĦÐ¾ÑĤÐ¾
ĠÐ³Ð°Ð·
ÑģÐ°
ÑĭÐº
ĠÐ¿Ð¾Ð»ÑĥÑĩÐ¸ÑĤÑģÑı
Ð²ÑĢÐµÐ¼
ĠÑĤÐ²Ð¾ÐµÐ¹
Ð¿Ð¾ÐºÐ°
ĠÐ¸Ð¼ÐµÐµÑĤ
ĠÐ·Ð²
Ð»Ð°ÑĤÐ¸ÑĤÑĮ
ĠÐ½Ð¸ÐºÐ°ÐºÐ¾Ð³Ð¾
Ð¾Ð»Ð¸Ðº
Ð¾Ð±Ð¸Ð»ÑĮ
ĠÐ¿Ð¾ÐºÐ°Ð·
ĠÐ¿ÑĢÐµÐ´Ð»Ð°Ð³
Ð°Ð¶Ð°
ĠÑĥÑĤÑĢÐ¾Ð¼
ĠÐ²ÑĭÑĪ
Ð°ÑĢÐ°Ð½
ĠÑģÐ´
ĠÐ½Ð¾Ð²ÑĭÐ¹
ĠÐ¿Ð¾ÐºÐ°Ð·ÑĭÐ²
Ð½Ð°ÑĩÐ°Ð»Ð°
Ð¼Ð¾Ñı
ĠÐ²Ð¾Ð·Ð¼Ð¾Ð¶Ð½Ð¾
ĠÐ¶ÐµÐ½ÑīÐ¸Ð½
ĠÐºÐ°ÑĤ
ĠÑģÑĤÐ¾
ĠÐ½ÑĥÐ¶Ð½Ð°
ÑģÐºÐ°ÑĩÐ°ÑĤÑĮ
Ð¾ÑĤÐºÑĢÐ¾Ð¹
Ð½ÑıÑı
ĠÐ³Ð¾ÑģÐ¿Ð¾Ð´
Ð°Ð½Ð½ÑĭÐ¹
ĠÑĩÐ¸ÑģÐ»Ð°
ĠÐ¼Ð¸Ð½Ñĥ
ĠÐ²ÐµÑĢÐ½ÑĥÑĤÑĮ
ĠÑģÑĥÐ¿
Ð»ÐµÑĢ
ÐºÐ²Ð°ÑĢÑĤÐ¸
ĠÐ²Ð¾Ð½ÑİÑĩ
ĠÐ¾Ð±ÐµÑī
ÐºÑģ
Ð»ÑİÐ±Ð¸Ð¼
ĠÐ³Ð¾Ð»Ð¾Ð²Ñĥ
ĠÑģÐ²ÑıÐ·Ð¸
ĠÐ±Ð»Ð°Ð³
Ð¸ÑĤÐ°Ð»
Ð±Ð°Ð»
ĠÑģÐ¸Ð½
ÑĪÐ°
Ð¸Ð´Ð°
ĠÐºÑĢÑĭ
ĠÐ²Ð¾ÐµÐ½Ð½Ð¾Ð³Ð¾
ĠÑģÐ¾Ð²ÐµÑĤ
ĠÐ¿ÐµÑĢÐµÐ´Ð°ÑĤÑĮ
Ð²Ð¸Ðº
ĠÐ¿Ð¾Ð¼Ð¾Ð³
ĠÐ¿Ð¾Ð¾Ð±ÑīÐ°ÑĤÑĮÑģÑı
Ð¸Ð»ÐµÑĤ
ĠÐºÐ¾ÑĤÐ¾ÑĢÐ°Ñı
Ð¿ÑĥÑģÑĤ
ĠÐ²ÑģÑĤÑĢÐµÑĩ
ĠÑĢÐ¾ÑģÑĤ
ĠÐºÐ°Ñģ
Ð°Ð²Ð½Ð¾
ĠÑĥÐºÑĢÐ°
Ð¸Ð·Ð¼
ĠÐ´ÑĢÑĥÐ³Ð°
Ð°Ð½Ð¸Ð¸
ĠÐ¿ÑĢÐµÐº
ĠÐ½Ð°Ð²ÐµÑĢÐ½Ð¾
ĠÐ´Ð°Ð½Ð½ÑĭÐ¹
ĠÐ¿ÑĢÐ¸Ð½Ð¸Ð¼
Ð¿Ð¾Ñĩ
ĠÐ¶Ð¸Ð²ÑĳÑĤ
Ð±Ð»Ð¸
ĠÐ²Ð°
Ð»ÑİÐ´Ð¸
ÑģÑĤÐ¾
ĠÐ½Ð¾ÑĩÐ¸
ÐµÐºÐ²Ð°ÑĤ
Ð³ÑĢÑĥÐ¿Ð¿Ð°
ĠÐ±ÑĢÐ¾Ñģ
ĠÐ¿ÑĥÑģÑĤÑĮ
Ð½Ð°Ð¼
ĠÐ¿ÑĢÑıÐ¼
ĠÑģÐ¸Ð»ÑĮÐ½Ð¾
ĠÑĦÐ¸Ð»ÑĮÐ¼
ĠÐ¿ÑĢÐ¸ÑħÐ¾Ð´Ð¸ÑĤ
ĠÐ´Ð¾Ð¿
ÐµÐ·Ð¸Ð´ÐµÐ½ÑĤ
Ð¸ÑģÐ¾Ð²
Ð½Ð¸ÐºÐ¾Ð²
ĠÑģÐºÐ¾ÑĢÐ¾
Ð¾ÑĪÑĥ
ĠÑģÐ¾Ð±Ð¸ÑĢÐ°
ĠÑģÐ¾Ð³Ð»Ð°Ñģ
ÐºÐ¸Ðµ
Ð¼ÑĥÑĢ
ĠÐºÑĢÐ°ÑģÐ½Ð¾Ð³Ð¾ÑĢ
ÑĢÐµÑĪ
ĠÐ¼Ð¾Ð·
Ð½Ð¸Ðµ
ĠÑģÐ»Ð¾Ð²
ĠÐ¾Ð±ÑīÐµÐ¼
ĠÑģÑĤÑĢ
ĠÑĢÐ°Ð±Ð¾ÑĤÐ°ÑĤÑĮ
ĠÐ´Ð²Ð°
ĠÐ½ÐµÐ½
ĠÑģÐ¼ÐµÑĪ
Ð±Ð¾Ð»ÑĮÑĪÐµ
ĠÑĤÐ¸Ð¿Ð°
ĠÐ±ÐµÐ³
ĠÐ¼Ð°Ðº
ĠÐ²Ð¸Ð¶Ñĥ
Ð°ÐµÑĤÐµÑģÑĮ
ĠÐ¶Ð¸Ð²ÑĳÑĪÑĮ
ĠÐºÐ°Ð¿
ĠÐ¾Ñĩ
Ð°ÑĢÐ°
Ð¸ÑĩÐµÑģÐºÐ¸Ð¹
ÐµÐ²Ð¸Ñĩ
ÑıÑĢ
Ð¼ÐµÐ½ÑĤ
ĠÑģÐ»ÑĥÑĩÐ¸Ð»Ð¾ÑģÑĮ
ĠÑĥÑĤÑĢÐ°
ĠÐ»Ð¸ÑĨÐ¾
Ð°Ð½Ð¸
Ð¾Ð²ÑģÐºÐ¸Ð¹
ĠÐ¿ÑĢÐ¾Ð¸Ñģ
Ð´ÑĥÐ¼
ĠÐ¼Ð¾Ð±Ð¸Ð»ÑĮ
ÑĥÐ½Ðº
ĠÑģÐ¿Ð°ÑĤÑĮ
ĠÑĦÐ°Ð¼Ð¸Ð»Ð¸Ð¸
Ð¾Ð±ÑĢÐ°Ð·
ĠÑģÑĤÐ°Ð»Ð¸
ĠÐ²Ð¾ÐµÐ½Ð½ÑĭÐ¹
ÐµÐºÑģÑĤ
ĠÐ±ÑĥÐ´ÑĥÑĤ
ÑģÐ±
ĠÑģÐ½Ð°ÑĩÐ°Ð»Ð°
ĠÑĢÐ°Ð´Ð¸Ð¾
ĠÐ¼ÐµÑģÑĤÐ¾
Ð¸ÑĤÐµÐ»ÑĮÐ½Ð¾
ĠÐ²Ð»Ð°Ð´Ð¸Ð¼Ð¸ÑĢ
ĠÐ¾Ð±ÑĢÐ°Ñī
ÑıÐ»Ð°
ÑĤÐ¾Ð±
ĠÐ¾ÑĤÑĩ
ĠÐ¿Ð¾Ð»ÑĥÑĩÐ°ÐµÑĤÑģÑı
ÐµÐ¶Ð´Ñĥ
ÑĭÐ²Ð°ÐµÑĤÑģÑı
ĠÑģÐºÐ°ÑĩÐ°ÑĤÑĮ
ÐºÑĥÑĪ
ĠÑĤÐµÑħ
Ð½Ð¸ÐºÑĤÐ¾
ĠÐ¼ÐµÑĤ
Ð¶Ð°Ð¹
ĠÐ¼ÑĥÐ·ÑĭÐºÑĥ
ĠÐ·Ð°ÐºÐ¾Ð½Ñĩ
Ð»ÑĥÑĩ
ÑĤÑĥÑĢÐ°
ĠÐ³Ð¾Ð´
ĠÐ²Ð¾ÑģÐ¿
ÑıÑĤÑĮÑģÑı
ĠÑĤÐ¾Ð¼Ñĥ
ĠÐ´ÐµÑĢÐ¶
Ð»Ñĥ
ÑĤÐµÐ¼
Ð½Ð°Ð²
Ð»ÑİÐ±Ð¾Ð²ÑĮ
ÑĮÐµ
ÑĪÐ¸Ðµ
ĠÐ³Ð¾Ð²Ð¾ÑĢÐ¸Ð»Ð°
Ð½Ð°Ð·
ĠÐ¾Ð±ÑĢÐ°ÑĤ
Ð»Ð¾Ñī
Ð¾Ð±ÑĬ
ĠÐ±ÑĭÑģÑĤÑĢÐ¾
ĠÐ±ÑĭÐ²Ð°ÐµÑĤ
ÑģÑĤÐ°Ð½
ÑħÐ¾ÑĩÐµÑĪÑĮ
ĠÑĥÑĪ
ĠÐ½Ð¸ÐºÐ¾Ð»Ð°ÐµÐ²
Ð¸Ð³ÑĢÐ°
ĠÐ¿Ð¾Ð¶
ĠÐ¿Ð¾ÐºÐ°Ð¶Ñĥ
ÐµÐ·Ð¶Ð°Ð¹
Ð¸ÑĤÐµÑģÑĮ
ĠÐ¾ÑĤÐ´ÐµÐ»Ð°
ÑĥÐ»ÑıÑĤÑĮ
ÑģÐºÐ°Ð·Ð°Ð»
ĠÐºÑĢÐ°Ð¹
Ð²Ð°Ð½
Ð¾ÑĤÐ²
ÐµÑģÑı
ÑĢÐ°Ð²Ð°
ĠÐ´Ð¾Ð±ÑĢÐ¾Ð³Ð¾
ÐµÑĩÑĮ
ĠÐ¼Ð¸Ñħ
ĠÐ·Ð°ÑıÐ²Ð»ÐµÐ½Ð¸Ðµ
ĠÐ²ÑĭÐ¹Ð´
ĠÑİÑĢ
ÐµÐ»Ñĳ
ĠÐ²Ð°ÑĪÐ°
Ð¿Ð¾Ð½ÑıÐ»
ÑĢÐ°Ðº
ĠÐ²ÑĢÐµÐ¼ÐµÐ½Ð¸
Ð½Ð¾Ñĩ
Ð»ÑıÐ´
ĠÐ¿ÑĢÐ¸Ð¼
ÑĩÐ°ÑģÑĤ
ĠÐ½ÐµÐ¿ÑĢÐ°Ð²Ð¸Ð»ÑĮÐ½Ð¾
ĠÑģÐ¸ÑĤÑĥ
ĠÑģÐ²Ð¸Ð´Ð°Ð½Ð¸Ñı
Ð¸ÑĤÑĥÑĤ
ÑĭÑĪÑĮ
Ð¾Ð´Ð½Ð¾
ÑĥÑİÑī
ÑĮÑĪÐµ
ĠÐ¿Ð¾Ð³Ð¾Ð´Ð°
ĠÑģÐ¾Ð²ÐµÑĢÑĪÐµÐ½Ð½Ð¾
Ð¿Ð¾ÐºÐ°Ð¶Ð¸
ĠÐ±Ð»Ð¸
Ð½Ð¸ÑĤ
ĠÑģÐ»ÑĭÑĪÐ½Ð¾
ĠÐ½Ð¸ÐºÐ°ÐºÐ¾Ð¹
ĠÐ½Ð°ÑħÐ¾Ð¶Ñĥ
ĠÐ½Ð°ÑħÐ¾Ð¶ÑĥÑģÑĮ
ĠÐ¾Ð±ÑıÐ·
ĠÐ²ÑĭÐ»
Ð¸Ð²Ð°ÐµÑĤÑģÑı
ĠÐ¿ÑģÐ¸Ñħ
Ð¾Ð»Ð¾Ð²
ĠÐ¾Ð±ÑĭÑĩ
ĠÑģÐ²Ð¾ÐµÐ¹
ĠÐ¿Ð°ÑĢÐµÐ½ÑĮ
ĠÐ´ÑĥÑĢÐ°
ĠÐ¾ÑģÑĤÐ°Ð²
ĠÐ´ÐµÐ»Ð°ÐµÑĪÑĮ
ÐºÐ»ÑİÑĩÐ¸
ĠÑģÐµÑĢÑĮÐµÐ·
ĠÐ»Ð¸Ð±Ð¾
Ð°ÑĤÐ¾ÑĩÐ½Ð¾
Ð´ÑĥÑĢÐ°Ðº
ĠÐ¶Ð´
Ð½ÐµÑģ
Ð¾Ð³ÑĢÐ°Ð´
ĠÐ±Ñĥ
Ð¼Ð½Ð¾Ð³Ð¾
ÐºÐ°ÑĢÑĤÐ¸Ð½
ĠÐ¿Ð¾Ð´Ð´ÐµÑĢÐ¶
Ð»ÑıÑİ
ĠÐ´Ð¾Ð·Ð²Ð¾Ð½
ĠÐ´Ð¾Ð±ÑĢÑĭÐ¹
ĠÐ¶Ð¸Ð²Ñĥ
Ð¼Ð¸ÑħÐ°Ð¸Ð»
ÐµÐºÐ¸
Ð°Ð´Ñĭ
ĠÐ´Ð¾Ð»Ð¶Ð½Ñĭ
ĠÐ²Ð¾ÐµÐ½ÐºÐ¾Ð¼Ð°ÑĤÐµ
ĠÐ¿ÐµÑĢÐµÐ·Ð²Ð¾Ð½Ñİ
Ð²ÑĢÐµÐ¼Ñı
ÑģÐ¾Ð²
ÐµÑĢÐ¸Ñı
Ð¾ÐºÑĤÑıÐ±ÑĢÑĮ
Ð¾Ð½ÐµÑĨ
ÐµÐ½Ñĭ
ĠÑģÐ½
ĠÐ´Ð¾Ð»Ð¶Ð½Ð¾
ĠÐ°Ð½Ð³
Ð»ÑİÐ´
ĠÐ¿Ð»Ð°Ð½
Ð¼Ð¾Ð»Ð¾Ð´
ĠÑĥÐ»Ð¸ÑĨÑĥ
ĠÐ¿Ð¾Ð»Ð½Ð¾ÑģÑĤÑĮÑİ
ÐµÐ½Ð¾
Ð¼Ð¸ÑĤ
ĠÐ²Ð°ÑĢÐ¸
Ð¾Ð½Ñĥ
ĠÑħÐ¾ÑĤÐµÐ»Ð°
ĠÐºÑĢÐ¾Ð¼Ðµ
ĠÑĥÐ³ÑĢ
ĠÐ¼Ð¸Ð»
ĠÐ°Ð¼ÐµÑĢ
Ð½Ð¾Ð´
Ð½Ð¸ÐºÐ°Ðº
ĠÐ³ÐµÑĢ
ÑĳÑĤÑģÑı
ĠÐ¼ÐµÐ¶Ð´Ñĥ
ĠÑĤÐµÐ»ÐµÐ²
Ð»Ð°Ð¼
ÑĥÑħÐ°
Ð¸ÑģÑĤÑĢ
ĠÐ·Ð°ÑĤ
ĠÐºÑĥ
ĠÐ»ÑİÐ±Ð¾Ð²ÑĮ
Ð²Ð°Ð»Ð¸
ÑĥÐ»ÑĮÑĤÐ°ÑĤ
Ð¿Ð»Ð°ÑĤÐ½Ð¾
Ð½ÐµÐ½Ð¸Ðµ
ĠÐ±Ð°Ð±Ð°
Ð¸Ð»Ð¾
ĠÐ¸Ð´ÑĳÑĤ
ĠÐ¿Ð¾Ð½Ð¸
ĠÐºÑĥÑĢÑģÐµ
ĠÐ²ÑģÑİ
ĠÐ³Ð¾ÑģÑĤÐ¸
ĠÐ±Ð¾ÑĢÐ¾Ð²
ĠÐ¿ÐµÑĩ
ĠÐ·Ð½Ð°ÐµÑĤ
ÑıÐ¹
ĠÑĥÑĢÐ¾Ðº
ĠÐ¾Ð±Ð¸Ð¶
Ð°Ð´ÑĮ
ĠÑģÐµÑĢÐ´ÑĨÐµ
Ð±Ð°Ð±
ĠÐ½Ð¾ÑĩÑĮ
ĠÐ¿Ð¾Ð´ÑĥÐ¼
Ð½Ð°Ð»Ð°
ÑħÑĢÐ°Ð½
Ð°Ð±Ð°ÑĢ
ĠÑģÐµÑĢÑĮÑĳÐ·Ð½Ð¾
Ð»Ð°ÑĩÐ¸Ð²Ð°ÑĤÑĮ
ĠÐºÑĥÐ¿Ð»Ñİ
ÑģÑĤÐ²ÐµÐ½Ð½ÑĭÐ¹
Ð²Ð»Ð°Ð´
ĠÑģÐµÐ²
ĠÐ¿Ð°Ð¼
ĠÐ²Ð¾ÑĢ
ĠÐ°Ð½ÑĤ
Ð°Ð²Ð°Ð»
Ð°ÑĤÐ¸
ĠÐ¼Ð°ÑĪÐ¸Ð½
ĠÐ¸ÑģÐ¿Ð¾Ð»ÑĮÐ·
ĠÑĩÐµÑģÑĤÐ½Ð¾
Ð²Ð¾ÐµÐ½Ð½ÑĭÐ¹
ÑĥÐ¶Ðµ
ĠÐ¼Ð¸Ð»Ð¸ÑĨÐ¸Ñİ
ÐµÐ½ÑĤÑĭ
ÑħÐ¸
ĠÐ¿Ð¾ÑģÐ»ÑĥÑĪÐ°ÑĤÑĮ
ĠÐ¿ÑĢÐ¸Ð±
Ð¾ÑĢÑĮ
Ð¾Ð²Ð°Ð»
ĠÑħÐ»
Ð³ÑĢ
ĠÐ²Ð¸Ð½
Ð¿Ð¾Ð·
ĠÐ¿ÑĢÐ¸Ð³
ĠÐ¸Ð·Ð²
ĠÑĢÐ°Ð·Ð±ÐµÑĢ
ÑģÐµÑĢÐ³
ĠÐ¾Ð´Ð½Ð°
ĠÐ´ÐµÑĤÐµÐ¹
Ð°Ð½Ð´ÑĢÐµÐ¹
ÑĪÐ°Ñı
ĠÐ½Ð°Ð·Ð¾Ð²Ð¸ÑĤÐµ
ĠÐ¸Ð´Ðµ
ĠÑĦÐ¾ÑĤÐ¾Ð³ÑĢÐ°ÑĦÐ¸Ð¸
Ð¾Ð½Ðµ
ĠÐ´Ð¶
ÐºÑĥÑĤ
ĠÐ¹
ĠÑĢÐ°Ð·Ð³Ð¾Ð²Ð°ÑĢÐ¸Ð²Ð°Ð»
ÑħÐ¾ÑĢÐ¾ÑĪÐ¸Ð¹
ĠÑģÑĢÐ¾ÑĩÐ½Ð¾
ĠÐ¾Ð¿ÐµÑĢÐ°ÑĤÐ¸Ð²Ð½ÑĭÐ¹
ĠÑĢÐ°Ð±
ĠÑģÐ¿Ð¾ÐºÐ¾Ð¹Ð½Ð¾
ĠÐ·Ð°Ð³
ĠÐ¿Ð°Ð»
ĠÑģÐ¼ÑĭÑģÐ»Ðµ
ĠÑĢÐ°Ð±Ð¾ÑĤÑĭ
ĠÐ¿ÑĢÐ¾Ð¸Ð·
Ð°Ð´ÑĢÐµÑģ
ĠÐ¿Ð¾Ð»ÑĥÑĩÐ¸Ð»Ð¸
Ð¿ÑĥÑĤ
ÑĤÑĭÐµ
ĠÐ½ÐµÐ´ÐµÐ»
Ð¸Ð´Ð¸Ð½Ð°ÑħÑĥÐ¹
Ð°Ð»ÑĮÐ½Ð¾Ð³Ð¾
ĠÑģÐºÐ°Ð¶ÐµÑĪÑĮ
Ð½Ð°Ñİ
Ð°ÑĢÑĮ
ĠÑģÐ²Ð¾Ð¸Ð¼Ð¸
ĠÑģÐµÑĢÐ³ÐµÐ¹
Ð´Ð¾ÑĢ
ÐµÐ»Ñı
ĠÐ»ÑİÐ±Ð¸ÑĤ
Ð´Ð»Ñı
ĠÐ´Ð¾ÑģÑĤÐ°ÑĤÐ¾ÑĩÐ½Ð¾
ÑĦÐµÑĢ
ĠÐ½Ð°Ð±Ð¸ÑĢÐ°
ÐµÐ·ÑĮÑı
ĠÐ¼Ð¾Ð¶ÐµÐ¼
ÑĤÐ½Ð¾Ð¹
ÑģÑĥÐ¿
ĠÐ½ÐµÐ±
ĠÑģÐ»ÑĥÐ¶
ĠÐ¿Ð¾ÑģÑĭÐ»
ĠÑģÐ²Ð¾Ð¸Ð¼
ĠÑĪÐºÐ¾Ð»
ĠÐ¿Ð¾Ð¼Ð¾ÑĩÑĮ
ĠÐ¿Ð¾Ð·Ð²Ð¾Ð½Ð¸ÑĪÑĮ
Ð½Ð¾Ðº
ĠÐ¿ÑıÑĤ
ĠÑĥÑģÑĤÐ°Ð½Ð¾Ð²
Ð¾Ð¶Ð´Ð¸ÑĤÐµ
ĠÐ¾ÑĢÐ³Ð°Ð½Ð¸Ð·Ð°ÑĨÐ¸Ð¸
ÑģÐ´ÐµÐ»
ĠÐºÐ¾Ð½ÑĩÐµÐ½
ĠÐ¸Ð²Ð°Ð½Ð¾Ð²Ð¸Ñĩ
ĠÐ²Ð¾Ð·ÑĮÐ¼
Ð¾ÑĤÐ¿ÑĢÐ°Ð²
ĠÐ½Ð°Ð¿Ð¸ÑģÐ°Ð»Ð°
ĠÐ¿ÑĢÐ¸Ð´ÑĥÐ¼
ÑģÐµÑĢ
Ð¿ÐµÑĢÐµÐ²Ð¾Ð´
ĠÐ¼Ð¾Ñİ
ĠÑıÐ²
ÐºÐ»Ð°Ð´
ĠÐ°Ð»ÐµÐºÑģÐ°Ð½Ð´ÑĢ
ĠÐ·Ð°Ð²Ð¾Ð´
ĠÐ´ÐµÑĤÐ¸
Ð¾Ð²ÑģÐºÐ°Ñı
ĠÑģÐ¸Ð¶Ñĥ
ĠÐ¿Ð°Ð´
ĠÐ´Ð½Ñı
Ð°ÐºÑĤÐ¾ÑĢ
ÑĢÐµÐ´
ÐµÑĢÐµ
Ð¼ÑĥÐ·ÑĭÐºÐ°
ĠÐ´ÐµÐ²Ð¾ÑĩÐºÐ°
Ð¿ÑĥÑģÑĤÑĮ
ĠÑĢÐµÐ±ÑĳÐ½Ð¾Ðº
ÑĤÑĳÐ¼
ĠÑĤÐµÐ¼Ñĥ
ÐµÑĢÑĨÑĭ
ĠÐ¾ÑĤÐ²ÐµÑĩÐ°Ñİ
ÑħÑĥÐ»Ð¸
Ð´Ð²
ĠÑħÑĢ
ĠÐ¼ÐµÐ´
ĠÐ¾ÑĤÐµÑĨ
ÐºÐ¾Ð½ÑĤÐ°ÐºÑĤÐµ
ĠÐ¿Ð¾ÑģÐ¼Ð¾ÑĤÑĢÐ¸
Ð¸ÑĪÑĥ
ÐºÐ»
Ð°Ð½Ñĥ
ĠÐ³ÑĢÑĥÐ¿Ð¿Ð°
Ð¸ÑĤÐ¾
ĠÑģÐ°Ð½
ĠÐ²Ð°ÑĪÐµÐ³Ð¾
ÑĭÐ²Ð°Ñİ
ĠÐ·Ð°Ð¼ÑĥÐ¶
ÑĳÐ±Ð°Ð½
Ð»ÐµÐ½Ð¸Ñı
ĠÑĤÑĥÑĢ
ĠÑģÐ»Ð¾Ð¼
ĠÐ±Ð°Ð½Ðº
Ð¿Ð¸Ð¾Ð½
ĠÐ¿Ð¸Ð´ÑĢ
ĠÑģÐ²ÑıÐ·ÑĮ
Ð³Ð»Ð°Ð²
ĠÑĢÑĥÑģÑģÐºÐ¸
ĠÐ¿ÑĢÐ¸Ð´ÑĥÑĤ
Ð°ÑĤÐ¾ÑĢ
ĠÐ¶Ð´Ñĥ
ĠÐ·Ð°Ð¿Ð¾Ð¼
ÑģÑĤÐ°ÑĢ
Ð¾Ð»ÐµÐ³
ĠÐ¼Ð¸ÑĢÐ°
ÑģÐ¸Ñı
ĠÐ¾Ð±ÑĬÑıÑģÐ½Ð¸
ÐºÑĢÐ°Ð½
ĠÐ¼ÑĥÑĢ
ĠÑĤÐ°ÑĢ
ÑĢÑĥÑģÑģÐºÐ¸Ð¹
Ð¾ÑĩÐ½ÑĭÐ¹
ĠÐºÐ²Ð°ÑĢÑĤÐ¸ÑĢÐ°
ĠÐ¿Ð¾Ð·Ð½Ð°ÐºÐ¾Ð¼
ÑĳÐ²
ĠÐ´ÑĥÐ¼Ð°ÐµÑĪÑĮ
ĠÐ¿Ð¾Ð»Ð¾Ð¶
ÑĢÐ°Ð»
ĠÑģÐ¾Ð»Ð½
ÑįÐ»ÐµÐºÑĤÑĢÐ¾Ð½
ĠÐ¿Ð¾Ð¼Ð¾ÑīÐ½Ð¸Ðº
Ð¶ÐµÐ»
Ð¿ÐµÑĢÐ²ÑĭÐ¹
Ð¸Ð²Ð°Ñİ
Ð»Ð°ÑĩÑĥ
Ð¾ÑģÑĤÐ¾Ðº
ÑıÑİ
ÐµÐ³Ð°
ĠÐ²Ð½Ð¸Ð¼Ð°ÑĤÐµÐ»ÑĮÐ½Ð¾
ĠÐ¼Ð¾ÐµÐ³Ð¾
ÐºÐ°Ñħ
ÑĥÑĪÐºÐ¸Ð½Ð°
ĠÐ´ÐµÐ¶ÑĥÑĢÐ½Ð¾Ð¼Ñĥ
ĠÐºÐ»Ð°Ñģ
Ð´Ð°ÑĢ
ÐºÑĥÑĢÑģ
Ð¼ÑĥÐ»ÑĮÑĤÐ¸Ðº
ĠÐ²ÐµÑĩÐµÑĢÐ¾Ð¼
ĠÐ¶Ð´Ð°ÑĤÑĮ
ĠÑħÐ¾ÑĤÑı
ĠÐ±Ð¾Ð»ÑĮÑĪÐ¾Ð¹
Ð¸ÑĢÐ¾Ð²Ð°ÑĤÑĮ
ĠÑĥÑģÐ¿Ð¾ÐºÐ¾Ð¹ÑģÑı
ĠÐ¿ÑĢÐ¸Ð¹
ĠÐ¿ÑĢÐ¸Ð¹ÑĤÐ¸
Ð¸Ð·Ð´
Ð¾Ð»ÑĮÐ½Ð¾Ð²
Ð»Ð°Ð´Ð½Ð¾
ĠÐ¿ÐµÑĢÐ²Ñĭ
ĠÐ±ÑĥÐ¼
ĠÑĦÐµÐ´
ĠÐ¿ÑĢÐ¾ÐºÐ»Ñı
ÑģÐµÑĢÐ³ÐµÐ¹
ÑĦÐµÐ´
Ð¾Ð³ÑĢÐ°Ð¼Ð¼Ñĥ
ĠÐ±ÑĥÐ´ÐµÑĤÐµ
Ð±Ð¾Ð²
ĠÑıÐ¹ÑĨÐ°
ÑĤÑĥÑĤ
ĠÐ²ÐµÐ»Ð¸Ðº
ĠÐ²Ð¸Ð´Ñĥ
Ð¾Ð¿ÐµÑĢÐ°ÑĤÐ¸Ð²Ð½ÑĭÐ¹
ĠÑĢÐ°Ð·Ð¾Ð±ÑĢÐ°ÑĤÑĮÑģÑı
ĠÐ±Ð¾Ð»ÑĮÐ½Ð¾Ð¹
ÑģÐºÐ¸Ñħ
ĠÐ´ÐµÐ¼
ĠÐ¼ÐµÑĪ
Ð¾Ð»Ð³Ð¾
ĠÐ½ÐµÐ¼Ð½Ð¾Ð¶
ÑĥÑĢÐ¾ÐºÐ¸
ĠÐ¿ÑĢÐµÐ·Ð¸Ð´ÐµÐ½ÑĤ
ĠÐ·Ð°ÐºÑĢÑĭ
Ð¾ÑģÐ»ÑĥÑĪ
ÑĢÑĭÐ²
ĠÐ´ÐµÐ²ÑĥÑĪ
ÑģÐºÑĥÑİ
ĠÐ¾Ð±ÑĬÑıÑģÐ½Ñı
Ð¿Ð¾ÐºÐ°Ð¶Ð¸ÑĤÐµ
Ð¸ÑĤÐµÐ»Ð¸
ĠÑģÐ°Ð¼Ð¾Ð³Ð¾
ÑĤÐµÐ»
ĠÑĢÐ°Ð±Ð¾Ñĩ
ĠÐ¼Ð¾Ð»ÑĩÐ¸ÑĪÑĮ
ĠÐ¼ÐµÑģÑı
ĠÐºÐ°Ð»
ĠÐ²Ð°ÑĪÐµ
ĠÐ»ÐµÐ³
ÑĭÐ²Ð°ÑİÑĤ
ĠÐ½Ð¸Ð¶
ĠÐ¼Ð¾ÑģÐºÐ¾Ð²
ĠÐ¾ÑĤÐ½Ð¾ÑĪÐµÐ½Ð¸Ñı
ĠÑĩÐ°ÑģÑĤÐ¾
ĠÐ¿Ð°Ð»ÑĮ
ÑĤÐµÐ±Ñı
ĠÐ¾ÑĤÐ´ÐµÐ»ÐµÐ½Ð¸Ðµ
ĠÐ¿ÑĢÐ¾ÑĪÑĥ
Ð²ÑĭÑģ
Ð¿ÑĢÐ¾Ð±Ð»ÐµÐ¼
ĠÑĥÐ²Ð¸Ð´ÐµÐ»
Ð¾Ð½Ð¸Ð¼
ĠÑĢÐµÐ³
Ð¿ÑĢÐ¸Ð±
Ð¾ÑĤÐ²ÐµÑĤ
Ð¸Ð½ÑĤÐµÑĢÐ½ÐµÑĤ
Ð±Ð»Ð¾Ðº
ĠÐ¿Ð¸Ð²Ð¾
ÑģÐ»ÑĭÑĪÑĮ
ĠÐºÐ°Ð½
ĠÐ¿ÐµÑĤÑĢÐ¾Ð²Ð¸Ñĩ
Ð´Ð¶
ĠÐ°Ð½Ð´ÑĢÐµÐ¹
ÑĨÐµÑĢ
ĠÐ¿ÑĢÐ¸ÑĩÑĳÐ¼
ĠÐ¾Ð±Ð¼Ð°Ð½
Ð¸ÑĪÐ¸
ĠÐ±ÑĥÑĤÑĭ
ĠÐ°Ð´ÑĢÐµÑģÑĥ
ĠÑģÑĤÐ¾ÑĢÐ¾Ð½Ñĭ
ĠÐ¾ÑĤÑģ
ĠÐ½Ð°ÑģÑĤÑĢ
ĠÐºÐ¾Ñģ
Ð²ÑĭÐ±Ð¾ÑĢ
ĠÑģÑĤÐ¾Ð»ÑĮÐºÐ¾
ĠÐ¼ÐµÑģÑĤÐ°
ĠÐ½Ð°Ð¶
ĠÐ»Ð¾Ð¶
Ð´Ð¾Ð½
ĠÐ¼Ð°ÑģÑģ
Ð»ÐµÑĤÐºÐ¸
ĠÑģÐºÑĥÑĩ
ÑıÐ½Ð¸Ðµ
ÐµÑĢÐ°Ð»
ĠÐ¿Ð¾Ð´ÑĢÑĥÐ³Ð°
ĠÐ²Ð°ÑĪÐ¸
ĠÐ¾ÑĤÐºÐ»ÑİÑĩ
ĠÑĥÐ²Ð°Ð¶
ĠÐ²ÑĭÐ·Ð¾Ð²
ĠÑĥÐ»Ð¸ÑĨÐµ
ĠÐ±Ð°ÑĤ
ĠÐ´Ð¸
ĠÐºÐ°ÐºÐ¸Ñħ
ĠÑĢÐ°Ð¹Ð¾Ð½Ðµ
ĠÐºÑĢÑĥ
ĠÐ¼Ð¾ÑģÐºÐ²Ñĭ
ĠÐºÐ¾Ð¼Ð¼ÐµÐ½ÑĤ
ĠÐºÐ¾Ð¼Ð¼ÐµÐ½ÑĤÐ°ÑĢ
ĠÐºÐ¾Ð»Ð»ÐµÐº
Ð¾Ð²Ð°Ñı
Ð¿ÑĥÐ±
ÑĥÐµÑĤÑģÑı
ĠÑģÐ¾ÐµÐ´Ð¸Ð½
Ð¸Ð·Ð²Ð¸Ð½
ĠÐ´ÐµÐ¶ÑĥÑĢÐ½Ð¾Ð³Ð¾
ĠÑģÐ¾ÑģÐµÐ´
ĠÐ¾ÐºÑĤÑıÐ±ÑĢÑĮÑģÐºÐ¸Ð¹
ĠÐºÑĥÐ»ÑĮ
ÑĮÑİÑĤÐµÑĢ
ĠÐ´ÐµÐ²ÑĥÑĪÐºÐ°
ÑĤÐ²Ð¾
ĠÐºÑĥÑĪ
Ð¿ÑĢÐ¾Ð´Ð°Ð¶Ð°
ĠÐ»Ñĥ
ÐºÐ¾ÑĤÐ¾ÑĢÑĭÐ¹
Ð¿ÑĢÐ¸Ð½
ĠÑģÐ°Ð¼Ð°
Ð»Ð°Ð¹Ð½
ĠÐ½ÐµÑĩÐµÐ³Ð¾
ĠÐ²Ð¾Ð·ÑĮÐ¼Ð¸
ĠÐ²ÐºÐ»ÑİÑĩ
ÐµÐ½Ð¸Ð¸
Ð¸ÑıÑĤ
ĠÐ±Ð»
ĠÑģÐ±Ð¾ÑĢ
ĠÑĢÐ°Ð½ÑĮÑĪÐµ
ĠÑģÐ²Ð¾ÐµÐ¼Ñĥ
ĠÐ²ÑĭÐ·Ð²Ð°ÑĤÑĮ
ĠÐ°Ð¼ÐµÑĢÐ¸Ðº
ÑĤÐ¸ÑĢÑĥ
ĠÐ¼Ð°Ð¼Ðµ
ĠÐºÑĢÐ°ÑģÐ¸Ð²
ĠÑĤÐµÐºÑģÑĤ
ĠÐ²Ð»ÑİÐ±
ĠÐ»ÑİÐ±ÐµÑĢÑĨÑĭ
ĠÐ¿Ð¾Ð½Ð¸Ð¼Ð°ÑĤÑĮ
ÐµÑĢÑĤÐ²
ĠÐ³Ð¾Ð½
ĠÐ¼ÑĥÐ·ÑĭÐºÐ°
ĠÐ¿Ð¸ÑģÐ°Ð»
ĠÑģÐ¸Ð´ÐµÑĤÑĮ
Ð·Ð²Ð¾Ð½Ð¸ÑĤÐµ
ĠÑĤÐ°Ð±
ĠÐ½Ð°Ð¹Ð´Ñĥ
Ð¾ÑģÐºÐ¾ÑĢ
Ð»Ð¾Ð²Ð¸Ñĩ
ĠÐ¿Ð°Ñģ
Ð¼Ð¾Ð¶ÐµÑĪÑĮ
ĠÐ½Ð°ÑĢÑĥÑĪ
ĠÐ¼Ð¸ÑħÐ°Ð¹
ĠÐ´Ð²Ð¾ÑĢ
Ð°Ð½Ð³
ĠÑıÑģÐ½Ð¾
Ð¼ÑĥÐ¶ÑĩÐ¸Ð½Ð°
ĠÐ¿Ð¾Ð´Ð²
Ð½Ð°ÑĤÑĮ
ÑĭÐ²Ð°Ð»
ÑīÐµÑģÑĤÐ²
ĠÐ·Ð°Ð¿Ð»Ð°ÑĤ
ĠÐ·Ð²Ð¾Ð½ÐºÐ¸
ĠÐ¿ÑĢÐ¸ÑıÑĤÐ½Ð¾
ĠÐ³Ð»Ð°Ð·Ð°
Ð¼Ð¾ÑĢ
ĠÐ²Ð°ÑĪÑĥ
ĠÐ¸Ð½ÑĦÐ¾ÑĢÐ¼Ð°ÑĨÐ¸Ñı
ĠÐ¿Ð¾ÐºÑĥÐ¿
Ð¸ÑĢÐ¾Ð²ÐºÐ°
ĠÑĥÐ´Ð°ÑĢ
ÑıÐ³
ÐºÐ¾ÑĤ
ĠÐ±ÐµÑģÐ¿Ð»Ð°ÑĤÐ½Ð¾
ÑĦÐ¸Ð³Ð°
ĠÐ½Ð¾Ð¼ÐµÑĢÐ°
ĠÐ¿ÐµÑĢÐµÐ¶
Ð°Ð²Ð°
ĠÐºÑĥÑħ
ĠÐ³ÑĢÑĥÐ±
ĠÐ·Ð°Ð¼ÐµÑĩ
Ð½Ð°ÑĢ
ÑĢÑĥÐ·
Ð¿Ð¾Ð½Ð¸Ð¼Ð°Ñİ
Ð¿Ð¾Ð½Ð¸Ð¼Ð°ÐµÑĪÑĮ
ÑıÐ¶
ĠÑĨÐµÐ»ÑĮ
Ð³Ð¾Ð²Ð¾ÑĢÐ¸ÑĤÐµ
Ð¼Ð¾Ð½ÑĤ
Ð¿ÐµÑĢÐµÐ´
ÐºÐ°Ð·
Ð¼ÐµÑĤÑĢÐ¾
ĠÐºÐ¸ÑĢ
ĠÐ²Ð¾Ð½ÑİÑĩÐ¸Ð¹
ÐµÐ´Ð°
ĠÐ¾ÑĤÐ²ÐµÑĤÐ¸Ð»
ÑĤÑĥÑĢÑĭ
Ð¾Ð±ÑĬÑıÑģ
ĠÑģÑĥÑĪÐ¸
Ð¸Ð¿
ÑĢÑı
ĠÐºÑĥÐ±
ĠÐ¶ÐµÐ½Ð°
Ð¼ÐµÐ»
ĠÐ¸Ð·Ð±
ĠÑįÑĤÐ¸Ñħ
Ð»Ð¸ÐºÐ¸
ÑģÑĤÑĢÐ¾Ð¹
ĠÐºÑĢÑĥÐ³
ĠÑģÐ¾Ð»Ð½ÑĨÐµ
ĠÐ¾Ð¿Ð»Ð°ÑĩÐ¸Ð²Ð°ÑĤÑĮ
Ð¿Ð¾ÑģÐ»Ðµ
ĠÐ¿Ð¾ÑģÐ¼Ð¾ÑĤÑĢÐµÑĤÑĮ
ĠÐ¾Ð´Ð½Ð¾
ĠÐ´Ð¾Ð³Ð¾Ð²Ð¾ÑĢÐ¸Ð»Ð¸ÑģÑĮ
Ð²Ð»Ð°Ð´Ð¸Ð¼Ð¸ÑĢ
ĠÐ²ÐµÑĤÐµÑĢ
ĠÐ±Ð¾Ð»ÑĮÐ½Ð¸
ĠÐ³ÑĥÐ»ÑıÑĤÑĮ
ĠÑģÐ»ÑĭÑĪÐ¸ÑĤÐµ
ĠÐ¿ÑĢÐ¾Ð²Ð¾Ð´
Ð½ÐµÐ³Ð¾
ĠÑĢÐµÐ±ÑĳÐ½ÐºÐ°
Ð²ÑĭÐ¿
ĠÐ¿ÑĢÐ¸ÑģÐ»
ĠÑħÐ¾ÑĩÐµÑĤÑģÑı
ĠÐ´ÐµÐ»Ð°ÐµÑĤ
ÐµÐ²Ð¾Ð¹
Ð¾ÐºÑģ
ĠÑħÐ¾ÑĢÐ¾ÑĪÐ¸Ð¹
ĠÑĩÑĳÑĢ
Ð´Ð¾Ð±
ĠÐ¼Ð¸Ð»Ð¸ÑĨÐ¸Ð¸
ĠÐ¿Ð¸Ð·Ð´Ð¸
ĠÐ¿Ð¸Ð·Ð´Ð¸ÑĪ
Ð¾ÐµÑħÐ°ÑĤÑĮ
ĠÐ¿ÑĢÐµÐºÑĢÐ°Ñģ
ÑĤÐ°Ð»
ĠÐºÐ¾ÑĪ
Ð½ÐµÑĤÑĥ
ĠÐ¿ÑĢÐ¸ÐµÐ´ÐµÑĤ
ĠÐ¿Ð¾ÑģÑĤÐ¾ÑıÐ½
ÑıÑİÑĤÑģÑı
ĠÐ¿ÐµÑĢÐ²ÑĭÑħ
ÑıÐ´Ñı
Ð½Ð¾Ð²ÑĭÐ¹
ÑĥÑĢÐ³ÑĥÑĤ
ĠÐ½ÐµÑĢ
ĠÐ·Ð½Ð°ÑİÑĤ
ĠÐ¿Ð¾Ð½Ð¸Ð¼Ð°ÐµÑĤ
ÑĤÐ²ÐµÑĢÐ¶
ĠÑĥÐ¼ÐµÑĢ
ĠÐ½Ð¾ÑĢÐ¼Ð°Ð»ÑĮÐ½ÑĭÐ¹
Ð¿Ð¸
Ð³Ð¾ÑĢÐ¾Ð´Ð°
Ð»Ð¸ÑģÑĮ
Ð¼Ð¸Ð»
ĠÐ¿ÐµÑĢÐµÐ´Ð°Ð¼
Ð¸ÑĪÐºÐ°
Ð½Ð¾Ð¿
ĠÐ¸ÑĢ
Ð·Ð°Ð¼
Ð°Ð»ÐµÐºÑģ
ĠÐ¿ÑĢÐ¾ÑģÑĤÐ¸ÑĤÑĥÑĤ
Ð¸Ð½Ð°Ð»
ÑĢÑĥÑĤÐ¾Ð¹
ÑīÐ¸Ð½Ð°
ĠÐ¸Ð½ÑĦÐ¾ÑĢÐ¼Ð°ÑĨÐ¸Ð¸
ĠÐ»Ð¾Ð¼
ĠÑħÐ²Ð°ÑĤÐ¸ÑĤ
ĠÐ½ÐµÐ¼Ð½Ð¾Ð¶ÐºÐ¾
ÑīÐ¸Ðº
Ð¿Ð¾Ð¿
ÑĥÐ»ÑıÑĢ
ÑĭÑĢ
ĠÐ¿Ð¾ÑĤÐµÑĢ
ĠÑģÐ¿ÑĢÐ¾ÑģÐ¸ÑĤÑĮ
ĠÐ¿ÑĢÐ¾Ð³ÑĢÐ°Ð¼Ð¼Ð°
ĠÐ¿Ð¾Ð·Ð´Ð½Ð¾
Ð¾Ð·Ð°
ĠÐ¿Ð¾ÑģÑĤÐ°Ð²Ð¸Ð»
ĠÑģÐ¾Ð³Ð»Ð°ÑģÐµÐ½
ÑİÐ±
ĠÐ´ÑĢÑĥÐ³ÑĥÑİ
ĠÐ½Ð°Ð»Ð¾Ð³
Ð¸ÑĩÐµÑģÐºÐ°Ñı
ĠÐ·ÐµÐ¼
ÑĳÑĪÑĮÑģÑı
ĠÐ½Ð°ÑĢÐ¾Ð´
ÑĢÐ°Ð´Ð¸
Ð½ÑĭÐ¼Ð¸
Ð¶Ð¸Ð²
ÑĤÐ¾ÑĢÑĭ
Ð¿ÑĥÑĤÐ¸Ð½
Ð¿Ð¾Ð²ÑĤÐ¾ÑĢ
ĠÑĢÐ¸Ñģ
ÑĦÑĦ
ĠÑĥÑĢÐ¾Ð´
Ð¾Ð²Ð°Ð½Ð¸Ðµ
ĠÐ¿ÐµÑģÐ½Ð¸
Ð½ÐµÐ·
ĠÐ¿ÐµÑĤÑĥÑħ
ĠÐ±ÑĢÐ°ÑĤÑĮ
ĠÐ¿Ð¾Ð¿Ð°Ð´
ĠÑĤÐ°Ð½ÑĨ
ĠÐ¼Ð°Ð»ÑĮ
ĠÐ¸Ð½ÑĤÐµÑĢÐ½ÐµÑĤÐ°
ÐºÐ¾Ð²Ð¾Ð´
Ð¼Ð¾Ð½
ĠÐ¿ÑĢÐ¾Ð´Ð¾Ð»Ð¶
ĠÐ¿Ð¾Ð´Ð¿Ð¸Ñģ
ĠÐ¿ÐµÑĢÐ²
ĠÑģÐ¾ÑĤ
ĠÑĩÐ°Ð¹
ĠÐ¼Ð°ÑĪÐ¸Ð½Ñĭ
ĠÑģÑĤÐ¾Ð¸
Ð²Ð¾Ðµ
Ð¸Ð½ÑģÐºÐ¸Ð¹
ĠÐ¸Ð´ÑĥÑĤ
ÑĦÐ¾ÑĤ
Ð¿Ð¾ÑĢ
ĠÑģÐ°Ð´
ĠÑĪÐ°ÑĢ
ĠÐ²Ð·ÑıÐ»Ð¸
ĠÐ´Ð¸Ðº
ĠÑģÐµÐºÑĥ
ĠÑģÐµÐºÑĥÐ½
ÑģÑĤÐ²Ð¸Ðµ
Ð³Ð¾Ð³ÑĢÐ°Ð´
ÐºÐ°ÑĢÑĤÐ¸Ð½ÐºÐ¸
ĠÑĢÐ°Ð·Ð½ÑĭÐµ
ĠÐ²Ð·ÑĢÐ¾ÑģÐ»ÑĭÐ¹
ÐµÐºÐ¾Ð¼
ĠÐ·Ð°Ñī
ĠÐ²Ð´ÑĢÑĥÐ³
ÑıÐµÑĤÑģÑı
Ð°Ð»Ñĳ
ĠÑģÐ¾Ð±Ð¸ÑĢÐ°ÑİÑģÑĮ
ÑħÐ²Ð°ÑĤ
Ð¾Ð±Ð»Ð¸ÑĤÑĮ
Ð¾Ð¶Ð¸
Ð°ÑĢÐ°ÑĤ
ĠÑģÐ¾Ð±Ð¾Ð¹
Ð¿Ð¾ÑģÐ¼Ð¾ÑĤÑĢ
ĠÑĢÐ°Ð·Ð½Ð¸ÑĨÐ°
Ð´Ð°Ð¹
ĠÐ·Ð°ÑģÑĤÐ°Ð²
ĠÐºÐ¾Ð½ÑĩÐµÐ½ÑĭÐ¹
ÑģÐ¼Ð¾ÑĤÑĢÐ¸
ĠÐ¿ÐµÐ´Ð¾ÑĢÐ°Ñģ
ĠÐ½ÑĥÐ¶Ð½Ñĭ
ĠÐ²Ð¾Ð¿ÑĢÐ¾ÑģÐ¾Ð²
ĠÑĦÑĥÑĤÐ±Ð¾Ð»
ÑĤÐ¾ÑĢÐ¾Ð¶
ĠÐ±ÑĢÐ¾Ð½
ĠÑĤÐ¾ÑĤ
ĠÐ¼Ð¾Ð»Ð¾Ð´ÐµÑĨ
Ð½ÑĥÐ¶
ĠÐ¿ÐµÑĢÐµ
ĠÐºÐ¾Ð¼Ð¿ÑĮÑİÑĤÐµÑĢ
Ð½ÐµÐ¼
ĠÐ¼Ð¾Ð±Ð¸Ð»ÑĮÐ½ÑĭÐ¹
ĠÐ¾ÑģÑĤÐ°Ð»Ð¾ÑģÑĮ
ĠÐ¿ÑĥÐ½Ðº
Ð¸Ð±Ð»Ð¸
ĠÐ¿ÐµÑĢÐµÐ´Ð°Ñĩ
Ð²Ð°Ñģ
Ð¼Ð¸ÑĤÑĢ
ĠÑī
ĠÐ¿Ð»Ñİ
ĠÐ¿Ð¾Ð·Ð²Ð¾Ð½Ð¸
Ð¾ÑĤÐºÑĢÑĭÑĤÑĮ
Ð¾Ð²Ð¾Ð·
Ð¸Ð½ÑĤÐµÑĢÐµÑģÐ½Ð¾
ÑħÐ¾Ð´Ð¸ÑĤÑĮ
Ð¾Ð³Ð¸
Ð¿ÐµÑĢÐ°ÑĤÑĥÑĢÐ°
ĠÐ¿Ð¾ÑĪÑĳÐ»
Ð¿ÐµÑĢÐµÐ·Ð²Ð¾Ð½
ĠÐ»ÑİÐ±Ð¸Ð¼ÑĭÐ¹
ĠÐ¿ÑĥÑĤÐ¸Ð½
Ð¸Ð»ÑĮÐ¼Ñĭ
ĠÐ²Ð°Ð¶Ð½Ð¾
Ð°ÑĤÑĮÑıÐ½Ð°
Ð³Ð¾Ð²
ĠÐ²ÑĭÐºÐ»ÑİÑĩ
ĠÐ³Ð»ÑĥÐ¿
ĠÐ½ÐµÐ¹
Ð¿ÑĢÐµÐ´ÑģÑĤÐ°Ð²
Ð¿Ð¾Ð´ÑĥÐ¼
ĠÐ·Ð½Ð°Ð»
ÑĥÐ±Ð°
ĠÐ´Ð¾Ð²ÐµÑĢ
ĠÐ³Ð¾ÑĤ
ĠÐ¿ÑĢÐ¾Ñĩ
ÑıÑĤÑģÑı
ÑĥÑİÑĤ
Ð±Ð»
ĠÐ³Ð¾Ð»ÑĥÐ±
ĠÑĤÐµÐ»ÐµÐ²Ð¸Ð·
ĠÐ´ÐµÐ¹ÑģÑĤÐ²Ð¸Ñı
ĠÐ°Ð»Ð»Ð°
ĠÐ½Ð°Ð´Ðµ
ÐµÐ½ÐºÐ°
ĠÐ¾ÑĤÐ²ÐµÑĩÐ°ÐµÑĤ
ĠÐ²Ð·ÑıÑĤÑĮ
Ð°Ð½Ñģ
ĠÐºÐ¾Ð´
ĠÐ¼ÑĥÐ»ÑĮÑĤÐ¸Ðº
Ð¾ÑģÐ¾Ð±
ĠÐ¾Ð±ÐµÐ·ÑĮÑı
ĠÐ¾ÑĤÐ»Ð¸Ñĩ
ÑĢÐ¸Ðº
ÐµÐ»Ð¸Ð³
ĠÐ·Ð°ÐºÑĢÐ¾Ð¹
ĠÐ¼Ð°Ñģ
Ð¿ÑĢÐ¾ÑģÑĤ
ĠÑģÐ¼Ð¾Ð³
ĠÐ³ÑĢÐ°Ð½
ĠÐ½ÐµÑģ
Ð¾Ð±Ð»Ð°Ñģ
ĠÐ¼Ð°Ð³Ð°Ð·Ð¸Ð½
ĠÐ·Ð´Ð¾ÑĢÐ¾Ð²ÑĮÑı
ÑĢÑĥÑģÑĤ
Ð½Ð¸Ñħ
ĠÑģÐ¿ÑĢ
ĠÑĢÐ°Ð±Ð¾ÑĤÐµ
ÑĥÐ¼ÐµÐ½ÑĤ
ÑĤÐ¾Ð¶Ðµ
ĠÑĦÑĢÐ°Ð½
Ð¾Ð±Ð½Ð¾
ĠÐ±ÑĥÐ´Ð¸
ĠÐ¼Ð¾Ð»Ð¾Ð´Ð¾Ð¹
Ð»ÑİÐ±Ð»Ñİ
ĠÐ¿ÑĭÑĤÐ°ÑİÑģÑĮ
ÑĢÑıÐ´
ÑĳÐ±Ð°Ð½Ð½ÑĭÐ¹
ĠÐ²Ð¾ÑģÐ¿Ð¸ÑĤ
ĠÐºÐ¾Ð¼Ð¼Ñĥ
Ð·Ð²Ð¾Ð½Ð¸ÑĤÑĮ
ĠÐ±Ð°Ð±ÑĥÑĪ
Ð¾Ð²Ð¾Ð´
Ð·ÐµÐ¼
Ð»ÑıÐµÑĤ
ÑģÐºÐ°Ð¶Ñĥ
ĠÐ¾Ð´Ð½Ð¾Ð¹
Ð¸ÐºÑģ
ÑĤÐ°ÑĤÑĥ
ÑĢÐµÐ¼Ð¾Ð½ÑĤ
ĠÐ¸ÑģÑĤÐ¾ÑĢ
ĠÐ±Ð¾ÑĢÐ¾Ð²Ð¸Ñĩ
ĠÐ¾Ð¿ÑĭÑĤ
ĠÐ¼Ð¸Ðº
ĠÑĤÑĢÐµÐ½
Ð´ÐµÐºÑģ
ĠÐ´Ð¾ÑģÑĤÐ°Ð»
ĠÑģÑĤÑĢÐ°Ð½Ð°
Ð»Ð¾ÑīÐ°Ð´ÑĮ
ĠÐ·Ð°Ð±ÐµÑĢ
ĠÐ¿Ð°Ð¿Ð°
Ð¿ÐµÑģÐ½Ð¸
Ð¿ÐµÐºÑĤ
ĠÐ±Ð°ÑĪ
ĠÐ¿Ð°ÑĨÐ°Ð½
Ð»ÑİÐ±Ð¸Ð¼Ð°Ñı
ĠÑħÐ°Ð±Ð°ÑĢ
Ð¾Ð²ÑģÐº
ÐµÑĩÐµÐ½
ÑģÐ»ÑĭÑĪ
ÑģÑĤÑĢÑĥÐº
ĠÐºÑĥÐº
ĠÑĢÐ¾Ð±
ĠÐ´ÐµÐ´
ĠÐ²ÑĭÐ¹Ð´Ñĥ
ĠÐµÐ´Ð¸Ð½
ÐºÐ¾Ð¿
Ð¿Ð¾ÐºÐ°Ð·Ð°ÑĤÑĮ
ĠÑģÐµÐ²ÐµÑĢ
ĠÐ²ÐµÐ´
ÑıÑĤÐ¸
ĠÐ¿ÑĢÐ¾ÑĦ
ÐµÑģÑģÐ¸Ð¾Ð½
Ð°Ð½Ð°Ð²
ĠÐ¿Ð¾Ð²ÑĤÐ¾ÑĢÑıÑİ
ĠÐ½Ð°Ð¿Ð¸ÑģÐ°ÑĤÑĮ
Ð²ÑģÐµÐ³Ð¾
ĠÐ¼Ð°ÑĤÐµÑĢÐ¸
ÑĦÐ°
Ð½ÑĥÑĤÑĭÐ¹
ÑĭÐ²Ð°ÑĤÑĮÑģÑı
ĠÐ·Ð°Ð¿Ð¸ÑģÐ°Ð»Ð°
ĠÑĢÐ¾ÑģÑĤÐ¾Ð²
Ð¹ÑģÑı
ÐµÐ½ÑĮÐºÐ¾
ĠÐ¾ÑĤÐ·Ñĭ
ĠÐ¾ÑĤÐ·ÑĭÐ²Ñĭ
ĠÐ¸Ð´Ñĥ
ĠÑĢÑĥÐ±
ĠÐ¸Ð´Ð¸Ð½Ð°ÑħÑĥÐ¹
Ð¸Ð²Ð°ÑİÑĤ
ĠÐ³Ð¾ÑĢÑıÑĩ
ĠÐ²Ð°ÑĢ
ĠÑĤÐ°Ð³
Ð»ÑıÐ¶
Ð»ÑĮÐ±
Ð±ÐµÐ»
Ð´Ð¾Ðº
ĠÑģÑĤÐ°Ð»
ĠÐ½Ð°ÑĢÐºÐ¾Ð¼Ð°Ð½
ĠÑħÐ»ÐµÐ±
ĠÐ·Ð°Ð½Ð¸Ð¼Ð°ÐµÑĪÑĮÑģÑı
ĠÑħÑĥÐ¹
ĠÑģÑĢÐ°Ð²
ĠÑģÐ»ÑĭÑĪÐ°ÑĤÑĮ
ĠÐ¿ÑĢÐ¾ÑĨ
ĠÐ¿Ð¾ÑģÑĤÐ¾ÑıÐ½Ð½Ð¾
ÐµÑĤÐ¸
ĠÐ¿Ð¾ÑħÑĥÑİ
ĠÐ¸Ð³ÑĢÐ°ÑĤÑĮ
ĠÐ±ÑĥÐ¼Ð°Ð³
Ð¼Ð°ÑĤ
ÑĥÐ»Ñĭ
ÑĨÐ°Ð¼Ð¸
ĠÐ¼Ð¾Ð½
Ð¼Ð¾Ð½ÑĤÐ¾Ð²Ð°
Ð¸ÑĨÐ¸
Ð¾Ð²Ð¾Ð»ÑĮÐ½Ð¾
ĠÑģÐ»Ð¸
ĠÐ¿Ð¾Ð¼ÐµÐ½Ñı
Ð°ÑĪÑĥ
ÑĦÑĥÑĤÐ±Ð¾Ð»
Ð½ÑıÑĤÑĮ
Ð¸Ð»Ð¸ÑīÐµ
Ð´ÐµÑĢÐµÐ²
ĠÐ¼Ð°Ð¹
Ð°ÑĤÑĥÑĢÑĥ
ÐµÑħÐ°Ð»
ĠÐ·Ð½Ð°ÐµÐ¼
Ð°ÑĪÐºÐ°
ĠÐ³ÑĢÑıÐ·
Ð·Ð°ÐºÐ¾Ð½
ĠÑģÐ¿ÑĢÐ°ÑĪÐ¸Ð²Ð°ÑĤÑĮ
ĠÐ´Ð°Ð¹
Ð¸Ð¼Ñı
Ð´ÐµÑĢ
Ð¿Ð¾Ð·Ð²Ð¾Ð½Ð¸ÑĤÐµ
ĠÑĥÑĤÑĢÐ¾
ĠÐºÑĢÐ°ÑģÐ½Ð¾Ð³Ð¾ÑĢÑģÐº
Ð¿ÑĢÐ¾Ð³ÑĢÐ°Ð¼Ð¼Ð°
ĠÑıÐ·ÑĭÐº
ĠÑħÐ¾Ð´Ð¸ÑĤÑĮ
ĠÑĥÑĩÐ¸ÑĤ
ÐºÑĢÐ°ÑģÐ½Ð¾Ð³Ð¾ÑĢ
Ð¸Ð´Ð¾ÑĢ
ĠÐµÑĳ
Ð¿Ñĭ
ÑĨÐ¸Ð¾Ð½
Ð¾ÑĢÐ²Ð°Ð»
ĠÐ¿ÑĢÐ°Ð²Ð°
ÑĭÐ²Ð°Ð¹
ÑĳÐ¶
ĠÐ¼ÐµÑĩ
ĠÑĤÐ°ÐºÐ¶Ðµ
ĠÐ¿Ð¾ÑģÐ¼Ð¾ÑĤÑĢÐ¸ÑĤÐµ
Ð°ÐºÐ¾Ð½
ĠÑĥÐ¶Ð°Ñģ
ÐºÐ°Ð½
ÐµÐ»ÑģÑı
ĠÑģÐµÑĢÑĮÐµÐ·Ð½Ð¾
ĠÑģÐ¸Ð³
ĠÐ¿Ð¾Ð´Ð°ÑĢÐ¾Ðº
ĠÑĤÐ¾Ð½
ĠÐ½ÐµÐ¿Ð¾Ð½ÑıÑĤ
ÑģÐ²Ð¾Ð±
Ð½Ð°ÑĪ
Ð»ÑĮÑı
Ð¿ÑĢÐ¾Ðº
Ð²Ð¾Ð¹
ÑįÑĤÐ¾ÑĤ
Ð¿Ð¾ÑģÐ»ÐµÐ´
ÐµÑı
ÑĢÐ°Ð·Ð³Ð¾Ð²Ð¾ÑĢ
ĠÐ²Ð»Ð°Ñģ
ĠÐ±ÑĥÐ´ÑĤÐ¾
ĠÑĢÐ°ÑģÑģÐºÐ°Ð·Ð°ÑĤÑĮ
ĠÐ³ÑĢÐ°Ð¼
Ð°Ð½ÑĤÐ°
ĠÑıÐ³
ĠÐ¿ÐµÐ´Ð¾ÑĦ
Ð¿Ð¾Ð»ÑĥÑĩ
ĠÐ½Ð°ÑĩÐ°Ð»ÑĮÐ½Ð¸ÐºÑĥ
ĠÑĪÐµ
ĠÑĥÐ·Ð½Ð°Ð»
Ð½Ð¸ÐºÐ¾Ð»
Ð¾Ð´Ñĭ
Ð¸Ð»ÑĮÐ½Ð¸Ðº
Ð¾Ð¶Ð°ÑĤÑĮ
ĠÐ¿Ð¾Ð¿ÑĢÐ¾Ñģ
ĠÐ¿ÐµÑģÐ½Ñİ
Ð±ÐµÑģ
ĠÑģÐ¼Ð¾ÑĤÑĢÑİ
ĠÐºÑĥÑģ
ÑĤÑİ
ĠÐ²Ð°Ð¶
ĠÐ¿ÑĢÐ¸Ð¼ÐµÑĢÐ½Ð¾
Ð¾Ð»Ñĭ
Ð¸ÑĤÐµÑĤ
ĠÐ´ÐµÐ¶ÑĥÑĢÐ½Ð°Ñı
Ð¼Ð¾ÑģÑĤÑĮ
ĠÐ½Ð°ÑĪÐ¸
ÑĥÐ±Ð¾ÐºÐ¾
ĠÐ½Ð°Ð³
ÑģÐ¾ÐµÐ´Ð¸Ð½
ĠÐ¿Ð¾Ð´Ð¾Ð¶Ð´Ð¸ÑĤÐµ
ĠÑĩÑĥÐ´Ð¾
ĠÑĢÑĭÐ±
ĠÑĢÐµÑģ
Ð¿Ð¾ÑģÐ»ÑĥÑĪ
ÑħÐ¾Ð²
ÑĥÐ½Ð°
ĠÑħÐ°ÑĢ
Ð°ÐºÑĤÐµÑĢ
ĠÐµÐ²Ð³ÐµÐ½Ð¸Ð¹
ĠÑĢÐ¾Ð»
ĠÐ¿ÑĢÐ¸ÑĪÑĳÐ»
ĠÑħÑĥÐ´
ĠÑĥÑĤÐ¾Ñĩ
ÑĤÑĢÐ¸
ÐºÐ°Ð¶
ĠÐ½ÐµÑģÐºÐ¾Ð»ÑĮÐºÐ¾
ĠÐ·Ð°Ð²ÐµÑģÑĤÐ¸
ĠÐ½Ð°ÑģÑĢÐ°ÑĤÑĮ
ÑĤÐµÑģÑĮ
Ð¾Ñİ
ĠÐºÐ»Ð¸
ĠÑĤÐ¾Ð¿
ĠÐ¿ÑĢÐ¾Ð¸ÑģÑħÐ¾Ð´Ð¸ÑĤ
ĠÐ½Ð°Ð´Ð¾ÐµÐ»Ð¾
ĠÐ¿Ð¾Ð¼Ð¾ÑīÑĮ
ĠÑģÐ»ÐµÐ´
Ð°Ð´ÐµÐºÐ²Ð°ÑĤ
ÐµÐ»ÑĳÐ½ÑĭÐ¹
ĠÐ·Ð½Ð°Ðº
ÑĥÐ¼ÐµÑĢ
ĠÑĩÑĥÐ²ÑģÑĤÐ²
ĠÐ¾ÑĤÐ½Ð¾ÑĪÐµÐ½Ð¸Ðµ
ĠÐ½Ð¾Ð²Ð³Ð¾ÑĢÐ¾Ð´
ĠÑĤÐµÐ»ÐµÐ³ÑĢÐ°Ð¼Ð¼Ñĥ
ĠÐ´Ð°Ð½Ð½ÑĭÑħ
Ð»Ð¾Ð¶Ð¸ÑĤÑĮ
ĠÐ¿Ð¸ÑĤ
Ð²Ð°Ð´
ĠÐ¸Ð½ÑĤÐµÑĢÐ½ÐµÑĤÐµ
ĠÐ±Ð¾ÑĢÐ¾Ð´
ĠÐ¿Ð°ÑĢÐ¾Ð²Ð¾Ð·
ÐµÐºÑĢÐµÑĤ
Ð½Ð°Ð¿Ð¾Ð¼
Ð²Ð¾ÑĢ
Ð¸Ð½Ð³ÑĢÐ°Ð´
ĠÐ½ÐµÐ¸Ð½ÑĤÐµÑĢÐµÑģÐ½Ð¾
Ð¼Ð°Ð¼
Ð¼Ð°Ð¼Ð°
Ð±Ð¾ÑĳÐ±
ĠÑįÐ½
Ð´Ð°Ð»
ĠÑģÐ»ÑĥÑĩÐ°Ð¹
Ð¿ÐµÑĢÐµÐ·Ð²Ð¾Ð½Ð¸ÑĤÐµ
ĠÑħÐ°
ĠÐ½Ð°ÐºÐ¾Ð½ÐµÑĨ
ÑģÑĤÐ²ÐµÐ½Ð½Ð¾
ÑģÐ²ÐµÑĤ
ĠÐ²ÑĭÐ±ÑĢ
Ð¿ÑĢÐ¸Ð³
Ð¸ÑĤÐµÐ»ÐµÐ¹
ĠÐ´Ð°Ð»ÑĮ
Ð¿ÑĢÐ¸Ð¼ÐµÑĢ
ĠÑĢÑĭÐ½
ĠÑĤÑĢÐµÐ±
ĠÐ³ÐµÑĢÐ¾Ð¹
Ð½Ð¸Ð·
Ð¸ÑĪÐ°
ĠÐºÐ¾Ð»Ð¸Ñĩ
ĠÐºÐ¾Ð»Ð¸ÑĩÐµÑģÑĤÐ²Ð¾
ĠÐºÑĥÐ¿Ð¸ÑĤÑĮ
ĠÐºÐ¾Ð½ÑĨÐµ
ĠÐ·Ð°Ð²Ð¸Ñģ
Ð°Ð»ÑĮÐ½ÑĥÑİ
ĠÑģÑĩÐ¸ÑĤÐ°Ñİ
ÑĤÐ°Ð½
ĠÐ¿ÐµÐ½ÑģÐ¸Ð¾Ð½
ĠÑģÐ²Ð¾ÐµÐ³Ð¾
Ð°Ð½Ð´Ð°
ĠÐ¾ÑĤÑĩÐµÑģÑĤÐ²Ð¾
ĠÐ±Ð¾Ð¼
ÐµÐ¹ÑģÐºÐ°Ñı
ĠÐ³Ð¾ÑĤÐ¾Ð²Ð°
ĠÐºÐ¾ÑĢÐ¾Ð»
ĠÐ½Ð°ÑĤÑĥÑĢ
ĠÑĨÐ°ÑĢ
Ð¾Ð»Ñı
ĠÐ¿Ð¸ÑĪÐµÑĤ
ĠÐ²Ð°ÑģÐ¸Ð»ÑĮÐµÐ²Ð½Ð°
ĠÐ´ÐµÐ»Ð°ÐµÑĤÑģÑı
ÑĭÐ²Ð°ÐµÑĪÑĮÑģÑı
ĠÐ³ÑĢÐ°Ð¶
ĠÐ³ÑĢÐ°Ð¶Ð´Ð°Ð½
ĠÐ¾ÑģÐºÐ¾ÑĢ
ÐµÑĢÐ¸Ð¹
ĠÑĤÐµÐ»ÐµÐ²Ð¸Ð·Ð¾ÑĢ
ĠÐ¼Ð¾ÑģÑĤ
Ð±ÑĥÐ´ÐµÑĤ
ĠÐ²Ð¸Ðº
Ð°Ð½Ð¸Ð¼
ĠÐ±Ð¾Ð»ÑĤ
ĠÑĢÐ¾Ð¶Ð´
ĠÐ²Ð°Ð½
Ð¼Ð°Ð³
ĠÐ´ÑĢÑĥÐ³Ð¾Ðµ
ÐµÐ±Ð°Ð»
Ð½Ð°Ð¿Ð¸Ñģ
Ð²ÑĭÐ±
ĠÐ³ÐµÐ½ÐµÑĢÐ°Ð»
ĠÑģÐ¸Ð´ÐµÐ»
Ð¸ÑģÑĮÐ¼Ð¾
ĠÐ¼ÑĥÑģÐ¾ÑĢÐ°
ĠÑĤÑĥÐ°Ð»
ĠÐ°ÑĦ
ÑĥÐ»Ð°
ĠÐ¿ÐµÑĢÐµÐ¿ÑĥÑĤ
ĠÐ²ÐºÐ¾Ð½ÑĤÐ°ÐºÑĤÐµ
ĠÐ¼Ð¸Ð½Ð¸Ð¼
ĠÐ´ÐµÐ²Ð¾ÑĩÐºÐ¸
ĠÑģÑĤÐ¾Ð¿
ĠÑģÑĥÑĤ
ĠÐ¿ÑĢÐ°Ð²Ð¾
ĠÐ²Ð»Ð°Ð´Ð¸Ð¼
ĠÐºÐ¾ÑĤÐ¾ÑĢÐ¾Ð¹
Ð¸ÑĨÑĭ
Ð¸ÑĤÑĭ
ĠÐ¿Ð¾Ð»ÑĥÑĩÐ¸Ð»Ð¾ÑģÑĮ
ĠÐ±Ð¾ÑİÑģÑĮ
ĠÐ³ÑĢÐ°ÑĦ
ÑĥÑģÐº
ĠÐ¼ÐµÐ»
ĠÐ¿ÑĢÐ°Ð²Ð´Ñĥ
Ð±Ð»Ð¸Ð¶Ð°Ð¹
ÑĩÐ½ÑĭÐ¹
Ð´Ð°Ð»ÑĮÑĪÐµ
ĠÑĩÑĤÐ¾Ð±
ĠÑģÐ¾Ð·Ð²Ð¾Ð½
ĠÐ¿ÐµÑĢÑģÐ¾Ð½
ĠÑĢÐ¾Ð·
Ð°Ð½Ð¾Ð²Ð°
Ð½Ð°Ð±
Ð¾ÑģÑĤÐ¾ÑıÐ½Ð¸Ðµ
ÑĢÐ°Ð²Ð¸Ð»Ð¾ÑģÑĮ
ĠÐ¼ÐµÐ½
Ð¸Ð²Ð°ÐµÑĪÑĮ
ĠÐ¾Ð±ÑīÐ°ÑĤÑĮÑģÑı
Ð¾Ð¹ÐºÐ°
ĠÐ»Ð¸ÑĩÐ½Ð¾
ĠÐ½Ð¾Ð³Ð¸
Ð´ÑĥÐ¼Ð°Ñİ
ÑģÐ»ÐµÐ´
ĠÐ´ÑĢÑĥÐ³Ð¸Ñħ
ĠÐ·Ð°ÐºÐ¾Ð½ÑĩÐ¸Ð»
ĠÐ´ÑĢÑĥÐ¶Ð¸ÑĤÑĮ
ÐµÑĤÐ¸Ð¹
ĠÑĤÐ²Ð¾ÑĢ
ĠÐ¿ÑĢÐ¸Ñģ
Ð¹ÑĤÐµ
ÑįÐ½
Ð¸ÑģÑĤÐµÑĢ
ĠÑĢÐµÐ±ÑıÑĤÐ°
ĠÑģÑĥÐ¿ÐµÑĢ
ĠÐ±Ð¾ÑĢÐ¾Ð²Ð¸ÑĩÐ¸
ĠÑĢÐ¾ÑģÑģÐ¸Ñı
ĠÐ·Ð²Ð¾Ð½ÐºÐ°
ĠÐ°Ð²ÑĤÐ¾
ĠÑĢÐ°ÑģÑģÐºÐ°Ð·ÑĭÐ²Ð°ÑĤÑĮ
ĠÐ½ÐµÐ²Ð°Ð¶Ð½Ð¾
ÐºÐ²Ð°ÑĢÑĤÐ¸ÑĢÐ°
ĠÑįÐºÑĢÐ°Ð½
ĠÐ²Ð¾Ð·ÑĮÐ¼Ñĥ
ĠÑģÑĤÐ¾Ð»
ÐµÑģÑģ
ĠÑĢÐµÐ±ÑıÑĤ
ĠÐ¿ÑĢÐ°Ð·
ĠÐ¿ÑĢÐ°Ð·Ð´
ĠÐ»Ð¸ÑĪÑĮ
ĠÐ´Ð°Ð»Ð°
ĠÐ¿Ð°ÑĤÑĢ
ĠÐ²Ð°ÑģÑı
ĠÐ¿Ð¾Ð·Ð½Ð°ÐºÐ¾Ð¼Ð¸ÑĤÑĮÑģÑı
ÑĤÐ°ÐºÐ°Ñı
ĠÐ´Ð½
ÐµÐ½ÐºÐ¸
ĠÐ¿Ð¾Ð´ÑĢÐ¾Ð±
ĠÐ¾ÑĤÐ½Ð¾Ñģ
ĠÑħÐ°Ð±Ð°ÑĢÐ¾Ð²ÑģÐº
ÐºÐ°ÑĢÐ°
ĠÐ¸Ð·Ð¼ÐµÐ½
ÑģÑĤÐ²Ñĥ
ĠÐ´Ð°Ð²Ð°Ð»Ð°
ĠÐ¾Ð±Ð»Ð¸ÑĤÑĮ
ĠÐ¿Ð¾Ð¶Ð°ÑĢ
ÑĨÐµÐ»
ĠÐ´Ð¸Ð²
ĠÐ¿Ð¾Ð´ÑĬÐµÐ´Ñĥ
Ð¾ÑĤÑĮÑģÑı
ĠÐºÐ¾Ð½Ñĩ
ĠÐ¿Ð¾Ð´ÑĬÐµÐ·Ð¶Ð°Ð¹
ĠÐ¿Ð¾ÑģÐ»ÐµÐ´Ð½Ð¸Ð¹
ĠÐ½Ð¾Ð²Ð¾Ð³Ð¾
ĠÐ²ÑĭÐ¿Ñĥ
ĠÐ±Ð¾Ð»Ð¸ÑĤ
ÐµÐ²ÑĭÑħ
ĠÐ½Ð°ÑħÐ¾Ð´Ð¸ÑĤÐµÑģÑĮ
ĠÐ²Ð¾ÑĢÐ¾Ð½
ĠÐ»ÐµÐ½
ĠÐ¿ÑĢÐµÐ¿
ÑĢÐ¾Ð¿Ð¾Ð»ÑĮ
ÑĥÐ´Ð°Ð»
ĠÑħÑĥÐµÐ²Ð°
ĠÑĥÑĢ
ĠÐ²Ð¾ÑģÑĤÐ¾Ðº
Ð²ÐºÐ»ÑİÑĩ
ĠÐºÐ¾ÑĢÐ°Ð±
ÑĢÑĥÑĩ
ĠÐ±ÑĢÐ°ÑĤÐ°
ĠÑĢÑĥÐºÐ°Ñħ
ĠÑģÐ¾Ð¾Ð±ÑīÐµÐ½Ð¸Ðµ
ÑĥÐµÐ¼
ĠÐ¾Ð±ÑĬÑıÐ²Ð»ÐµÐ½
ĠÐ²Ð°Ð»ÐµÑĢÐ°
Ð°ÐºÐ°
ÑĩÐ°
ÑĥÑģÑĮ
ĠÐ¿ÑĢÐ¸Ð³Ð¾ÑĤÐ¾Ð²
ĠÐ½ÐµÐ´Ð°Ð²Ð½Ð¾
ĠÐ¸ÑģÐ»
ĠÐ¸ÑģÐ»Ð°Ð¼
ĠÑĢÐ°Ð·Ð³Ð¾Ð²Ð¾ÑĢÐ°
Ð°ÑĤÑĥÑĢ
Ð¸Ð²Ð°Ð»
ĠÐ²ÑĭÐ´
ĠÐ¿ÑĢÐ¾Ð³ÑĢÐ°Ð¼
Ð½Ð°Ð¶
ĠÐºÐ½Ð¸Ð¶
ĠÐ¿ÑĢÐ¾ÐµÑħÐ°ÑĤÑĮ
Ð¼ÐµÑĪ
ÑĢÐ¾Ð²Ð°ÑĤÑĮ
ĠÐºÐ¸ÑĢÐ¾Ð²
ĠÑģÑĤÐ¸
ÑĤÐ¾Ð³Ð¾
ĠÐ¿Ð¾ÑĢÑıÐ´ÐºÐµ
ĠÐºÐ¾Ð½ÑĦ
ÑĥÑħÐ¾Ð²
ĠÐ¼Ð¾ÑģÐºÐ²Ð°
Ð²Ð¾Ð¿ÑĢÐ¾ÑģÑĭ
Ð¿Ð¾ÑģÑĤÐ°Ð²
ĠÐ²ÑģÑĤ
ÑĤÐ¾ÑĢÐ³
ĠÑİÐ¶
ĠÐ¸Ð·Ð²ÐµÑģÑĤ
ÐµÐ½Ð½ÑĭÐµ
ĠÐ¿Ð»Ð¾ÑħÐ¾Ð³Ð¾
ĠÑģÑĬ
ĠÐ·Ð°Ð¿Ð¸ÑģÐ¸
ĠÐ±Ð°Ð¹
ĠÐ³Ð¾ÑĢÐ¾Ð´Ñĥ
ĠÑĢÐ°Ð·Ñĥ
ĠÐ²ÑĭÑĩ
ĠÐ¿Ð¾Ð¹Ð´ÑĳÐ¼
Ð¼Ð°Ðº
ĠÐ²Ð¸Ð´Ð¸Ð¼Ð¾
ĠÐ¾ÑĤÐ´Ð°
ĠÑĤÑĢÐµÐ·
Ð·Ð¾ÑĢ
ĠÐºÐ¸Ð»
ÐºÐ°ÐºÐ¾Ð¼Ñĥ
ĠÑĥÑĢÐ¾Ð²
ĠÐ¿ÑĢÐµÐ´ÑģÑĤÐ°Ð²ÑĮ
ÐµÐ½Ñĥ
ĠÐ²ÐµÐ·
ĠÐ´Ð°Ð»Ðµ
ĠÐ´Ð°Ð»ÐµÐºÐ¾
Ð¾ÑģÐ½Ð¾Ð²
ĠÑĥÑĩÐ¸Ð»Ð¸ÑīÐµ
Ð¾Ð¸Ð½
ĠÐºÐ°Ð²
Ð´ÐµÑĢÐµÐ²Ð½Ñı
Ð½ÐµÑĪÑĮ
Ð´Ð°ÑĤÐ°
ÑģÐ°Ð»
ĠÐ¿ÑĭÑĤÐ°Ð»ÑģÑı
ĠÐ½Ð°Ð±Ð¸ÑĢ
ĠÑĤÐ°ÐºÐ¸Ð¼Ð¸
ĠÐ±ÑĥÑħÐ°ÑĤÑĮ
Ð½Ð°Ð²ÐµÑĢ
ÑĤÐ¾Ð³Ð´Ð°
Ð³Ð¾Ð»ÑĥÐ±
ÑĥÑģÑĤÐ¸Ð¼
ĠÑģÐ°Ð¹ÑĤ
Ð¾Ð»Ð¸Ð¹
ĠÑģÐ¾Ð»Ð¸
ĠÐ»Ñĳ
Ð·Ð°Ð´
ĠÑģÐ°Ð¼Ð°ÑĢ
ĠÐ´ÐµÐ²Ð¾Ñĩ
ĠÑħÐ¾ÑĤÑıÑĤ
ÑģÐ¾Ð±
Ð¾ÑĢÐ¾Ð²Ð¾
ĠÑģÑĢÐµÐ´
ĠÐ¾Ð±Ð¾Ð·
Ð¾Ð»ÑĮÑĪÐµ
Ð·Ð°Ð³
ĠÑģÑĭÐ½
ĠÐ´ÐµÐ»Ð°Ð»
ĠÐ¿Ð¾Ð²ÐµÐ´
ĠÐ¿ÑĢÐ¸ÐµÑħÐ°Ð»Ð¸
Ð¿Ð¾ÐºÐ¾Ð¸
Ð¿ÑĢÐ¾Ð²ÐµÑĢ
Ð°Ð½Ñĩ
ÐºÑĥÐ»Ñı
ĠÐ¼ÐµÑģÑıÑĨ
ĠÑĥÐ³Ð¾Ð»Ð¾Ð²
ÑĩÐ¸Ð½
Ð¿Ð°ÑĢÐ°ÑĤ
ĠÑĥÐ¼Ð°
ĠÑģÑĤÐ°Ð»Ð¾
ĠÑĢÐ°Ð·Ð¼ÐµÑĢ
Ð»ÑĥÑĩÑĪÐµ
ĠÐ¼Ð°Ð¼Ð¾Ð¹
Ð¿ÑģÐ¸Ñħ
ĠÑĩÐµÑĤ
ĠÑĤÐ°ÐºÐ¸Ð¼
ĠÐ½Ð°ÑĥÑĩ
Ð¸ÑĦ
ĠÐ½ÐµÐ´ÐµÐ»Ñİ
Ð¾Ð»ÑĮÐ³Ð°
ĠÐ¾Ð±ÑĬÑıÑģÐ½ÑıÑİ
Ð¾ÑĤÐ´ÐµÐ»
Ð¼Ð¾ÑģÐºÐ¾Ð²
ĠÐ½ÐµÐ¼ÐµÑĨ
ĠÐ¿Ð¾Ð²ÑĤÐ¾ÑĢÐ¸ÑĤÑĮ
ĠÐ¶Ð¸Ð²Ð¾ÑĤÐ½Ð¾Ðµ
ĠÐ·Ð´ÑĢÐ°Ð²ÑģÑĤÐ²ÑĥÐ¹
ĠÐ²ÐµÐ½
ÑĤÐ¸Ðµ
ĠÐ·ÑĥÐ±
ĠÐ½Ð°ÑĩÐ°Ð»
ĠÐ·Ð°Ð½Ð¸Ð¼Ð°ÑĤÑĮÑģÑı
ÑĢÐ°Ð·Ð³
ÑĢÐ°Ð·Ð³Ð¾Ð²Ð°ÑĢÐ¸Ð²
ÐºÐ»Ð¸
Ð²ÐµÐ´ÑĮ
ÑĢÐµÐ¹
ĠÑĥÐ´Ð°ÑĩÐ¸
ĠÐºÐ¸
ĠÐ´Ð¾ÐºÐ»Ð°Ð´
ĠÐ¸Ð´ÑĤÐ¸
Ð°Ð³Ð°
ÐµÑĩÐµ
ĠÑģÐ¾ÑĤÑĢÑĥÐ´
ĠÐ¿Ð¾Ð´ÑĬÐµÑħÐ°ÑĤÑĮ
ĠÑĥÐ¿ÑĢÐ°Ð²
ÑĤÑĥÐ¿
ĠÐ¿Ð¾Ð½Ð¸Ð¼Ð°ÑİÑĤ
ÑĥÑħÐ¾Ð¹
ĠÑģÐµÐºÑģ
ĠÐºÐ»Ð°ÑģÑģ
ĠÐ¸Ð·Ð´ÐµÐ²Ð°ÐµÑĤÐµÑģÑĮ
ÑĨÐµÑĢÑĤ
Ð¸ÑĤÐ°Ð½
ĠÐ²Ð·Ð°
ĠÑģÐ¼ÐµÑĢ
ĠÑĢÐ°Ð·Ð³Ð¾Ð²Ð°ÑĢÐ¸Ð²Ð°ÐµÑĪÑĮ
Ð½Ð¸ÑĪÑĮ
ĠÑĩÐµÐ¼Ñĥ
ĠÑħÑĥÑİ
ĠÐ²Ð¾Ð»Ð³Ð¾Ð³ÑĢÐ°Ð´
ĠÑģÑĢÐ¾Ðº
ĠÐ±ÑĥÑĤÑĭÐ»
ÑĮÐµÐ²
ÑĢÐ°Ð»Ð°
ĠÑĥÐºÑĢ
ĠÐ¿Ð¾ÑģÑĤÐ°Ð²Ð»Ñİ
ÑĥÐ´Ð°ÑĢ
ÐµÐ·Ð´Ð°
ÐºÐ¸Ð½Ð¾
ĠÐ»ÑİÐ´ÑıÐ¼
ĠÐ·Ð°ÑĪ
ĠÑģÐºÐ¸Ð½Ñĥ
Ð¿Ð¾Ð¿ÑĢÐ¾Ð±
Ð±ÐµÐº
Ð¾Ð²ÑĭÐµ
ÑħÐ²Ð°ÑĤÐ¸ÑĤ
ĠÐ¾Ð±ÑĭÑĩÐ½Ð¾
ÐºÐ°ÑĤ
ĠÐ¿Ð¾Ð»ÐµÑĤ
ĠÐ²Ð¾Ð´Ñĭ
ÐµÐ»Ð¾Ðº
ĠÑĢÐ¾Ð¼
ĠÐ°Ð½Ð°ÑĤ
Ð²Ð½Ñĥ
ĠÐ¿ÐµÑĢÐµÐ´Ð°Ð¹
ĠÐ²ÑĭÑħÐ¾Ð´Ð¸ÑĤ
Ð½Ð¸Ð½Ð°
Ð°Ð»ÐµÐºÑģÐ°Ð½Ð´ÑĢ
ÑģÑĤÑĢÐ¾Ð¸
ĠÑĢÐ°Ð·Ð³Ð¾Ð²Ð¾ÑĢÑĭ
ÑĢÐ¸Ñģ
ĠÐ²Ð¸
Ð·Ð°Ð²Ð¾Ð´
ĠÐºÐ¾Ð½ÑĨÐ¾Ð²
ĠÑĥÑģÑĤÐ°Ð½Ð¾Ð²Ð»ÐµÐ½
Ð»ÑıÑİÑĤ
ĠÐ¿ÑĢÐ¾Ð¿Ð°Ð´
Ð³Ð¾Ð²Ð¾ÑĢÐ¸
ĠÑģÐ¾Ðº
ĠÐ½Ð¸Ñĩ
Ð¿Ð¾Ð³
ĠÑģÐ²ÐµÑĤÐµ
Ð¼Ð°Ð¹
ÐµÑĨÐ¸
ĠÐ»Ð¸Ð½
ĠÐºÐ°ÑĦÐµ
Ð¿Ð¾ÑģÐ»ÑĥÑĪÐ°Ð¹
ĠÐ±ÐµÐ´
ÐµÐºÑĤÐ°
Ð¾ÐºÑĤÑıÐ±ÑĢÑĮÑģÐºÐ¸Ð¹
ÑĢÑĥÐ´ÑĮ
ĠÑģÐ²ÐµÑĢ
ÑĭÐ¿
ĠÐ½Ð°ÑĩÐ°Ð»Ðµ
Ð°Ð»ÑĮÐ½ÑĭÑħ
Ð¸Ð¼Ð¾Ð²
ĠÑĤÐµ
ĠÑģÐ»Ð¾Ð¶
ĠÑģÐ°Ð»
ĠÐ¿ÑĢÐ¸Ð²ÑĭÑĩ
ÐºÐ¾Ð²ÑĭÐ¹
ĠÐ±Ð¾Ð¸ÑĤ
ÐºÐ°Ð¶Ð´ÑĭÐ¹
ĠÑģÐ¸Ð¼
ĠÑħÐ¾ÑĢÐ¾ÑĪÐ°Ñı
ĠÐ¶ÐµÐ½Ñĥ
ĠÐ¾Ð¿ÐµÑĢÐ°ÑĤÐ¸Ð²Ð½Ð¾Ð³Ð¾
Ð»ÐµÐ½Ð°
Ð¼Ð¸ÑĢ
Ð½Ð°Ð»Ð¸
ĠÑģÐ½Ð¸Ð¼
ĠÑĥÑĩÐ°ÑģÑĤ
ĠÑĳÐ±Ð°Ð½Ð½Ð°Ñı
ĠÑģÑĥÐ±
ÑĥÑİÑīÐ¸Ð¹
Ð»Ð¸Ð¹
ĠÑĢÐ°ÑģÑģ
Ð½ÑĥÐ¶Ð½Ð¾
Ð¾ÑĤÐ²ÐµÑĩ
Ð¾ÐºÐ°
ĠÑĦÐ°Ð½ÑĤ
ĠÐ±Ð»Ð°Ð³Ð¾Ð´
ĠÐ¿ÑĢÐµÐ´Ð»Ð°Ð³Ð°Ñİ
ÑıÑĤÐ¾
ÑħÐ°ÑĢ
Ð½Ð¾ÑĢÐ¼Ð°Ð»ÑĮÐ½Ð¾
ÐºÑĢÐ°ÑģÐ¸Ð²
ĠÐ²ÑĭÑĪÐ»Ð°
ÐºÑĥÐ¿Ð»Ñİ
Ð°ÑĦ
ĠÐ½ÐµÐ¼Ð½Ð¾Ð³Ð¾
ĠÐ±Ð°ÑĢÐ°Ð½
Ð¼Ð¸ÑĤÑĢÐ¸Ð¹
ĠÐ²ÐµÑģÑĤÐ¸
Ð¾Ð»ÑĮÐ½ÑĭÐ¹
ĠÐ²Ð°ÑĢÐ¸Ð°Ð½ÑĤ
ĠÑĢÐ°Ð·ÑĥÐ¼
ĠÐ±Ð»Ð¾Ðº
Ð¸Ð½ÑģÐº
Ð´Ð¸ÑĤÐµ
ĠÐºÐ¾Ð¼Ð¿Ð°Ð½Ð¸Ñı
ĠÐ²Ð¾Ð·Ð¼Ð¾Ð¶
Ð»Ð¸ÑĤ
ĠÐºÐ°Ð¼ÐµÑĢÑĥ
Ð¿ÑĢÐ¸Ð´ÑĥÑĢÐ¾Ðº
ĠÐ¿Ð¾ÑģÐ¸Ð´
ĠÑĥÐ²ÐµÑĢ
Ð²ÑĭÐ·
ĠÑĥÐ³Ð¾Ð´Ð½Ð¾
ĠÐ´ÑĢÑĥÐ³Ð¸Ðµ
ÑģÑĤÐ¸
ÑĤÐµÐ¼Ð¿ÐµÑĢÐ°ÑĤÑĥÑĢÐ°
ĠÑģÐµÑĢÐ¸
ĠÑģÐµÑĢÐ¸Ð°Ð»
ÑĤÐ¸Ð½Ð°
ĠÐ¿Ð¾ÑģÑĤÐ°ÑĢ
Ð¸Ð²Ð°
ĠÐ½Ð°Ð¿Ð¸ÑĪÐµÑĪÑĮ
Ð´Ð°Ð¶Ðµ
ĠÐºÐ¾Ð½ÑĤÑĢ
ĠÐ¶Ð¸Ð²ÐµÑĪÑĮ
ĠÑĢÐµÐ¶
ĠÐ°Ð»Ðº
ĠÐ°Ð»ÐºÐ¾Ð³
ĠÐ½ÐµÐ²Ð¾Ð·
ĠÐ½ÐµÐ²Ð¾Ð·Ð¼Ð¾Ð¶Ð½Ð¾
ĠÐ¿ÑĢÑĭÐ³Ð°ÑĤÑĮ
ĠÐ¿Ð¾ÑģÐ°Ð´
ĠÑĥÑģÐ»ÑĭÑĪÐ°Ð»
ĠÐ²Ð½ÑĥÑĤÑĢÐµÐ½
ĠÐ¿Ð¸ÑĢ
ÐµÑĤÑĥ
ÑģÐ¾ÑĢ
ÐµÐ½Ð½Ð°Ñı
ĠÐ²ÑģÐµÐ¼Ñĥ
ĠÑĤÐµÐ»ÐµÑĦÐ¾Ð½Ð¾Ð³ÑĢÐ°Ð¼Ð¼Ñĥ
ĠÐ¿Ð¾ÑıÐ²Ð»ÑıÐµÑĤÑģÑı
Ð½ÐµÐ½
ĠÐ¾ÑĦ
Ð½Ð¸ÐºÐ¾Ð»Ð°Ð¹
ÑģÑĤÐ¾ÑıÐ½Ð¸Ðµ
Ð¸Ð²ÐµÑĢ
ĠÐ´Ð¸Ñģ
ĠÐ±Ð¾Ð»ÑĮÐ½Ð¸ÑĨÐ°
Ð²Ð°ÑĢÐ´
ĠÐ¿ÑĢÐ¸Ð²ÑĭÐº
Ð½Ð¾Ð´Ð°ÑĢ
ĠÐ¿ÑĢÐ¾Ð¼
ÐºÐ¾Ð²Ð¾
ĠÐ¸Ð½Ð¾Ð³Ð´Ð°
ÑĤÐ¸Ðº
ĠÐ¾Ð½Ð»Ð°Ð¹Ð½
ÑĤÐ¸Ð²
Ð°ÑĨÐ¸Ð¾Ð½
ĠÐ½Ð°ÑĤÑĥÑĢÐµ
Ð¾Ð²Ð°Ð½Ð¸Ñı
ĠÐ»ÑİÐ±Ð¾Ð¹
ĠÐ¾ÐºÐ°Ð·
ÑĥÑĤÑģÑı
ĠÐºÐ¾Ð»Ð¾Ð½
ĠÑģÑĩÐ¸ÑĤÐ°ÐµÑĪÑĮ
ĠÐ»Ñı
ÐµÐ²Ð³ÐµÐ½Ð¸Ð¹
ĠÐ²Ð¾Ð»ÑĮÐ½Ð¾Ð²
ĠÐ¿ÑĥÑĪ
ĠÐ¿Ð¸ÑĪÑĥ
ĠÐ¿ÐµÐ´Ð¾ÑĦÐ¸Ð»
ĠÐ»ÑİÐ±Ð¸Ð¼Ð°Ñı
ÑįÐ¼
ĠÐµÐ±Ð°Ð½
ĠÐ´Ð¾Ð»Ð³Ð¾
Ð¼Ð¾Ð¶ÐµÑĤÐµ
ĠÐ¼Ð¾Ð³Ð»Ð¸
ĠÐ´ÑıÐ´Ñı
ĠÐ¿Ð¾Ð·Ð´ÑĢÐ°Ð²
ĠÐ¿Ð°ÑĨÐ°Ð½Ñĭ
ÐµÐµÑĪÑĮ
ĠÑģÐ°Ð¼ÑĭÐµ
ĠÐ±Ð°Ð±ÑĥÑĪÐºÐ°
ĠÐ¿ÐµÑĢÐµÐ´Ð°Ð²Ð°Ð»
ĠÐ²ÑĭÑĢÐ°Ð¶
ĠÐ¾Ð±ÑıÐ·Ð°ÑĤÐµÐ»ÑĮÐ½Ð¾
ĠÐ³Ð¾ÑģÑĤ
Ð½Ð¾Ð²ÑĭÐµ
ĠÑĢÐµÐ»Ð¸Ð³
ÑĥÐ·Ð½Ð°ÑĤÑĮ
ĠÐ¿Ð¾Ð¸
ĠÑĤÐµÐ»ÐµÑĦÐ¾Ð½Ðµ
ĠÐ¸ÑģÐºÐ°ÑĤÑĮ
ĠÑģÐ¾Ð±Ð¸ÑĢÐ°ÐµÑĪÑĮÑģÑı
ĠÐ³Ð¾Ð»Ð¾Ð²Ñĭ
ĠÑģÐ¸ÑģÑĤ
ĠÐºÐ¾Ð¿
Ð¸ÑĩÐµÑģÐºÐ¾Ðµ
ĠÐ²Ð»Ð°Ð´Ð¸Ð¼Ð¸ÑĢÐ¾Ð²
ĠÐ¿Ð¾Ð»Ð½ÑĭÐ¹
ĠÑĤÑĢÐ¸
ĠÐ¿Ð°ÑĢÐ¾Ð²Ð¾Ð·Ð¸Ðº
Ð»ÑĭÐ¹
Ð¸Ð½ÑĦÐ¾ÑĢÐ¼
Ð°Ð»ÑĮÐ½Ð¾Ðµ
ĠÐ»ÑİÐ±Ð¸ÑĪÑĮ
ĠÐ¼ÐµÐ½ÑĤ
Ð¸Ð½ÑģÐºÐ¾Ð³Ð¾
ĠÐºÑĢÐ°
Ð¾Ð²Ð°Ð½
Ð°ÑĤÐ¾Ð²
ĠÐ²Ð¾Ð·ÑĮÐ¼ÑĳÑĪÑĮ
ĠÐ¼ÑĥÐ¶Ð°
ĠÑĢÐ°Ð·Ð±Ð¸ÑĢ
Ð¾ÑĢÐ¾ÑĤ
Ð½Ð¸Ð¶
ĠÐ¾ÑĤÐºÑĢÑĭÐ»
ÑĩÐµÑĢÐµÐ·
ÐºÐ¾Ð²ÑĮ
Ð°ÑĪÐ¸
ĠÐºÐ°ÑģÐ°ÐµÑĤÑģÑı
ĠÐ°ÑĢÑĤÑĳÐ¼
ĠÐ¾Ð³ÑĢÐ¾Ð¼
ĠÐ¿Ð¾Ð´Ð¾Ð¹
ĠÐºÐ¾Ð½ÑĤÐ°Ðº
Ð²ÑĤÐ¾ÑĢ
Ð¿ÑĢÐ¾Ð¿
ĠÐ½Ð°Ð¿Ð¸ÑĪÑĥ
Ð¸ÑģÐ¿
Ð¾Ð²ÐµÑī
Ð¸ÑĤÐ°Ð¹
ĠÑĨÐµÐ»
ĠÑĤÐ¾Ð»
Ð»Ñĳ
ĠÑĥÐ²Ð¸Ð´Ð¸ÑĪÑĮ
Ð°Ð½Ðµ
ĠÐ»ÑİÐ±Ð¾Ð¼
Ð¸Ð½Ð¸
Ð¸Ð²Ð°Ð¹
ĠÐ»ÐµÐ²
ĠÐ½Ð°ÑģÑĩÑĳÑĤ
Ð½Ð°Ð¿Ð¾Ð¼Ð½Ð¸
ÑģÐ¿Ð°ÑģÐ¸Ð±Ð¾
ĠÐ½Ð°ÑĪÑĳÐ»
ĠÑģÐ±
ĠÐ³Ð¾Ð²Ð¾ÑĢÐ¸Ð¼
ĠÑıÐ²Ð»ÑıÐµÑĤÑģÑı
ÑĪÐºÐ°
ĠÐ½Ð¾Ð²Ð¾ÑģÑĤÐ¸
ĠÐ¿Ð¾Ð²ÑĤÐ¾ÑĢÐ¸
ÑĥÐ¹ÑģÑı
ĠÑĢÐ°Ð·Ð²Ð¾Ð´
ÑĩÐ¸ÑĤÐ°ÑĤÑĮ
ĠÑĤÑĢÑĥÐ´
ĠÐºÐ°Ð¹
ĠÐºÐ¾Ð¼Ð°Ð½Ð´
ĠÐ¿ÐµÑĢÐµÐ²
ĠÐ²Ð¾Ð¿ÑĢÐ¾ÑģÑĥ
ÑĢÐµÐ·ÑĥÐ»ÑĮÑĤÐ°ÑĤ
ÐºÑĥÐ»ÑĮ
ÐµÐ·Ð»Ð¾
Ð¸ÑīÐµ
ĠÐ·Ð°Ð¿Ð¸ÑģÑĭÐ²Ð°Ñİ
ÐµÐ¹ÑģÐºÐ¸Ð¹
ĠÑĤÑĢÐµÑĤÐ¸Ð¹
ĠÐ³Ð¾ÑģÐ¿Ð¾Ð´Ð¸
Ð±ÑĥÑĢÐ³
ÑĭÐ²Ð°Ð»Ð¸ÑģÑĮ
ĠÑĤÐ²Ð¾Ðµ
ĠÐ»ÐµÐ·
ĠÑĢÐµÑĪÐ¸Ð»
ĠÐ³ÑĢÑĥÐ¿Ð¿Ñĥ
ĠÑĤÐµÐ»ÐµÑĦÐ¾Ð½Ð½ÑĭÐ¹
ĠÐ¿Ð¾Ð»Ð¸
ÐºÐ°Ð±Ð¸Ð½ÐµÑĤ
ĠÐºÐ¾Ð»Ð»
ĠÑħÐ¾ÑĤÐ¸Ð¼
ĠÐºÐ°ÑĢÑĤÐ¸Ð½ÐºÐ¸
Ð³Ð»Ð°Ð²Ð½Ð¾Ðµ
ĠÑĨÐµÐ»ÑĮÑİ
ĠÑĢÐ°Ð±Ð¾ÑĤÐ°ÐµÑĪÑĮ
ĠÐ¿Ð¸Ð´Ð¾ÑĢÐ°Ñģ
ĠÑĥÑĢÐ¾ÐºÐ¸
ĠÐ·Ð½Ð°ÐºÐ¾Ð¼Ñĭ
ĠÐ´ÑĢÑĥÐ³Ñĥ
ĠÐºÐ°Ð½Ð°Ð»
Ð¸ÑģÐ¾Ñģ
ĠÐ¾Ð±ÐµÑīÐ°Ñİ
ĠÐ¿ÑĢÐ°Ð·Ð´Ð½Ð¸Ðº
Ð¿Ð¾Ð´ÑĬ
Ð¿Ð¸ÑĢ
Ð²ÐµÑĩÐµÑĢ
ĠÐ½Ð°ÑĩÐ°ÑĤÑĮ
ĠÐºÐ°Ð·Ð°Ñħ
ĠÑĥÐ·Ð½Ð°Ð»Ð°
ĠÑģÐ¾ÑħÑĢÐ°Ð½
ĠÐ¿ÑĢÐ¸ÐºÐ¾Ð»
ÐºÐ°ÑĢÐ°Ð¾Ðº
ÐºÐ°ÑĢÐ°Ð¾ÐºÐµ
Ð¾ÑĩÐ¸
Ð´ÐµÐ¹ÑģÑĤÐ²
ĠÐ»ÑİÐ´ÑĮ
ĠÐ»ÑİÐ´ÑĮÐ¼Ð¸
ĠÐ¸Ð·Ð±Ð¸Ð»Ð¸
ĠÑĤÐ²Ð¾ÐµÐ³Ð¾
ÑĥÑģÑĤÐ°Ð½Ð¾Ð²
ĠÑĥÐ´Ð¸Ð²
ĠÐ±Ð¾ÑĢÐ¾ÑĤÑĮÑģÑı
ĠÑĢÐµÐ·ÑĥÐ»ÑĮÑĤÐ°ÑĤ
ĠÐ´Ð¾ÑģÑĤÑĥÐ¿
ĠÐ¶Ð¸Ð²ÑĳÐ¼
ĠÐ²Ð¾ÑĢÐ¾Ð½ÐµÐ¶
ĠÐ²ÑĭÐ±
ĠÐ±Ð¾Ð»ÑĮÐ½Ð¸ÑĨÑĭ
ĠÑģÑĤÐ°Ð²ÑĢÐ¾Ð¿Ð¾Ð»ÑĮ
ÑħÐ¾Ð´Ð¸ÑĤÐµ
Ð°Ð½Ð°Ð²Ð»Ð¸Ð²
ĠÐ²Ð¸Ð´Ð½Ð¾
ĠÐ¼Ð°ÑĪÐ¸Ð½ÐºÐ¸
ĠÐ¾ÑĤÐ¿ÑĥÑģÑĤ
Ð½ÑĥÑģÑĮ
ĠÐ¿ÑĢÐ¸ÑģÐ»Ð°Ð»
ĠÐ°Ð¹
ĠÐ»ÐµÑĩ
ĠÐ¿ÑĢÐµÐ´Ð»Ð¾Ð¶
Ð±Ð¾Ð»ÑĮÑĪ
ĠÐ½Ð°ÑĩÐ°Ð»Ð°
ĠÑĤÐ°Ð½ÑĨÐµÐ²
ĠÑģÐµÑģÑĤ
ÐµÐ¼Ð°
ĠÐ¾Ð¿ÐµÑĢÐ°ÑĤÐ¸Ð²Ð½Ð¾Ð¼Ñĥ
ÑĳÐº
Ð¸Ð»ÐºÐ°
Ð´Ð¾Ð±Ð°Ð²
ĠÐ·Ð°Ð±ÑĢÐ°ÑĤÑĮ
Ð´Ð°Ð²
ĠÑĤÐ°ÑĤÑĥ
ĠÐ¿ÑĢÐ¾ÑģÐ½ÑĥÐ»ÑģÑı
ÑĤÐµÐ¿
ĠÐ½Ð°ÑĪÐµÐ³Ð¾
ĠÐ·Ð°ÐºÐ°Ð·ÑĭÐ²
Ð½Ð¸ÑģÑĮ
ÐºÐ¾Ð¼Ð¿
ĠÐ¿ÑĢÐµÐºÑĢÐ°ÑģÐ½Ð¾
Ð´Ð¾Ð³Ð¾Ð²Ð¾ÑĢ
ĠÐ°Ð»ÑĮÐ±
Ð¶ÐµÐ½Ð°
ĠÐ·Ð°ÑħÐ¾Ð´
ĠÑĥÐ¿Ð¾ÑĤÑĢÐµÐ±
Ð°Ð·Ð°Ð½
Ð½ÐµÐ¹ÑĪ
ĠÑħÑĥÐ¹Ð½Ðµ
ĠÑĢÐ°ÑģÑģÐºÐ°Ð·Ð°Ð»
ÐºÐ°Ð¿
ĠÐ·ÐµÑĢ
ÐµÐµÑĤ
Ð³Ð¾Ð´Ð°
Ð»Ð°ÑĪ
ÑıÐ¼Ñĥ
ĠÐ´ÐµÑĢ
Ð¸ÑģÑĤÐ¾ÑĢÐ¸Ñı
ĠÐ²ÑĭÑĩÐ¸ÑģÐ»
Ð¾Ð²Ð°ÑĤ
ÑģÑĥÑĢÐ³ÑĥÑĤ
ÑģÐ¸Ð¼
ÑĢÐ°Ð»Ð¸
Ð¾ÑģÐ»ÑĥÑĪÐ°ÑĤÑĮ
ĠÐ´ÑĥÐ¼Ð°Ð»
ĠÐ¿ÑĢÐ¾Ñī
ĠÑĤÐ°Ð¼Ð±Ð¾Ð²
ĠÐ½Ð°Ð²Ñģ
Ð´Ð¾Ð»
Ð¾ÑģÑĤÑĥÐ¿
Ð¾Ð±Ð·Ð¾ÑĢ
Ð´Ð°Ð²Ð½Ð¾
ĠÐ³Ð¾Ð´Ð°
ÐµÑĤÑĢÐ¾Ð²
ĠÑĩÑĥÐ²Ð°Ðº
ĠÑĥÑĢÐ¾Ð²ÐµÐ½ÑĮ
ÑģÑĤÐ°ÑĤÐ¸
ĠÐ¼Ð¸Ð»Ð¸ÑĨÐ¸Ñı
ĠÐ°Ð´ÐµÐºÐ²Ð°ÑĤ
ĠÐµÐ²ÑĢÐ¾Ð¿
ĠÐ·Ð°Ð¼ÐµÑĩÐ°ÑĤÐµÐ»ÑĮ
ĠÐ±ÑĥÐº
ĠÐ½Ð°Ð·Ð¾Ð²Ð¸
ĠÐ·Ð¾Ð½Ðµ
ĠÐ±ÑĭÐ´
ĠÐ¸ÑĢÐºÑĥÑĤ
ÐµÐ·Ð¶Ð°Ñİ
ĠÐºÐ°Ð²ÐºÐ°Ð·
Ð¼Ð°ÑĤÑĮ
ĠÐ¿ÐµÑĤÑĢÐ¾Ð²Ð½Ð°
ÐºÐ¾Ð»ÑĮÐºÐ¾
ĠÐ¿Ð¾Ð»Ð¸ÑĤ
ÐºÑĢÑĥÑĤÐ¾Ð¹
ĠÐ´ÐµÐ¼ÑĮÑı
Ð¿ÑĢÐ¸ÑħÐ¾Ð´Ð¸
ĠÐ²Ð¾Ðº
ĠÐ¸ÑīÑĥ
ÑģÐºÐ¾ÑĢ
Ð¶ÐµÐ½ÑīÐ¸Ð½Ð°
Ð½Ð°Ð²ÐµÑĢÐ½Ð¾Ðµ
ÐºÐ°ÐºÐ¸Ð¼
Ð¸Ð²Ð°Ð½Ð¸Ðµ
ĠÐ²ÑĭÑģÐ¾Ðº
Ð°Ð½Ð°ÑĤ
ÐºÐ¸Ñħ
ĠÐ²ÑĤÐ¾ÑĢÐ¾Ð¹
ĠÑĢÐ°Ð±Ð¾ÑĩÐ¸Ð¹
ĠÐ°Ð¼ÑĥÑĢ
Ð°ÑĤÑĭÐ¹
ĠÐ²ÑĭÐ¿Ð¸ÑĤÑĮ
ĠÐ½Ð¸ÐºÐ¾Ð»Ð°ÐµÐ²Ð¸Ñĩ
ĠÐ¿ÑĢÐ¸ÑĩÐ¸Ð½Ð°
Ð±ÑĥÑĤ
Ð°ÑĤÐ¸ÑĤÑĮ
ÐµÐ»ÐºÐ°
ĠÐ±Ð¸
Ð»Ð°ÑĤÐ°
ĠÐºÑĥÐ»
ĠÐ²Ð´
Ð³ÐµÑĢ
ĠÐ²Ð¸Ð´Ð¸ÑĪÑĮ
ĠÐ·Ð°ÐºÐ°Ð½Ñĩ
ĠÑģÐ»ÐµÐ´Ñĥ
ĠÑģÐ»ÐµÐ´ÑĥÐµÑĤ
Ð¿Ð¾ÑĩÑĤÐ¸
ÑĥÐ¶Ð´Ð°ÑĤÑĮ
ĠÐ°Ð¿Ð¿Ð°ÑĢÐ°ÑĤ
ĠÐ»ÐµÐ³ÐºÐ¾
ĠÐ¾Ð±ÑĭÑĩÐ½ÑĭÐ¹
ĠÐ¾Ð¼
ĠÐ²ÑĭÑģÑĤÐ°Ð²
ÑĭÑģ
ĠÐ±Ð°Ðº
ĠÑĩÐµÑĤÐ²ÐµÑĢ
ĠÐ´ÑĢÑĥÐ³Ð¾Ð¼Ñĥ
ĠÐ·Ð²ÐµÑĢ
ĠÐ¼Ð¾Ð·Ð³
ÐºÐ°ÑĤÑĮ
Ð²ÑĢÐ¾Ð´Ðµ
ĠÐ´Ð¾Ð¼Ð°ÑĪ
ÑħÐ¾ÑĤÑı
ĠÑħÐ¾ÑĢÐ¾ÑĪÐ¸Ðµ
ĠÐ¿ÑĥÐ³
ĠÑĢÐ¾Ð²
ĠÑĤÐ²Ð°ÑĢÑĮ
ĠÑģÐ°Ð¹ÑĤÐµ
Ð°Ð²ÑĤ
ĠÐ·ÑĥÐ±Ñĭ
ĠÑģÐ°
ĠÐºÑĥÑĪÐ°ÑĤÑĮ
Ð¿Ð¾ÑģÑĤÐ°Ð²ÑĮ
Ð»ÐµÐ´
ĠÑģÐ¸Ð»
ĠÐ¸Ð´ÑĳÑĪÑĮ
ĠÑģÑĤÐ°Ð²Ð¸ÑĤÑĮ
Ð¿ÐµÑĢÐ²
ĠÐºÐ¾ÑģÑĤ
ĠÑĤÐ°Ð½ÑĨÑĥÐ¹
ĠÐ¼Ð°Ð»ÑĮÑĩÐ¸Ðº
Ð»ÐµÐ²
ÑĤÑģ
ÑĢÐµÐº
ĠÐ°Ð»Ñĳ
ĠÐ´ÐµÐ»Ð°ÑİÑĤ
ĠÐ¿Ð¾Ð´Ð¾Ð¹Ð´
ĠÑĢÑĥÐºÐ¾Ð²Ð¾Ð´
ĠÑĥÐ¼ÐµÐµÑĪÑĮ
ĠÐ¿Ð¾ÑģÑĤÐ°Ð²Ð¸Ð»Ð¸
ĠÑĤÑĢÐ°Ð²
ĠÐ³Ð¾Ð»Ð¾Ð²Ð°
ÑģÑĤÑĢÐ°Ð½
ĠÑĥÑĳÐ±
ĠÑĥÑĳÐ±Ð°Ðº
ĠÐ³ÑĢÐ¸Ð±
ĠÑģÐ²Ð¾Ð±
ĠÑĩÐµÐ»Ð¾Ð²ÐµÑĩÐµ
Ð½Ð¸ÑģÑĤ
ĠÐ±Ð°Ð½ÐºÐ¾Ð¼Ð°ÑĤÐ°
ÑİÑĤÐ°
ĠÐºÑĢÑĥÑĤ
Ð°Ð²Ð°Ð»Ð¸
ĠÐ¿Ð¾ÑģÐ¼Ð¾ÑĤÑĢÐ¸Ð¼
ÑĪÑĢÑĥÑĤ
ĠÐ²ÑĢÑĥÐ±
ĠÐ½Ð°ÑģÐµÐ»
ĠÑĤÑĢÐµÐ¹
ĠÑĤÑĢÐµÐ¹Ð»ÐµÑĢ
ĠÐ¾Ð±Ð»Ð°ÑģÑĤÐ½Ð¾Ð¹
ĠÐ¼Ð¾Ð·Ð³Ð¸
ĠÑĢÐµÑĩÑĮ
ĠÑģÑĤÑĢÐ°Ñħ
ĠÐ´ÑĢÑĥÐ³Ð°Ñı
ĠÐ¿ÐµÑĢÐµÐ·Ð²Ð¾Ð½Ð¸
Ð´Ð°ÐµÑĤÑģÑı
ĠÐ½Ð°Ð·ÑĭÐ²Ð°ÑİÑĤ
Ð»ÐµÐ¹
ĠÐ·Ð°ÑģÑĤÑĥÐ¿
Ð¿Ð¾ÑĪ
Ð¼Ð¾Ð³
ĠÐ¾ÑĩÐµÑĢ
ĠÐ¼Ð°Ð½
ĠÑĢÑĥÑģÑģÐºÐ¾Ð³Ð¾
Ð±ÑĥÐ´ÑĮ
ĠÐ°ÐºÑĤÐ¸Ð²
ĠÐ¿ÑĮ
ĠÐ³Ð»Ð°Ð²Ð½ÑĭÐ¹
ĠÐ·Ð°Ð¹Ð´Ñĥ
ĠÐ¿Ð¾ÑĤÑĢÐµÐ±
ĠÐ½ÐµÐ½Ð¾ÑĢÐ¼
Ð¿Ð¾Ð¶Ð°Ð»ÑĥÐ¹ÑģÑĤÐ°
ĠÐ´ÑĢÑĥÐ³Ð¾Ð³Ð¾
ÑĤÐµÐºÐ°
ĠÑģÐ°Ð¼Ð¾Ð»ÐµÑĤ
Ð¿Ð¾Ð±
Ð½ÑĥÐ»Ð°ÑģÑĮ
Ð¿ÑĢÐ¸Ð·
ĠÑģÐºÐ¾ÑĢÐµÐµ
ĠÐ¿Ð¸Ð´Ð¾ÑĢ
Ð¿ÑĢÐµÐ´ÐµÐ»
ÑģÑĥÐ¿ÐµÑĢ
ÑĢÐ°Ð»ÑģÑı
Ð´ÐµÐ½
ÑıÐº
ĠÑĪÐºÐ¾Ð»Ðµ
ĠÐ¿ÑĢÐ¾Ð³ÑĢÐ°Ð¼Ð¼Ðµ
Ð¾ÑĢÐ³Ð°Ð½
ĠÑĤÐ¾Ð²Ð°ÑĢ
ĠÐ¾Ð´Ð½Ð¾Ð¼Ñĥ
ĠÐ¿ÑĢÐ¾Ð´Ð°
ĠÑħÐ¾Ð¶Ñĥ
ÐµÑĢÐ°Ð»Ð°
ĠÐ´Ð¾Ð·Ð²Ð¾Ð½Ð¸ÑĤÑĮÑģÑı
ÑģÐ°Ð¼Ð°
Ð¿Ð¾ÑĢÐ¾ÑĪ
ĠÑģÐ¾ÑĢ
ÑĩÑĥÐ´Ð¾
ĠÐ²ÑĭÐ¶
ÐµÐ½Ð´Ð°
ÑĩÐµ
ÑĤÐ±
ĠÐ¾Ð±ÑĢÐ°ÑĤÐ¸ÑĤÑĮÑģÑı
Ð°ÑĤÐ¸Ðº
ĠÐºÐ¾Ð½ÐµÑĨ
ÑĥÐ½Ð¾Ðº
ĠÐ´ÑĢ
ĠÑģÐ°ÑĪÐ°
ĠÐºÐ¾ÑĢÐ¾ÑĤ
ÑģÐ¾ÐµÐ´Ð¸Ð½ÐµÐ½Ð¸Ðµ
ĠÐºÐµÐ¼ÐµÑĢ
Ð´Ð°ÑĤ
ÑĤÑĢÐ°Ð½
ÐµÐ½Ð¸Ñİ
ĠÐºÐ²
ĠÐ½Ð°Ð·Ð²Ð°Ð»
ĠÐ¿Ð¾Ð»ÑĥÑĩÐ¸ÑĤÑĮ
ĠÑģÐ¿ÐµÑĨÐ¸
ĠÐ¿Ð»Ð¾ÑīÐ°Ð´ÑĮ
Ð¸ÑģÑĤÑĭ
ĠÐ¿Ð»Ð°ÑĤ
Ð¸ÑģÐ¾Ðº
ĠÐ½Ð°Ð·ÑĭÐ²Ð°ÐµÑĪÑĮ
ÑıÐºÐ¾Ð²
ÐºÐ°Ð½Ð°Ð»
ĠÐ½Ð°Ð·Ð²Ð°Ð»Ð¸
ĠÐ¿Ð»Ð¾ÑħÐ¾Ð¹
ĠÐ·Ð°Ð±ÑĭÐ»
Ð¿ÑĥÐ±Ð»Ð¸Ðº
ĠÐ¿Ð¾Ð¹ÑĤÐ¸
ĠÑĢÐ°Ð·Ð³Ð¾Ð²Ð°ÑĢÐ¸Ð²Ð°Ð»Ð¸
ĠÐ±ÑĥÐ´ÑĮ
ĠÐ¿Ð»Ð°ÑĤÐ¸ÑĤÑĮ
ĠÑħÑĥÐ´Ð¾Ð¶
ĠÐ²ÑģÑĤÑĢÐµÑĤÐ¸ÑĤÑĮÑģÑı
ÑĢÐ°Ð±Ð°ÑĤ
ĠÑģÐºÐ°Ð¶ÐµÐ¼
ĠÐºÐ°Ð·Ð°Ð½ÑĮ
ĠÐ²Ð¾Ð»Ð½Ñĥ
ĠÐ±ÑĥÐ³
ĠÑĦÐ¼
Ð¶Ð°Ð»
Ð²Ð¸ÐºÑĤÐ¾ÑĢ
ĠÑģÐ´ÐµÐ»Ð°Ñİ
ĠÐ±Ð¾Ð»ÑĮÐ½Ð¾
ĠÑĤÐ²Ð¾ÐµÐ¼Ñĥ
ĠÑģÐ°Ñħ
ĠÐ½Ð°ÑĩÐ°Ð»ÑĮÐ½Ð¸ÐºÐ°
ĠÐ²ÑĭÑģÑĤÑĥÐ¿
Ð°ÑĤÐµ
ÑĩÑĥ
ĠÑģÐ»Ð¾Ð²Ð°Ð¼Ð¸
ĠÐ¾ÑģÐ½Ð¾Ð²Ð½Ð¾Ð¼
ĠÐºÑĥÐ»ÑĮÑĤÑĥÑĢÑĭ
ĠÑĥÑģÐ¿
Ð»ÑıÐµÑĪÑĮ
ÑĤÐµÐ½
ÑĥÑħÐ¸
ĠÑģÐ½ÐµÐ³
ĠÐ»ÐµÑĢ
ĠÐ»ÐµÑĢÐ¼Ð¾Ð½ÑĤÐ¾Ð²Ð°
ÑħÐ¾ÑĤÐµÐ»
ĠÑĢÐ°Ð·Ð³Ð¾Ð²Ð°ÑĢÐ¸Ð²Ð°ÐµÑĤ
ĠÐ±ÐµÑĢÐµÐ¼
ĠÐ°Ð½Ð³Ð»Ð¸Ð¹
ĠÐ´ÑĢÑĥÐ³Ð¾Ð¼
ÑĮÑģÑı
ÑĤÐ¾ÑĩÐºÑĥ
ÐµÐ¿ÑĢ
ĠÐºÐ¾Ð¼Ð½Ð°
ĠÐ¼Ð¾Ð»Ð¾ÐºÐ°
ÑģÐ´ÐµÐ»Ð°ÑĤÑĮ
ĠÑĦÐ°Ð½ÑĤÐ°Ð·
Ð¸ÐºÐ¾Ð¼
ĠÐ¼Ð¸ÑħÐ°Ð¸Ð»
ĠÑħÐ¾Ð»Ð¾Ð´
ĠÐ·Ð°Ð¿ÑĢÐ°Ð²
Ð¿Ð¾Ð¿ÑĢÐ¾Ð±ÑĥÐ¹
ÑĩÐµÐ½ÐºÐ¾
ĠÐ·ÑĢ
ĠÐ¿ÑĢÐ¸Ð·ÑĭÐ²
ĠÐ¿Ð¾Ð»ÑĥÑĩÐ¸Ð»
Ð¾ÑĩÐ½Ð°Ñı
ĠÐ±Ð¾ÑĢÐ¸ÑģÐ¾Ð²
ĠÐ³Ð»Ð¾ÑĤ
ĠÑĨÐµÐ½Ð°
ÑħÐ°ÑĤÑĮ
ĠÐ¿ÑĢÐ¸Ð½Ð¸Ð¼Ð°ÑĤÑĮ
ĠÐ¿Ð¾Ð²ÐµÑĢ
ĠÐ¼Ð°Ð»Ð¾
ĠÐ¿Ð»Ð°Ñĩ
Ð¸Ð½ÑģÐºÐ°Ñı
ĠÐºÐ¾ÑĤÐ¾ÑĢÐ¾Ðµ
Ð¸Ð·Ð°
ĠÐ´Ð²Ð¾Ð¹
ÑģÐ»Ð¸
ĠÑĢÑĥÐºÑĥ
ÐºÑĢÐµÑģ
ĠÑĥÐ²Ð¸Ð´Ð¸Ð¼ÑģÑı
Ð¾Ð±ÑħÐ¾Ð´
Ð¾Ð±ÑħÐ¾Ð´Ð¸Ð¼Ð¾
ĠÐ¿Ð¾Ð·Ð²Ð¾Ð½Ð¸Ð»Ð°
Ð°Ð»ÑĮÐºÑĥÐ»Ñı
Ð°Ð»ÑĮÐºÑĥÐ»ÑıÑĤÐ¾ÑĢ
ĠÑģÑĤÐ¾ÑĢÐ¾Ð½Ñĥ
ĠÑĩÐ°ÑģÑĤÑĮ
ĠÑģÐ´ÐµÐ»Ð°ÐµÑĤ
Ð°Ð¼ÑĥÑĢ
ĠÑģÐ²ÑıÐ·Ð°ÑĤÑĮÑģÑı
ĠÐ¿Ð¸ÑĪÐµÑĪÑĮ
ĠÐµÐ±ÑĥÑĩ
ĠÐµÐ±ÑĥÑĩÐµÐ¹
ĠÑĤÐ²Ð¾Ð¸Ñħ
ĠÐ²Ð¾Ð´Ð¸ÑĤÐµÐ»ÑĮ
ÐºÐ°Ð»
Ð¾Ð²Ñĭ
ĠÑĪÐº
ĠÑĦÐ¾Ð½
ĠÐ¼Ð¾Ð½ÑģÑĤÑĢ
ĠÐ¿ÑĢÐ¸ÑĪÐ»Ð¸
ĠÐ½Ð¾Ð²Ð°Ñı
ÑģÑĤÑĢÑĥ
Ð°ÐµÐ¼ÑĭÐ¹
Ð¿Ð¾Ð»ÐµÐ·
ÐµÐ±Ðµ
ÑĤÐ¸Ð¿Ð°
ĠÑįÐ½ÐµÑĢÐ³
ĠÐ±Ð¸Ð±Ð»Ð¸
ĠÑĥÐ±Ð¸Ð¹
ĠÑĢÐµÑĪÐµÐ½Ð¸Ðµ
ĠÐ¿ÑĢÐ¸Ð³Ð»Ð°Ñģ
ĠÐ¶ÐµÐ»ÐµÐ·
Ð°ÑģÑĭ
Ð¼ÑĥÐ»ÑĮÑĤÐ¸ÐºÐ¸
Ð´ÐµÐ±Ð¸Ð»
ĠÐ´Ð°Ð²Ð°Ð»Ð¸
Ð½Ð¾Ð´Ð¾ÑĢÐ¾Ð¶
ÑĨÐµÐ½ÑĤÑĢ
ÐºÐ¾Ð½ÑĤÐ°ÐºÑĤ
ĠÐ´ÐµÑĤÑıÐ¼
Ð½ÐµÐ³
ĠÐ½Ð°Ð·Ð²Ð°Ð½Ð¸Ðµ
ĠÑĢÐµÐ¶Ð¸Ð¼
ĠÐ¿Ð¾Ð¼Ð¾Ð¶
Ð¸ÑĩÐµÑģÐºÐ¸Ðµ
ĠÑĢÐ¾Ð´Ð¸ÑĤÐµÐ»ÐµÐ¹
ĠÑĢÑĭÐ½ÐºÐµ
ÑīÐµÐµ
ĠÐ»ÐµÐ¶
ĠÑĥÐ´Ð¾Ð²Ð¾Ð»ÑĮ
Ð·Ð½Ð°
ĠÐ´Ð°Ñİ
ÑĥÐ³Ð°
ĠÐ´ÐµÐ¹ÑģÑĤÐ²Ð¸ÑĤÐµÐ»ÑĮÐ½Ð¾
Ð¸Ð¼Ð¾ÑģÑĤÑĮ
ĠÐ½Ð°ÑĪÐµÐ¹
Ð°ÑħÑĥ
Ð¾ÑĢÑģÐºÐ¸Ð¹
ĠÐ²ÑĭÑĳÐ±
ĠÐ³ÑĢÑĥÐ¿Ð¿Ðµ
Ð¿ÑĢÐ¾Ð¸
ÑĥÐ´Ð¸
Ð²ÐµÐ´
Ð°ÑĢÐº
Ð¼Ð°ÑĪ
ÐµÑĤÐµÑģÑĮ
ĠÐ¶ÐµÑĢÑĤÐ²
ĠÐ½Ð°ÑĩÐ¸Ð½Ð°ÐµÑĤÑģÑı
ÐºÐ¾ÑĤÐ¾ÑĢÑĭÐµ
ĠÐ¿Ð¾Ð½ÑıÑĤÐ¸Ñı
ĠÐºÐ°Ð¶Ð´
Ð²ÑģÐµÐ¼
ÑīÐµÐ³Ð¾
ĠÐ±Ð¾Ð³Ð°
Ð¿ÑĢÐ¾Ð³
Ð¿ÑĢÐ¾Ð³Ð½
Ð¿ÑĢÐ¾Ð³Ð½Ð¾Ð·
ÑĥÑĤÐ¸ÑĤÑĮ
ĠÑĤÑĢÑĥ
ĠÑģÐ¸ÑģÑĮ
Ð¾ÑĤÐ¼
ĠÐ´Ð²ÑĥÑħ
ĠÑĥÐ±Ð¸ÑĤÑĮ
ÑĤÑĢÐµÐ±
ĠÐ²ÑĭÐ³Ð»ÑıÐ´
ĠÐ»Ð¾Ð²
ĠÐ¼ÐµÐ½ÑıÑĤÑĮ
Ð²ÑĭÐµ
ĠÐ¾ÑģÐºÐ¾ÑĢÐ±
ĠÐ¿Ð°Ð²Ð»Ð¾Ð²Ð¸Ñĩ
ĠÐ´Ð¾Ð½
ÐµÑģÑĤÐ°Ð½
ĠÐ´Ð¾ÑĢÐ¾Ð³Ð¾Ð¹
Ð¸ÑģÑĤÑĢÐ°
ĠÐ±Ð°Ð½ÐºÐ°
ÑĤÐ°Ð»ÑĮ
ĠÐºÐ¾Ð²
ĠÐ¿ÑĥÑĪÐºÐ¸Ð½
ĠÐ¾ÑĪÐ¸Ð±Ð»Ð¸ÑģÑĮ
ĠÐ²Ð¸Ñģ
Ð³Ð¾Ð²Ð¾ÑĢÐ¸ÑĤÑĮ
ĠÐ½Ð°Ð¼Ð¸
Ð´ÐµÐ½ÑĮ
ĠÑĢÐ¾Ð¶Ð´ÐµÐ½Ð¸Ñı
ĠÐ½Ð°Ð´ÐµÑİÑģÑĮ
ÐµÐ¼ÑģÑı
Ð´ÐµÐ»Ð°ÑĤÑĮ
ĠÑĩÐ»ÐµÐ½
ĠÐ°Ð±ÑģÐ¾Ð»
ĠÐ¿ÑĢÐ¸Ð½ÑĨ
ĠÐ¾ÑĤÐ¿ÑĢÐ°Ð²Ð»Ñİ
Ð°ÑĤÑĮÐµ
Ð½Ð¸ÐºÐ¾Ð¼Ñĥ
ĠÑģÐ¼Ð¾ÑĤÑĢÐµÐ»
ĠÐ½ÐµÐ¿ÑĢ
ÑĩÐ¸ÐºÐ°
ÑģÑĥÐ»ÑĮ
Ð°ÑĢÐ³
ĠÐ·Ð°ÐµÐ±
ÑĳÐ½Ð¾Ðº
ĠÐ·Ð¾Ð»Ð¾ÑĤ
ĠÐ¶Ð°Ð»ÐºÐ¾
Ð·Ð°Ð±ÑĭÐ»
ĠÑĥÐ·Ð½Ð°ÐµÑĪÑĮ
ĠÐ¿Ð¾Ð·Ð¾Ð²Ð¸
ÑĩÑĳÑĢ
ÑĩÑĳÑĢÐ½ÑĭÐ¹
Ð¾ÑģÐ¾Ð±ÐµÐ½
ĠÐ¼ÑĥÑģÑĥÐ»ÑĮ
ĠÐ¼ÑĥÑģÑĥÐ»ÑĮÐ¼Ð°Ð½
ĠÐ´Ð¾Ð²Ð¾Ð»ÑĮÐ½Ð¾
ĠÐ»Ð¾Ð³
ĠÑĥÑģÑĤÐ°Ð»
ĠÐ´Ð¾ÑĢÐ¾Ð¶
ĠÐ¾Ð±ÑĬÑıÑģÐ½Ð¸ÑĤÑĮ
ÑĤÐ°Ð±
ĠÐ°Ð²ÑĤÐ¾Ð¼
ĠÑħÐ¾Ð·
Ð¸ÑĩÐºÐ°
Ð»ÑİÑģÑĮ
Ð¸ÑģÐº
ĠÑģÑĥÑīÐµÑģÑĤÐ²
Ð¼Ð¾ÑĤ
Ð¾ÐºÐ°Ð½Ð°Ð»
Ð²Ð¾ÑģÑĤ
Ð°Ð´Ðµ
Ð´ÐµÐ¼
ĠÐºÐ°ÑĢÑĤÑĥ
ĠÐ´ÑĥÑĪ
Ð½Ð°Ð·Ð²
Ð½Ð°Ð·Ð²Ð°Ð½Ð¸Ðµ
ĠÐ´ÑĥÑĢ
Ð¿ÑĢÐ¸ÐºÐ°Ð·
Ð½Ð°Ð¿Ð¸ÑĪÐ¸
ĠÐ¼ÑĢÐ°Ð·
ĠÐ¿Ð¾ÐºÐ¾Ð¹
ÑĤÐ°Ð¹
Ð°Ð²Ð°ÑĢ
ĠÐ²ÑĭÑĪÐµÐ»
Ð¸Ð·Ð²Ð¸Ð½Ð¸ÑĤÐµ
Ð¾Ð±Ð»Ð°ÑģÑĤÐ½Ð¾Ð¹
ĠÐ±Ð¸Ð»ÐµÑĤ
ÑĢÐ¾ÑĢ
Ð´Ð°Ðº
ĠÐºÑĥÐ¿Ð¸Ð»Ð°
ĠÐ±Ð°Ð½ÐºÐ¾Ð¼Ð°ÑĤÑĭ
ÐµÐ³Ð°ÑĦÐ¾Ð½
Ð»ÑıÐ»
ĠÐ¼Ð½Ð¾Ð³
ĠÐ³ÑĢÐ°ÑĦÐ¸Ðº
ĠÐºÐ¾Ð´ÐµÐºÑģ
Ð¾Ð±Ð¾ÑĢÐ¾ÑĤ
Ð¿ÑĢÐ¾Ð±Ð»ÐµÐ¼Ð°
ĠÐ´Ð²ÐµÑĢÑĮ
ĠÐ²ÑĭÐµÐ±
ĠÐ¼Ð°Ð¼Ð°ÑĪÐ¸
ĠÐ¿ÑĢÐµÐ´ÑģÑĤÐ°Ð²Ð»ÑıÐµÑĪÑĮ
ĠÐ¼Ð°Ð»ÐµÐ½ÑĮÐºÐ°Ñı
Ð·Ð²Ð¾Ð½Ð¸
ÑĤÐ¾Ð²Ð°ÑĢ
ĠÐ¼Ð°Ð»ÑĭÑĪ
ĠÐ¶ÐµÐ½Ñı
ÑĥÐ¼ÐµÐ½ÑĤÑĭ
ÑģÑĤÑĢÐ°ÑĪ
ÑĥÐ³Ð°Ð»ÑģÑı
ĠÑĥÐ±ÑĢ
Ð¾Ð²ÐµÑīÐµÐ½
ĠÑĥÑĩÐ°Ñģ
ĠÐ³Ð»Ð°Ð²Ð½Ð¾Ðµ
ÐµÑİ
ĠÑħÑĥÐ¶Ðµ
ĠÑģÐ²Ð¾ÑĳÐ¼
ĠÐºÑĢÐ°ÑģÐ½Ð¾Ð´Ð°ÑĢ
ĠÐºÑĢÐ¸Ñĩ
ÑĢÐ¾Ð±Ð¾ÑĤ
Ð¸ÑĩÐ½Ð¾
ÑĳÐ¼ÑģÑı
ÑĥÐ¼Ð°
Ð½Ð¾Ð²Ð°
ÑĦÐ¸Ð»ÑĮÐ¼Ñĭ
ĠÑĢÐµÐ¼
ĠÐ½Ð°Ð·Ð²Ð°Ð½
ĠÐºÐ»ÑİÑĩ
ĠÑĢÑĥÑĩ
Ð¿ÑĢÐ¸Ð±ÑĭÑĤÑĮ
ĠÑĥÐ³ÑĢÐ¾Ð¶
ĠÑģÐ¾Ð±Ð°ÐºÑĥ
ĠÐ¼ÐµÑĤÑĢÐ¾
ÑĢÐ°Ð±Ð¾ÑĤÐ°ÑĤÑĮ
ĠÑĦÐ¸Ð³
Ð´Ð¾Ð¿
ĠÐ¿Ð¾Ð½ÑĢÐ°Ð²Ð¸ÑĤÑģÑı
ĠÑĤÐ°Ð»
ĠÐ²ÑĭÐ·Ð²Ð°Ð»Ð¸
ÑİÑĤÐ½Ð¾
ĠÑĤÑĢÑĥÑģ
ÐµÑĤÑģÐºÐ¸Ð¹
ĠÐ³Ð°ÑĢ
ĠÑģÐ´ÐµÐ»Ð°Ð»Ð¸
ÑģÐºÐ°Ð·Ð°Ð»Ð¸
Ð¸Ð¾Ð´
ĠÐ±Ð¾Ð¹
ĠÑģÐ¸ÑĤÑĥÐ°ÑĨÐ¸Ð¸
ĠÑĤÑĢÐ°ÐºÑĤÐ¾ÑĢ
ÑĤÑĮÑı
ĠÐ¼Ð°ÑĪÐ¸Ð½Ð°
ĠÐ¿ÑĢÐ¸Ð±ÑĭÐ»ÑĮ
ĠÐ¿Ð¾Ð´ÑĤÐ²ÐµÑĢÐ¶
ĠÐ·Ð°ÑĢÑıÐ´
Ð°Ð´Ð°Ð´
ÑĤÑĢÑĥÐ´
Ð¾Ð²Ñĥ
Ð°Ð¹ÑĤÐµÑģÑĮ
ĠÐ¾ÑħÑĢÐ°Ð½
ÐµÐ²Ð°Ñİ
ĠÑģÐ¾ÑģÑĤÐ¾ÑıÐ½Ð¸Ðµ
ĠÐ³Ð»ÑĥÐ±Ð¾ÐºÐ¾
ĠÐ´ÑĢÐ°Ðº
ĠÐ¿ÐµÑģÐ½Ñı
ĠÑĤÐ°ÑĤÑĮÑıÐ½Ð°
Ð¸Ð²Ð°ÐµÐ¼
ĠÐ¸ÑģÐºÑĥÑģ
ÑıÑħ
Ð³Ð°ÑĢ
ĠÐºÐ°Ð´Ñĭ
Ð¾ÑĤÐµ
ÐºÑĢÑĥ
ĠÑģÐ¿ÑĢÐ¾ÑĪÑĥ
ĠÐ¼Ð¸ÑħÐ°Ð¹Ð»Ð¾Ð²
ĠÐ¿Ð¾ÑģÑĭÐ»Ð°Ð»
Ð³Ð¾ÑģÐ¿Ð¾Ð´
ĠÐºÐ»ÑĥÐ±
ĠÐºÐ¸Ð½
ĠÐ¾Ð±ÑĬÑıÑģÐ½Ñİ
ĠÐºÐ°Ð¼Ð°Ð·
ĠÑĢÐ°Ð·Ð°
ĠÐ¾Ð±ÑĬÑıÑģÐ½Ð¸ÑĤÐµ
ĠÐ´ÑĥÑĢÐ°Ñĩ
Ð½Ð°Ð¹Ð´Ð¸
ĠÐ½Ð¸ÑĦÐ¸Ð³Ð°
ĠÐºÑĢÐ°ÑģÐ¾ÑĤ
ĠÐ¾ÐºÑĢÑĥÐ¶
Ð¸Ð²Ð°Ð¹ÑĤÐµ
Ð°Ð»ÑĮÐ½Ð¾Ð¹
ĠÐºÑĥÑħÐ½Ðµ
Ð½Ð¾Ð²Ð¾ÑģÑĤÐ¸
Ð³Ð¸Ð½
ĠÐ·Ð°Ð½Ð¸Ð¼Ð°ÑĤÑĮ
Ð¾Ð»Ð¾Ð³Ð¸Ñı
Ð³Ð°Ð»
Ð·ÐµÐ¼Ð»Ñı
ĠÐ²ÑģÑĤÐ°Ð²
ÑįÐº
ĠÐ¿Ð¾Ð»Ð¸ÑĨÐ¸Ð¸
ĠÑıÑĢ
ÐºÐ¾ÑģÑĤÑĮ
Ð¿Ð¾Ð½ÐµÐ´ÐµÐ»ÑĮÐ½Ð¸Ðº
ĠÐ´ÐµÑĢÐ¶Ð°ÑĤÑĮ
ĠÑĩÐµÐ¼Ð¿Ð¸Ð¾Ð½
ĠÑģÐ¾ÑģÐ°ÑĤÑĮ
ĠÐ½Ð°ÐºÐ»Ð¾Ð½
Ð¼Ð¸ÑģÑĤÐµÑĢ
ĠÐ¿ÑĢÐ¸ÑħÐ¾Ð´Ð¸Ð»
ĠÐ¾Ð´Ð½Ñĥ
Ð°ÑĢÐ¼
ĠÐ¿Ð¾Ð´Ð¾Ð¶
ĠÐ¸ÑģÑĤÐ¾ÑĢÐ¸Ñİ
ÑģÑĥÐ¼
Ð°ÑģÑĪ
Ð°ÑģÑĪÐµÐ´
ĠÐ´Ð°ÑĤÐ°
ĠÐ·Ð°Ð¿Ð¾ÑĢÐ¾Ð¶
ĠÑĤÐ°Ð¹
ĠÑħÑĥÐ»Ð¸Ð³Ð°Ð½Ð¸ÑĤÑĮ
Ð·Ð°ÑĢ
ÑĤÐ°ÑĢ
ĠÐºÐ¸ÑĢÐ¸Ð»
ĠÑĤÑĢÐµÐ½Ð¸ÑĢÐ¾Ð²
ÑıÐ½Ð´ÐµÐºÑģ
ĠÐ¿Ð¾Ð´ÑģÐºÐ°Ð·
ÐµÐ¶ÐºÐ°
ĠÑģÑĤÑĢÐ°Ð½Ñĭ
ĠÑħÑĥÐ¸ÑģÐ¾Ñģ
Ð°Ð½Ð½ÑĭÐµ
ÐµÐ»ÐºÐ¸
ĠÑĦÐ¸Ð·
Ð°Ð»Ð»
ÑĢÐ°Ð·Ð°
ÑĪÐµÐ²
Ð»Ð¾Ð³
ĠÑģÑĤÐ°ÑĤ
Ð¿ÑĢÐ¸ÑıÑĤÐ½Ð¾
Ð´ÑĥÐ±
Ð°Ð±Ð¸Ð½ÐµÑĤÐ°
Ð¾ÐºÐ¸Ð¹
Ð°ÑģÑĤÐ°Ñģ
ĠÐ°ÑĢÐ¼
ĠÑĤÑĢÐ¾Ð¸
ĠÑģÐ²Ð¾Ð¸Ñħ
ÑĥÑģÑĤÑĢÐ¾Ð¹
ÑįÐ»ÐµÐºÑĤÑĢÐ¾Ð½Ð½ÑĭÐ¹
Ð¾ÐºÑĤ
ĠÐºÑĥÐºÐ°ÑĢ
ĠÑĢÐ¾Ð±Ð¾ÑĤ
ÑĤÐ¸Ð¼
ĠÐ½ÐµÐ³
ĠÐ²Ð»Ð¸
ĠÐ¿Ð¸ÑģÐ°Ð»Ð°
ĠÑģÐ»Ð°Ð²
ĠÐ¿Ð¾Ð·Ð²Ð°ÑĤÑĮ
ĠÑĤÐµÑģÑĤ
ĠÑģÐµÐ²ÐµÑĢÐ½ÑĭÐ¹
ĠÐ¿Ð°Ð¼ÑıÑĤ
ĠÐ¿Ð°Ð¼ÑıÑĤÐ½Ð¸Ðº
ĠÐ²ÑĭÐ¿ÑĥÑģÐºÐ°
ĠÐ¿ÑĢÐ¾Ð²ÐµÑĢÐ¸ÑĤÑĮ
ĠÐ²ÐµÑĢÑĤ
Ð²Ð°ÑĪ
ĠÑĢÐ°Ð¹Ð¾Ð½Ñĥ
ÑĤÐ¾ÑĢÐ¾Ð²
ĠÐ°Ð½ÑĤÐ¾Ð½
ĠÐ½Ð°Ð·Ð²Ð°ÑĤÑĮ
ĠÐ¿Ð¾Ð·Ð²Ð¾Ð»
Ð´Ð¾ÑĤ
ĠÐ·Ð°Ð¿ÑĢÐ¾Ñģ
Ð±ÑĢÐ°ÑĤ
ĠÐ·Ð°Ð¿Ð»Ð°ÑĩÑĥ
ĠÐ¿Ð¾Ð¼Ð¾Ð³Ð¸ÑĤÐµ
ÐµÑħÐ°Ð»Ð¸
Ð±ÑĥÐº
ĠÐ¿Ð¾Ð´ÑħÐ¾Ð´Ð¸ÑĤ
ĠÐ¿ÑĢÐ¾Ð´Ð°Ð»
Ð¸ÑĪÐ¸ÑĤÐµ
ĠÐ¶ÐµÐ»Ð°Ð½Ð¸Ðµ
Ð½ÐµÑĢ
ĠÐ¿ÑĢÐ¸Ð¶
ĠÐ¾Ð±ÑĬÑıÐ²Ð»ÐµÐ½Ð¸Ñİ
ĠÐ¿Ð¾ÑĩÑĤÐ¸
ĠÐ±ÑĥÑĤ
ĠÑģÐ¾Ð»ÑĮ
Ð°ÑĩÐ¾Ðº
ĠÐ¼Ð¾Ð´ÐµÐ»Ð¸
Ð½ÐµÐ½ÑĮÐºÐ¾
Ð¿ÑĢÐ°Ð²Ð¸Ð»ÑĮÐ½Ð¾
ÑĤÐµÐ¿ÐµÑĢÑĮ
Ð·Ð²Ð¾Ð½Ð¸Ð»
ĠÑħÑĥÑĤÐ¾ÑĢ
ĠÐ·Ð°Ð¿Ð¸ÑģÑĮ
ĠÑĢÑĥÐ±Ð»Ñı
ĠÑĥÐºÑĢÐ°Ð¸Ð½Ðµ
ĠÐ¾Ð¿ÑĢÐµÐ´ÐµÐ»ÐµÐ½Ð¸Ðµ
ĠÐ½Ð¾Ð¼ÐµÑĢÐ¾Ð²
ĠÐ¿ÑĥÑĤÐ¸
ĠÐ¾Ð±ÑĢÐ°Ð·Ð¾Ð¼
ĠÐ²ÑĭÐ¹Ð´ÐµÑĪÑĮ
ĠÐ¿Ð¾ÑĪÐ»Ð¸
ĠÑģÑĤÐ¸ÑħÐ¸
ĠÐ²Ð·Ñı
ĠÐ¿ÑĥÑĤÑĮ
Ð»Ð¾ÑģÑĮ
ĠÐ½Ð°Ð»
Ð¾ÑĢÑĥÑģ
ĠÐ´ÑĥÑħÐ¾Ð²
ĠÑģÑĢÐ°Ð²Ð½
ĠÐ¿ÑĢÐ°ÐºÑĤ
Ð°Ð¶Ð¸
ĠÐ·ÐµÑĢÐº
ĠÐ¿ÑĢÐ¾ÑĤÐ¸Ð²Ð½Ð¾
ÑģÐ»ÑĥÐ¶
ĠÑģÐµÑĤÐ¸
ĠÐ²ÑģÐ¿Ð¾Ð¼
Ð¿ÑĢÐ¾Ð´Ð¾Ð»Ð¶
ĠÑģÐ¿Ð¸ÑĤ
ĠÐ²Ð¾Ð·Ð²
ĠÐ²Ð¾Ð·Ð²ÑĢÐ°Ñī
ÑıÐ¼ÑĥÑİ
ĠÐ±ÑĥÐ¼Ð°Ð³Ñĥ
ĠÑĦÐµÐ´Ð¾ÑĢ
ÑĤÐµÐ»ÐµÑĦÐ¾Ð½Ð°
Ð¿ÑĥÑģÑĤÐ¸
Ð»Ð¸ÐºÐ°
Ð°Ð´ÐºÐ¸
ĠÐµÐ·Ð´
Ð¾ÑĢÐ¾Ð²ÑģÐºÐ¾Ðµ
ĠÐºÑĢÑĭÑĪ
Ð³Ð»ÑıÐ´
ĠÐ¾ÑĤÐ´Ð°ÑĪÑĮ
ÑĥÐ±ÐµÑĢÐ¸
ĠÐ»Ð¾Ñħ
ĠÐºÑĥÐ¿Ð¸Ð»
ÑĥÐ´Ð°Ñı
Ð¾ÑĢÐºÐ°
ĠÐ½Ð°Ð²ÑģÐµÐ³Ð´Ð°
ĠÐ¿ÑĢÐµÐ´ÑģÑĤÐ°Ð²ÑĮÑĤÐµ
Ð´Ð¾Ð±ÑĢÐ¾Ð¹
ĠÑģÐ»Ð¸ÑĪ
ĠÑģÐ»Ð¸ÑĪÐºÐ¾Ð¼
ĠÐ´ÐµÑĢÐµÐ²ÑıÐ½
ĠÐºÑģÑĤÐ°ÑĤÐ¸
ĠÐ¾Ð¿ÐµÑĢÐ°ÑĤÐ¸Ð²Ð½Ð°Ñı
ĠÑĩÐµÐ»Ð¾Ð²ÐµÐºÐ¾Ð¼
Ð¸Ð³Ð¾ÑĢÑĮ
ĠÐ¾ÑĤÐ¿Ñĥ
ĠÐ½ÐµÐºÑĥÐ´Ð°
ĠÐ¼Ð°Ñħ
ĠÐ±ÑĭÐ´Ð»Ð°
ÑĤÐµÑħ
ĠÐ¸ÑĢÐºÑĥÑĤÑģÐº
Ð°ÑĤÐµÐ»ÑĮÐ½Ð°Ñı
ÑĤÐ½
ĠÐ´Ð¾ÑģÑĤÐ¸
ĠÐ¹Ð¾Ð±
ÑĢÐ¾ÑĤ
ĠÑĤÐµÐ»ÐµÑĦÐ¾Ð½Ñĭ
ĠÐ¾ÑĤÐ¿ÑĢÐ°Ð²Ð¸Ð»
ĠÐ²Ð¾ÐµÐ½ÐºÐ¾Ð¼Ð°ÑĤÑĥ
ĠÑĤÐ°Ð½ÐµÑĨ
ÑĢÐµÐ±ÑıÑĤÐ°
ÐµÐ½Ð¸ÐµÐ¼
ĠÐ·Ð°Ð¼ÐµÑĩÐ°ÑĤÐµÐ»ÑĮÐ½ÑĭÐ¹
ĠÐ´ÐµÐ¼ÑĮÑıÐ½Ð¾Ð²
ĠÐ²Ð¾ÐºÑĢÑĥÐ³
ĠÐ¿ÑĢÐ¾ÐºÑĥÑĢÐ°ÑĤÑĥÑĢÑĥ
ÑĥÐ¿ÐºÐ°
ĠÐ¿ÐµÑĢÐµÐ´Ð°Ð²Ð°ÑĤÑĮ
ĠÐ¿ÑĢÐ¾ÑģÐ¸Ð»
ĠÐ¼ÐµÑĪÐ°ÐµÑĤ
ĠÐ¸Ð·Ð´ÐµÐ²Ð°ÑİÑģÑĮ
ĠÐ¼Ð°Ð»ÐµÐ½ÑĮÐºÐ¸Ð¹
Ð½ÐµÑħÑĥÑı
ĠÐ´Ð¾Ð¿ÑĥÑģÑĤÐ¸Ð¼
ĠÐ¿ÑĢÐµÐ´Ð¿ÑĢ
ĠÐ¿ÑĢÐµÐ´Ð¿ÑĢÐ¸Ñı
ĠÐºÐ¾ÑĤÐ¾ÑĢÑĭÑħ
Ð·Ð°ÐºÐ¾Ð½Ñĩ
ÐµÐ±Ð½Ð¸Ðº
ĠÐ³ÑĢÐ¾Ð¼
ĠÑĦÐ¾ÑĢ
Ð°ÑĩÐ¸
ÐµÑĢÐ¸Ð°Ð»
ĠÐ´ÐµÐ²Ð¾ÑĩÐµÐº
ĠÐ½Ð°ÑĩÐ°Ð»Ð¾
Ð·Ð´Ð¾ÑĢÐ¾Ð²Ð¾
ĠÐ¿ÑĢÐ¾ÑģÑĤÐ¸ÑĤÑĥÑĤÐºÐ°
ĠÐ¿Ð¸Ð·Ð´Ð°Ð½
ÐºÐ°ÑĦÐµ
ĠÐ´ÐµÐ»Ð°ÐµÑĤÐµ
ĠÐ¿Ð¾Ð»ÑİÐ±
ĠÐ´ÐµÐ²ÑĥÑĪÐºÑĥ
Ð¼Ð°Ñħ
Ð¾ÑĤÐ´
Ð¾ÑĤÐ´ÑĭÑħ
ÑĩÐµÑĤ
ĠÐ´Ð¾Ð¶Ð´
ĠÐ¾ÑĤÐ²ÐµÑĢ
ĠÐ»Ð¸Ñģ
ÑĤÑĮÐµÐ²
Ð¿Ð»Ð¾Ñħ
ĠÐ±Ð°ÑģÑģ
ĠÐ±Ð°ÑģÑģÐµÐ¹
ÐºÑĥÑģ
ĠÑħÐ°Ñĩ
ĠÐ½Ð°Ð±ÐµÑĢ
ÑĤÐ°ÐºÑģÐ¸
ĠÐ±Ð°Ð¹ÑĢÐ°Ð¼
ĠÑĢÐµÑĪÐ°ÑĤÑĮ
ÑģÐ¸Ñİ
ĠÐ¿Ð¾Ð±Ð¾Ð»ÑĮÑĪÐµ
ĠÐ»ÑĥÑĩÑĪÐ¸Ð¹
ĠÐ¿Ð¾ÑıÐ²Ð¸Ð»ÑģÑı
Ð°Ð¾
ÑĢÑıÐ´Ð¾Ð¼
ĠÐ½Ð¾ÑĢÐ¼Ð°Ð»ÑĮÐ½Ð°Ñı
ĠÐ¿ÑĢÐ¸ÐºÐ°Ð·
ÐµÐ²ÑĢÐ¾Ð¿
ĠÑĩÐµÑĤÐ²ÐµÑĢÐ³
ĠÐ²Ð°ÑĪÐµÐ¹
ÑĪÐµÐµ
ĠÐ¿Ð¾Ð¿Ð°Ð»
ĠÐ¼ÑĥÑģÐ¾ÑĢ
ÑĳÐ²Ð°
Ð¸Ð´Ð¸
ĠÑĢÐµÐ³Ð¸Ð¾Ð½
ÑĤÑĳÑĤ
Ð¸ÑģÐ°Ð»
ĠÑĤÐ²Ð¾Ð¸Ð¼
ĠÐ±ÐµÑĢÐ¸
ĠÐ¾Ð¿ÐµÑĢÐ°
ĠÐ¿Ð¾Ð»ÐµÐ·
Ð¿ÑĢÐ¾ÑģÐ¿ÐµÐºÑĤ
ĠÐ¾ÑĤÐºÑĢÑĭÑĤÑĮ
ĠÑħÐ°Ðº
ĠÐ¼ÑĤÑģ
ĠÐ½Ð°ÑĪÐ»Ð¸
Ð¾Ð±Ð¸Ð´
ĠÑģÑĤÑĥÑĩ
ĠÑĳÐ±Ð½ÑĥÑĤÑĭÐ¹
Ð¿Ð¸Ð·Ð´
ĠÐºÑĢÐ°ÑģÐ½Ð¾Ð³Ð¾ÑĢÑģÐºÐ°
ĠÐ²ÑĭÐ²Ð¾Ð´
ĠÑĨÐµÐ½ÑĤÑĢÐµ
Ð½ÐµÐ´
ĠÐºÐ½Ð¾Ð¿
ĠÐµÐ±Ñĥ
ÑĥÐ½ÑĮ
ĠÐ²Ð½Ð¸Ð¼Ð°Ð½Ð¸Ðµ
ĠÐ¶ÐµÐ»Ð°Ð½Ð¸Ñı
ĠÐ·Ð°Ð±Ð¾Ð»Ð¾ÑĤ
ÑĢÐ°Ð²Ð»ÐµÐ½Ð¸Ðµ
ÑģÐ²Ð¾Ð±Ð¾Ð´Ð°
ĠÐ´Ð¾ÑĢÐ¾Ð³Ðµ
ĠÑģÐ´ÐµÐ»Ð°ÐµÑĪÑĮ
ĠÐ¾Ð´Ð½Ð¾Ð³Ð¾
ÑĥÐ¼Ð°Ð½
ĠÑģÐ¼ÐµÑĪÐ½Ð¾
Ð¾ÑĪÐºÐ°
Ð²Ð¾Ð·ÑĮ
ĠÑĢÐ°ÑģÐ¿ÐµÑĩ
ĠÑĢÐ°ÑģÐ¿ÐµÑĩÐ°ÑĤ
ĠÐ¼ÑĥÐ»ÑĮÑĤÐ¸ÐºÐ¸
Ð¾ÑħÑĢÐ°Ð½
Ð»Ð¸Ð¾Ð½
ÑĦÐµÐ´Ð¾ÑĢ
ĠÑħÐ¾ÑĢ
ÑĦÐ¾ÑĤÐ¾Ð³ÑĢÐ°ÑĦ
ĠÐ¿ÐµÑĢÐµÐ¿Ð¸Ñģ
ĠÐºÑĥÑĢÑģ
ĠÐ²Ð¸Ð´Ð¸ÑĤ
Ð»Ð¸ÑģÑĤ
ĠÐ¾Ð±ÐµÑīÐ°Ð»
ÑĥÑĩÐµÐ½Ð¸Ðµ
ĠÐ¿ÐµÑĢÐµÐ·
Ð¿ÑĢÑıÐ¼Ð¾
Ð±Ð°Ð±ÑĥÑĪÐºÐ°
ĠÐ¿ÑĢÐ¾ÑģÐ»ÑĥÑĪ
ĠÐ¸Ð´Ð¸Ð¾ÑĤÑĭ
Ð¾ÑĤÐ½ÑĭÐ¹
ĠÑģÑĩÑĳÑĤ
ĠÐºÐ¾Ð½ÑĨÐµÑĢÑĤ
ÑĥÑĢÐºÐ¸
ĠÐ²Ð·Ð°Ð¸Ð¼
ĠÐ¿Ð¾ÐµÑħÐ°ÑĤÑĮ
Ð¿Ð°Ð½
ĠÐ²ÑģÑıÐºÐ¸Ðµ
ĠÑĢÐ°Ð·Ð²ÐµÐ´
ĠÐ´Ð¸ÐºÑĤ
ĠÐ³Ð¾Ð»Ð¾Ð²Ð¾Ð¹
ĠÐ²Ð°ÑĪÐµÐ¼Ñĥ
Ð´Ð°Ñİ
ĠÑıÐ·ÑĭÐºÐ°
Ð¾Ð¶ÐºÐ¾Ð²
Ð±ÑĥÐ´Ñĥ
ĠÑĥÐºÑĢÐ°Ð»
Ð¾Ð½Ð¸Ðº
Ð½Ð¾ÑĢ
ĠÑģÐ¾Ð±ÑģÑĤÐ²ÐµÐ½
ĠÐ±Ð¾Ð³Ð°ÑĤ
ĠÐ¾ÑĤÑģÑİÐ´Ð°
ĠÐ½Ð°ÑģÑĤÑĢÐ¾
ĠÐ¾ÑĤÐºÑĢÐ¾Ð¹
ÑģÐ²ÑıÐ·
ĠÐ¼Ð¾ÑĪ
ĠÐ²Ð¾Ð·Ð»Ðµ
ĠÐ¿Ð¾Ð´ÑĬÐµÐ·Ð´Ð°
ĠÐ½Ð°ÑģÑĤÑı
ĠÑıÐ³Ð¾Ð´
ĠÑģÐ»ÑĥÑĪÐ°ÐµÑĪÑĮ
Ð´Ð¸Ð½
ĠÑĪÐµÑģÑĤ
Ð¶ÐµÐ»ÐµÐ·
ÑĤÐ¾ÑĢÑĥ
ĠÐºÑĥÑĢÐ¸ÑĤ
ĠÐ²ÑĭÐ´ÐµÐ»
ĠÐ±ÐµÐ»Ð³Ð¾ÑĢÐ¾Ð´
ĠÐ¾Ð±ÑĭÐº
ĠÐ¾Ð±ÑĭÐºÐ½Ð¾Ð²
ÑģÑĢ
ĠÐ¸Ð·Ð²Ð¸Ð½Ð¸ÑĤÐµ
ĠÐ¼ÐµÐ½ÑĮ
ĠÑĤÑİÑĢ
ĠÐ·Ð°Ð´Ð°ÑĤÑĮ
ĠÐ²ÐµÑĢÐ½Ð¾
ĠÑĩÐ¼Ð¾
ĠÑĢÑĥÑģÑģÐºÐ¸Ðµ
ĠÐ¿ÑĢÐµÐ´ÑģÑĤÐ°Ð²Ð¸Ð»ÑģÑı
ĠÑĥÐ½Ð¸Ñĩ
ĠÑĥÐ½Ð¸ÑĩÑĤ
ĠÐ¸ÑģÐ¿Ð¾Ð»ÑĮÐ·Ð¾Ð²Ð°ÑĤÑĮ
ÑįÐ´
ÑĥÐµÑĪÑĮ
Ð´Ð¸Ð°Ð½Ð°
ĠÐ¸Ð´ÐµÑı
ĠÐ¾ÑĢÐ³Ð°Ð½Ð¸Ð·Ð°ÑĨÐ¸Ñİ
ĠÐ¿ÑĢÐ¸Ð²ÐµÐ·
ĠÑĤÑĢÐµÑĤÑĮ
Ð¾Ð½ÑĮ
ĠÑĢÐ°ÑģÑģÐºÐ°Ð·ÑĭÐ²Ð°Ð¹
Ð½Ð¸ÑĨÑĥ
ÐºÑĢÑĥÐ³
Ð¿Ð¾Ð¶
Ð½Ð¸ÐºÐ¾Ð³Ð´Ð°
Ð¿ÑĢÐ¸ÐºÐ¾Ð»Ñĭ
ĠÐ³ÐµÐ½Ð½Ð°Ð´
Ð¾Ð´Ð¸Ñı
Ð¾Ð²ÐµÐ´
ÐºÐ¾ÑĢÐ¼
Ð¾Ð½Ñı
ĠÐ±ÐµÑĢÑĥÑĤ
ĠÑģÐ¾Ð¼
ĠÑģÐ¾Ð¼Ð½ÐµÐ²
ÐµÐ¼Ð°ÑĤÐ¸Ðº
ÑĤÐ°ÐºÐ¾Ð³Ð¾
ĠÐ²ÑĭÑıÑģ
ĠÑģÑĤÐµÐ¿
ĠÑģÐ¿ÑĢÐ¾ÑģÐ¸Ð»
ÑĢÐ¸ÑģÑĥÐ½Ð¾Ðº
Ð°Ð»ÑĮÐ½Ð¾ÑģÑĤÑĮ
ĠÐ¶ÐµÐ»Ð°Ñİ
ĠÑĥÑģÑĤÐ°Ð½Ð¾Ð²Ð»ÐµÐ½Ð¾
ÑĤÐ¾Ð¿
ĠÐµÐ´Ñĥ
ĠÐºÐ¾Ð¼Ð¼ÐµÐ½ÑĤÐ°ÑĢÐ¸Ð¹
ĠÑģÐ²ÐµÑĤÐ°
Ð³Ð¾ÑĢÐ´Ð¾Ð½
ÑģÐ½Ð¸Ð¼
ĠÐ¾Ð¿ÐµÑĢ
ĠÑģÐ¾Ð¶Ð°Ð»
ĠÐ½Ð¸ÑĩÐµÐ¼
ĠÑĢÑĭÐ±Ð°ÐºÐ¾Ð²
ĠÐºÐ¾Ð¼Ð¼ÐµÐ½ÑĤÐ°ÑĢÐ¸Ð¸
Ð°ÑĤÐ°ÑĢ
ĠÑģÑĤÐ°ÑĢÑĭÐ¹
ĠÐ²Ð°Ð»ÐµÑĢÐ¸Ñı
ĠÐ¿Ð¾ÐµÐ´
Ð¼Ð¾ÑģÐº
ĠÑħÐ°ÑĢÐ°ÐºÑĤÐµÑĢ
ÑĢÐ¾Ð²Ð°
ĠÐ·Ð°ÑģÑĭÐ¿
ĠÐ¾Ð´Ð½Ð¾Ðº
ĠÐ°Ñģ
ĠÑħÑĥÐ´Ð¾Ð¶Ð½Ð¸Ðº
ĠÐ¿ÑĥÑĪÐºÐ¸Ð½Ð°
ĠÐ»ÑİÐ±Ð¾Ð¿
Ð½Ð¸Ð»Ð°
ĠÐ¿ÑĢÐ¾ÑĨÐµÐ½ÑĤ
ĠÐ±Ð¾Ð¸ÑĤÑģÑı
ÑģÑĤÐ²Ð¾Ð²Ð°ÑĤÑĮ
ĠÑĤÑĢÐ°Ð½
ĠÐ¼Ð°Ð»Ð°
ĠÐ´Ð°ÑĳÑĤ
ĠÐ²ÑĭÑħÐ¾Ð´Ð¸ÑĤÑĮ
ÑģÑĤÐ¾ÑĢÐ¾Ð¶
ĠÐ²Ð¾Ð»Ð½ÑĥÐ¹ÑģÑı
Ð¿ÑĥÐ»ÑĮ
ĠÑĪÑĤÑĥ
ĠÑĪÑĤÑĥÐºÐ°
ĠÐ±ÑĥÐ³ÑĥÑĢ
ÐºÐ°ÐºÐ¾Ð²Ð°
Ð¿ÑĢÐ¾ÑĦ
ĠÐ½ÐµÐ½Ð°Ð²
ĠÐ±ÐµÑģÐ¿Ð¾Ðº
ÐºÐ¾Ð·
ÑĢÐ°Ð´Ð¸Ð¾
ÑĥÐ»Ð¾Ðº
ĠÐºÑĢÑĥÐ³Ð°
ÐµÐ³Ñĥ
Ð¾Ð¶Ð´ÐµÐ½Ð¸Ðµ
ĠÑģÐ¿ÐµÑĨ
ĠÑģÑĤÑĢÐ°Ð½Ðµ
ĠÐ±ÑĥÐ´Ð¸Ð»ÑĮÐ½Ð¸Ðº
ĠÑģÐ»ÐµÐ´ÑĥÑİÑī
ÑĤÑĢÐ°ÑĦ
ĠÐ¿ÑĢÐ¸Ð´ÑĳÑĪÑĮ
Ð¸ÐºÐ»
Ð¿Ð¾Ð¹Ð´
ĠÑĩÐµÐ»Ð¾Ð²ÐµÐºÑĥ
ÑĮÐµÑĢ
ÐµÐ½Ð½ÑĭÐ¼
Ð¼ÐµÐ´
ĠÑĢÐ°ÑģÑĤÐ°Ð¼
Ð¾Ð½Ð¾Ðº
ĠÐ¿ÑĥÐ½ÐºÑĤ
ĠÐºÐ¾Ð¼Ð¸ÑģÑģÐ°ÑĢÐ¸Ð°ÑĤÑĭ
ĠÐ¿Ð¾ÐºÐ°Ð·Ð°ÑĤÐµÐ»ÑĮ
ĠÐºÑĥÑĢÑİ
Ð·Ð²Ð¾Ð½Ð¸ÑĪÑĮ
ĠÑģÑĤÑĢÐ¾Ð¸ÑĤ
ÑĤÑĢÑĥÐ±
ĠÑģÐ´Ð°
ĠÑĩÐµÑĢÐµÐ¼
ĠÑĩÐµÑĢÐµÐ¼Ñħ
ĠÑĩÐµÑĢÐµÐ¼ÑħÐ¾Ð²Ð¾
ĠÐ²Ð¸ÑĤ
ĠÐ·ÐµÐ»ÑĳÐ½ÑĭÐ¹
ĠÐ¼Ð¾ÑĢÐ´
ÑģÐµÐ¼ÑĮÑı
ĠÑĦÐ¾ÑĤÐºÑĥ
ĠÐ¿ÐµÑĢÐ²Ð¾Ð¼
ĠÑĪÑĤÐ°ÑĤÐ°
ĠÐ±Ð»Ð°Ð³Ð¾Ð´Ð°ÑĢ
ÑģÑĤÑĢÐ°
ÑĭÑĪÐºÐ¾Ð¼
Ð¼Ð¾Ð»Ð¾Ð´Ð¾Ð¹
ĠÐ¾Ð±Ð¾Ð·Ð½Ð°Ñĩ
ĠÐ¿Ð°ÑĢÐ½Ñı
ĠÐ½Ð°ÑģÑĤÐ¾
ÑıÑīÐ¸Ðµ
Ð¿ÑĢÐ¸Ð½Ð¸Ð¼
Ð²ÑĭÑģÑĤÑĥÐ¿
ĠÐºÐ¾ÑĤÐ¾ÑĢÐ¾Ð³Ð¾
ĠÐ²Ð°ÑĪÐµÐ¼
ĠÐ½Ð¸Ð¶Ð½Ð¸Ð¹
Ð¸ÑĢÐ°Ð¹
ÐµÐ»ÑıÐ±
Ð°Ð²Ð¸
Ð¾Ð´Ð¸Ð½
Ð¾ÑĥÐ¼
Ð¼ÐµÑģÑĤ
Ð´Ð¼Ð¸ÑĤÑĢÐ¸Ð¹
ĠÐ°Ð»ÐµÐºÑģÐ°Ð½Ð´ÑĢÐ¾Ð²Ð¸Ñĩ
ÑģÑĤÑĢÐµÐ»
Ð¸Ð½Ð°Ð¸Ð´Ð°
ĠÐ½Ð¸ÐºÐ¾Ð»Ð°ÐµÐ²Ð½Ð°
ĠÐ±Ð°Ð³
ĠÐ°Ð´ÐµÐºÐ²Ð°ÑĤÐ½Ð¾
ĠÐ¿Ð¾Ð´ÑĬÐµÐ·Ð¶
ĠÐ²ÐµÐ»Ð¸ÐºÐ¾Ð»
ĠÐ²ÐµÐ»Ð¸ÐºÐ¾Ð»ÐµÐ¿
Ð°ÑİÑīÐ¸Ð¹
ÐºÐ²Ð°Ð´
ĠÐ¿Ð¾Ð»Ð½Ð¾Ð¹
ĠÐ½Ð°ÑĪÐ¸Ð¼
ÑĦÐ¸Ð»
Ð¾Ð¿ÐµÑĢÐ°ÑĤÐ¸Ð²Ð½Ð¾Ð¼Ñĥ
ĠÑģÐ´Ð°Ð²Ð°ÑĤÑĮ
Ð½Ð°ÑĥÐ»
ĠÑģÐµÐºÑĢÐµÑĤ
ĠÐ´Ð¾ÑĢÐ¾Ð³Ñĥ
ÐµÐºÑĤÑĭ
Ð¾Ð³ÐµÑĢ
ÐºÑĥÑİ
ĠÑĩÐ¸ÑĤÐ°Ð»
ĠÐ»ÐµÐ¹
ĠÐ»ÐµÐ¹ÑĤÐµÐ½
ĠÐ¾ÑĤÐ²ÐµÑĩÐ°ÑĤÑĮ
ĠÑģÐ»ÑĭÑĪÐ¸ÑĤ
ĠÐ½ÐµÑģÑĤÐ¸
ĠÐ¿ÑĢÐ¸Ð±ÑĭÐ²Ð°ÑĤÑĮ
ĠÐºÐ°ÑĢÑĤÐ°
ÑĢÐ°Ð·Ð´ÐµÐ»
Ð±Ð°Ð½Ðº
ÑıÑģÐµÐ±Ðµ
ĠÑĢÑĥÐº
ÐºÐ¸Ð¼
ĠÐ¿Ð¾ÐºÐ°Ð·ÑĭÐ²Ð°ÐµÑĤ
ĠÐ¾ÐºÐ¾Ð»
ĠÑģÐ¿Ð¸ÑĪÑĮ
ĠÐ¿Ð¾Ð²ÐµÐ·Ð»Ð¾
ĠÐ²Ð¾ÑĢÐ¾Ð²
ĠÑģÐ»ÑĥÑĩÐ°Ð¹Ð½Ð¾
ĠÐ¿Ð¾Ð´Ð½Ñı
Ð´ÑĢÐ°
Ð¸ÑĢÑĥÐµÑĤ
ÑĳÐ±Ñĭ
ÑĪÑĮÑģÑı
ĠÑģÐ¾Ð·Ð´Ð°Ð»
ÐµÐ²ÑĭÐµ
ĠÐ´Ð°Ð¹ÑĤÐµ
ĠÐ²Ð¾ÑģÐºÑĢÐµÑģ
ÐµÐ½ÑĮÐµ
ĠÐ°Ð¼ÐµÑĢÐ¸ÐºÐµ
Ð¾Ð´Ð¸ÑĤÑģÑı
ĠÐ³Ð°ÑĢÐ°Ð½
ĠÐ³Ð°ÑĢÐ°Ð½ÑĤÐ¸ÑĢÑĥ
ĠÐ´ÐµÑĤÑģÐºÐ¾Ð³Ð¾
ÑĦÐµÐ»ÑĮ
ĠÐ¶ÐµÐ»ÐµÐ·Ð½Ð¾Ð´Ð¾ÑĢÐ¾Ð¶
ĠÐ¶ÐµÐ»ÐµÐ·Ð½Ð¾Ð´Ð¾ÑĢÐ¾Ð¶Ð½Ð¾Ð³Ð¾
ĠÑģÐ¿Ð±
Ð¾ÑģÐ»Ð°Ð²
Ð½Ð¸ÐºÐ°ÐºÐ¾Ð¹
ĠÐºÑĢÑĭÐ¼
ĠÐ¿Ð¾Ð³Ð¾Ð´Ñĥ
Ð·Ð¸
ĠÐ²Ð¾Ð»Ð¾Ñģ
ĠÐ½ÐµÐ¿Ð¾Ñģ
Ð¾Ð¿ÑıÑĤÑĮ
ĠÐ³Ð°Ð´
ĠÐ³Ð°Ð´Ð¾ÑģÑĤÐ¸
Ð²ÐµÐ»Ð¸Ðº
ĠÐ±ÑĭÑģÑĤÑĢÐµÐµ
Ð¾Ð·ÑĢ
Ð»Ð¾Ð±
Ð¿ÑĢÐ¸Ð³Ð¾ÑĤÐ¾Ð²
Ð¸ÐºÐ°ÑĢ
ÑĢÑĭÑĪ
ĠÑĥÑģÐ»ÑĭÑĪÐ°ÑĤÑĮ
ĠÐ´Ð¸ÑĢ
ĠÐ´Ð¸ÑĢÐµÐº
ĠÑĢÐ°Ð·ÑĢÐµÑĪ
ĠÐ¿Ð¾ÑģÐ»ÐµÐ´Ð½Ð¸Ðµ
ĠÑĤÐ¾ÑĢÑĤ
ĠÐ²ÑĭÐ±Ð¾ÑĢ
Ð¾Ð±ÑĢÐ°ÑĤÑĮ
ĠÐ¿Ð¾ÑħÐ¾Ð¶
Ð°ÑĦÐ¸ÑĪÐ°
ÐºÐ¾Ð²ÑģÐºÐ¸Ð¹
Ð°ÑĢÑĤÑĳÐ¼
Ð¿ÐµÑĢÐ²Ð°Ñı
ĠÐ¾Ð´Ð¸Ð½Ð°ÐºÐ¾Ð²
ĠÐ±Ð°Ð±ÐºÐ¸
ĠÐ¿Ð¾Ð¿ÑĢÐ¾Ð±ÑĥÐ¹
ĠÐ²Ð¾Ð¹Ð½Ñĭ
ĠÑģÐ´Ð¾Ñħ
ĠÐ²Ð·ÑıÐ»Ð°
ĠÐ¾ÑĤÐ¾ÑĢ
Ð¿Ð¾Ð´Ð³Ð¾ÑĤÐ¾Ð²
Ð¿ÑĢÐ¸Ð¼
ĠÐ·Ð°Ð²Ð¸ÑģÐ¸ÑĤ
ĠÐ´ÑĥÑĪÐ¸
ĠÑĢÐ°Ðº
ĠÐ½Ð°Ð¶Ð¸Ð¼
Ð°Ð´Ð¾
ĠÐ½Ð¾Ð¼ÐµÑĢÐ¾Ð¼
ĠÐ°ÑĥÐ´Ð¸
ÑģÑĤÐ²Ð¸Ñı
ÑĢÐ¸Ð¿
ĠÑĥÐ½
ĠÑĥÐ½Ð¸Ð²ÐµÑĢ
ĠÑĢÐ¾Ð´ÑģÑĤÐ²ÐµÐ½
Ð¿ÑĢÐµÐ¿
ÐµÐºÐµ
ĠÑĤÑĥÐ»
ĠÐ¿ÑĢÐµÐ´Ñĥ
ĠÑĢÐ°Ð·Ð½ÑĭÑħ
ÑĩÐµÐ¼Ð¿Ð¸Ð¾Ð½
ÐµÐ»ÐµÐ½Ð°
ĠÐ²ÑĭÐ»ÐµÑĩ
Ð·Ð½Ð°ÐµÑĪÑĮ
Ð¾Ð¶ÐµÐ½Ð¸Ðµ
ĠÐ¿Ð°ÑĢÑĥ
ĠÐµÑħÐ°ÑĤÑĮ
Ð¸Ð½ÐºÐ¸
ÑĦÐ°Ð¼Ð¸Ð»Ð¸
ĠÐ¶Ð°ÑĢ
Ð¾Ð»Ð¸ÑĤÑĮ
ĠÐºÐ°ÑĢÑĤÐ¸Ð½ÐºÑĥ
ĠÐ¸Ð³ÑĢÐ°ÐµÑĤ
Ð´Ñİ
ĠÑĩÐ°ÑģÑĤÐ¸
ĠÑģÐ¿Ð¾ÑĢ
ĠÐ´Ð¾Ð³Ð¾Ð²Ð¾ÑĢÐ¸Ð¼ÑģÑı
ÐºÐ¾Ð²Ð°
Ð½ÑĥÑĤ
ĠÑģÐ¾Ð¾Ð±ÑīÐ¸ÑĤÑĮ
ĠÐ²ÑĭÐ³Ð»ÑıÐ´Ð¸ÑĤ
ĠÐ±ÑĢÑİ
ĠÐºÐ²Ð°ÑĢÑĤÐ¸ÑĢÑĭ
ĠÑĥÐ·Ð½Ð°ÐµÑĤ
Ð¼Ð°Ð»
ĠÐºÐ¾ÑĤÐ¾ÑĢÐ¾Ð¼
ĠÐ³ÑĢÑĥÐ´ÑĮ
ĠÐ¾ÑģÑĤÐ¾ÑĢÐ¾Ð¶
ĠÑĥÐ±Ð¸Ð»
Ð´Ð¸Ðº
Ð¾Ð¿Ð»Ð°ÑĤÐ¸ÑĤÑĮ
Ð²Ð°ÑĪÐ°
ÑĮÐµÐ²Ð¸Ñĩ
Ð·Ð°Ð½Ð¸Ð¼
ĠÐ¼Ð¾Ð¸Ñħ
ĠÐ°Ð»Ð»Ð°Ñħ
Ð°ÐºÐ¸
ĠÐ´ÑĥÐ±
ĠÐ°Ð³
ĠÐ°Ð³ÐµÐ½ÑĤ
ĠÐ³Ð°Ð²
ÐºÐ²Ð°ÑĢÑĤÐ¸ÑĢÑĭ
ĠÐ·Ð½Ð°Ð¼
Ð¿Ð¾Ð½ÑıÑĤ
Ð¿Ð¾Ð½ÑıÑĤÐ¸Ñı
Ð¾Ð½ÐºÐ°
ĠÐ¼ÐµÐ´Ð»
ĠÑĤÐµÑħÐ½
ÐµÑģÑģÐ°
ĠÑħÑĢÐµÐ½Ð°
ĠÑĢÑĥÑģÑģÐºÐ¾Ð¼Ñĥ
Ð³Ð¾Ð»Ð¾Ñģ
ĠÑĤÐµÐ»ÐµÐ³ÑĢÐ°Ð¼Ð¼Ñĭ
ĠÑĢÐ¾Ð´Ð½Ð¾Ð¹
ĠÐ½Ð°Ð·Ð°Ð´
ĠÐ²ÐµÑģÐµÐ»Ð¾
ÑĥÐ¶ÐµÐ»Ð¸
ĠÐ²Ð°Ð»ÐµÑĢÐ¸Ð¹
ĠÐ¼Ð¸ÑħÐ°Ð¹Ð»Ð¾Ð²Ð¸Ñĩ
ÑģÑĤÐ¸Ñħ
ĠÑģÐµÐ¼ÑĮÑı
ĠÐºÑĢÐ¸ÑģÑĤ
ĠÐ´Ð°Ð½Ð½ÑĭÐµ
ĠÐ½Ð°Ð¿Ð¸ÑĪÐ¸
ÑĢÐµÐ±ÑĳÐ½Ð¾Ðº
ĠÐ±Ð¾Ð»ÑĮÑĪÐ°Ñı
ĠÐ¿Ð°Ð¼ÑıÑĤÐ¸
ĠÐµÑģÑĤ
ĠÐµÑģÑĤÐµ
ĠÑģÐ°ÑĪÑĥ
ĠÐ¾ÑĤÐ¿ÑĥÑģÐº
ĠÐ¿Ð¾Ð¿Ð¾Ð»
ĠÑģÑĤÑĢÐ°ÑĪÐ½Ð¾Ð³Ð¾
ĠÐ¾Ð±Ð¾ÑĢ
ĠÐ¿Ð¾Ð´ÑħÐ¾Ð´
ĠÐ¶Ð¸Ð²Ð¾Ð¹
Ð°Ð½ÑĤÐ¾Ð½
ĠÐ·Ð°Ð½Ð¸Ð¼Ð°Ð¹ÑģÑı
ĠÐ¾ÑĤÐ²ÐµÑĤÑĮ
ÐºÐ¾Ñģ
ĠÐ¿Ð¸ÑģÑĮÐ¼Ð¾
Ð¿ÑĢÐ°Ð½
Ð¿ÑĢÐ°Ð½Ðº
ĠÐ¿ÐµÑĢÐµÐ·Ð²Ð¾Ð½Ð¸ÑĤÐµ
ĠÐ¾Ð±Ð¸Ð´Ð½Ð¾
ĠÐ¾Ð±ÐµÐ·ÑĮÑıÐ½
ĠÐºÐ¾Ð¼Ð¼ÑĥÐ½Ð¸ÑģÑĤ
ĠÐ½Ð°Ð±Ð¸ÑĢÐ°ÐµÑĪÑĮ
ĠÐ½Ð°Ð¹Ð´ÑĳÑĪÑĮ
ĠÐ¼ÑĭÑģÐ»Ð¸
ĠÑĤÐµÑĤ
ĠÑĥÐ´Ð°Ð»Ð¸Ð»Ð°
ĠÑģÐ¼Ð¾Ð¶ÐµÑĪÑĮ
ĠÐ±Ð¸ÑĤ
Ð²ÑģÐ¿Ð¾Ð¼
ÑĤÐ°Ð±Ð»ÐµÑĤÐºÐ¸
ÑīÐµÑģÑĤÐ²ÐµÐ½
ĠÐ¿ÑĢÐ¸ÑģÑĤÐ°Ð²
ĠÐ±Ð°Ð»Ð°
Ð¿Ð¸ÑģÐ°Ð½Ð¸Ðµ
ÐµÐºÑĢ
ĠÐ¿ÑĢÐ¸ÐµÐ·Ð¶Ð°Ð»
ĠÑģÐºÑĢÑĭ
ÑĤÐ¾Ðµ
ÑĢÐ¾ÑģÑĤ
ĠÐ¿ÐµÑĢÐµÐ¿ÑĥÑĤÐ°Ð»Ð¸
ĠÑĢÑĥÑģÐ¸
ĠÑģÐ¸ÑĤÑĥÐ°ÑĨÐ¸Ñı
ÑģÐ°ÑĪÐ°
ĠÐ¿Ð°Ð²ÐµÐ»
ĠÐ°Ð»Ð¸
ĠÐ²Ð¾Ð´Ð¾ÐºÐ°Ð½Ð°Ð»
Ð¿Ð¾ÑģÑĤ
ĠÑĢÐ°Ð·Ð²Ð»
ĠÑģÐ°Ð¼ÑĭÑħ
ĠÑħÐ²Ð¾ÑģÑĤ
Ð±ÑĢÐµ
ĠÐ¼Ð¸Ð½ÑĥÑĤ
ĠÐ²ÑĢÐ°Ð³
ĠÐ´Ð¾Ð²ÐµÑĢÐ¸Ñı
ĠÑĤÐ¾ÑĢÐ³Ð¾Ð²
ÑģÑĤÐ¾Ð¸
ÑģÑĤÐ¾Ð¸Ð¼Ð¾ÑģÑĤÑĮ
ĠÐ½Ð°ÑĪÐ»Ð°
ĠÐ´ÑĢÑĥÐ·ÑĮÑıÐ¼Ð¸
ÑĥÐ½Ð°ÑħÑĥÐ¹
ĠÐ´Ð¾Ð¼Ðµ
ĠÐ·Ð°Ð¿Ð¸ÑĪÑĥ
ĠÐ¿Ð¾Ð»Ð¾Ð¶Ñĥ
ĠÐ¿ÐµÑĢÐµÐ±
ÑĨÐ¸Ð¹
ĠÑĢÑĥÐ³Ð°ÑĤÑĮÑģÑı
ĠÐ¾ÑĩÐºÐ¾
ĠÐ¼ÑĢÐ°Ð·ÑĮ
ÑĥÑĤÐ°
ĠÑģÐ¸Ð´Ð¸ÑĪÑĮ
ĠÐ¾ÑĤÐ²ÐµÑĤÑĭ
Ð¸Ð½ÑĦÐ¾ÑĢÐ¼Ð°ÑĨÐ¸Ñı
ĠÑĥÑħÐ¾Ð´Ð¸ÑĤ
ÑĢÐ°Ð¶Ð°ÐµÑĤ
ĠÑĤÐµÑĢÑĢÐ¾ÑĢ
ĠÐ³ÑĢÐ¾Ð·
ĠÐ¿ÑĢÐ¾Ð³
ĠÐ¸Ð³Ð¾ÑĢÑĮ
Ð¸ÑĤÐ¸
Ð¿ÑĢÑıÐ¼
ĠÐ²Ð»Ð°Ð´Ð¸Ð¼Ð¸ÑĢÐ¾Ð²Ð¸Ñĩ
ĠÐ¶Ñĥ
Ð¾Ð»Ñİ
ĠÐ¿ÑĢÐ¾ÑĪÐ»Ð°
ÑģÑĤÑĭ
ĠÐ½ÑĳÐ¼
ĠÐ¿ÑĢÐ¸Ð±ÑĭÐ»
ĠÐ½Ð°Ð¾Ð±Ð¾ÑĢÐ¾ÑĤ
ĠÐµÐ´Ð°
Ð²ÑģÑĤÑĢ
ĠÐ¿ÑĢÐ¾Ð»
ĠÐ²ÐµÐ»
ĠÑĨÐµÑĢ
ĠÑĨÐµÑĢÐºÐ¾Ð²ÑĮ
ĠÑĩÐ¸ÑĤÐ°ÑĤÑĮ
ÐµÐ»ÑĮÐ½Ð¾ÑģÑĤÑĮ
Ð¸ÑĤÐ°ÑĤÑĭ
ĠÐ¾Ð´Ð¸Ð½Ð¾Ðº
ĠÐ°Ð´ÑĢÐµÑģÐ°
ĠÑĢÐ°Ð·Ð²Ðµ
ĠÑĥÐ²ÐµÑĢÐµÐ½
ĠÑĤÑĥÐ°Ð»ÐµÑĤÐµ
Ð°Ð½ÑĭÐ¹
Ð´ÐµÐ¶ÑĥÑĢÐ½Ð°Ñı
ĠÐ¾ÑĢÑĥÐ¶
Ð¾Ð¹ÐºÐ¸
ĠÐ½ÐµÐ´Ð¾Ð»Ð³Ð¾
ÐµÐ¶Ð¸ÑĤ
ĠÑĤÐ¸Ñħ
ÑĢÐµÐ¿
ĠÐ¿ÑĢÐ¸Ð½ÐµÑģ
ĠÑĥÐ±ÑĢÐ°ÑĤÑĮ
ĠÑĥÐ´Ð°Ð»Ð¸ÑĤÑĮ
ĠÑģÑĤÐ°Ð½ÐµÑĤ
ÑģÐ»ÑĥÑĪÐ°Ñİ
Ð¾Ð²Ð°Ð»Ð¸
ÐºÐ¾ÑĤÐ¾ÑĢÑĭÑħ
ĠÐ¿ÐµÐ½ÑģÐ¸Ð¾Ð½ÐµÑĢ
ĠÐ¼Ð°Ð¼Ñĭ
ĠÑįÑĤÐ°
ĠÐ¿ÑĢÐ¸Ð´ÑĳÑĤÑģÑı
Ð¼ÐµÐ³
ĠÐ¾ÑĤÐ²ÐµÑĩÐ°Ð¹
ĠÐ¿Ð¾Ð·Ð¶Ðµ
ĠÐ¶Ð¸Ð²Ð¾ÑĤÐ½ÑĭÑħ
Ð±Ð»Ð¸Ð½
Ð¸Ð¼Ñĥ
ĠÐ¾ÑģÐ¾Ð±
ĠÑĤÐ¾Ð»ÑģÑĤ
ĠÐ¾ÑĢÐ¸Ð³
ĠÑĢÐµÐºÐ¸
ĠÐ³Ð¾Ð²Ð¾ÑĢÐ¸ÑĤÑģÑı
ĠÑĢÐ¾ÑģÑģÐ¸Ð¹
ĠÐ·ÑĢÐµÐ½Ð¸Ñı
ĠÑĢÐµÑĦÐµÑĢ
ĠÐ»ÐµÑĤÐ¾Ð¼
ĠÐ´Ð¾Ð±Ð°Ð²
ĠÑĩÐµ
ĠÑįÐ»ÐµÐºÑĤÑĢÐ¸Ñĩ
ĠÐ½Ð°ÑĪÐµÐ¼Ñĥ
ĠÐ¿Ð¾ÑĨÐµÐ»
ÐºÑĥÑĪÐºÐ°
Ð¾Ð²Ð¾Ðµ
ĠÑģÐ¿ÑĢÐ¾ÑģÐ¸
ĠÐ¿Ð¾Ð´Ð¾Ð±
ĠÐ¸ÑģÑĤÐ¾ÑĢÐ¸Ñı
ĠÐ±Ð°Ð»ÐºÐ¾Ð½
ÑĤÐ²Ð¾Ð¸
ĠÐ¿Ð¾Ð¹Ð´ÑĳÑĤ
ĠÐºÐ¾Ð½ÑĤÐ°ÐºÑĤ
ĠÑĢÑĥÑĩÐºÑĥ
ĠÐ¿ÑĢÐ¸ÑĢÐ¾Ð´
ĠÐ²ÑĭÑħÐ¾Ð´Ð½Ð¾Ð¹
ÑģÐµÐ»Ð¾
Ð¿Ð¾Ð´ÑĥÐ¼Ð°Ð¹ÑĤÐµ
Ð²ÑĭÐ¿ÑĥÑģÐº
Ð¸Ð³ÑĢÐ°ÑĤÑĮ
ĠÐ·Ð°Ð´Ð°Ð»
ĠÐ¾Ð·Ð½Ð°Ñĩ
ĠÐ¾Ð·Ð½Ð°ÑĩÐ°ÐµÑĤ
Ð°ÐºÐ°Ð½
ĠÐ²Ð¾Ð²
ĠÐ¿Ð¾ÐºÐ°Ð·ÑĭÐ²Ð°ÑĤÑĮ
ĠÐ·Ð°ÑĤÐº
ĠÐ½ÐµÑĥÐ´
Ð²Ð¸ÐºÑĤÐ¾ÑĢÐ¸Ñı
ĠÐ±Ð¸Ð»
ĠÐ´Ð¾Ð³
Ð¿ÑĢÐ¸ÐµÐ·Ð¶Ð°Ð¹
ĠÐ¿Ð»ÑİÑģ
ĠÐ°Ð±ÑģÐ¾Ð»ÑİÑĤÐ½Ð¾
Ð³Ðµ
Ð±Ð»Ð¸Ð¶Ð°Ð¹ÑĪÐ¸Ð¹
Ð¸Ð½ÐºÐ°
ĠÑĢÐ°Ð½Ð¾
ÑıÐ±
ÑģÐ¾Ð²ÐµÑĤÑģÐºÐ¸Ð¹
ĠÐ¼Ð°ÑģÑģÐ°Ð¶
ĠÑĤÑĢÑĥÐ±Ñĥ
ĠÑħÐ°Ð¼
ĠÐ½Ð°ÑĩÐ¸Ð½Ð°Ñİ
ĠÐ¸Ð´ÐµÑĤ
ÐµÑīÐµ
ĠÐ¿Ð¾ÐºÐ°Ð¶Ð¸ÑĤÐµ
Ð¼Ð°Ñģ
Ð´Ð¾Ð±ÑĢÐ¾Ðµ
Ð½Ð¸Ð½
Ð²ÐµÑģÑĤÐ¸
ĠÑĤÐ¾Ð»ÑĮ
ĠÑĤÐ¾Ð»ÑĮÑıÑĤ
ĠÑĤÐ¾Ð»ÑĮÑıÑĤÑĤÐ¸
ĠÐ¾ÑħÐ¾ÑĤ
ÑĢÑĭÐ±Ð°Ð»
ÑĢÑĭÐ±Ð°Ð»ÐºÐ°
ĠÐ¾ÑĤÐºÑĢÑĭÐ²Ð°ÐµÑĤ
Ð»ÑİÐ´Ð°
ÑĢÐ°ÑģÑģÑĤÐ¾ÑıÐ½Ð¸Ðµ
Ð·Ð¾Ð²
Ð½Ð°ÑģÑĤÑĢ
ĠÑĢÐ°Ð±Ð¾ÑĤÐ°Ð»Ð¸
Ð°ÑĢÑħ
ĠÐ²ÑĭÐºÐ»Ð°Ð´
ĠÐ»Ð°Ð¹
Ð°Ð»Ð¸ÑģÑĤ
ĠÐ´ÐµÑĤÑģÐºÐ¸Ð¹
Ð½Ð¾Ð³Ð²Ð°ÑĢÐ´
ÑıÑİÑģÑĮ
ÐµÑĩÐºÐ¾
ĠÑģÐ¸ÑģÑĤÐµÐ¼
Ð½Ð¸ÐºÐ°ÐºÐ¾Ð³Ð¾
ĠÐ·Ð°Ð´ÑĥÐ¼
ĠÑĥÐ·Ð½Ð°Ñİ
Ð°ÑİÑīÐ°Ñı
ĠÐºÑĢÐ¾Ð²ÑĮ
ÑĨÐ²ÐµÑĤ
ĠÐ¼Ð¾ÑģÐºÐ²Ñĥ
ÐºÐ¾ÑĤÐ¾ÑĢÐ°Ñı
ÑħÑĥÐ»Ð¸Ð³Ð°Ð½
ĠÐ¾ÐºÐ°Ð·ÑĭÐ²
ĠÐ²ÑĭÑĳÐ±ÑĭÐ²Ð°ÑĤÑĮÑģÑı
ĠÑĩÑĥÐ²ÑģÑĤÐ²ÑĥÑİ
ĠÐ¿ÑĥÑģÐº
ĠÑģÑħÐ¾Ð´Ð¸
Ð¸Ð¼ÐµÐ½Ð½Ð¾
ÑģÐ°Ð¼ÑĭÐµ
ĠÑģÑĥÐ¼ÐºÑĥ
ĠÐ²Ð¸Ð´Ðµ
ĠÑĢÐµÐ±ÐµÐ½ÐºÐ°
ÑĥÑĢÐ¾Ð´
ĠÐ±ÑĥÑĢ
ĠÐ´ÑĢÑĥÐ·ÐµÐ¹
ĠÐºÐ°Ð´ÑĭÑĢÐ¾Ð²
ĠÐ°Ð²Ð¸ÑĤÐ¾
ĠÐ²Ð¾Ð´Ð°
ÐµÐ½Ð´
ĠÐ»ÐµÐ³Ð¾
ĠÐ¾ÑĤÐ¼ÐµÐ½
Ð´ÐµÐ²ÑĥÑĪÐºÐ°
ĠÐ´Ð¾ÐºÑĥÐ¼ÐµÐ½ÑĤ
ĠÐ¿ÑıÑĤÐ½Ð¸ÑĨÐ°
ÐºÑĢÑĥÑĤÑĭÐµ
Ð¿ÑĥÐ±Ð»Ð¸ÐºÐ¸
Ð°ÑĪÐºÐ¸
ĠÑĩÐµÐ»
ĠÐ¿ÑĢÐ¾ÑĪÐ»Ð¾
ĠÐ±Ð¾ÐºÑģ
ĠÐ½Ð°Ð·ÑĭÐ²Ð°ÑĤÑĮ
ĠÐ¿Ð¾Ð»Ð¾Ð²
ĠÐ´ÐµÐ»Ð°Ð»Ð¸
ĠÐºÐ°Ð±
Ð½Ð¸ÐºÐµ
ĠÐ¿Ð»Ð°ÑĩÑĥ
ÑĢÐµÐ½ÑĤ
ĠÐ¿Ð¾Ð´Ð¿
ĠÐ¿Ð°Ð½
Ð³Ð¾Ð²Ð¾ÑĢÑİ
ÑįÑĢ
Ð¾ÑĢÐ´
ĠÐºÐ°Ð·Ð°Ð½Ð¸
ĠÑĪÐ°Ð¼
Ð¿ÑĢÐ¸Ñĩ
ĠÐ¿ÑĢÐ¸Ð´ÑĥÐ¼Ð°Ð»
ĠÐ±ÑĢÐµÐ´
ĠÐ¾ÑĤÐ¿ÑĢÐ°Ð²Ð»ÑıÑĤÑĮ
ÐµÑģÐº
ĠÐ½ÑĢÐ°Ð²Ð¸Ð»Ð¾ÑģÑĮ
ĠÐ²ÑĭÐ»ÐµÐ·
ĠÑĢÐ°ÑģÑģÐºÐ°Ð¶Ð¸
Ð¸ÑĤÐ°Ð»Ð¸Ð¹
ĠÐ´ÑĥÑĢÐ°ÑĩÐ¾Ðº
Ð¾ÑģÐ°ÑĤÑĮ
ĠÐ·Ð°Ð±Ð»
ĠÐ·Ð°Ð±Ð»ÑĥÐ´
ĠÐ·Ð°Ð±Ð»ÑĥÐ´Ð¸Ð»ÑģÑı
ĠÑĢÐ°Ð·ÑĢÑĥÑĪ
ĠÐ²ÑĢ
ĠÐ¿Ð¾Ð´ÑĢÑıÐ´
ÑģÐºÐ°Ð¶ÐµÑĪÑĮ
ĠÐ±Ð°Ð±ÑĥÑĪÐºÐµ
ÑĩÐµÑģÑĤÐ²Ð¾
ĠÐ»ÐµÐ·Ð³Ð¸Ð½
ĠÐ¿Ð¾ÐµÐ´Ñĥ
ĠÐ¸Ð½ÑĤÐµÑĢÐµÑģÑĥÐµÑĤ
ĠÑħÐ²Ð°ÑĤÐ¸Ð»Ð¾
Ð¸ÑĢÐ¾Ð²Ð°Ð½Ð½ÑĭÐ¹
ĠÐ³ÑĥÐ»Ñı
ÑģÑĦÐ¾ÑĢÐ¼
Ð´ÑĢÑĥÐ·
Ð´ÑĢÑĥÐ·ÑĮÑı
Ð²ÐµÑģ
ĠÐ¿ÑĢÐ¸ÑĪÐ»Ð°
ÑĦÐ¸ÐºÑģ
Ð°Ð´Ð°ÑİÑĤ
ĠÐ¿Ð¸Ð´ÑĢÐ¸Ð»Ð°
ĠÑĩÐ¸ÑģÑĤÐ¾
ÑĨÐµÐ¼
Ð¾Ð¿Ð°Ñģ
ĠÐ¼Ð¾Ð³Ð»Ð°
ĠÐ¼Ð¸Ð½ÑĥÑĤÑĥ
ĠÐ²ÑĢÐ°ÑĤÑĮ
ĠÐ´Ð¾Ð»Ð¾Ð¶Ð¸ÑĤÑĮ
ĠÐ²ÐµÑĢÐ½ÑĥÑĤÑĮÑģÑı
ÐµÐ½Ð·
ĠÐ¿Ð¸Ð´Ð¾ÑĢÐ°ÑģÐ°
ÑĮÑİÑĤ
ĠÑģÐºÐ°Ð¶ÐµÑĤÐµ
ĠÐ·Ð°Ð¿Ð¾ÑĢÐ¾Ð¶ÑĮÐµ
ÑıÐ¹ÑĨÐ°
ĠÐ²ÐµÑĢÑģÐ¸Ñı
Ð¿Ð»Ð°ÑĤÐ°
ĠÐºÐ¸ÑĢÐ¸Ð»Ð»
Ð²Ð¾Ð·Ð¼Ð¾Ð¶
ÐµÐ½ÐµÑĨ
ĠÑģÑĤÑĢÑĥÐº
ÑĢÐ¾Ñİ
ĠÐ·Ð°Ð¼ÐµÑĤ
ĠÑģÐ»ÑĥÑĪÐ°ÐµÑĤ
ĠÑĥÐºÐ°Ð·ÑĭÐ²
ĠÐ·Ð°ÑģÑĥ
ÐºÐ¸ÑĢÐ¾Ð²
ÑĢÐµÐ·Ð°ÑĤÑĮ
ÑĢÐ¾ÑģÐ»Ð°
ĠÑĥÐ±ÑĮÑİ
Ð°Ð¹ÐºÐ°
ĠÐ¿Ð°ÑĤÑĢÐ¾Ð½Ð¾Ð²
Ð¸ÑģÑĤÐ¸ÐºÐ°
ĠÐºÐ°Ð±Ð¸Ð½ÐµÑĤÐ°
ĠÑģÐ¼ÐµÐ½
ĠÐ¿Ð¾Ð´ÑĥÐ¼Ð°Ñİ
ĠÐ´Ð½ÑĳÐ¼
Ð»ÑĥÐº
ĠÐ¿ÑĢÐ¾ÑģÐ¿ÐµÐºÑĤ
ĠÐ¿Ð¾Ð´ÑĢÐ¾Ð±Ð½Ð¾ÑģÑĤÐ¸
Ð°ÑģÑĤÐ°ÑģÐ¸Ñı
ĠÐºÐ°Ð·Ð°ÑħÑģÑĤÐ°Ð½
ÑıÐ½Ðµ
ĠÑĤÑĢÐ¾Ð¸Ñħ
Ð½Ð°ÑģÑĩÑĳÑĤ
ĠÑĪÐ°Ð³
Ð»ÑİÐ±Ð¸Ð¼ÑĭÐ¹
ĠÐ¿ÑĢÐµÐ²
Ð·Ð¾ÑĪ
ĠÐ¶ÐµÐ½Ð¸Ñħ
ĠÑįÑĤÐ¸Ð¼Ð¸
Ð¼ÑĥÐ·ÑĭÐºÑĥ
Ð¸ÑĩÐºÐ¸
ĠÐ°ÐºÑĤÑĳÑĢ
ĠÐ¾ÑĤÑĨÐ°
ÑĥÑģÑĤÐ°Ð½Ð¾Ð²ÐºÐ°
ĠÐ·Ð°Ð´Ð¾Ð»
ĠÐ´Ð¾Ð±Ð¸ÑĤÑĮÑģÑı
ĠÐ»Ð¸ÑĩÐ½Ð¾Ðµ
ĠÐ¼Ð¾Ð»ÑĩÐ¸
ÑģÑĤÑĢÑĥÐºÑĤÑĥÑĢÐ°
Ð¿Ð¸ÑĪ
ĠÐ²Ð»Ð¸ÑıÐµÑĤ
Ð¾Ð´Ð¸Ð¼
ĠÐ¸Ð³ÑĢ
Ð²ÑĭÐºÐ¾Ð¿
Ð²ÑĭÐºÐ¾Ð¿Ð°Ð»Ð¸
ĠÐ´Ð¾ÑģÑĤÑĥÐ¿Ð°
Ð²Ð»Ð°Ð´Ð¸Ð¼Ð¸ÑĢÑģÐºÐ¸Ð¹
Ð¾Ð¶Ð¸Ð´Ð°
ÑĤÑĭÑĢ
ĠÐ¿Ð¾Ð·Ð¾Ð²Ð¸ÑĤÐµ
Ð¿Ð¾ÐºÐ¾
ĠÐºÑĢÑĭÐ»ÑĮ
Ð¸Ð½ÑģÐºÐ¾Ð¼Ñĥ
ĠÑħÐ¾Ð¼
Ð°Ñĥ
ĠÐ¿ÑĢÐµÐ¿Ð¾Ð´
ĠÑĩÐ°ÑģÑĭ
Ð°Ð½ÐµÐº
Ð°Ð½ÐµÐºÐ´Ð¾ÑĤ
ĠÐ²ÑĭÐ·ÑĭÐ²
ÑĥÐ´Ð°Ð»Ð¸ÑĤÑĮ
ĠÐ¿ÑĢÐ¾ÑĦÐµÑģÑģÐ¸Ð¾Ð½
ÑĢÐµÐ¼ÐµÐ½Ð½Ð¾
Ð¿Ð¾Ð´Ð½Ð¸Ð¼
ĠÐ¾ÑģÑĤÐ°Ð½Ð°Ð²Ð»Ð¸Ð²
ĠÐ¿Ð°Ð¿Ðµ
Ð²ÐºÐ»ÑİÑĩÐ¸ÑĤÐµ
Ð²ÑĭÐ¿Ð¸ÑĤÑĮ
ĠÐ¼Ð°ÑĪÐ¸Ð½Ñĥ
ÑĪÐ°Ð½
ĠÐ·Ð´Ð¾ÑĢÐ¾Ð²ÑĮÐµ
ĠÑģÑĤÑĢÐ¾Ð¹
ĠÐºÐ¾Ð»Ð¾ÑĤ
ĠÐºÐ¾Ð»Ð¾ÑĤÑĥÑĪÐºÐ¸Ð½Ð°
ÑģÐ¿Ð°ÑĢ
ĠÐ¿Ð¾Ð¿ÑĢÐ¾Ð±ÑĥÐµÐ¼
Ð¾ÑħÐ¾ÑĤÐ°
ÑĩÐµÐ±
Ð»Ð°Ð¶
ĠÑģÐ¾Ð´
Ð°Ð»ÐºÐ°
ÑĢÐ°Ð½Ð¸Ñĩ
ĠÐºÐ»Ð°ÑģÑģÐ½Ð¾
Ð±ÑĢÐ¾Ð´
ĠÐ´Ð¾Ð¼Ñĥ
ÐºÐ°Ð±
ĠÐ¿ÑĢÐ¸Ð³Ð¾ÑĤÐ¾Ð²Ð¸ÑĤÑĮ
Ð³Ð´
Ð³Ð´Ð·
ĠÐ¿ÑĢÐ¸ÑħÐ¾Ð´Ð¸Ð»Ð¸
ĠÐ¸Ð»ÑĮ
ĠÑĥÑģÑĤÑĢÐ°
ĠÐºÐ¾Ð¼Ð°Ð½
Ð½Ð¸ÐºÑĥÐ´Ð°
Ð½Ð°Ð¶Ð´Ñĭ
ĠÑģÐ¾Ð²ÐµÑĤÑģÐºÐ¾Ð³Ð¾
ĠÑĢÑĥÐ³Ð°Ð¹ÑģÑı
ĠÑģÐ¸Ð»ÑĮ
ĠÑįÐ»ÐµÐ¼
ÑģÐ¼ÐµÑĪ
Ð¾Ð¿Ð¾Ð»
ĠÑģÐµÐ¼ÑĮÑİ
ĠÐ¿Ð¾Ð´Ð°ÑĢÐ¸Ð»
ĠÐºÐ¾Ð½ÑĦÐµÑĤÑĭ
Ð»ÑıÐ¶Ñĥ
Ð²Ð¸Ð´Ð¸ÑĪÑĮ
Ð¾ÑĢÑĥÑģÑģÐºÐ°Ñı
Ð±ÐµÐ³
Ð´Ð¾ÐºÑĤÐ¾ÑĢ
ĠÐ´Ð¾ÐºÑĤÐ¾ÑĢ
ÑģÐ°Ð½
ÑĥÐµÑĪÑĮÑģÑı
ÑıÐ»ÑģÑı
Ð°ÑĢÐ¸Ñģ
ÐµÐ»Ð¾Ð²Ð°ÑĤÑĮ
ÑıÐµÐ²
ĠÐ¿Ð¾ÑįÑĤ
Ð²Ð¾Ð»ÑĮÐ½Ð¾Ð²
Ð¿Ð¾ÑĢÑĤ
Ð»Ð°Ð½Ð°
ĠÐ³Ð¾Ð»Ð¾ÑģÑĥ
ĠÐºÐ°Ð»Ð¸
ÑĤÐ¾ÑĢÐ³Ð¾Ð²ÑĭÐ¹
ĠÑģÐ²Ð¸Ð´Ð°Ð½Ð¸Ðµ
Ð¿Ð¾Ð·Ð´
ÑĢÐ°Ð²Ð¸ÑĤÑĮ
ĠÐ¿Ð¾Ð»Ð³Ð¾Ð´Ð°
ĠÐºÑĢÑĭÑĪÐµ
Ð½Ð¾ÑĩÐµÐº
ĠÐ¿ÑĢÐ¸Ð¿ÑĥÑģÑĤÐ¸
ĠÐ¿Ð°Ð±
ĠÐ¿Ð°Ð±Ð»Ð¸ÐºÐ°
ĠÐ¿ÑĢÐ¾ÐºÐ»ÑıÑĤÑĭ
ÐºÐ°Ð»Ðµ
ĠÑģÐ¾ÑĩÐ¸
Ð²ÑĭÐ²Ð¾Ð´
ĠÑĢÑĭÐ±Ð°Ð»
ĠÑģÐ°Ð²
ĠÐ·Ð°Ð±ÑĢÐ°Ð»Ð¸
Ð¿ÑĢÐ¾ÑģÐ»ÑĥÑĪÐ°ÑĤÑĮ
ĠÐ²Ð·Ð³Ð»ÑıÐ´
ĠÐ½Ð°ÑĪÐµ
ĠÑĤÑĢÐµÐ·Ð²ÑĭÐ¹
ÑĦÐ¸Ðº
Ð¾ÑĩÐ½Ð¸Ðº
ĠÐ¿Ð¾Ð¹Ð¼Ð°Ñİ
ĠÐ½ÐµÐ´Ð¾ÑģÑĤÑĥÐ¿
ĠÐ½ÐµÐ´Ð¾ÑģÑĤÑĥÐ¿ÐµÐ½
Ð°ÑģÐ°
Ð¾ÑĦÐ¸ÑĨÐ¸
ĠÐºÐ¸Ð»Ð¾Ð¼
ĠÐºÐ¸Ð»Ð¾Ð¼ÐµÑĤÑĢÐ¾Ð²
ÑĢÐµÐ½
ĠÑĨÑĭ
ĠÑĨÑĭÐ³Ð°Ð½
ĠÐ¶ÐµÐ½ÑīÐ¸Ð½Ñĥ
ĠÐºÐ¾Ð»Ñı
Ð±ÑĭÐ»Ð¾
ĠÑĩÐ¸ÑģÐ»Ð¾
ÐµÑĢÐ¸Ðº
ĠÑģÐ»Ð°Ð´
ÑİÑĢÐ°
ĠÐ±ÑĥÐºÐ²
Ð°Ð»ÑĮÐ½Ð¾Ð¼
ĠÐ²Ð¼ÐµÑģÑĤÐ¾
ÑıÐ½Ð¸Ð½
ĠÑģÑĤÑĢÐ°Ð½Ð¸ÑĨÐ°
ÑħÑĥÑĤÐ¾ÑĢ
ÑĤÐ¾ÑĩÐºÐ¸
ÑĢÐ°Ð´Ð°
ĠÐ¿Ð¾ÑıÐ²Ð¸ÑĤÑģÑı
ÑĢÐ¾Ð½
ĠÐ½Ð°ÑģÐºÐ¾Ð»ÑĮÐºÐ¾
ĠÑģÐ¿Ð¸
Ð¸ÑĩÐµÑģÐºÐ¸Ñħ
ÑħÐ¾Ð´Ðµ
ĠÐ¿ÑĢÐµÐ´ÑģÑĤÐ°Ð²Ð¸ÑĤÑĮ
ĠÑĦÐ¸Ð½Ð°Ð»
ĠÑĢÐ°ÑģÐºÑĢ
ĠÐ²ÑĭÐ³Ð¾Ð´Ð½Ð¾
ÐºÐ¾Ð»Ñı
ĠÐ·Ð°Ð±ÑĥÐ´ÑĮ
ĠÐ¿ÑĢÐ¾ÐµÐ·Ð´
ĠÐ¿ÑĢÐ¸Ð·Ð½Ð°
ĠÐ°Ð½ÑĤÐµÐ½
Ð¿Ð¾Ð¿ÑĥÐ»ÑıÑĢ
ĠÑģÐ²ÐµÐ¶
ĠÐ´ÑĭÑĢ
ĠÐ¿Ð¾Ð¼ÐµÑĪ
ĠÐ¿Ð¾ÑĤÐµÑĢÑıÑĤÑĮ
ĠÐ¿ÑĢÐ¾Ð´Ð°ÑĤÑĮ
ĠÐ·Ð°ÐºÑĢÑĭÑĤÑĮ
ĠÑįÐºÑģ
ÑģÑĤÐ²Ð¾Ð¼
ĠÑĢÐ°Ð±Ð¾ÑĤÐ°ÐµÑĤÐµ
ĠÐ²ÑĭÑģÐ¾ÐºÐ°Ñı
ĠÐ»ÑİÐ±Ð¸Ð»Ð°
Ð¸ÑĤÐ°ÑĢ
ĠÑģÑĤÐ°ÑĢÑĪÐ¸Ð¹
Ð°Ð½Ð°ÑĤÐ¾Ð»Ð¸Ð¹
Ð¾ÐºÑĤÐµÐ¹
Ð¾ÐºÑĤÐµÐ¹Ð»ÑĮ
ĠÐ¿ÑĢÐµÐ´Ð¿ÑĢÐ¸ÑıÑĤÐ¸Ñı
ĠÐºÐ¾Ð»ÐµÐ½Ð¸
Ð°ÐºÐ°Ð½Ð¾Ð²
ÐºÐ¾ÑģÑĤÐ¸
ĠÑĢÑĥÑģÑģÐºÐ¸Ñħ
ĠÐ±Ð»Ð¸Ð½Ñĭ
ĠÑģÐ²ÐµÑĤÐ¾Ð¼
ĠÑģÐ°Ð¼Ð°ÑĢÑģÐºÐ¾Ð¹
ĠÐ¾ÑĤÐº
ĠÐ¿ÑĢÐ¾Ð²ÐµÑĢÐ¸Ð»Ð¸
ĠÑģÐ¾Ð±Ð¸ÑĢÐ°ÐµÑĤÑģÑı
ĠÐ²Ð¸Ð½Ð¾Ð²
ÑģÐµÑĢÐ¸Ð°Ð»
ÑĤÐµÐ»ÐµÐ³ÑĢÐ°Ð¼
ĠÐ¿ÑĢÐ°Ð²Ð¸Ð»Ð°
Ð³ÑĥÐ»Ñı
ÑĥÑĤÑĭÐ¹
ÑĥÑģÑĭ
ĠÑĤÐ°ÐºÐ¾Ð¼
ĠÐ¿ÑĢÐ¸Ð±ÑĭÐ»Ð¸
ĠÐ¿Ð¾Ð»ÑİÐ±Ð¸Ð»
ĠÑģÐ½Ð°Ð¹
ĠÑģÐ½Ð°Ð¹Ð¿ÐµÑĢ
ÑģÐ»Ð°Ð½
ĠÐ¿Ð¾ÐºÑĥÑĪ
ĠÐºÑĥÐ¼
Ð¼Ð¾Ð¶ÐµÐ¼
ĠÐºÐ°ÑĢÑĤÑĭ
Ð¿Ð»Ð¾ÑħÐ¾
ĠÑĤÑĢÐ°ÑĤÐ¸ÑĤÑĮ
ĠÐ´ÑĢÐ°Ð³
ĠÐ´ÑĢÐ°Ð³Ð¾
Ð·Ðµ
ĠÐ·ÐµÐ¼Ð»Ñİ
Ð·Ð´ÐµÑģÑĮ
ĠÐ¿ÑĢÐ¾Ð¸Ð·Ð¾ÑĪ
ĠÐ¿ÑĢÐ¾Ð¸Ð·Ð¾ÑĪÐ»Ð¾
ĠÐ·Ð°Ð»ÐµÐ·
Ð¿ÑĢÐ¾Ð²ÐµÑĢÐºÐ°
ĠÐ·Ð°ÐºÐ°Ð½ÑĩÐ¸Ð²Ð°ÐµÑĤÑģÑı
ĠÐ¸Ð²Ð°Ð½
Ð¾Ð´Ð¾Ð±
ĠÐ¿ÑĢÐ¾ÐºÑĥÑĢÐ°ÑĤÑĥÑĢÐ°
ĠÐ¿Ð¾Ð´ÑĩÐ¸Ð½
Ð´Ð°ÑİÑĤ
Ð´ÑĤ
Ð´ÑĤÐ¿
ĠÑģÐ¿Ð»Ñİ
ÑıÐ²Ð»ÑıÐµÑĤÑģÑı
ĠÐ²Ð¾Ð·ÑĢÐ°Ñģ
ÐºÑĢÐ°ÑģÐ½Ð¾Ð³Ð¾ÑĢÑģÐº
ĠÐ¼Ð¾ÑģÐºÐ¾Ð²ÑģÐºÐ¸Ð¹
Ð¿Ð¾Ð²ÑĤÐ¾ÑĢÐ¸ÑĤÐµ
ĠÐ±Ð°ÐºÑĥ
ĠÐ¿ÑĢÐ¸Ð¼ÐµÑĢÑĭ
ĠÐ¾ÐºÐ¾Ð½
ĠÐ´Ð¾Ñĩ
ĠÐ¸Ð½ÑĤÐµÑĢÐµÑģÐ½Ð¾Ðµ
ÑĳÑĢÑĭ
ĠÑĦÐ¸Ð»ÑĮ
ĠÑģÐ´Ð°Ð²Ð°Ð¹
ĠÑģÐ´Ð°Ð²Ð°Ð¹ÑģÑı
Ð¸Ð²Ð°Ð»ÑģÑı
ĠÐ¿Ð¸ÑĪÑĥÑĤ
ĠÐ¸Ð¼ÐµÐµÑĪÑĮ
ĠÐºÐ²Ð°ÑĢÑĤÐ¸ÑĢ
ĠÑĥÑģÑģ
ĠÑĥÑģÑģÑĥÑĢ
ĠÑĥÑģÑģÑĥÑĢÐ¸Ð¹
ĠÐ¸Ð·Ð¼ÐµÐ½Ñı
ĠÐ¸Ð·Ð¼ÐµÐ½ÑıÐµÑĤ
Ð¼Ð¾ÑģÐºÐ¾Ð²ÑģÐºÐ°Ñı
ĠÐ¶ÐµÐ½ÑīÐ¸Ð½Ñĭ
ÐµÑĢÐµÐ³
Ð¿ÑĢÐ¾Ð±Ð»ÐµÐ¼Ñĭ
ĠÐ½ÐµÐ·Ð½Ð°Ñİ
ĠÐ¿ÑĢÐµÐ±
ĠÐºÐ°ÑĢÑĤ
ĠÐ¼Ð¾Ð»Ð¾Ð´ÑĳÐ¶
ĠÐ·Ð°Ð½ÑıÑĤÑĮÑģÑı
ĠÐ¾Ð±Ð¸Ð´ÐµÐ»
ĠÑĢÐ°Ð·Ð½Ð¾Ð¼Ñĥ
Ð°Ð¹Ð»
ÑĢÑĥÐµÑĤ
Ð³Ð¾ÑĢÐ¾Ñħ
ĠÐ¼ÐµÑģÑıÑĨÐ°
Ð»ÑıÐ»Ð¸
ÑĥÑģÐ¿Ð¾ÐºÐ¾Ð¹ÑģÑı
ĠÐ½Ð°ÑĩÐ°Ð»ÑĮÐ½Ð¸ÐºÐ¾Ð²
Ð½ÐµÐ²Ð½Ð¸Ðº
ÐºÐ»Ð¸Ð½Ð¸ÐºÐ°
ĠÐ¿ÑĢÐ¸Ð½Ð¸Ð¼Ð°ÐµÑĤ
ÑģÑħÑĥÑı
ÑĨÐµÐ¿
Ð²ÑĭÐºÐ»ÑİÑĩÐ¸
ĠÐ±Ð¾Ð½
Ð²ÑĭÑģÐ¾ÑĤÐ°
ĠÐ¿Ð¾Ð´Ð¾Ð¹Ð´ÑĳÑĤ
ĠÑĦÐ¾ÑĢÐ¼Ñĭ
ĠÐ´Ð¾Ð»Ð¶Ð½Ð¾ÑģÑĤÐ¸
ÐµÐ»ÑĮÐµ
ĠÑĢÐµÐ±ÑıÑĤÐ°Ð¼Ð¸
ĠÐ¿Ð¾ÑģÑĤÐ°Ð²Ð¸ÑĤÑĮ
ĠÐºÐ½Ð¾Ð¿ÐºÐ¸
ĠÐ¿ÑĢÐµÐ´ÑģÑĤÐ°Ð²Ð»ÑıÑİ
ĠÐ²Ð¾Ð´ÐºÑĥ
Ð·Ð°Ð±Ð¾Ð»Ð¾ÑĤÐ½ÑĭÐ¹
ĠÐ·Ð°ÑģÑĥÐ½ÑĮ
ĠÐºÐ¾Ð½ÑĨÑĥ
Ð³ÑĢÐµÐ±
ĠÑģÐºÐ°Ð¶ÐµÑĤ
ĠÐ½Ð¾Ð²Ð¾Ðµ
ĠÐ¿ÑĢÐ¸ÑħÐ¾Ð¶Ñĥ
Ð°ÑĢÐµÐ²
Ð½Ð¾ÑĩÑĮÑİ
ÐµÑģÐ°
ĠÐ´Ð°ÑĢ
ĠÐ½Ð°Ð±Ð¸ÑĢÐ°ÐµÑĤÐµ
ĠÐ¿Ð°ÑĢÐ°ÑĪ
ĠÑĢÐ°ÑģÐ¿ÐµÑĩÐ°ÑĤÐºÑĥ
ĠÐ¿ÐµÑĢÐ²Ð¾Ðµ
ĠÑĥÐ»ÑĮÑı
ĠÑĥÐ»ÑĮÑıÐ½Ð¾Ð²
ĠÑĥÐ»ÑĮÑıÐ½Ð¾Ð²ÑģÐº
ĠÐµÐ¶
ĠÐµÐ¶ÐµÐ´
ĠÐµÐ¶ÐµÐ´Ð½ÐµÐ²
Ð¼Ð¸Ð»Ð»Ð¸Ð¾Ð½
ĠÐ¿ÐµÑĢÐµÐ´Ð°Ð²Ð°Ð»Ð¸
ĠÐ¼Ñĩ
ĠÐ¼ÑĩÑģ
ĠÐ¿Ð¾Ð»ÐºÐ¾Ð²Ð½Ð¸ÐºÑĥ
Ð¼Ñģ
Ð¿Ð¾ÑģÐ»ÐµÐ´Ð½Ð¸Ð¹
ĠÑħÐ¾ÑĢÐ¾ÑĪÐµÐ³Ð¾
ÑģÐ¾ÑģÑĤÐ°Ð²
Ð¸ÐµÐ¼
Ð¸ÑĩÐµÑģÐºÐ¸
ĠÐ¾Ð³Ð¾ÑĢ
ĠÐ¾Ð³Ð¾ÑĢÑĩ
ĠÐ¿Ð»ÐµÐ¹
ĠÐ¿Ð»ÐµÐ¹Ð»Ð¸ÑģÑĤ
ĠÐ½Ð°ÑģÐµÐ»ÐµÐ½Ð¸Ñı
ĠÐ³Ð»ÑĥÑħÐ¾Ð¹
Ð¾ÑĤÐ´ÐµÐ»ÐµÐ½Ð¸Ðµ
ĠÐ¿ÐµÑĢÐµÐ·Ð²Ð°Ð½
ĠÐ¾Ð»ÐµÐ³Ð°
Ð¸Ð¼ÐµÐ½Ð°
ĠÐ¼Ð¾Ðº
ÑģÑĥÐ¿ÑĢÑĥÐ³Ð°
ÑĢÐ°ÑģÑģÐºÐ°Ð·Ð°Ð»
Ð½Ð°Ð¹ÑĤÐ¸
ĠÐºÐ²Ð°ÑĢÑĤÐ¸ÑĢÐµ
ÑģÑĢÐ°Ð·Ñĥ
ĠÑģÐ¼ÐµÑĢÑĤÐ¸
ĠÐ¾Ð±Ñģ
ĠÐºÐ°Ð¼Ð½Ð¸
Ð²ÐµÐ»
ĠÐ¾ÑĤÐ´ÑĭÑħÐ°Ñİ
Ð¼Ð¾Ð³Ñĥ
Ð´Ð¾ÑĢÐ¾Ð³
Ð²ÑĭÐºÐ»ÑİÑĩ
Ð²ÑĭÐºÐ»ÑİÑĩÐ¸ÑĤÑĮ
Ð¼Ð¾Ñĳ
ĠÑģÐµÐºÑĥÐ½Ð´Ñĥ
ĠÐ¼Ð¾Ð¸Ð¼
Ð°ÑĩÐ°
ĠÐ´Ð¸Ð²Ð°Ð½
ÑĦÑĮÐµÐ²
ĠÑģÑĤÐµÐ½Ð°
ĠÐ±ÑĢÐ°Ð²
ĠÐ±ÑĢÐ°Ð²Ð¾
ĠÑĤÐ°Ð½ÑĨÐµÐ²Ð°ÑĤÑĮ
ĠÐ²ÑĢÐ°ÑĩÐ¾Ð¼
ĠÑħÐ¾ÑĢÐ¾ÑĪÐµÐµ
ĠÐ½Ð°ÑģÑĤÑĢÐ¾ÐµÐ½Ð¸Ðµ
Ð»ÑıÑı
ĠÐ¿Ð¾Ð¿Ð¾Ð·
ĠÐ¿Ð¾Ð¿Ð¾Ð·Ð¶Ðµ
ĠÐ²ÑĭÑħÐ¾Ð´Ð°
Ð¿Ð¾Ð¹
Ð°ÑĢÐºÐ°
ĠÐ¼Ð¾ÑĪÐµÐ½
ĠÑĦÐ°Ðº
Ð°Ð¿ÑĤÐµÐºÐ°
Ð»ÑİÐ±Ð¸ÑĤÐµ
ÑĢÐ¾Ð¼Ð°Ð½
Ð¿ÑĢÐ¸Ð·Ð½Ð°Ðº
ĠÐ´Ð¾Ð·Ð²Ð¾Ð½Ð¸ÑĪÑĮÑģÑı
ÑıÑĤÑĭ
Ð¸Ð½Ð¾Ð²
ĠÑĢÐ°ÑģÐ¿ÑĢÐµÐ´ÐµÐ»
ĠÐ½Ð¸ÐºÐ°ÐºÐ°Ñı
ĠÐ½Ð°Ð±Ð¸ÑĢÐ°ÐµÑĤ
Ð¾ÑĤÐ½Ð¾ÑĪ
ĠÐ½Ð°Ð¶ÑĢÐ°Ð»ÑģÑı
ĠÑģÐ¿ÑĢÐ°ÑĪÐ¸Ð²Ð°Ð»
ÑĤÑĢÐ°Ð²
ÑĤÐ¾ÑĢÑĥÑİ
Ð´ÐµÐ½ÐµÐ³
ĠÑĢÑĥÐºÐ°Ð¼Ð¸
ĠÑģÐ»ÑĭÑĪÐ°Ð»Ð°
ĠÐºÐµÐ¹
ÐµÐ»ÐµÐ¼
ĠÐ¼ÑĥÑĩ
ĠÐ½Ð°Ð¿ÑĢÑıÐ¼ÑĥÑİ
ÑģÑĢÐ¾ÑĩÐ½Ð¾
ÑĤÐ°Ð¿
Ð°Ð»ÑĳÐ½Ð°
ĠÐ¿ÐµÑĢÐµÐ¹
Ð±ÑĢÐ¾Ñģ
Ð±ÑĥÐ´Ð¸Ð»ÑĮÐ½Ð¸Ðº
ĠÑĢÐ°ÑģÑģÐºÐ°Ð·Ð°Ð»Ð¸
ÑĢÐ°Ð´Ñĭ
ĠÐ²Ð»Ð°Ð´Ð¸Ð²
ĠÐ²Ð»Ð°Ð´Ð¸Ð²Ð¾ÑģÑĤÐ¾Ðº
ĠÐ¾ÑĤÐ´ÑĭÑħÐ°ÑĤÑĮ
ĠÐ¿ÑĢÐ°Ð²Ð¸Ð»ÑĮ
ĠÐ¿Ð¾Ð²ÑĤÐ¾ÑĢÐ¸ÑĤÐµ
ĠÑĥÑģÐ»Ñĥ
ĠÑĥÑģÐ»ÑĥÐ³Ð¸
ÐµÑĢÐ¸Ð½Ð°
ĠÐ°Ð»ÐºÐ°
ĠÐ²ÑĭÑģÐ¾ÑĤÑĭ
ĠÑģÐ¸Ð³Ð½Ð°Ð»
ĠÑĥÐ²Ð°Ð¶Ð°ÑĤÑĮ
ĠÐ¿Ð¾Ð¿ÑĢÐ¾ÑģÐ¸Ð»
ĠÐ°Ð½Ð°ÑĤÐ¾Ð»ÑĮ
ĠÐ°Ð½Ð°ÑĤÐ¾Ð»ÑĮÐµÐ²Ð¸Ñĩ
ĠÐ´Ð·
Ð¿Ð¾Ð»Ð½Ð¸ÑĤÑĮ
Ð²ÐµÑĢÐ½ÑĥÑĤÑĮ
ĠÐ´ÐµÐ»Ð°Ð¹
Ð¸Ð³ÑĢÐ°Ð»
Ð¼Ð¸Ðº
ÑĢÐ¾ÑĦÐ¾Ð½
ÑĥÑĪÐºÐ¸Ð½Ð¾
Ð¸Ð³Ð°ÑĤÐµÐ»ÑĮ
Ð¿Ð°ÑĢÐ¾Ð´Ð¸Ñı
Ð¸Ð²Ð°ÐµÑĤÐµ
Ð»ÐµÐ±
Ð°Ð´Ð¸Ð¾Ð½
ĠÑĤÐµÐ¼Ð¿ÐµÑĢ
ĠÑģÐ¾Ð¼Ð½ÐµÐ²Ð°ÑİÑģÑĮ
ĠÐºÐ¾Ð½ÑĩÐ¸Ð»
Ð²ÑĤÐ±
Ð¿ÑĢÐ¾Ð»
ĠÑģÑĤÐ¾Ð¸Ð¼Ð¾ÑģÑĤÑĮ
Ð¸ÑĨÑĥ
ĠÐ¸Ð½Ð´
ĠÐ²ÐµÑĢÐ¸ÑĪÑĮ
Ð¾Ð»ÑĮÐ·Ð¾Ð²
Ð°Ð½Ð°Ñı
ĠÐ¿ÑĢÐµÐºÑĢÐ°Ñī
ĠÐºÐ°Ð¿Ð¸ÑĤÐ°Ð»
ĠÑģÐ¿Ð¾ÑĢÑĤ
ĠÐºÑĢÑĥÑĤÐ¾
Ð¾Ð±ÑıÐ·
Ð°Ð½Ð½Ð°Ñı
Ð»Ð¾ÑħÐ½ÐµÑĤ
ĠÐ¿Ð¾ÑĪÐ»Ð°
ĠÐ¾ÑĦÐ¾ÑĢÐ¼
ĠÐºÐµÐ¼ÐµÑĢÐ¾Ð²Ð¾
ÐºÐ¾ÑģÑĤ
ÑİÐ¼
ÑģÐ¿Ð¾ÑĢÑĤ
ĠÑģÐ¾Ð¶Ð°Ð»ÐµÐ½Ð¸Ñİ
ĠÐ¿ÑĢÑĥÐ´
ĠÐ°Ð½ÑĤÐ¾Ð½Ð¾Ð²
ĠÑģÑĤÐ°ÑĢÑĭÐµ
ĠÐ²ÐµÐ´Ñĥ
ĠÐ¿Ð»Ð°ÑĤÐ½ÑĥÑİ
ĠÐ»Ð¸Ð½Ð¸Ñİ
Ð²Ð¸ÐºÐ°
ĠÐ¿ÑĢÐ¸Ð»
ÐµÑĩÑĥ
Ð¾Ð¶Ð°Ð¹
Ð¼Ð¾Ð²
ÑĮÐºÐ°
ĠÑĩÐµÑĩÐµÐ½
Ð±Ð¸Ð»
ĠÐµÐ´ÐµÐ¼
ĠÐ¶Ð¸Ð²Ð¾ÑĤÐ½ÑĭÐµ
ĠÑĢÐ°Ð·Ð³Ð¾Ð²Ð°ÑĢÐ¸Ð²Ð°Ð¹
Ð¾Ð·Ð²
ĠÑģÐµÑĢÑĳÐ¶
ĠÑģÐ¾Ð¶
ĠÐ²ÐµÑĢÐ½ÑĥÐ»ÑģÑı
ĠÑĤÐµÐ°ÑĤÑĢ
ÑĦÑĢÐ°Ð½
ÐµÐ¹ÐºÑĥ
ÐµÐ¹ÐºÑĥÐ¼
ĠÑĥÐ½Ð¸ÑĤ
ĠÑĥÐ½Ð¸ÑĤÐ°Ð·
ĠÐ´ÐµÐ»ÐµÐ½Ð¸Ñı
ĠÑĩÐµÐ»Ð¾Ð²ÐµÑĩÐµÑģÐºÐ¸
Ð¼ÐµÐ½Ð¸
Ð°Ð¼Ñĥ
ĠÐ·Ð°ÑĢÐ°Ð±Ð°ÑĤ
ĠÐ¼Ð°Ð»Ð°ÑħÐ¾Ð²
ÑİÐ»Ñı
ĠÐ¿ÑĢÑĭÐ³Ð°ÐµÑĤ
ĠÐ½Ð¾Ð²ÑĥÑİ
ĠÐ¿Ð¾ÑģÐ¼Ð¾ÑĤÑĢÑİ
ĠÑĤÐµÑĢÑĢÐ¸
ĠÑĤÐµÑĢÑĢÐ¸ÑĤÐ¾ÑĢ
ĠÐ½Ð°Ð¹Ð´ÑĳÐ¼
Ð»ÐµÐ³
ĠÑĨÐ¾Ð¹
Ð¿ÑĢÐ¾ÑĦÐµÑģÑģÐ¸Ð¾Ð½
ĠÐ½ÐµÐ½Ð°Ð²Ð¸Ð¶Ñĥ
ĠÐ¾ÑĤÑĢÐµ
ĠÐ¾ÑĤÑĢÐµÐ°Ð³
Ð¸ÑĢÐ¾Ð²Ð°Ð»Ð°
ÑĥÑģÐ¿
Ð½Ð°ÐºÐ¾Ð½ÐµÑĨ
Ð»Ð°Ð½Ð´
ÑħÐ¾Ð·
ÐºÑĥÑĢÐ°
ĠÐ³Ð¾Ð»Ð¾ÑģÐ¾Ð²Ð¾Ð¹
ĠÐ¿ÑĢÐ¾Ð¿Ð°Ð»
Ð¿Ð¾Ð½Ð¸Ð¼Ð°ÐµÑĤÐµ
ĠÐ¶ÑĥÑĢ
ĠÐ½Ð°Ñħ
Ð¸Ð´ÑĳÐ¼
ĠÐºÑĥÐ·
ĠÐ²ÑĭÑģÑĤÑĥÐ¿Ð°ÐµÑĤ
ĠÑĥÐ´Ð°ÑĢÐ°
Ð½Ð¾Ð¼ÐµÑĢÐ°
Ð¾Ð½Ð°Ñħ
ĠÑģÐºÐ¾ÑĢÑĥÑİ
ĠÐ¾Ð±Ð¾Ð¶
Ð½Ð°ÑģÑĤÑı
ĠÑģÑĤÐ°Ð²Ð»Ñİ
ĠÑĪÑĤÑĢÐ°ÑĦ
ĠÑĢÐ¾Ð»Ð¸Ðº
ÑĤÐ²Ð¾Ñı
ĠÑģÐ¾Ð½
ĠÐ½ÐµÐ°Ð´ÐµÐºÐ²Ð°ÑĤ
ĠÐ¾ÑĤÐ½Ð¾ÑģÐ¸ÑĤÑģÑı
ĠÐ±Ð¾Ð»ÑĮÑĪÐ¾Ðµ
ĠÐ¾Ð»ÐµÐ³Ñĥ
ĠÐ±Ð¾ÑĢÑĮ
Ð³Ð¾ÑĤÐ¾Ð²ÑĮÑģÑı
Ð±Ð¾ÑĤ
ĠÐ³Ð¾ÑĢÑıÑĩÐ¸Ð¹
ÐµÐ¹Ð½Ð¸ÐºÐ¾Ð²
ÐµÐ¿ÑĢÐ¾Ð³ÑĢÐ°Ð¼Ð¼Ð°
ĠÑĥÐ±Ð»ÑİÐ´
ÑĤÑĢÑĥÐ±ÐºÑĥ
Ð·ÑĥÐ±
Ð»Ð°ÑģÑģ
ĠÐ±Ð¾Ð³Ñĥ
ĠÐ¿ÐµÑĢÐµÐ´Ð°ÑĩÐ°
Ð¸Ð½ÑĮ
ÐºÐ°ÑĢÑĤÐ¸Ð½ÐºÐ°
ĠÑĤÐ°Ð½ÑĨÑĥ
ÑĤÐ²Ð¾Ñİ
ĠÐ¿ÑĢÐ¸Ð½ÑıÑĤÐ¾
ĠÐ¸ÑģÐ¿Ð¾ÑĢÑĤ
ÑĪÑĥÑĤ
ĠÐ¿Ð¾ÑģÑĤÑĥÐ¿Ð¸Ð»
ĠÑĥÐ¿Ð°ÐºÐ¾Ð²
Ð·Ð½Ð°ÐºÐ¾Ð¼
ÐºÑĢÐ°ÑģÐ¸Ð²ÑĭÐ¹
Ð³Ð°Ð¼
ĠÐ´Ð°Ð²Ð°ÑĤÑĮ
ĠÐ²Ð¾ÑģÐ¿ÑĢÐ¸Ð½Ð¸Ð¼
ÐµÑĨÐºÐ¸Ð¹
Ð¿Ð¾ÑĢÐ¾ÑĪÐ¾Ðº
ĠÐ²Ð¸Ð½Ð¾
Ð¶Ð¸Ð²Ð¾ÑĤ
ĠÐ½Ð¾ÑĢÐ¼Ð°Ð»ÑĮÐ½ÑĭÐµ
ĠÐ±ÑĢÐ°Ñħ
Ð¾Ð±ÑĭÑĩ
ÑģÐ¾Ð²ÐµÑĢÑĪÐµÐ½Ð½Ð¾
ÑģÐ¿ÑĢÐ°Ð²Ð°
ĠÐ´Ð¾Ð±ÑĢÑĭ
ĠÐ²ÑĭÐ»ÐµÑĤ
Ð¸Ð»Ñı
ĠÑħÐ¾ÑĥÐ¼
ĠÐ¾ÑĤÐ²ÐµÑĤÑģÑĤÐ²ÐµÐ½
ÑĭÐ¶
ĠÐ¼ÑıÑģ
ĠÐ¿Ð¾ÐºÑĥÑĪÐ°ÑĤÑĮ
ĠÐ±Ð°Ð·
ĠÐ·Ð°Ð½ÑıÑĤ
ÑĨÐµÐ½Ð°
Ð²Ð¼
ĠÑģÐ»ÑĥÐ¶Ð±Ð°
ĠÐ¿Ð¾Ð´ÑħÐ¾Ð´Ð¸
ĠÐ½ÐµÐ¾Ð±ÑħÐ¾Ð´Ð¸Ð¼Ð¾
ĠÐ´Ð¸Ð°Ð»Ð¾Ð³
Ð¿ÑĢÑĭÐ³
ĠÐ¼Ð°Ð¹Ð¾ÑĢ
ĠÐ¿Ð»ÑİÑĪ
ĠÐºÐ°Ð»ÑĮÐºÑĥÐ»ÑıÑĤÐ¾ÑĢ
ĠÐ½ÐµÐ´ÐµÐ»Ñı
ÑĤÐ²Ð¾ÑĢ
ĠÑİÑĢÐ¸Ð´
Ð¿Ð¾Ð´Ð¾Ð¶Ð´Ð¸ÑĤÐµ
ĠÑįÐ»Ð¸ÑĤ
ÑıÑīÐ¸Ð¹
ÑĤÐµÐ»ÐµÑĦÐ¾Ð½Ð½ÑĭÐ¹
ĠÐ¶Ð¸Ð»
Ð¸Ð½Ð¸Ð½Ð³ÑĢÐ°Ð´
ĠÑĥÐ³ÑĢÐ¾Ð¶Ð°Ð»
Ð¾Ð»ÑĮÐ½Ð¸Ðº
ÑĩÐµÐ²
ÑĤÐµÐºÑģÑĤ
Ð´ÑĥÐº
Ð¸ÑĢÐ¾Ð²Ð°Ð»
Ð°Ð¿Ðµ
ĠÐ»ÐµÐ¹ÑĤÐµÐ½Ð°Ð½ÑĤ
ĠÐ°Ð½Ð°ÑĤÐ¾Ð»Ð¸Ð¹
ĠÐ·Ð°Ð±ÐµÑĢÑĳÑĤ
ĠÐ²Ð°ÑĢÐ¸Ð°Ð½ÑĤÐ°
ĠÑĦÐ¾Ð½Ð°ÑĢ
ĠÑĦÐ¾Ð½Ð°ÑĢÐ¸Ðº
ĠÑģÑħÐ¾Ð´Ð¸ÑĤÑĮ
ĠÑģÐ±Ð¾ÑĢÑĭ
ĠÐ»Ðµ
ĠÐ³Ð°
ĠÐ±ÐµÑģÐ¿Ð¾Ð»ÐµÐ·
ĠÐ·Ð¸Ð³
ĠÐ¿Ð°Ð´Ð°ÐµÑĤ
Ð¾Ð½ÐºÐ¸
ÑģÐ±ÐµÑĢ
ÑħÑĥÑıÑģÐµÐ±Ðµ
ĠÐ¼Ð¸ÑĤ
ÐµÑĢÑĮÑĳÐ·
ĠÐ¸Ð½ÑĤÐµÑĢÐµÑģÐ½Ð¾Ð³Ð¾
ĠÐ¾ÑīÑĥ
ĠÐ¾ÑīÑĥÑī
ĠÐ¾ÑīÑĥÑīÐµÐ½Ð¸Ðµ
ĠÐ¾ÐºÐ¾Ð»Ð¾
ĠÐ¿ÐµÑĢÐµÐ·Ð²Ð¾Ð½Ð¸ÑĪÑĮ
ĠÐ´Ð°Ð»Ð±Ð¾ÑĳÐ±
ĠÑģÐºÐ°Ð¶ÑĥÑĤ
ĠÑĥÐ¶Ð¸Ð½
ĠÐ²ÐºÐ»ÑİÑĩÐ¸Ð»
ĠÑįÐ½ÐµÑĢÐ³Ð¸Ñı
ĠÑĥÐ±Ð¸Ð¹ÑģÑĤÐ²Ð¾
ĠÑģÑĤÐ°ÑĤÑĮÑı
ĠÐ¿ÑĢÐ¸Ð³Ð»Ð°ÑģÐ¸ÑĤÑĮ
ĠÑģÐºÑĥÑĩÐ°Ñİ
ĠÐ´Ð°Ð»Ð±Ð¾
ĠÐ´Ð°Ð»Ð±Ð¾ÑĳÐ±Ñĭ
ĠÑĪÑĤÐ°Ð½Ñĭ
ĠÑģÑĭÐ½Ð¾Ðº
ĠÐ¿Ð¾Ð½ÑĢÐ°Ð²
ĠÐ¿Ð¾Ð½ÑĢÐ°Ð²Ð¸Ð»ÑģÑı
ĠÑĦÐ°ÐºÑĤÐ¾ÑĢ
ĠÐ²Ð¾ÑģÐºÑĢÐµÑģÐµÐ½ÑĮÐµ
ĠÑĦÐ°ÐºÑĤ
Ð¸ÑĢÐ°ÑĤÑĮ
ĠÐ³Ð°ÑĢÐ°Ð½ÑĤÐ¸ÑĢÑĥÑİ
ĠÐ¿Ð¾ÑģÑĤÐ°ÑĢÐ°ÑİÑģÑĮ
ĠÐºÑĥÐºÐ°ÑĢÐµÐºÐ°
ĠÐºÑĥÐºÐ°ÑĢÐµÐºÐ°ÐµÑĤ
ÑıÑģÐ½Ð¾
Ð¾Ð²Ð¾Ð³Ð¾
Ð¿Ð¾Ð»Ð¾Ð¶Ð¸
Ð´ÐµÐ»ÑĮ
ĠÑĤÐµÐ¼Ð°
ÐµÐ´Ñĭ
ĠÑģÐ¾Ð±Ð°ÐºÐ°
ĠÐ»Ð¸ÑĩÐ½Ð¾Ð¼
ĠÑĥÐ±ÐµÐ´
ĠÐ¾ÑĤÐ±Ð¾ÑĢ
ĠÐ¿ÑĢÐ¾Ð´Ð°Ð¶
ĠÐ²ÑĭÑħÐ¾Ð´Ð¸ÑĪÑĮ
Ð¿ÐµÐ½
ĠÐ½ÐµÐ¿Ð¾ÑģÑĢÐµÐ´
ÑģÐ½ÐµÐ³
ĠÐ¿Ð¸ÑĤÐµÑĢÐµ
ĠÑĦÐ¸Ð»ÑĮÐ¼Ñĭ
ĠÐ³Ð¾Ð¼
ĠÐ¿Ð¾Ð´Ð¾Ð·ÑĢ
Ð¾ÑģÐ¾Ð²
ĠÐ¿Ð¾Ð¼Ð¾Ð¶ÐµÑĤ
ÑĢÑĥÐ½
ĠÑĥÐ¼Ð½ÑĭÐ¹
ĠÐ´Ð¸ÑĢÐµÐºÑĤÐ¾ÑĢ
ĠÐ²ÐºÑĥÑģ
ĠÑĳÐ¿ÑĤÐ²
ĠÑĳÐ¿ÑĤÐ²Ð°Ñİ
ĠÑĳÐ¿ÑĤÐ²Ð°ÑİÐ¼Ð°ÑĤÑĮ
ÑģÐ´ÐµÐ»Ð°Ð¹
ÑĤÐ°ÑĤÑĮÑıÐ½Ð°
Ð¿Ð¾ÑĢÐ½Ð¾
ÑģÐ»ÑĥÐ¶Ð±Ð°
Ð´ÑĥÑħ
ĠÐ²Ð»ÑİÐ±Ð»ÐµÐ½
ĠÑĤÑĢÐµÐ±ÑĥÐµÑĤ
ĠÐµÐºÐ°ÑĤ
ÐµÑĢÐ¸Ð½
ÐµÑĢÐ¸Ð½Ð±ÑĥÑĢÐ³
ÐºÐ¾Ð¼Ð°Ð½Ð´Ð°
ÐºÐ¾Ð²Ð¾Ð´ÑģÑĤÐ²Ð¾
Ð²Ð¾ÑĢÐ¾Ð²ÑģÐºÐ¾Ðµ
ĠÐ¿Ð¾Ð¿ÑĥÐ»ÑıÑĢ
ÑĩÐ¸ÑĤÐ°Ñİ
Ð½Ð¸Ð·Ñĥ
ĠÐºÐ¾Ðµ
ĠÐ±ÑĮ
Ð¿Ð°Ð²
Ð¿Ð°Ð²ÐµÐ»
Ð½Ð°Ð´ÑĨ
Ð²ÑĭÑħÐ¾Ð´Ð¸
ÑĥÑĢÐ°Ð»ÑĮ
Ð¸Ð½Ð¾Ð¼
Ð°ÑĢÐ¾Ðº
ĠÐ³ÑĢÐ°Ð´
ĠÐ·Ð°ÐºÐ¾Ð½Ñĭ
Ð°Ð²Ð¸Ñģ
ÑĤÑĭÑħ
Ð¾Ð»ÑĮÐ½Ð°Ñı
ĠÑĥÐºÑĢÐ°Ð¸Ð½Ñĭ
ĠÐ¿Ð»Ð°Ð½ÐµÑĤÑĥ
ĠÐ½Ð°ÑĢÑıÐ´
ĠÑģÑģÐ¾ÑĢ
ĠÐºÑĢÐ°ÑģÐ¸Ð²ÑĭÐ¹
ĠÑģÑĥÐ´Ñı
ÐµÐ½ÑĮÐºÐ°
ĠÐ»Ð¸Ð½Ð¸Ð¸
Ð¿ÑĢÐ¸Ð¼Ð¾ÑĢÑģÐºÐ¸Ð¹
ĠÐ´Ð¾Ð»Ð³
ĠÐºÐ¾Ð¶
ĠÑĥÐ»ÐµÑĤ
ĠÐ°Ð²ÑĤÐ¾Ð±
ÑĦÐ¾ÑĢ
ĠÐ½ÐµÐ±Ð¾Ð»ÑĮ
ĠÐ·Ð°ÑģÐ»
ĠÐ·Ð°ÑģÐ»ÑĥÐ¶
ĠÐ²Ð½Ð¸Ð¼Ð°Ð½Ð¸Ñı
ĠÑĢÐ°ÑģÑģÐºÐ°Ð·Ð°Ð»Ð°
Ð·Ð²Ð¾Ð´
ĠÑģÑĤÑĢÐ°ÑĪÐ½ÑĭÐ¹
Ð¿ÑĢÐµÐ´ÑģÑĤÐ°Ð²ÑĮ
Ð¿ÑĢÐµÐ´ÑģÑĤÐ°Ð²ÑĮÑĤÐµÑģÑĮ
Ð¼Ð°ÑĪÐ¸Ð½Ð°
ÑĢÐ°ÑģÐ¿
ÑĤÐ¾Ð½
ĠÑĥÐ±ÐµÐ³
ĠÑĥÐ½Ð¸Ð²ÐµÑĢÑģ
ĠÑĢÐ¾Ð´ÑģÑĤÐ²ÐµÐ½Ð½Ð¸Ðº
ĠÑģÑĤÑĥÐ´
ĠÐ°Ð¿ÑĤ
ĠÐ¿ÑĢÐ¾Ð´Ð°ÑİÑĤ
ĠÐ¶ÐµÑĢÑĤÐ²Ñĥ
ĠÐ¿ÑĢÐµÐ´ÑĥÐ¿ÑĢÐµÐ´
ĠÐ´Ð¸ÑģÐ¿ÐµÑĤ
ĠÐ´Ð¸ÑģÐ¿ÐµÑĤÑĩÐµÑĢ
ĠÑįÑĦ
ĠÑįÑĦÐ¸ÑĢ
ĠÑĦÐ¸Ð½
ÐµÐ·Ð²
ĠÐ¿ÑĢÑĭÐ³Ð°Ð»
ĠÐºÑĢÑĥÑĤÐ¸
ĠÐºÐ¾Ð¼Ð°Ð½Ð´Ð°
ĠÑĤÐ°Ð½ÐºÐ¸
ĠÑĤÑİÑĢÑĮ
ĠÐ¿Ð¾Ð¾Ð±ÑīÐ°ÐµÐ¼ÑģÑı
ĠÐ´Ð°Ð»Ð¸
Ð¿ÑĢÐ¸Ð»
ĠÐ¼Ð¾ÑĢÐ¾Ð¶
ĠÐ¼Ð¾ÑĢÐ¾Ð¶ÐµÐ½
ĠÐ¼Ð¾ÑĢÐ¾Ð¶ÐµÐ½Ð¾Ðµ
ĠÐ¿Ð¾Ð¿ÑĭÑĤ
Ð³ÑĢÐ°Ð½
ĠÐºÐ¸Ð´
Ð²ÑĭÐ±Ð¾ÑĢÑĭ
ĠÐ¾ÑĤÐ²ÐµÑĩÐ°ÐµÑĪÑĮ
ĠÑģÐ¿Ð¾ÐºÐ¾Ð¹Ð½Ð¾Ð¹
ĠÐ°Ð¼ÐµÑĢÐ¸ÐºÐ°Ð½
ĠÐºÐ¾Ð½ÑĨÐ°
Ð´Ð²Ð¸Ð¶
ĠÐ²ÐµÑĢÐ°
ĠÑģÐ»Ð¸Ð²
ĠÐ¾ÑĤÐ´ÐµÐ»Ñĥ
ĠÑĤÐµÐ»ÐµÐ²Ð¸Ð´
ĠÐ¾Ð¿ÐµÑĢÐ°ÑĤÐ¸Ð²Ð½Ð¾
ĠÐ¶Ð´Ð°Ð»Ð°
Ð½Ð°Ð²Ð°ÑĤÑĮ
ĠÐ¿Ð¾ÑĤÑĢ
Ð¸Ð´Ð¾Ð¼
ÐµÑĢÐ½
ÑĤÐ°Ñİ
ĠÐ½Ð°ÐºÐ¾ÑĢÐ¼
ĠÐ»Ð¾Ð²Ð»Ñİ
ÑıÐ´Ñİ
ĠÐ¿Ð¾ÐµÐ´ÐµÑĪÑĮ
ÑĩÐµÑģÑĤ
ÑĩÐµÑģÑĤÐ½Ð¾
ĠÑĦÑģÐ±
ÑĥÑĤÐ°Ð»
ĠÐ²Ð¸Ð´ÐµÑĤÑĮ
Ð²ÑĭÑģÑĤÐ°Ð²
ĠÐ·Ð°ÐºÐ¾Ð½Ñĥ
ĠÐ´ÐµÐ´ÑĥÑĪÐºÐ°
ĠÐ¿ÐµÑĢÐµÐº
ĠÐºÐ¾Ð·Ð»Ð°
Ð°Ð²ÑĤÐ¾Ð¼
Ð²Ð°Ð»ÐµÑĢÐ¸Ð¹
ÑĩÑĥÐ´
Ð¿ÑĢÐµÐ¶
ĠÑĤÐµÐ»ÐµÐ²Ð¸Ð·Ð¾ÑĢÑĥ
ĠÐ¿Ð¾ÑģÐ¸Ð´Ð¸Ð¼
Ð¾ÐµÐ²
ĠÑħÐ°Ñģ
Ð½Ð¸ÐºÐ¾Ð¼
ĠÐºÑĢÑĥÐ³Ð»
ÐºÐ¾Ð²ÑģÐºÐ°Ñı
ĠÐ´Ð¾ÑĢÐ¾Ð³Ð°Ñı
ĠÐ²Ð¿Ð¾Ð»
ĠÐ²Ð¿Ð¾Ð»Ð½Ðµ
ĠÐ¿ÑĢÐµÐ´Ð¼ÐµÑĤ
ĠÐ¿ÑĥÑĤÐµ
ĠÐ¿ÑĥÑĤÐµÑĪÐµ
ĠÐ¿Ð¾Ð¼Ð¾Ð¹
ĠÐ¿Ð¾Ð¼Ð¾Ð¹ÐºÐµ
Ð´Ð°Ð³
Ð´Ð°Ð³ÐµÑģÑĤÐ°Ð½
Ð²Ð°Ð¿
ÑįÐºÑĢÐ°Ð½
Ð¿ÑĢÐ¸ÑĪ
ĠÐ½Ð°ÑĤÐ°Ð»ÑĮ
ĠÐ½Ð°ÑĤÐ°Ð»ÑĮÑı
ĠÐ±Ð¾Ð¸
ĠÐ±Ð¾Ð¸ÑĪÑĮÑģÑı
ĠÐºÐ¾ÑĢÐ°Ð½
ĠÐ¿ÑĢÐ¸Ð´ÑĳÑĤÐµ
Ð¾Ð¶Ð¸Ð»
ĠÑĥÑĤÑİ
ĠÑĥÑĤÑİÐ³
Ð¿ÐµÑĢÐµ
ĠÐ¿Ð¾Ð»Ðµ
ÐºÐµÐ¼
ÑĢÐ¸Ð±
ĠÐ·Ð°Ð¿Ð¸ÑģÐ°Ð»Ð¸
ÑįÑĦÑĦ
ĠÐ¿ÑĢÐ¸Ð²ÑĭÑĩÐºÐ°
ĠÑĪÑĥÑĤ
ĠÑĦÑĥÐ½Ðº
ĠÐ±Ð°Ð¼
Ð±ÑĥÑĢ
ĠÐ´Ð¾Ð½Ð¸Ð¼
ĠÑĤÐ¾ÑĢÐ³Ñĥ
ĠÐºÐ°Ð¿ÑĢ
ĠÐºÐ°Ð¿ÑĢÐ¸Ð·
Ð¼Ð°Ð³Ð°Ð·
Ð¼Ð°Ð³Ð°Ð·Ð¸Ð½
ĠÐ³ÑĢÑĥÐ±Ð¸ÑĤÑĮ
ĠÐ½Ð°ÑĢÑĥÑĪÐ¸Ð»Ð¸
ĠÐ³Ð°Ð·ÐµÑĤÐ°
ĠÑıÐ·ÑĭÐºÑĥ
Ð¾Ð²ÑĮÑİ
ĠÐ»Ð¸ÑĪ
Ð½Ð°ÑĤÑĥÑĢ
ĠÐ¶ÐµÑģÑĤ
ĠÐ¾Ð±Ð¼Ð°Ð½ÑĭÐ²Ð°ÑİÑĤ
ĠÐ²ÑĭÐ·ÑĭÐ²Ð°ÐµÑĤ
Ð´ÐµÐ½Ð¸Ðµ
ĠÐ±Ð°Ð±ÑĥÑĪÐºÐ¸
ÐµÐ»ÑĮÐ½Ð¾
ĠÐ¿Ð¸Ð·Ð´Ñİ
Ð°Ð½Ð½Ð°
ĠÐ½ÐµÑĢÐ²Ñĭ
ÑģÑĥÐ»ÑĮÑĤÐ¸ÑĢÑĥ
ÑĥÑģÐ°
ĠÐ³Ð°Ð»
ÐµÐ»ÐµÑģÑĤ
Ð¿Ð°ÑĤÑĢ
ÑģÐ¿ÑĢÐ¾Ñģ
ĠÑģÐ²Ð¾ÐµÐ¼
Ð°Ð½Ð³Ð°Ð¹
ÐµÐ´ÐµÑĤ
ĠÐ²ÐµÑīÑĮ
Ð²ÑĩÐµÑĢÐ°
Ð³ÑĢÐ¸Ð±
Ð³ÑĢÐ¸Ð±Ñĭ
ĠÐ¿Ð¾Ð»Ð¾Ð¶Ð¸ÑĤÑĮ
ÐµÐµÐ²
ĠÐ±Ð°Ð½Ð°Ð½
ÑĢÐ°Ð±Ð¾ÑĤÐ°ÐµÑĤ
ĠÐ¾Ð±Ð¾ÑĢÐ¾Ð½Ñĭ
ĠÐ¿Ð¾Ð¼Ð½Ð¸ÑĪÑĮ
ĠÐ¸Ð»ÑĮÑı
ĠÑĤÐµÐ»ÐµÑĦÐ¾Ð½Ð¾Ð²
Ð¼Ð¸ÑĢÐ¾Ð²
ĠÐºÑĥÐ´
ĠÐºÐ°ÑĪ
Ð²ÑĢÐ°Ñĩ
ĠÐ·Ð°ÑīÐ¸Ñī
ÑģÑįÐ¼
ÑģÑįÐ¼Ñį
Ð»ÐµÐ½Ð¸Ð½Ð°
ÑģÐ°Ð¹ÑĤ
ĠÐ¼Ð¾ÑĢÐµ
Ð¿Ð¸ÑģÑĮÐ¼Ð¾
ĠÐ±Ð»ÑİÐ´
ĠÐ¿Ð°ÑĢÐ½Ñİ
ĠÐºÐ¾ÑĪÐºÐ°
Ð°Ð»ÐµÐºÐ¾
Ð¾Ð»Ð¾ÑĤÐ¾
ĠÑģÐ¿Ð¾ÑģÐ¾Ð±ÐµÐ½
ĠÑĢÐµÐ´
ĠÐ¿Ð°ÑģÐ¿Ð¾ÑĢ
ÑĥÐ³Ð»
ĠÐ¼Ð°ÑĤÐµÑĢ
ĠÐ±Ð¾Ð»ÑĮÑĪÑĥÑİ
ĠÐ¼ÑĥÐ·ÑĭÐº
ĠÐ±Ð¸ÑĢ
ĠÐ¾ÑĤÐºÐ»ÑİÑĩÐ¸Ð»
ĠÐ¿Ð¾Ð¹Ð´ÑĳÑĪÑĮ
ĠÐºÐ½Ð¸Ð³Ñĥ
ĠÑĤÑĥÐ°Ð»ÐµÑĤ
ĠÑĢÐµÐ»Ð¸Ð³Ð¸Ð¸
ĠÐµÑģÑĤÐµÑģÑĤÐ²ÐµÐ½Ð½Ð¾
ĠÐºÐ°ÑĦÐµÐ´
ÐµÐ½ÑĮÑĪ
ĠÑģÐ¿Ð¸ÑģÐ¾Ðº
ĠÐ´ÑĥÑĢÐ°ÐºÐ°
Ð¿ÑĢÐµÐº
Ð¸ÑĢÑĥÐ¹
ĠÐ½Ð¾Ð²Ð°
ÑĦÐ¾ÑĢÐ¼ÑĥÐ»Ð°
ÑĢÐ°Ð¶Ð¸
ĠÐ²Ð·Ð»Ð¾Ð¼
ÐµÑħÐ°Ð»Ð°
ĠÐ³Ð°Ð²Ð½Ð°
ĠÐ°Ð²ÑĤÐ¾Ð¼Ð°ÑĤ
ĠÐ±Ð°Ð»Ð°ÑĪ
ĠÐ²ÑĭÐ·Ð²Ð¾Ð½
ĠÐ²ÑĭÐ·Ð²Ð¾Ð½Ð¸ÑĤÑĮ
ĠÐ³Ð¸Ð³
ĠÐ½Ð°Ð¿Ð¾Ð¼
ÑħÐ¾ÑĩÐµÑĤ
ĠÐ²ÑĭÐ¹ÑĤÐ¸
Ð¸Ð·Ð´Ð¸
ÐµÑĢÑĥÑģÑĮ
ĠÑĢÐ¾Ð´Ð¸ÑĤÐµÐ»Ð¸
ĠÐ²Ð¾ÑģÐ¿Ð¸ÑĤÐ°Ð»Ð¸
ÑĩÑĥÐ²
ĠÑıÐ¿Ð¾Ð½
ĠÑĢÐ°Ð·ÑĥÐ¼Ð¾Ð²ÑģÐºÐ°Ñı
ÑģÐ¾ÑĨÐ¸
ĠÐ¿Ð¾Ð»ÑĥÑĩÐ¸Ð»Ð°
ĠÐ´ÐµÐ½ÐµÐ¶
ĠÐ¾ÑģÑĤÐ°Ð²Ð¸ÑĤÑĮ
ĠÐ¾ÑĤÑĨÑĥ
ĠÑģÑĥÑīÐµÑģÑĤÐ²ÑĥÐµÑĤ
ÑħÐ¾ÑĢÐ¾ÑĪÐ°Ñı
ĠÐ¼Ð°ÑĤÐ¾Ð¼
ÐºÐ°ÐºÐ¸Ñħ
ÐµÐ½Ð½ÑĭÑħ
ĠÐ´ÑĥÐ¼Ð°Ð»Ð°
ĠÐ·ÐµÑĢÐºÐ°Ð»Ð¾
ÐµÐ½Ð¸ÑĤ
ĠÐ°Ð½Ð°Ð½
ÐµÑĩÐµÐ½Ð¸Ñı
ĠÐºÐ¾Ð¼Ð¿Ð°Ð½Ð¸Ð¸
ĠÐ½Ð°ÑĢÐºÐ¾ÑĤ
Ð°Ð´ÐµÐµÐ²Ð°
ĠÑĤÐ°Ð±Ð»ÐµÑĤÐºÐ¸
Ð²Ð¸
ÑıÐ±ÑĢÐµ
ĠÐ²ÑĭÐ¹Ð´ÐµÑĤÐµ
ĠÐ¿ÑĢÐµÑģÑĤ
ÐµÐ»ÑĭÑħ
ĠÐ¿ÐµÑĢÐµÑĩ
Ð¸ÑģÐ»Ð¸ÑĤÑĮ
ĠÑĤÐµÐ»Ð¾
ÑĤÐ¾ÑĦÐ¾Ð½
ÑĭÐ²Ð°ÐµÐ¼
ĠÑĥÐµÐ±Ð°Ð»
Ð´ÐµÐ½ÑĮÐ³Ð¸
ĠÑĢÐ°ÑģÑģÐºÐ°Ð·ÑĭÐ²Ð°Ð»
ĠÐºÐ°ÑĢÐ°Ð³
Ð´ÐµÐ»Ð¸
Ð¿Ð¾Ð´ÐºÐ»ÑİÑĩ
ĠÐ´Ð°Ð½ÑĥÐ½Ð°ÑħÑĥÐ¹
ĠÑģÑĥÐ¼Ð°ÑģÑĪÐµÐ´
ĠÐºÑĢÑĥÑĤÐ¾Ð¹
ĠÑıÐ½
ĠÐ³ÑĢÐ°Ð½Ð¸ÑĨÑĭ
ÑĢÐ°Ñı
Ð¾Ð±ÑĬÑıÑģÐ½Ð¸ÑĤÐµ
Ð¿Ð¾ÐµÑħ
Ð±ÑĭÑĤÑĮ
ĠÐ½ÐµÑģÐµÑĪÑĮ
ĠÐ²Ð¾ÑģÑĤÐ¾
Ð½Ð°Ð¿Ð¸ÑģÐ°ÑĤÑĮ
ĠÐ½ÑĥÐ¶Ð½Ð°Ñı
ĠÐ¿ÑĢÐ¾Ð¿Ð°Ð´Ð°ÐµÑĤÐµ
ĠÐ¾ÑģÑĤÐ°Ð»ÑĮÐ½Ð¾Ðµ
ĠÐ»ÑİÐ±ÐµÐ·
ĠÐ»ÑİÐ±ÐµÐ·Ð½Ñĭ
ĠÐ½Ð¾Ð²ÑĭÑħ
ĠÐºÐ°ÑĢÑĤÐ¸Ð½ÐºÐ°
ĠÑĥÑģÐ»Ð¾Ð²
ĠÑĢÐ°ÑģÑģÐºÐ°Ð·Ñĭ
ÑģÑĥÐ±
Ð»Ð¸Ð¼
ĠÐ¾Ð±ÑīÐµÑģÑĤÐ²
ĠÐ²Ð»ÑİÐ±Ð¸Ð»ÑģÑı
Ð²ÐºÐ¾Ð½ÑĤÐ°ÐºÑĤÐµ
ĠÐ±Ð¾Ð»ÑĤÐ°ÐµÑĪÑĮ
ÑĥÑģÐºÐ°
ĠÐ¿Ð¾ÑĢÑıÐ´Ð¾ÑĩÐ½ÑĭÐ¹
ĠÐ°Ð³ÐµÐ½ÑĤÑģÑĤÐ²Ð¾
ĠÑĢÐ°Ð·Ð´
ĠÑĢÐ°Ð·Ð´ÑĢÐ°Ð¶Ð°ÐµÑĤ
ĠÐ¿ÐµÑĢÐµÑĪ
ĠÐ±Ð¾Ð¼Ð±Ñĥ
Ð¸ÑĢÐ°ÐµÑĤ
ĠÐ¼ÑĭÑĪÑĮ
Ð¾Ð»Ð¸Ñģ
ĠÑĤÑĥÑĪ
ĠÑĤÑĥÑĪÐ¸Ð½ÑģÐºÐ¾Ð³Ð¾
ĠÐ±Ð°ÑĢÐ´Ð°Ðº
ÑĭÐ¼Ð¸
ĠÐ¿ÑĢÐµÐ´ÑģÑĤÐ°Ð²Ð¸ÑĤÐµÐ»ÑĮ
Ð¼ÑĥÐ»ÑĮÑĤÑĦÐ¸Ð»ÑĮÐ¼
Ð±Ð¸ÑĤ
ĠÑĥÑĩÐ¸ÑĤÑĮ
ĠÑģÐ¼ÐµÑĢÑĤÑĮ
Ð°ÐµÐ²Ð°
ĠÐ¾ÑĤÐ²ÐµÑĤÐ¸Ð»Ð¸
ÑĤÐ°ÐºÐ¸Ñħ
Ð»ÑıÐ»ÑģÑı
ĠÐ¾ÑĤÐ¾
ĠÑĢÐ°Ð·Ð±Ð¸ÑĢÐ°ÑĤÑĮÑģÑı
Ð¿ÐµÑĤÑĢ
ĠÐ´ÑĢÐ°Ð¼
ĠÐ²Ð»Ð°ÑģÑĤÑĮ
ĠÑģÑĤÑĢÐ°Ð½Ð¸Ñĩ
ĠÑģÑĤÑĢÐ°Ð½Ð¸ÑĩÐºÐµ
ĠÐ¼Ð½Ð¾Ð³Ð¸Ðµ
Ð½ÑıÐº
ĠÐºÐ¾Ð´ÐµÐºÑģÐ°
Ð¸Ð»ÑĮÑı
ÑĥÑĪÐºÐ¾Ð¹
Ð¼ÐµÐ½ÑĤÑĭ
Ð¾Ð´ÐµÐ½
ĠÐ¼ÐµÑĢÑĤÐ²
ĠÐ°ÑħÑĥÐµÐ½Ð½ÑĭÐ¹
ÐµÐ½ÑīÐ¸Ð½Ð°
ĠÑĥÐ±ÐµÐ¶
Ð°ÑĢÐ¾Ð²
Ð½Ð¾ÑĤ
Ð²ÑģÑĤÑĢÐµÑĤ
ĠÐ½Ð¾Ð³Ð°Ð¼Ð¸
ĠÐ³Ð¾Ð»Ð¾Ð²Ðµ
ÐµÐ²Ð¾
ĠÐ·Ð°Ð¹ÑĨÐ°
ĠÐ½Ð°ÑĪÐ°
ĠÐºÐ¾Ð¼ÐµÐ½Ð´Ð°
ĠÑĢÐ°Ð·Ð³Ð¾Ð²Ð°ÑĢÐ¸Ð²Ð°Ð»Ð°
ĠÑĥÑĩÐ¸ÑĤÐµÐ»ÐµÐ¹
ĠÐ¿Ð¾Ð»Ð½Ð¾Ð¼
ĠÐ½Ð°Ð´ÐµÑıÑĤÑĮÑģÑı
ĠÐ´ÐµÐ¶ÑĥÑĢÐ½Ð¾Ð¹
ĠÐ¶ÐµÐ½Ð¾Ð¹
ĠÐ¿Ð¾Ð´Ð¾Ð¹Ð´Ñĥ
Ð±Ð»Ð°Ð³
Ð¾Ð²ÐµÐ½Ð¸Ðµ
ĠÐ¿ÑĢÐ¾Ð¹
ĠÐ¿ÑĢÐ¾Ð¹ÑĤÐ¸
Ð¾ÑģÐ¸Ð¿
Ð¾ÑģÐ¸Ð¿ÐµÐ´
ÐµÑĤÐµÑĤÑĮ
Ð¼Ð¸Ð½Ð¸ÑģÑĤÑĢÐ°
ĠÐ½ÐµÐ¿Ð¾Ð½ÑıÑĤÐ½Ð¾Ð³Ð¾
Ð¸Ð³Ð°Ð´Ð°
Ð±Ð»Ð¸Ð¶Ð°Ð¹ÑĪÐ°Ñı
Ð½ÐµÐ¿Ð¾Ð½
Ð½ÐµÐ¿Ð¾Ð½ÑıÑĤÐ½Ð¾
ĠÐ²ÑĭÐ¿ÑĥÑģÐº
ÑĨÐ¸ÑĤÐ°ÑĤÑĭ
ĠÐ¼Ð¾Ð³Ð¸Ð»
ĠÐ¾ÐºÑĢÑĥÐ³
ĠÑģÐµÐºÑģÐ°
ĠÑİÐ¼Ð¾ÑĢ
Ð²Ð°ÑĤÑĮÑģÑı
ĠÐ¿ÑĢÐ¸ÑıÑĤ
ĠÐ¿ÑĢÐ¾ÑĪÑĳÐ»
Ð¸Ð³Ð½Ð°Ð»
Ð¼Ð°ÑĤÑĢ
Ð»ÐµÐºÑģ
ÑĪÐ°Ð»
Ð·Ð²Ð¾Ð½Ð¾Ðº
ĠÐ¹Ð¾Ð±Ð°Ð½ÑĭÐ¹
ĠÐ¿Ð¾Ð¿ÑĢÐ¾Ð±ÑĥÑİ
ÐµÐ±Ð½ÑĭÐµ
ĠÑĤÐ°
ĠÐ¾ÑĤÑĤ
ÑģÑĤÐ°Ð½Ð°
ĠÐ¿Ð¾Ð´Ð°ÑĢÐ¸ÑĤÑĮ
ĠÑģÐ°Ð½Ñı
ĠÐ²Ð°Ð¼Ð¿Ð¸ÑĢ
ĠÑģÐ¾Ð±ÑĢ
Ð±Ð¾Ð¹
Ð²Ð°ÑģÐ¸Ð»
Ð²Ð°ÑģÐ¸Ð»Ð¸Ð¹
Ð²Ð¾Ðº
ĠÑģÐ¼Ð¾Ð¶ÐµÑĤÐµ
ĠÐ¿ÑĢÐ¸Ð´Ð¸
ĠÐ¾Ð¿Ð¸Ñģ
ĠÐ¿Ð¾Ð´ÐµÐ»
Ð°ÑĢÐ³ÑĥÐ¼ÐµÐ½ÑĤÑĭ
ĠÐ¶Ð¸Ð²ÑĥÑĤ
ĠÐ·Ð°ÐºÐ¾Ð½Ðµ
ĠÐºÐ¾Ð½Ð´
Ð¸ÑĤÐµÑĢ
ÐºÑĥÑĢÐ°ÑĤ
ĠÐ¿Ð¾Ð²Ð¾ÑĢ
ÑīÐµÑĢ
ĠÑħÑĢÑĥÑģÑĤ
Ð½ÐµÑģÐºÐ¾Ð»ÑĮÐºÐ¾
ĠÐ¼ÐµÐ½ÑĮÑĪÐµ
ĠÐ½Ð¸Ð¼Ð¸
ÑĢÐ¾Ð±Ð¾ÑĤÑĭ
ĠÐ¿Ð°ÑĢÐºÐ¾Ð²
ĠÐ¾ÑĤÐºÐ¸
ĠÐ¾ÑĤÐºÐ¸Ð½ÑĥÐ»ÑģÑı
ĠÐ±Ð»Ð°Ð³Ð¾Ð²ÐµÑīÐµÐ½
ĠÑĥÑĩÐ°ÑģÑĤÐ²
ĠÐ±Ð¾ÐµÐ²ÑĭÑħ
ÑĤÐ²Ð¾Ð¹
ĠÐ¿Ð¾Ð´ÑĬÐµÐ·Ð´
ĠÐºÐ¾Ð»Ð¿
ĠÐ³Ð¾ÑĢÑĭ
ĠÐ¾Ð±ÑīÐµÐ½Ð¸Ðµ
ĠÐ²Ð½ÑĥÑĤÑĢÐµÐ½Ð½Ð¸Ñħ
ĠÐ¿ÐµÑĢÑģÐ¾Ð½Ð°Ð¶
ĠÑģÐ´Ð¾ÑħÐ½Ñĥ
Ð¾Ð»ÐµÐ²
ĠÐ¿Ð¾ÐºÐ°Ð·Ð°Ð½Ð¸Ñı
ÑĥÐ»ÑĮÑı
Ð°Ð²Ð°ÑĢÐ¸Ñı
ĠÐ¿Ð¾Ð²ÐµÐ´ÐµÐ½Ð¸Ðµ
ĠÑĢÐ¾Ð·ÑĭÐ³
ĠÑĢÐ¾Ð·ÑĭÐ³ÑĢÑĭÑĪ
Ð°ÑĢÐ°ÑģÑĭ
ÑģÐ¾ÑĨ
ĠÐ¿Ð¾Ð´ÑĥÐ¼Ð°Ð¹
ÐµÐ¶Ð´Ðµ
ĠÐµÐ´ÐµÑĪÑĮ
Ð¸Ð³ÑĢÑĥÑĪ
ĠÑĤÑĢÐ°Ð¼
ĠÑĢÐ¾Ð¶Ð°ÑĤÑĮ
ÐµÐ²Ð°ÐµÑĤ
ÐºÑĥÑĢÑģÑĭ
ĠÐ¿Ð¾ÐºÑĥÐ¿Ð°Ñİ
ĠÐ·Ð°Ð¶
ĠÑħÐ²Ð°ÑĤÐ°ÐµÑĤ
ĠÐ²ÐµÑĢÑİ
ÑģÑĤÐ²ÐµÐ½Ð½Ð¾Ðµ
ĠÐ³ÑĢÑĥÑģÑĤ
ÑģÑĥÑħ
ÑĢÑĥÐºÑĤÑĭ
ĠÑģÐºÑĥÑĩÐ½Ð¾
Ð¸ÑĢÐ¾Ð²Ð°Ð½Ð¸Ñı
ĠÐ¿Ð¾Ð¿ÑĢ
ĠÑģÑĭÐ½Ð°
ĠÑħÐ»Ð¾Ð¿
Ð²Ð·
ĠÐ´ÐµÐ¶ÑĥÑĢÑİ
Ð»ÑİÐ±Ð¸
ĠÐ·Ð°ÑĪÑĳÐ»
Ð¸ÑģÑĤÐ¾Ð¼
ĠÐ¼Ð¸ÑĢÐ¸ÑĤÑĮÑģÑı
ĠÑģÐ¾Ð±Ð°Ñĩ
ĠÑĢÐ°Ð·Ð±ÐµÑĢÑĳÐ¼ÑģÑı
ĠÐºÐ¾Ð¼Ð½Ð°ÑĤÑĭ
ĠÐºÐ¾Ð»ÐµÑģ
ĠÐ¿Ð¾Ð»Ð¾Ð¶ÐµÐ½Ð¾
ĠÐ´ÑĢÑĥÐ³Ð¸Ð¼Ð¸
ĠÑįÐ»ÐµÐºÑĤÑĢÐ¸ÑĩÐµÐº
ĠÐ²ÑģÑĤÑĢÐµÑĩÐ°
ĠÐ¿ÑĢÐ¸Ð²Ð°ÑĤ
Ð¸Ð²Ð°Ð½
ĠÐ¿Ð¾ÑĨÐµÐ»ÑĥÐ¹
Ð±ÑĢÐ¾Ð½
ĠÐ±ÑĢÐ¾ÑģÐ¸ÑĤÑĮ
ĠÐ¿Ð¾Ð½ÑĢÐ°Ð²Ð¸Ð»Ð¾ÑģÑĮ
ÑĤÐ¾ÑĩÐ½ÑĭÐ¹
ÑıÐ»Ð¸ÑģÑĮ
ĠÐ°ÑĢÐ³
Ð¸Ð²Ð°ÐµÑĪÑĮÑģÑı
ĠÐ²Ð¾Ð·Ð´ÐµÐ¹ÑģÑĤÐ²
ĠÐ¾Ð±ÑĢÐ°ÑĤÐ½Ð¾
Ð¾Ð±ÑĭÑĩÐ½ÑĭÐ¹
ĠÐ²Ð°ÑĤ
Ð½Ð¾ÑĩÐºÐ°
ĠÐºÑĥÐºÑĥ
ÑĢÐµÐ¿Ð¸ÑĤÑĮ
ĠÐ¿Ð¾Ð»ÑĮÐ·
Ð½Ð¸Ð»
ĠÐ²Ð¸ÐºÑĤÐ¾ÑĢ
ĠÐ¶ÑĢÐ°ÑĤÑĮ
ĠÑĥÐ¼ÐµÐµÑĤ
ĠÑĢÐµÐº
ÑĤÐ²ÐµÑĢÐ´Ð¸ÑĤÐµ
ĠÑģÐ¾Ð³Ð»Ð°ÑģÐ½Ð°
ĠÐ»ÐµÑģ
ĠÐ½Ð°ÑĢÐ¸ÑģÐ¾Ð²
ĠÐ¼Ð°Ð¼Ð¾ÑĩÐºÐ°
ĠÑĤÑĥÐ¿Ð°Ñı
ÑĭÐºÐ°
ĠÐ½Ð°Ð·Ð²Ð°Ð½Ð¸Ð²Ð°ÐµÑĤ
ÑĢÐµÐ³
ĠÐ´Ð¾Ð»Ð¶Ð½Ð¾ÑģÑĤÑĮ
Ð´Ð²ÑĥÑħ
ÑģÐ±Ð¾ÑĢ
ĠÑģÐ¿Ð¸Ð·Ð´
ĠÐ¶ÐµÐ½ÑīÐ¸Ð½Ð°Ð¼
ĠÐ¿ÑĢÐ¸ÑĢÐ¾Ð´Ñĭ
ÑıÑīÑĥÑİ
ĠÐ¾Ð¿ÐµÑĢÐ°ÑĨÐ¸Ð¸
ĠÑĢÐ°ÑģÑģÐºÐ°Ð¶Ñĥ
Ð¾ÑĤÐ¿ÑĢÐ°Ð²Ð¸ÑĤÑĮ
Ð²Ð½Ð¸Ð¼
Ð¸Ð²Ð°ÑĤÑĮÑģÑı
ĠÑģÐ¾Ð·Ð²Ð¾Ð½Ð¸Ð»ÑģÑı
ÑĢÑĭÐ±
Ð°Ð·Ð°
ĠÐ·Ð¾
ĠÑĥÐ´Ð¾Ð±Ð½Ð¾
ÑįÐ»ÐµÐºÑĤÑĢÐ¾Ð½Ð½Ð°Ñı
Ð·Ð¸Ð½Ð°Ð¸Ð´Ð°
ÑģÐµÐºÑĢÐµÑĤ
ĠÐºÐ¾ÑĢÐµÐ½ÑĮ
ĠÐ¿ÐµÑĢÐµÐ´Ð°ÐµÑĤ
ĠÐ²ÑħÐ¾Ð´Ð¸ÑĤ
ĠÐ½ÐµÑĥÐ´Ð¾Ð±Ð½Ð¾
ĠÐ±ÑĥÑĤÑĭÑĢ
ĠÐ¼Ð¾ÑģÐºÐ¾Ð²ÑģÐºÐ°Ñı
ĠÐ¿Ð¾Ð·Ð´ÑĢÐ°Ð²Ð»ÑıÑİ
Ð°ÑĨÐ¸Ð¾Ð½Ð½ÑĭÐµ
ÐµÐ´Ð¾Ð¼
Ð·Ð°Ð±ÑĥÐ´ÑĮ
ĠÑĦÑĢÐ°Ð½ÑĨÐ¸Ñı
ĠÑĥÐ±ÐµÑĢÑĥ
ĠÐ¿ÑĢÐ¾Ð¸ÑģÑħÐ¾Ð´
ĠÐ´Ð¾ÑĢÐ¾Ð³Ð¾
ĠÐ¼Ð¾Ð»Ð¾Ð´ÐµÐ¶
ÑĭÐ²Ð°ÐµÑĪÑĮ
Ð»Ð°Ð´ÑĭÐ²Ð°ÐµÑĤÑģÑı
ĠÐ·Ð°ÑĢÐ°Ð±Ð¾ÑĤÐ°ÑĤÑĮ
Ð¸ÑģÐ¿Ð¾Ð»ÑĮÐ·
ĠÐºÑĢÐ°Ð¹Ð½ÐµÐ¹
ĠÐ¼ÐµÑĢÐµ
ĠÐ´Ð¾ÑģÑĤÐ¾Ð¸Ð½
ĠÐ¿Ð¾Ð»Ð¸Ðº
ĠÐ¿Ð¾Ð»Ð¸ÐºÐ»Ð¸
ĠÐ¿ÑĢÐ¾Ð¸Ð·Ð²Ð¾Ð´
ĠÐ·Ð°Ð²Ð¾Ð´Ð¸ÑĤÑģÑı
ĠÐ³Ð°ÑĢÐ½Ð¸Ð·
ĠÐ½Ð°Ð¿ÑĢÑıÐ³
ĠÐ¿Ð¾Ð´Ð¾Ð¶Ð´Ñĥ
ĠÐ²Ð¾Ð·Ð¼Ð¾Ð¶Ð½Ð¾ÑģÑĤÐ¸
Ð´ÐµÑĤ
ĠÐ¿Ð¾Ð»Ñĭ
Ð°ÐºÐ¾Ð²Ð°
ÑĳÐ½Ð½ÑĭÐµ
ÑıÑĤÐ°Ð¼
ĠÐ¿Ð¾ÑĩÑĳÐ¼
Ð²Ð°Ð»ÐµÑĢÐ¸Ñı
Ð·Ð²
ÐºÐ°ÑĢÑĤÐ°
Ð»Ð¸Ð½Ð°
ĠÐ¼ÐµÐ³Ð°ÑĦÐ¾Ð½
ĠÐ¿ÑĢÐµÐ´ÑģÑĤÐ°Ð²Ð»ÑıÐµÑĤ
Ð¸Ð´ÑĭÐ²Ð°Ð¹
ÑıÐ¶ÐµÐ½Ð¸Ñı
ĠÐ¿ÐµÑĢÐ¸Ð¾Ð´
ĠÐ¼Ð°ÑĪÐ¸Ð½Ðµ
ĠÑģÐ²ÐµÑĢÑħÑĥ
Ð½Ð¾ÑıÑĢ
ĠÐ±Ð»Ð¸Ð·
ÑĬÐµÐ¼
ĠÐ¸ÑģÐ¿ÑĥÐ³Ð°Ð»ÑģÑı
ÑįÑĤÐ¸
ÑİÑĪÐºÐ°
ĠÐ½ÐµÑĩÑĤÐ¾
ĠÑĩÐ°ÑģÑĤ
ĠÐ¶Ñĳ
ĠÐ¶ÑĳÑģÑĤ
ÐºÑĢÐ¾ÑĤ
Ð¸ÑĢÑĥÐµÑĪÑĮ
ÑħÑĥÐµÐ²Ð°
ĠÑĦÐ¸Ð³Ð½Ñı
ĠÐºÐ°Ð·Ð°Ð»Ð¾ÑģÑĮ
ĠÐ¼ÑĥÐ¶Ñĥ
ĠÑĦÐ°Ð½ÑĤÐ°Ð·Ð¸Ñı
ĠÐ±Ð¾ÑĢÐ¾Ð´Ð¸Ð½Ð°
Ð¸ÑģÑĤÐ¾Ð»ÐµÑĤ
ĠÐºÐ¾ÑĢÐ¾Ð±
ĠÐ²Ð¸Ð´Ð¸ÑĤÐµ
ÐºÑĢÐ°ÑģÐ¸Ð²Ð¾
ĠÑģÐ¾Ð±Ð°ÐºÐ¸
ĠÑĤÐ°Ð³Ð¸Ð»
ĠÐ·Ð°Ð½Ð¸Ð¼Ð°ÑİÑĤÑģÑı
ĠÑģÑĤÐ°ÑĢÑĥÑħÐ°
ÑģÐ¸Ð½
ÑģÐ¼ÑĭÑģÐ»
ĠÐ±Ð¾Ð»ÐµÐ·
ĠÐ·Ð°Ð³Ð°Ð´
ĠÐ¾Ð±ÑģÑĥÐ´
ĠÐ¾Ð±ÑģÑĥÐ´Ð¸ÑĤÑĮ
ĠÐ·Ð°Ð½Ð¸Ð¼Ð°Ð»ÑģÑı
Ð»ÐµÑĩÑĮ
ĠÐ¿ÐµÑĢÐµÑģ
ĠÑģÐ¾Ð¾Ð±ÑīÐµ
ĠÑģÐ¾Ð¾Ð±ÑīÐµÑģÑĤÐ²Ð¾
ĠÐ´ÐµÐ»Ñĥ
Ð»Ð¾Ð¶Ð¸ÑģÑĮ
ĠÐ¿Ð¾Ð´ÑĢÐ¾Ð±Ð½Ð¾
ĠÐºÐ¾ÑĤÐ¾ÑĢÑĭÐ¼
ÑĤÐ¾Ðº
Ð¿ÑıÑĤ
ĠÑħÐ¾Ð·ÑıÐ¹
ĠÑĪÐµÑİ
ĠÐ¿Ð¾ÐºÐ°Ð·ÑĭÐ²Ð°Ð»Ð¸
Ð´ÐµÐ´
Ð½Ð¾Ð³Ð²Ð°ÑĢÐ´ÐµÐ¹ÑģÐºÐ¸Ð¹
Ð¿Ð»ÑıÐ¶
ĠÐ·Ð°Ð¿Ð»Ð°ÑĤÐ¸Ð»Ð¸
ĠÑĢÐµÑĪÐ¸Ð»Ð¸
ĠÐ²ÐµÑģÐ¸ÑĤ
Ð°Ð¶Ð´Ñĭ
ĠÐ¾Ð±ÑĢÐ°Ð·Ð¾Ð²
Ð½ÐµÐ¿ÑĢ
ĠÐ±Ð¾Ð»ÑĮÑĪÐ¸Ðµ
ĠÐ¿Ð¾Ð»ÑĮ
ÑģÐºÐ¾ÑĢÐ¾
ĠÐ¸Ð¼ÐµÐµÑĤÐµ
ĠÐ¿Ð¸ÑĤÑĮ
ÑĤÐ¾ÑĢÐµ
ĠÐ½Ð°Ð¿ÑĢÐ¾ÑģÑĤÐ¾
ĠÐ´Ð¾ÑħÐ¾Ð´Ð¸ÑĤ
ĠÐºÐ½Ð¸Ð¶ÐºÐ°
ÐµÐ¹ÑĤÐµ
Ð°Ð²ÐºÐ°
ĠÐ´Ð°Ð²Ð°Ð»
Ð²Ð¾Ñģ
ÑģÑĤÐ°Ð½Ð¾Ð²
ĠÐ¾ÑħÑĥ
ĠÐ¸Ð·Ð´ÐµÐ²Ð°ÐµÑĪÑĮÑģÑı
ÑĥÐ²ÑĮ
Ð¼ÐµÑģÑı
Ð°Ð²Ð¸ÑĤÐ¾
ĠÐµÐ·
ĠÐµÐ·Ð¶Ð°Ð¹
ĠÐ´Ð½ÑĢ
ĠÐ¼Ð¾Ð»Ð¾Ð´ÑĭÐµ
ĠÑĤÑĥÐ¿Ð¾
ĠÐ²ÑĭÑĢÐ°Ð¶ÐµÐ½Ð¸Ðµ
ĠÐ·Ð°Ð¿Ð°Ð´
Ð¼ÐµÐ»ÑĮ
ĠÐ»Ð¸Ð¿
ĠÐ¿ÑģÐ¸ÑħÐ¾Ð»Ð¾Ð³
ÐµÐ½ÑĮÐºÐ¾Ð³Ð¾
Ð¸Ð»Ð¾Ð²Ð°
ĠÑĢÐ°ÑģÑģÐ»ÐµÐ´
ĠÐ¿ÑĢÑıÑĤ
ÑıÐ±Ð»Ð¾Ð½
ĠÐ¿Ð¾Ð´ÑĢÑĥÐ³
Ð¾Ð·Ð°Ð²
ÑĥÐ³Ð°Ð¹
ĠÑħÐ¾Ð´Ð¸ÑĤ
ÑģÐ¼Ð¾ÑĤÑĢÐ¸ÑĤÐµ
ĠÐ¸Ð½Ð²Ð°Ð»
Ð¿Ð¾Ð½Ð¸Ð¼Ð°ÐµÑĤ
ĠÐ½Ð°ÑĩÐ½
Ð·Ð½Ð°Ñİ
ĠÐ¿ÑĢÐ¸Ð½ÑıÐ»
ÐºÑĥÐ±
ĠÐ¿Ð»Ð°ÑĤÑĮÐµ
ĠÐ¾ÑĩÐ¸Ñī
ĠÑĥÑħ
ÑģÐºÐ¸Ð¼Ð¸
Ð¸ÑģÑĤÐ¾Ð²
Ð¿ÑĢÐ¸ÑĳÐ¼
ÑĥÐ´Ð¾Ðº
ĠÐ¿Ð¾ÐºÐµÐ¼
ĠÐ¿Ð¾ÐºÐµÐ¼Ð¾Ð½Ð¾Ð²
ĠÑĢÑıÐ´
ĠÑĢÑıÐ´ÑĭÑĪÐºÐ¾Ð¼
Ð¸Ð»ÐºÐ¸
ĠÐ¸ÑģÐºÑĥÑģÑģÑĤÐ²ÐµÐ½Ð½ÑĭÐ¹
ÐºÐ»ÑĥÐ±
ĠÐ´ÐµÑĢÐµÐ²Ð½Ðµ
ĠÑĩÑĥÐ¶
Ð±Ð¾Ð³
Ð°ÐºÑĥÐ»Ð°
ĠÐ´Ð²Ð¾Ðµ
Ð¸Ð»ÑĮÐ½ÑĭÐ¹
ĠÑĤÐ²ÐµÑĢÑĮ
Ð°Ð½Ð¶
ĠÑĢÐµÐ¼Ð¾Ð½ÑĤ
ĠÐ¿ÐµÐ´Ð¾ÑĦÐ¸Ð»Ð°Ð¼Ð¸
Ð²ÑĭÐºÑĢ
Ð°ÑĢÐ¸Ð½
ÑĤÑĢÐ°Ð½ÑģÐº
Ð°Ð»Ð¾Ð²
ĠÑģÐ¿Ð¾
ÑĤÐ¸ÑĢÐ¾Ð²Ð°ÑĤÑĮ
Ð¾Ð´Ð½ÑĭÐµ
ĠÑģÐ¿ÑĢÐ°ÑĪÐ¸Ð²Ð°ÐµÑĤ
ĠÐ¿ÑĥÑģÐºÐ°Ð¹
ĠÐ¼Ð°ÑĤÑĩ
ĠÐºÐ°Ð¹ÑĦ
Ð·ÐµÐ»ÑĳÐ½ÑĭÐ¹
ĠÐ±ÐµÑĢÐµÐ³Ñĥ
Ð»Ð¸Ñı
ĠÑģÐ¸Ð´Ð¸ÑĤÐµ
Ð¸ÑĢÑĥÑİÑĤ
ĠÑįÐ¼Ð¾
ĠÐ¼ÐµÐ´Ð»ÐµÐ½Ð½Ð¾
ĠÐ±Ð°Ð·Ð°ÑĢÐ¸ÑĪÑĮ
ĠÐ¿ÐµÑĩÐ¸
ĠÐ¿ÑĢÐ¾ÑĩÐ¸Ð¼
ĠÐºÑĥÑĩ
Ð¸ÑģÐ»Ð°Ð¼
ĠÑģÐ¾Ð²ÑĢÐµÐ¼
Ð¼ÐµÑĤÐ¾Ð´
Ð°Ð±ÑĢ
ĠÑĤÐ¸ÐºÐ¸
ĠÑĤÐ°ÐºÐ°
ÑģÐ°Ð¼ÑĭÐ¹
ĠÑģÑĤÑĢÐ°ÑĪÐ½Ð¾
ĠÐºÑĢÑı
ĠÐ·Ð°Ð¿Ð»Ð°ÑĤÐ¸ÑĤÑĮ
ĠÑĤÐµÑĤÑĢÐ°Ð´
ÑĢÐ°Ð¼ÐµÑĤ
ĠÐ¿Ð¾ÑģÑĤÐ°Ð²ÑĮ
ÐµÑĩÐ¸
ĠÐ¿Ð¾ÑħÐ¾Ð´
ĠÐºÑĢÐ°ÑģÐ½ÑĭÐ¹
Ð¾ÑĤÐµÐ°ÑĤÑĢ
ĠÐ²ÑĭÐ¿Ð¸Ð»
ĠÑħÑĢÐ°Ð½
ĠÐ´ÐµÑĢÐµÐ²Ð½Ñı
Ð½ÑĭÑĪ
Ð½ÑĭÑĪÐºÐ¾
ĠÐ·Ð°ÐºÐ»ÑİÑĩ
Ð¿Ð¾Ð²ÑĤÐ¾ÑĢÐ¸ÑĤÑĮ
ÑĢÐ°Ð½Ð½ÑĭÐ¹
Ð°ÑĤÐµÐ»Ð¸
ÑģÐ»ÑĭÑĪÐ¸ÑĪÑĮ
ĠÐ´Ð¾ÑģÑĤÐ¸Ð³
ĠÐ¿Ð¾ÑĤÐ¾Ð»
Ð³Ð¾ÑĢÐ¸ÑĤ
ĠÑĢÐµÑģÐ¿ÑĥÐ±Ð»Ð¸ÐºÐ¸
ĠÑĤÐµÐ»ÐµÐ³ÑĢÐ°Ð¼Ð°
Ð¼ÐµÑĩ
Ð´Ð°ÐµÑĤ
ÑĩÐ°ÑģÑĤÐ¸
ÑĥÐ·Ð±ÐµÐº
ĠÑħÐ¾Ð´Ð¸
ĠÐ·Ð°Ð±Ñĭ
ĠÑģÑĥÑĢÐ³ÑĥÑĤ
ĠÐ¼Ð¸Ð½ÑģÐºÐµ
ĠÑĥÐ»
Ð¸ÑīÐ¸
ĠÐ±ÑĥÐ´ÑĥÑī
ĠÑĪÐºÐ¾Ð»Ñĥ
Ð¿Ð°ÑĨ
ĠÑĥÐ²Ð¸Ð¶Ñĥ
ĠÐºÐ¾Ð¼Ð°Ð½Ð´Ð¸ÑĢ
ĠÐ·Ð°ÑĤÐºÐ½Ð¸ÑģÑĮ
ĠÐ·Ð°ÑħÐ¾ÑĤ
ĠÐ¾ÑĢÐ¸Ð³Ð¸Ð½
ĠÐ¼Ð¸Ð½Ð¸ÑģÑĤÑĢ
ÑģÐ¾Ð²ÑĢÐµÐ¼
Ð¸ÑĢÐ¾Ð²Ð°Ð½
ĠÐ·Ð°Ð½Ð¸Ð¼Ð°ÑİÑģÑĮ
Ð¸Ð»Ð¸Ð½
ĠÐ¿Ð¾Ð´Ð¿Ð¾Ð»ÐºÐ¾Ð²Ð½Ð¸Ðº
ĠÐ¿ÑĢÐ¾ÑħÐ¾Ð´Ð¸ÑĤ
Ð¿Ð¾Ð»Ð¸ÑĤ
Ð¸Ð½ÐµÑĤ
ĠÐ¼Ð¾ÑĢÐ°Ð»ÑĮ
Ð¼Ð¾ÑģÐºÐ²Ð°
Ð¾ÐºÐ¾Ð»Ð°Ð´
Ð½Ð¸Ð¶Ð½Ð¸Ð¹
ÑģÐºÐ¾
ĠÐ´Ð¾Ð»Ð±Ð¾ÑĳÐ±
Ð»Ð¸Ð·
Ð¾ÑĢÐ´Ð¸Ð½Ð°
Ð¾ÑĢÐ´Ð¸Ð½Ð°ÑĤÑĭ
Ð¾ÑģÐ¸ÑĤ
ÐºÐ¾Ð¼Ð°Ð½Ñĭ
ĠÑĥÐ³Ð¾Ð»Ð¾Ð²Ð½Ð¾Ð³Ð¾
ĠÑģÑĤÐ¾ÑıÑĤÑĮ
ĠÑģÐ¾ÑģÐ¸
Ð¿Ð¾Ð¶Ð°ÑĢ
ĠÐ´ÑĢÑĥÐ³Ð¸Ð¼
ĠÑĥÐ·Ð½Ð°Ð»Ð¸
ÑĦÑĨ
Ð»ÑĳÐ³
ĠÑģÐºÑĢÑĭÐ²
Ð²ÐµÑĤÐµÑĢ
ĠÐ±ÑĥÑĤÑĭÐ»ÐºÐ°
ĠÐ¿ÑĢÐ¸Ð½Ðµ
Ð´Ð¾Ð¼Ðµ
Ð½Ð¸Ð¼Ð°ÑĤÑĮ
Ð¿ÑĢÐ¸ÑĩÑĳÐ¼
ĠÐ¼Ð¾Ð»ÑĩÐ°ÑĤÑĮ
ĠÐ¿Ð°ÑģÑħ
ĠÐ¾ÑĨÐµÐ½
ÑİÑĤÑģÑı
ĠÐ¾Ð³ÑĢÐ¾Ð¼Ð½ÑĭÐ¹
ÑĤÐµÑĢÐ°
ĠÑģÑĤÑĭ
ĠÑģÑĤÑĭÐ´
ĠÑģÑĤÑĭÐ´Ð½Ð¾
ÑĩÐ°ÑģÑĤÑĮÑı
ĠÐ¿ÐµÑĢÐµÑģÑĤ
Ð¿ÑĢÐµÐ·Ð¸Ð´ÐµÐ½ÑĤ
Ð¸ÑĢÐ°Ñİ
ĠÐ¼ÑĥÐ¶Ð¸ÐºÐ°
ĠÐ´Ð¾Ð³Ð¾Ð²Ð¾ÑĢÐ°
ĠÑĨÐ¸Ð½
ÐµÑģÐºÐ¾Ð½
ĠÐ²ÑĭÑĩÐ¸ÑģÐ»Ð¸Ð»
ÐµÐ»ÑıÐ¼
Ð²ÐºÐ»ÑİÑĩÐ¸
Ð½Ð¾ÑĤÑĭ
ĠÐ¼Ð°ÐºÑģ
ĠÐ½Ð°ÑĢÑĭÐ²Ð°ÐµÑĪÑĮÑģÑı
ĠÐ¼Ð°ÑĪÐ°
ĠÑħÑĥÐ´Ð°Ñı
ÑįÑĤÐ¾Ð³Ð¾
ĠÐ´Ð°Ð²Ð°Ð¹ÐºÐ°
ÑģÐ¸ÑģÑĤ
ÑĦÐµÐ½
Ð½ÐµÑĢÐ²Ñĭ
ÐµÑĩÐºÑĥ
ĠÐ·Ð½Ð°Ð»Ð°
ĠÐ¾ÑĤÐ½Ð¾ÑĪÐµÐ½Ð¸Ð¸
Ð¸Ð±ÑĥÑĤ
Ð½Ð°Ñħ
Ð¿ÑĢÐ¾Ð²
ĠÐ¸Ð¼ÐµÐ½Ð¸
Ð¾Ð´Ð½Ð¸Ð¼
ĠÑģÐ°Ð½ÑĤÐ°
ĠÐ°Ð¼
Ð±ÑĢÐ¾Ðº
ĠÐ½Ð°Ð¹Ð´Ð¸
ĠÐ¿Ð¾ÑģÐ¾ÑģÐ°ÑĤÑĮ
ĠÐºÑĢÐ°ÑģÐ¾ÑĤÑĥ
ĠÐ±Ð°Ñı
ÐºÑĥÐ»ÑĮÑĤÑĥÑĢÐ°
ĠÐ½Ð°Ð¿ÑĢÐ¾ÑĤÐ¸Ð²
ĠÐ´ÑĢÑĥÐ¶Ð¸ÑīÐµ
ĠÐ¼Ð½ÐµÐ½Ð¸Ðµ
ĠÐ¾ÐºÑĢÑĥÐ¶Ð°ÑİÑī
ĠÐ¿Ð¾Ð´Ð´
ĠÐ¿Ð¾Ð´Ð´Ð¾Ð½Ð¾Ð²
ĠÐ²ÑĢÐµÑĪÑĮ
Ð¿Ð¾Ð»Ð¸ÑĨ
ĠÑģÑĳÐ¼
ĠÐ»ÐµÐ½ÑĮ
ÑģÐ»Ð°Ð²Ð°
ĠÐºÐ¾Ð¼Ð¼ÑĥÐ½
ĠÐºÐ¾Ð¼Ð¼ÑĥÐ½Ð°Ð»ÑĮÐ½Ð¾Ð¹
ĠÑĤÐ²Ð¾ÑĢÑĩÐµÑģÑĤÐ²Ð¾
ĠÐ´Ð¾Ð²Ð¾Ð´
ĠÐ³ÑĢÑĥÐ±Ð¸ÑĤÐµ
ĠÐ°Ð²Ð°ÑĢ
ĠÐ±ÑĥÑħÐ³Ð°Ð»
ĠÐ±ÑĥÑħÐ³Ð°Ð»ÑĤÐµÑĢ
ĠÐ·Ð°Ð¼ÐµÑĩÐ°ÑĤÐµÐ»ÑĮÐ½Ð¾
ĠÐ²ÑģÑĤÐ°Ð²Ð»ÑıÐµÑĤ
ĠÐ±Ð¾ÑıÑĤÑĮÑģÑı
ĠÐ¾Ð»Ð°
ĠÑĤÑĥÑĢÐ±
ĠÐºÐ¾Ð»Ð»ÐµÐ³
Ð½ÑıÐ»
ĠÐ·Ð½Ð°ÐºÐ¾Ð¼ÑĭÐµ
ĠÐ³ÑĥÐ±
ĠÐ³ÑĥÐ±Ð¾Ð¹
ĠÑĨÐµÐ½Ñĭ
ÑģÐ°Ð´
ĠÐ½Ð°ÐºÐ»Ð¾Ð½Ð½Ð¾ÑģÑĤÐ¸
ĠÐ¿Ð¾ÑģÑĳÐ»
Ð°Ð½Ð´Ð¸
ÑģÑĢÐ¾Ðº
ĠÐ¿ÑĭÑĤÐ°ÑİÑĤÑģÑı
ĠÐºÐ¾ÑĢÐµÐ¹
ĠÐºÐ¾Ð½ÐµÑĩ
ĠÐ¾Ð¿ÑĭÑĤÐ½ÑĭÐ¹
ÐµÑĩÐ½Ñİ
ĠÐ°Ð±ÑĢÐ°Ð¼
Ð²Ð¾Ð½ÑİÑĩ
ĠÐ·Ð°Ð¿Ð»Ð°Ñĩ
ĠÐ·Ð°Ð¿Ð»Ð°ÑĩÐµÑĪÑĮ
Ð»ÑĥÑĩÑĪÐ¸Ðµ
Ð¾Ð¼ÐµÐ½
Ð·Ð°ÑĢÐ¿Ð»Ð°ÑĤÐ°
ĠÐ¿Ð¾ÑħÐ¾Ð¶Ðµ
Ð½ÐµÐº
Ð¸ÐºÐ¾Ð²
Ð¼Ð¾Ð»
ÑĤÐµÐ»ÐµÑĦÐ¾Ð½Ñĭ
Ð¿Ð¾ÑģÐº
Ð¾ÑĤÐ¸Ð½Ð°
ĠÑįÐºÑĢÐ°Ð½Ðµ
Ð½Ð°Ð·Ð¾Ð²Ð¸ÑĤÐµ
ĠÐºÐ°ÑĢÐ°Ð½
ĠÐºÐ°ÑĢÐ°Ð½Ð´Ð°
ĠÐºÐ°ÑĢÐ°Ð½Ð´Ð°ÑĪ
ĠÐ¼Ð°Ð»Ð¸
ĠÐ¼Ð°Ð»Ð¸Ð±Ñĥ
ĠÑĤÐ°ÑĢÐµÐ»ÐºÐ¸
ĠÐ·Ð°ÑģÑĥÐ½ÑĥÐ»
ÑģÐ²Ð°ÑĢ
ĠÐ¿ÑĢÐµÑģÑģ
Ð¿Ð»Ð¾ÑīÐ°Ð´ÑĮ
ÐºÑĥÐ»ÑĮÑĤÑĥÑĢÑĭ
Ð·Ð°Ð²Ð¸Ñģ
ĠÐ»ÑİÐºÑģ
ĠÑĥÑĢÐ°Ð·Ð°
Ð´ÐµÑĪÐµÐ²
Ð´ÐµÑĪÐµÐ²Ð»Ðµ
ĠÐ¾Ð±Ð¾Ð¹Ð´
ĠÐ¿Ð¾ÑģÑĤÑĥÐ¿Ð°Ñİ
ĠÐ¿Ð¾Ð²ÐµÐ»
ÑģÐ¸Ð½Ð³
ĠÑħÑĥÑĳÐ²
ÑĨÐ¾Ð²Ð°
Ð¾Ð½Ñģ
Ð¸ÑĢÐ¾ÐºÐ¸Ð¹
ĠÐ¾Ð±Ð¸Ð´ÐµÑĤÑĮ
ÐºÐ¾Ð»ÑıÐ½
Ð·ÑĢÑı
Ð»ÑĥÐºÐ¾Ð¹
Ð»ÑĥÐºÐ¾Ð¹Ð»
ÐµÑĢÐ³Ð¾
ÑĢÑĥÑģÑģÐºÐ¸Ðµ
ĠÐºÐ°Ð·Ð°ÑħÑģÑĤÐ°Ð½Ðµ
ĠÐ°ÑĢÐ¼ÑıÐ½Ðµ
ĠÐ·Ð°Ð¿Ð¾Ð¼Ð½Ð¸
ĠÐ±Ð°Ð½ÐºÐ¾Ð¼Ð°ÑĤÐµ
ĠÑĤÐ²Ð¾ÑĳÐ¼
ĠÐ¾ÑĤÐ½Ð¾ÑģÐ¸ÑĪÑĮÑģÑı
ĠÐ·Ð°ÑıÐ²Ð»ÐµÐ½Ð¸Ñı
ĠÐ·Ð°Ð±ÑĢÐ°Ð»
Ð¾Ð±ÐµÑģ
ĠÐ°Ð±Ð¾Ð½
ĠÐ°Ð±Ð¾Ð½ÐµÐ½ÑĤ
ĠÐ¿ÑĢÐµÐ²Ð·Ð¾ÑĪ
ĠÐ¾Ð±Ð¾
ĠÐ¿Ð¾Ð»ÑĥÑģ
ĠÐ¿Ð¾Ð»ÑĥÑģÐ¼ÐµÑĢ
ĠÐ¿Ð¾Ð»ÑĥÑģÐ¼ÐµÑĢÑĤÐ¸
ÑĳÐ²Ð¾
ĠÐ±Ð»Ð°Ð³Ð¾
ĠÐ±Ð»Ð°Ð³Ð¾ÑĥÑģÑĤÑĢÐ¾Ð¹
ĠÐ±Ð»Ð°Ð³Ð¾ÑĥÑģÑĤÑĢÐ¾Ð¹ÑģÑĤÐ²Ñĥ
ÑĨÐµÑĤ
ĠÑģÐ²Ð¾Ñı
Ð¿ÐµÐ¿
ĠÐ¿ÑĢÐ¾ÐºÑĥÑĢÐ¾ÑĢ
Ð²ÐµÑĢÑħ
ĠÐ¾ÑĤÐ´ÐµÐ»ÑĮ
ÑģÐ»ÑĭÑĪÐ°ÑĤÑĮ
ĠÑĩÐ°ÑģÑĥ
Ð¿Ð¾ÑģÐ»ÑĥÑĪÐ°ÑĤÑĮ
ĠÑĢÐ°Ð´Ð¸Ð¾ÑģÑĤ
ĠÑĢÐ°Ð´Ð¸Ð¾ÑģÑĤÐ°Ð½
ĠÐ½ÐµÐ³Ð°ÑĤÐ¸Ð²
ĠÐ½ÐµÐ³Ð°ÑĤÐ¸Ð²Ð½Ð¾
ĠÐ´Ð°ÑĤ
ĠÐ´Ð°ÑĤÐ°Ð¼
ĠÐºÐ¾Ð½ÑĩÐ°Ð¹
ÑģÑĤÐ°ÑĢÐ°Ñı
ĠÐ²Ð¿ÐµÑĢ
ÑĳÐ´
Ð½Ð°ÑĪÐ°
ĠÐ¿Ð¾Ð»ÑĥÑĩÐ¸ÑĤ
ĠÐ²Ð·ÑĢÐ¾ÑģÐ»ÑĭÐµ
ÑģÑĤÐ°ÑĤ
ÑģÑĤÐ°ÑĤÑĥÑģ
ĠÑĨÐµÐ½ÑĤÑĢÐ°Ð»
Ð°Ð³Ð¾Ð³
Ð¿Ð¾ÐºÐ¾ÑİÑģÑĮ
ĠÐ²ÑĭÐ¹Ð´Ð¸
ĠÐºÑĢÑĭÐ»ÑĮÑĨÐ¾
Ð´ÑĢÑĥÐ³Ð¾Ð¹
ĠÐ²Ð¾ÑĢÐ¾Ð½ÐµÐ¶ÑģÐºÐ¾Ð¹
ĠÐ»ÐµÐ½Ð¸Ð½ÑģÐºÐ¾Ð¼Ñĥ
ĠÑħÐ¾Ð¼ÑıÑĩ
ĠÐ¿ÑĢÐ¸Ð´ÑĳÑĤ
ĠÐ¿ÑıÑĤÐ¸
ĠÐ¿ÑıÑĤÐ¸Ð³Ð¾ÑĢ
ĠÐ¿ÑıÑĤÐ¸Ð³Ð¾ÑĢÑģÐº
Ð±ÐµÑĢÐ¸
ĠÐ¾Ð±ÑĬÐµÐºÑĤ
Ð²ÑĭÑħÐ¾Ð´Ð¸ÑĤÐµ
ĠÐ½ÐµÐ¿ÑĢÐµÐ¼ÐµÐ½Ð½Ð¾
ĠÐºÐ¾ÑĢÐ°Ð±Ð»Ð¸
Ð¸Ð»ÐµÑĤÐ½ÐµÐ³Ð¾
ÐµÑģÑĤÑĭ
ĠÑģÐ»Ð°Ð²ÑıÐ½
Ð¾Ð³Ð¾ÑĢ
ĠÑģÐ¿ÑĢÐ°Ð²Ð°
ĠÐ¿ÑĢÐ¾Ð¶Ð¸ÑĤÑĮ
ĠÐºÐ»Ñı
ĠÐºÐ¾Ð»Ð»ÐµÐ³Ð°
ĠÑĤÐµÐ½
ĠÐ°Ð¹Ñģ
Ð°Ð¶ÐµÐ½
ĠÐ·Ð°Ð¿Ð¸ÑĪÐ¸ÑĤÐµ
ĠÐ»ÐµÑĩÐ¸ÑĤÑĮÑģÑı
ÑĢÑĥÑĩÐºÐ°
ĠÐ¿ÑĢÐµÐ´Ð»Ð¾Ð¶ÐµÐ½Ð¸Ðµ
ĠÐºÐ¾Ð¼Ð¸ÑģÑģÐ°ÑĢÐ¸Ð°ÑĤÑĥ
Ð½ÑĥÐ±
ĠÐ¸ÑģÐ¿Ð¾Ð»ÑĮÐ·Ð¾Ð²
ĠÐ¼Ð¾ÑĢÐµÐ¼
Ð¾Ð»Ð¸
ĠÑĥÐ³Ð¾Ð»
ĠÐ²ÑģÑĤÑĢÐµÑĩÐ°ÑĤÑĮÑģÑı
Ð°ÑĢÑĭ
Ð¿Ð¸Ð²Ð¾
Ð²Ð¸ÑĢ
Ð²Ð¸ÑĢÑĤÑĥ
ĠÑģÐ¾Ð´ÐµÑĢÐ¶
ĠÑģÐµÑģÑĤÑĢÐ°
ĠÑĢÐ¾ÑģÑĤÐ¾Ð²ÑģÐºÐ¾Ð¹
ÑģÑħ
ÑģÑħÐµÐ¼Ð°
ĠÑģÐ¾ÑģÐºÑĥÑĩ
ĠÑģÐ¾ÑģÐºÑĥÑĩÐ¸Ð»ÑģÑı
ĠÑĤÐ°Ð¼Ð¾Ð¶
Ð²Ð¿
ĠÐ±ÐµÑĢÐµÑĤÑĭ
Ð»ÑıÐ¹ÑģÑı
ĠÐ¿Ð¾ÑıÑģ
ÐµÑĢÐ±ÑĢÐ¾Ð´
ĠÐ¾ÑĤÐ´ÑĭÑħÐ°Ð¹
ĠÑģÑĥÐ¼ÐºÐ°
Ð¼ÐµÑĤÐºÐ¸
ĠÐ»Ð°Ð¹Ð½
ĠÐ¿Ð¾ÑģÑĤÑĥÐ¿Ð¸Ð»Ð¸
ĠÑĤÐ°ÑĤÑĥÐ¸ÑĢÐ¾Ð²
Ð¾Ð¿ÑĤÐ¾Ð²
Ð¾Ð¿ÑĤÐ¾Ð²ÑĭÐµ
ĠÐ±ÐµÑĢÑĥ
ĠÐ¿ÑĢÐ¾ÐºÑĥÑĢÐ°ÑĤÑĥÑĢ
ĠÐ¿ÑĢÐ¾ÐºÑĥÑĢÐ°ÑĤÑĥÑĢÐµ
Ð¾Ð±Ð¾Ð»ÑĮ
ÑĥÐºÑĢÐ°
ÑĥÐºÑĢÐ°Ð¸Ð½Ð°
ĠÐ²ÑĭÐ´Ð°Ð»Ð¸
ĠÐºÐ¾Ð¼Ð°Ð½Ð´Ñĥ
ĠÐ·Ð°ÐºÐ°Ð·ÑĭÐ²Ð°ÑĤÑĮ
ĠÐ¾Ð´Ð½Ð°Ð¶Ð´Ñĭ
ÐµÐ²Ð¸
ĠÑĥÐ±Ð¸Ð²Ð°ÑİÑĤ
ĠÐ¾ÑĤÐ²ÐµÑĩÑĥ
ÐºÐ¾Ð¼Ð¿Ð°Ð½Ð¸Ñı
Ð°ÑĢÐ¸ÐºÐ¸
ĠÐ¶Ð¸Ð´
ĠÐ¶Ð¸Ð´ÐºÐ¾ÑģÑĤÑĮ
ĠÐ¾ÑģÐ½Ð¾Ð²Ð°Ð½Ð¸Ð¸
ÐµÐ¶Ð¸Ð²
ĠÑģÑĦÐ¾ÑĢÐ¼
ÑĥÐ»Ð¸ÑĢÐ¾Ð²Ð°ÑĤÑĮ
ĠÐ±ÐµÐ»Ð°Ñı
ĠÐ³Ð¾ÑĢÑıÑĩÐºÐ°
Ð°ÑĤÑĮÑıÐ½Ðµ
ĠÐ³Ðµ
ÑĥÑĢÐ°Ð»
ĠÑĤÐ°Ð³Ð°Ð½
ĠÑĤÐ°Ð³Ð°Ð½ÑĢ
ĠÑĤÐ°Ð³Ð°Ð½ÑĢÐ¾Ð³
ĠÐ¾Ð¿ÑĢÐµÐ´ÐµÐ»Ð¸Ð»
ĠÐ¿ÑĢÐµÐ´ÑģÑĤÐ°Ð²Ð¸Ð»
Ð´Ð°ÑĢÐ¾Ð²
ĠÐ´Ð°Ð²Ð½ÑĭÐ¼
ĠÐ²Ð·ÑıÑĤÐ¾Ñĩ
ĠÑĩÐµÑģÑĤÑĮ
ĠÐ¼ÐµÑģÑĤÐ¾Ð¿Ð¾Ð»
Ð¾Ð¶ÐµÐ½Ð¸Ñı
Ð¿Ð°ÑĢÐº
ĠÐ¿ÑĢÐ¸Ð±ÑĭÐ²Ð°ÐµÑĤ
ĠÐºÐ²Ð°ÑĢ
ĠÐºÐ²Ð°ÑĢÑĤÐ°Ð»
ĠÐ²ÑĭÐ³Ð»ÑıÐ¶Ñĥ
ĠÑģÐ¾Ð·Ð´Ð°ÑĤÑĮ
ĠÐ°Ð»ÑĮÐ±Ð¾Ð¼
Ð°Ð²ÑĤÐ¾ÑĢ
ĠÐ¿ÑĢÐ¸ÑĪÐ»Ð¾ÑģÑĮ
ĠÑĥÐ¿Ð¾ÑĤÑĢÐµÐ±Ð»ÑıÑĤÑĮ
Ð°Ð»Ñĭ
ĠÑģÑĤÐ°ÑĤÑĮ
ÑģÐ°Ð½Ñı
ĠÐ¸Ð½ÑĤÐµÑĢÐµÑģÑĥÐµÑĪÑĮÑģÑı
Ð°ÑĢÐ¸ÑģÐ°
ĠÑıÐºÐ¾Ð²
ĠÑħÐ»ÐµÐ±Ð°
ÑīÐ½Ð¾ÑģÑĤÑĮ
ĠÐ´ÐµÑĤÑģÑĤÐ²Ð°
ĠÐºÐ¾ÑĪÐ¼Ð°ÑĢ
Ð¸Ð½ÑĤÐµÑĢÐµÑģÐ½ÑĭÐµ
ĠÐºÑĥÐ±Ð¾Ð²
ÐºÑĥÐ¿Ð¸
ÑĥÐ»ÑĮÑģÐºÐ°Ñı
ĠÐ²ÑģÑĤÐ°Ð½ÑĮ
ĠÐ»ÑĥÑĩÑĪÐµÐµ
ĠÑĢÑĥÐ±Ð»Ð¸
ÐµÐ½ÐµÐµÑĤ
ĠÐ¿ÑĢÐ¾ÑĨÐµÑģ
ĠÐ¿ÑĢÐ¸ÑģÐ¾
ĠÐ¿ÑĢÐ¸ÑģÐ¾ÐµÐ´Ð¸Ð½
ĠÐ²ÑĤÐ¾ÑĢÑĭÑħ
ÐµÑīÐµÐ½Ð¸Ðµ
Ð¿ÑĢÐ¾Ð´Ð¾Ð»Ð¶Ð°ÐµÐ¼
ĠÐ¿ÑĢÐ¸Ð³Ð»Ð°ÑĪ
Ð¾Ð¼Ð°
Ð¸ÑĢÐ¾Ð²Ð°Ð»Ð¸
ĠÑģÑĭÐ½Ð¾ÑĩÐµÐº
ĠÐ±Ð°Ð¹ÐºÐ°Ð»Ðµ
Ð´ÑıÐ´Ñı
ĠÐºÑĥÑħÐ½Ñİ
Ð¼Ð°ÐºÑģÐ¸Ð¼
ĠÑĥÐ¹
ĠÐ¿ÑĢÐ¾Ð³ÑĢÐ°Ð¼Ð¼Ñĥ
ĠÑĤÐµÐ»ÐµÑĦÐ¾Ð½Ð¾Ð³ÑĢÐ°Ð¼Ð¼Ð°
ĠÑģÐ¾ÐºÐ¾Ð»
ĠÐºÑĢÑĭÑĪÐ°
Ð¼Ñı
ĠÐ±Ð°ÑĪÐºÐµ
ĠÑĥÐ¼Ð¸
ĠÑĥÐ¼Ð¸ÑĢÐ°
ĠÑĥÐ±Ð¾ÑĢÐºÐ°
Ð°Ð½Ð°ÑĨÐ¸Ñı
ĠÐ¿ÑĢÐ¸ÑħÐ¾Ð´Ð¸ÑĤÑģÑı
Ð²Ð¸Ð´Ñĭ
ÑģÑĤÐ¾ÑĥÐ½
Ð°Ð±Ð¾Ñĩ
Ð´Ð¾Ð»Ð¶ÐµÐ½
ĠÑĥÑĤÐ²ÐµÑĢÐ¶
Ð´Ð°ÐµÑĤÐµ
Ð¿Ð»Ñİ
Ð»ÐµÑĢÐ¼Ð¾Ð½ÑĤÐ¾Ð²Ð°
ĠÐ½ÐµÐºÐ¾Ð¼Ñĥ
ĠÑģÐ¾Ñĩ
ÑģÑĤÐ²ÑĥÑİ
Ð´Ð¾Ð²Ð¾Ð»ÑĮÐ½Ð¾
ĠÑģÑĤÐµÐ½Ñĥ
ĠÐ²ÐµÐ·ÑĳÑĤ
ĠÑĤÐ¾ÑĢÐ¼
ĠÑĤÐ¾ÑĢÐ¼Ð¾Ð·
ĠÐ¸Ð³ÑĢÑĥÑĪ
ÑģÑĤÐ²Ðµ
Ð¼Ð¸Ð»Ð¸
Ð±Ð¾Ð»ÑĮÑĪÐ°Ñı
ÑĥÑĤÐ¾Ñĩ
ÑĥÑĤÐ¾ÑĩÐ½Ð¸ÑĤÐµ
Ð¼ÑĥÐ·ÑĭÐº
ĠÑĥÐ¿Ð¾ÑĤÑĢÐµÐ±Ð¸Ð»Ð¸
ĠÐ°ÐºÐºÐ¾ÑĢ
ĠÐ°ÐºÐºÐ¾ÑĢÐ´Ñĭ
ÑĥÐ±Ð¸ÑĤÑĮ
ĠÑģÐµÑĢÐµÐ´Ð°
ÑĢÐ°Ð²ÑĮ
ĠÐ¿ÑĢÐ°Ð½ÐºÐ¸
ÑĥÑĢÐ°Ð²
ĠÑĢÐ¾Ð´Ð¸Ð»ÑģÑı
ĠÐ±ÑĢÐ°ÑĤÑĮÑı
Ð·Ð°Ð¼ÐµÑĩ
ĠÐ²ÑĭÐµÐ·Ð¶Ð°Ñİ
ĠÐ¿ÑĢÐ¾Ð¿Ð°Ð»Ð°
Ð°Ð½Ð´ÑĢÐ°
Ð°ÑĨÐ¸ÐµÐ¹
ĠÐºÑĢÐµÐ¼
ĠÐºÑĢÐµÐ¼Ð»Ñı
ĠÑĤÑĢÐµÐ²
ĠÑĤÑĢÐµÐ²Ð¾Ð¶
ĠÑĤÑĢÐµÐ²Ð¾Ð¶Ð½ÑĭÐ¹
ÐµÑĢÐ·
Ð¾Ð¸ÑģÐº
Ð¼Ð°Ð´
ĠÑģÐ»ÑĭÑĪÑĮ
ĠÑĢÐ°Ð·Ð³Ð¾Ð²Ð°ÑĢÐ¸Ð²Ð°ÐµÐ¼
ĠÐ¼Ð°Ð³Ð°Ð·Ð¸Ð½Ñĭ
ĠÑħÐ¾ÑĢÐ¾ÑĪÐµÐ½ÑĮÐºÐ¾
ĠÑĢÐ°ÑģÐºÑĢÑĭÐ²Ð°ÐµÑĤ
Ð½Ð¾Ð²ÐºÐ°
ÑģÐ°Ð»Ð°Ð¼
ĠÐ·Ð°Ð±ÑĥÐ´ÑĮÑĤÐµ
ĠÐ·Ð°Ð¿ÑĥÑģÑĤ
ĠÐ¿Ð¾Ð´Ð½Ð¸Ð¼Ð°Ð»Ð°
ĠÐ½Ð°Ð±Ð¸ÑĢÐ°Ð»
ĠÐ½Ð°ÐµÑħÐ°Ð»Ð¸
ĠÑĥÑģÑĤÑĢÐ°Ð¸Ð²Ð°ÐµÑĤ
ĠÐ¸Ð´ÑĳÐ¼
ĠÐ±Ð¾Ð¶Ðµ
ĠÐ°Ð¶
ĠÐ¾ÑģÑĮ
ĠÑħÐ°Ð¹
ĠÐ¿Ð¾Ð¹Ð¼Ð¸
ĠÐ¾ÑĤÐ¿ÑĥÑģÐºÐµ
ĠÐ°Ð½ÑĤÐµÐ½Ð½Ð°
ĠÐ½Ð°ÑħÐ¾Ð´ÑıÑĤ
ÑĳÐ±Ð°Ð½Ð°
ÑĢÐ°Ð½ÑĮÑĪÐµ
ÑīÐ¸ÐºÐ¾Ð¼
Ð¸ÑĨÐºÐ°Ñı
ĠÐ¸Ð±Ð¾
ÐºÐ¾Ð²ÐºÐ°
ĠÑģÐ¼Ð¾ÑĤÑĢÐ¸ÑĤÐµ
ĠÐ¿Ð¾Ð¼ÐµÑĪÐ°ÐµÑĤ
ĠÑįÐºÑģÐ¿ÐµÑĢ
ĠÐ¿Ð¾Ð¿ÑĢÐ°Ð²
ĠÐ´Ð¾ÐºÐ°Ð·
ĠÐ´Ð¾ÐºÐ°Ð·Ð°ÑĤÐµÐ»ÑĮ
ÑģÐºÐ¸Ð½
ÑħÐµÐ´
ĠÑĢÐ¸ÑģÐ¾Ð²
ĠÑģÐ°Ð¼Ð°Ñı
ĠÐºÐ°ÐºÐ°ÑĪÐºÐ°
Ð´ÑĥÐ°ÑĢ
Ð´ÑĥÐ°ÑĢÐ´
ÐºÐ¾ÐºÑĤÐµÐ¹Ð»ÑĮ
Ð¿ÐµÐ»
ĠÑĤÑĢÐ°ÑĤÑĮ
ÑİÑĪ
ÑĢÐ°Ð³ÑĢÐ°ÑĦ
ÑĥÑĩÐµÐ±Ð½Ð¸Ðº
ĠÑģÐ¸Ð´Ð¸
ĠÐ»ÑĳÐ³
Ð´Ð¸Ð°Ð³
ĠÐ¿Ð¾ÑĢÑĤ
ĠÐ¾ÑĤÐºÐ°Ð·ÑĭÐ²
ĠÑĥÑħÐ¾Ð´Ð¸
Ð¿ÑĢÐ¾ÑĪÑĥ
ĠÐ¼Ð°Ð»ÐµÐ½ÑĮÐºÐ¸Ñħ
ÑĤÐµÐ»ÐµÐ³ÑĢÐ°Ð¼Ð¼Ð°
ĠÐ¿ÑĢÐ¾ÑĤ
ÑıÐ¶ÐµÐ½
ÑıÐ¶ÐµÐ½Ð¸Ð¸
ĠÐ¿Ð¾Ð´ÑģÐºÐ°Ð·ÑĭÐ²
ĠÐ¿Ð¾Ð´ÑģÐºÐ°Ð·ÑĭÐ²Ð°ÐµÑĤ
Ð²Ð°Ð»ÑĮ
ĠÑħÐ¸Ð¼
ĠÑĥÑģÑĤÐ°Ð½Ð°Ð²Ð»Ð¸Ð²
ÑıÐ½Ð½Ð¸
ĠÐ¿Ð¸Ð·Ð´Ð°Ð½ÑĥÑĤÑĭÐ¹
Ð½ÐµÐ¿ÑĢÐ°Ð²
Ð°Ð¼ÑıÑĤ
ĠÐ´ÐµÐ¼Ð¾Ð½
Ð¸Ð²ÐºÐ¸
ÑıÐºÑĥÑĤ
ÑıÐºÑĥÑĤÑģÐºÐ¸Ð¹
ĠÐ½Ð°Ð¸Ð±
ĠÑĢÑĥÑģÐ»Ð°Ð½
Ð°Ð²ÑĢ
ĠÐ½Ð°ÑĥÑĪ
ĠÐ½Ð°ÑĥÑĪÐ½Ð¸ÐºÐ¸
ĠÐ¾ÑĤÐ²ÐµÑĢÐ½ÑĥÐ»ÑģÑı
Ð·Ð°Ð³Ð¾ÑĤÐ¾Ð²
Ð·Ð°Ð³Ð¾ÑĤÐ¾Ð²ÐºÐ°
ĠÐ»Ð¸ÑģÑĤÑĮÐµÐ²
ÐºÑĢÐµÐ´Ð¸ÑĤ
ĠÐ´ÑĢÐ°Ð³Ð¾ÑĨÐµÐ½
Ð¿ÑĢÐ°Ð²Ð¸Ð»Ð°
ĠÐ¿ÑĢÐ¾Ð²Ð¾Ð·Ð°
ĠÑģÐµÐ½
ÑĤÐ°ÑĢÐµÐ»ÐºÐ°
ÑģÑĥÑĦ
ĠÐ²ÑĭÐ¿Ð»Ð°ÑĤÐ°
ĠÑħÐ°ÑĩÐµÐ¹
ĠÐ·Ð°ÐºÐ°Ð·ÑĭÐ²Ð°Ð»Ð¸
Ð¸Ð±ÑĢÐ¾Ð¼
ĠÐ²ÐµÐ»Ð¸ÐºÐ¸Ñħ
Ð²Ð¾ÑĳÐ¼
ĠÐ½Ð°ÑĢÐ¾Ð´Ñĥ
ĠÑĦÐ°ÑĢ
ĠÑĦÐ°ÑĢÐ¼Ð°
ĠÑĦÐ°ÑĢÐ¼Ð°ÑĨÐµÐ²
ĠÑĦÐ°ÑĢÐ¼Ð°ÑĨÐµÐ²ÑĤ
ĠÑĩÐµÑĢÐ¿
ÐµÑĨÐµÐ¿
ÐµÑĨÐµÐ¿ÑĤ
ĠÐ¾Ð¿ÑĢ
ĠÑģÐ»ÑĭÑĪÐ°Ð»Ð¸
ĠÑĥÑģÐ¿Ð¾ÐºÐ¾Ð¸
ĠÑĪÑĳÐ»
ĠÐºÐ¾Ð½Ð²ÐµÑĢ
ĠÐ¿Ð¾Ð³ÑĢÑĥ
ĠÐ¿Ð¾Ð³ÑĢÑĥÐ¶ÐµÐ½
ĠÐ²ÐµÑĤÐµÑĢÐ¸Ð½Ð°
Ð¾Ð±Ñģ
Ð¾Ð±ÑģÑĥÐ¶Ð´Ð°ÑĤÑĮ
ĠÐ¿Ð¾ÑĤÑı
Ð¶Ð¸Ð²ÑĳÑĤ
ĠÑģÐ´ÐµÑĢÐ¶
ĠÑģÐ²Ð¾Ðµ
ĠÐ½Ð¾ÑģÐ¾Ð¼
ĠÑģÐ´ÐµÐ»Ð°Ð½Ð¾
Ð»Ð¸ÐºÑĤ
ÑĦÐ¸ÑĢÐ°
ĠÐ¼ÑĥÐ¶Ð¸ÐºÐ¾Ð¼
ĠÐ¿ÑĢÐ¾ÑģÐ¼Ð¾ÑĤÑĢ
ĠÑĪÑĤÐ¾ÑĢÑĭ
ĠÑĥÐ±Ð¸Ð»Ð°
ĠÐ¾ÐºÐµ
Ð°Ð½Ð¸Ð¹
ĠÐ¿ÑĢÐ¸ÐµÐ¼
ĠÐ±ÐµÐ»Ð¾Ð³Ð¾
Ð´ÑĢÑĥÐ³Ð¾Ð¼
ĠÐºÐ½Ð¸Ð³Ð°
ÐµÐ³Ð¾ÑĢÐ¾Ð´
Ð²ÐµÑģÑĤ
ĠÑĥÐ±Ð¸Ð²Ð°ÑĤÑĮ
Ð°Ð»Ð°Ð½
ĠÐ±Ð°ÐºÑĥÐ»Ð¸Ð½
Ð¿ÑĢÐ¾ÑģÑĤÑĭÐµ
ĠÑĢÐ¸ÑģÑĥÐ½
ĠÑĢÐ¸ÑģÑĥÐ½ÐºÐ¸
Ð¿ÑģÐ¸ÑħÐ¾Ð»Ð¾Ð³
Ð±Ð¸ÑĢ
ÑĥÐ±Ð¸Ð¹
Ð¿Ð¾ÐµÐ·Ð´
ÑĢÐ¾Ð¼Ð°
ĠÑĤÑĭÐºÐ°ÑĤÑĮ
ĠÐ¿Ð°Ð»ÑĮÑĩÐ¸Ðº
ĠÐ½Ð°Ð±Ð¸ÑĢÐ°ÑĤÑĮ
ĠÑĨÐ¸ÑĦ
ĠÑĨÐ¸ÑĦÑĢÑĭ
Ð¿ÑĢÐ¸ÐºÐ¾Ð»ÑĮ
Ð¿ÑĢÐ¸ÐºÐ¾Ð»ÑĮÐ½ÑĭÐµ
ÑĢÐ¸Ð»
ĠÐ´Ð¾ÑĩÐºÐµ
ĠÐ´Ð¾Ð¼Ð°ÑĪÐ½Ð¸Ðµ
ĠÑĢÐ°Ð·Ð¾ÑĢÐ²Ð°Ð»
Ð°ÐºÑĤÑĳÑĢÑĭ
ĠÑĦÐ¸Ð»ÑĮÐ¼Ð°
ĠÐ¿ÐµÑĢÐµÐ»
ĠÐ¶Ð°Ð»Ð¾Ð±
ĠÑįÑĦÑĦ
ĠÐ¾ÑĢÐ³Ð°Ð½Ñĭ
ĠÐ¾ÐºÐ¾Ð½ÑĩÐµÐ½
ĠÐ¾Ð±ÑĢÐ°Ð·Ð¾Ð²Ð°Ð½Ð¸Ðµ
Ð¾Ð±ÐµÑĢÐµÐ³
ÑĢÐ°Ð·Ñĭ
ĠÐºÐ¾ÑĤÐ°
Ð½ÐµÐ·Ð½Ð°Ñİ
ĠÑĥÑĩÐ¸ÑĪÑĮÑģÑı
ĠÐ¿ÑĥÐ³Ð°Ñĩ
ĠÐ¿ÑĥÐ³Ð°ÑĩÑĳÐ²Ð°
Ð¾Ð»Ð¾Ð¼
ĠÐ·Ð°ÑĢÐµÐº
ĠÐ½ÐµÑĩÐµÐ¼
Ð¸Ð´Ð¸Ð¾ÑĤ
ĠÑģÐµÐ³Ð¾Ð´Ð½ÑıÑĪ
Ð¿ÑĢÐ¸Ð±ÑĭÑĤ
Ð¿ÑĢÐ¸Ð±ÑĭÑĤÐ¸Ðµ
ÑĤÑĳÑĤÑı
ĠÐ²ÐµÐ½ÐµÑĢÐ°
ĠÐºÐ°ÐºÐ¸Ð¼
ĠÐ´ÐµÐ»Ð°Ð¼
Ð¾Ð¼Ð¸Ñı
ĠÐ²ÑĭÐ¿Ð¸ÑģÐ°Ð»
ĠÐ»Ð¾Ñģ
Ð»Ð¾Ð²ÑĭÐµ
ĠÐ±ÑĢÐ°ÑĤÑĮÑıÐ¼
Ð¿ÑĥÑħ
Ð¼Ð¸ÑĪ
ĠÐ¿Ð¾Ð¿Ð°Ð´Ñĥ
Ð´ÑĢÑĥÐ³Ð¾Ð³Ð¾
Ð±ÑĥÐ»ÑĮ
ÑģÐ½Ñı
ĠÑĢÐ°Ð¹Ð¾Ð½Ð½ÑĭÐ¹
ÑĢÐ°Ð·Ð³Ð¾Ð²Ð°ÑĢÐ¸Ð²Ð°Ñİ
ĠÐ¾Ð¿ÐµÑĢÐ°ÑĤÐ¾ÑĢ
ÑĥÐ½Ð³
ÑĢÐ¾Ð¼Ðµ
ĠÑģÑĤÑĢÐ¾Ð¸
ĠÑģÑĤÑĢÐ¾Ð¸ÑĤÑĮ
ĠÐ´Ð½ÐµÐ²Ð½Ð¸Ðº
ĠÐ´Ð¾ÐºÑĤÐ¾ÑĢÐ°
Ð¸Ð´ÑĢÐ°
ĠÐ°Ð²Ð¸
ĠÐ¿ÑĢÐ¾ÐºÐ»ÑıÑĤÑĭÐ¹
Ð¾ÑĤÐ²ÐµÑĤÑĭ
ĠÐºÑĢÐ¾Ð²Ð¸
Ð±ÐµÐ»Ð°Ñı
ĠÐ°ÐºÑĥ
ĠÑħÐ°ÐºÐµÑĢ
ÑıÐ³Ð°
ÑĢÐ°Ð·Ð±ÑĥÐ´
ÑĢÐ°Ð·Ð±ÑĥÐ´Ð¸
ÑĥÐ»ÐºÐ°Ð½
ÑģÑħÑĥÑıÐ»Ð¸
ĠÑĨÐ²ÐµÑĤÐ¾Ðº
Ð¾Ð±Ð¸Ð´ÐµÐ»ÑģÑı
ĠÐ°Ð»ÑĳÐ½Ð°
ĠÑģÑĤÑĥÑĩÐ°ÑĤÑĮ
ĠÑģÐ¸Ð³Ð°ÑĢ
ĠÐºÐ¸Ð¾ÑģÐº
ĠÑıÐ»
ĠÑģÐµÐ¼ÑĳÐ½
ĠÐ´ÐµÑĢÐµÐ²ÑıÐ½Ð½Ð°Ñı
ĠÐºÑĥÑĢÐ¸ÑĪÑĮ
ĠÑĥÐ½Ð¸Ðº
ĠÐµÐ²ÑĢÐ¾Ð¿Ñĭ
ĠÐ½ÐµÐ½ÑĥÐ¶
ÑīÐ¸Ðµ
Ð³ÑĢÐµÐ±Ð°Ð½Ð½ÑĭÐ¹
ÑĥÐ³Ð°ÑĢ
ĠÑĢÐ°ÑģÑĤÑı
ĠÐ¿ÑĥÐ»ÑĮ
ĠÐ½ÐµÐ¿Ð¾Ð½ÑıÑĤÐ½ÑĭÐ¹
ĠÐ¿Ð¾Ð´Ð¿Ð¸ÑģÐ°Ð½
ĠÐ¿ÐµÑĢÐ²Ð°Ñı
ĠÑģÐ²Ð¾Ð±Ð¾Ð´Ð°
Ð´Ð¶ÐµÐ½
ĠÐ´Ð°ÑĢÐ¾Ð¼
ĠÐ½Ð°Ð±ÐµÑĢÑĥ
ĠÑĤÑĢÐ°Ð²Ð°
ĠÐ²ÑĭÑĢÐ¾ÑģÐ»Ð°
Ð½ÑĥÑĤÑĢ
ĠÐ´Ð¾Ð»Ð±
ĠÐ´Ð¾Ð»Ð±Ð¸ÑĤÑĮ
Ð¾ÐºÑĢ
ĠÑĤÑĥÐºÐ¾
ĠÑģÑĤÐ¾Ð¸ÑĪÑĮ
ĠÑįÐ±Ð°
Ð¾Ð±ÐµÐ·ÑĮÑı
Ð¾Ð±ÐµÐ·ÑĮÑıÐ½Ð°
ĠÐ¿ÐµÑĢÐµÐ¿Ð¸
ĠÑįÐ»ÐµÐºÑĤÑĢÐ¾Ð½
ÑģÐ¾ÑħÑĢÐ°Ð½
ĠÐ²ÑģÑĤÑĢÐµÑĤÐ¸Ð¼
Ð¼Ð¸Ð»Ð»Ð¸Ð¾Ð½ÐµÑĢ
Ð¿Ð¾Ð³Ð¾Ð²Ð¾ÑĢ
ĠÑĥÐ¿ÑĢÐ°Ð²Ð»ÐµÐ½Ð¸Ðµ
Ð²Ð°ÑĤÐ¸Ñı
ĠÐ·Ð²Ð°ÑĤÑĮ
ĠÐ¾Ð±Ð¾Ð¹
ĠÐ¾Ð±Ð¾Ð¹ÑĤ
ĠÐ¾Ð±Ð¾Ð¹ÑĤÐ¸ÑģÑĮ
Ð´Ð¶ÐµÐ¹
ĠÐ¿ÑĢÐ¾Ð¸Ð³
ĠÐ·Ð°Ð»Ð¾Ð¶Ð¸ÑĤÑĮ
ÐµÑĪÐºÐ°
ÑĦÐ¾ÑĤÐ¾Ð³ÑĢÐ°ÑĦÐ¸Ñı
ĠÐ¿ÐµÑĢÐµÐ¿Ð¸ÑģÑĭÐ²Ð°Ð»Ð¸ÑģÑĮ
ĠÐ¼Ð°ÑĢÑĪÑĢÑĥÑĤ
ĠÐ¿ÑĢÐ¸Ð²ÐµÐ´Ñĥ
ĠÐ½Ð°ÑģÑĤÑĥÐ¿
ÑģÑĤÐ²Ð¸ÐµÐ¼
ĠÐ±Ð°Ð»Ð´Ð°
ĠÐ·Ð´Ð¾ÑĢÐ¾Ð²Ð¾
ĠÐ¿ÑĢÐ°ÐºÑĤÐ¸ÑĩÐµÑģÐºÐ¸
ĠÐ¿ÐµÑĢÐµÐ´Ð°Ñİ
Ð¿ÐµÐ´
ĠÐ½Ð¾Ð²Ð¾Ð¼
ĠÐ½Ð¾Ð²Ð¾Ð¼Ð¾ÑģÐºÐ¾Ð²
ĠÑģÑĤÐ°ÑĢÑĭÑħ
Ð³ÑĢÐ°Ð¼
Ð³ÑĢÐ°Ð¼Ð¾ÑĤÐ½ÑĭÐ¹
ĠÐºÑĢÐ¸
Ð½ÑıÑĤÑĮÑģÑı
ĠÑĥÑĢÐ°Ð»Ðµ
Ð²ÐµÑĩÐµÑĢÐ¾Ð¼
Ð¾Ð´ÐµÑı
ĠÐ³ÑĢÑĥÐ¿Ð¿Ñĭ
ĠÐºÐ°Ð¿Ð¸ÑĤÐ°Ð½
ĠÐ¼Ð¾ÐºÑĢÑĥÑĪ
ĠÐ¼Ð¾ÐºÑĢÑĥÑĪÐ¸Ð½
Ð´ÐµÑĤÑĮ
ĠÑģÑĢÐµÐ´ÑģÑĤÐ²Ð°
ĠÐºÐ¾Ð½ÑĤÑĢÐ°
ĠÐºÐ¾Ð½ÑĤÑĢÐ°ÑĨÐµÐ¿
ĠÐºÐ¾Ð½ÑĤÑĢÐ°ÑĨÐµÐ¿ÑĨÐ¸Ð¸
ÑĨÐ¾Ð¼
ĠÐºÐ¾Ð½ÑĤ
ĠÐºÐ¾Ð½ÑĤÐµÐ½ÑĤÐ°
ĠÐ´ÐµÐ¹
ÑĤÑĥÑĢÑĨÐ¸Ñı
Ð¾ÑĩÐºÐ¾
ĠÐ¿Ð¾ÐºÐ°Ð¶Ð¸
ĠÑĥÐ½ÐµÑģ
ĠÐ¾Ð±ÑģÑĥÐ¶
Ð¸ÑĢÐ½ÑĭÐ¹
ĠÐ·Ð°ÑģÑĤÑĥÐ¿Ð°Ñİ
Ð¿Ð¾ÑĪÑĳÐ»
ĠÐ¾ÑĩÐµÑĢÐµÐ´ÑĮ
ĠÐ½Ð°ÑĩÐ¸Ð½Ð°ÐµÑĤ
Ð´Ð¾ÑĢÐ¾Ð³Ð°
ĠÑģÐµÐºÑĥÐ½Ð´
ĠÐ²Ð»Ð°ÑģÑĤÐ¸
Ð°Ð½Ð¸Ñİ
Ð·Ð°Ð¿ÑĢÐ°Ð²
Ð·Ð°Ð¿ÑĢÐ°Ð²ÐºÐ°
ĠÐ¼Ð°Ð½Ð³Ð°
Ð»ÑİÐ±Ð¾Ð²
Ð¸Ð½Ð²
Ð´Ð¸Ð¿Ð»
Ð´Ð¸Ð¿Ð»Ð¾Ð¼
ĠÐ¿Ð¾Ð»ÑĥÑĩÐ¸ÑĪÑĮ
ĠÐ¿Ð¾ÑģÑĭÐ»ÐºÐ°
ĠÐ³Ð¾ÑĢÐ¾Ð´Ð¾Ð¼
ĠÐ°ÑħÑĥÐµÑĤÑĮ
ĠÑģÐµÑĢÑĮÑĳÐ·Ð½Ð°Ñı
Ð¿ÐµÑĢÐµÐ´Ð°ÑĩÐ°
ĠÐ²Ð¾Ð»Ð³Ð¾Ð³ÑĢÐ°Ð´ÑģÐºÐ¾Ð¹
ĠÐ±ÑĥÑĤÑĭÐ»ÐºÑĥ
ĠÐºÐ¾Ð²Ð°Ð»
ĠÐºÐ¾Ð²Ð°Ð»ÐµÐ½ÐºÐ¾
ĠÑģÐ¾ÑĤÑĢÑĥÐ´Ð½Ð¸Ñĩ
ĠÐ½Ð°Ð±ÑĢÐ°Ð»Ð°
ĠÐ¿Ð¾Ð´Ð´ÐµÑĢÐ¶ÐºÐ°
Ð°Ð»ÐºÐ¸
ĠÐ¼ÑĭÑĤÑĮ
Ð°ÑĤÐµÐ»
ĠÐ¿Ð°ÑĢÐº
Ð¿Ð¾Ð·Ð²Ð¾Ð½Ð¸Ð»Ð°
Ð½Ð¾ÑĢÐ¸ÑĪÑĮ
ĠÐ¿ÑĮÑĳÑĪÑĮ
ĠÑħÐ¾Ð¿
ĠÑĥÐµÐ·Ð¶Ð°Ñİ
Ð¿ÑĢÐ¾Ð»ÐµÑĤ
Ð¿ÑĢÐ¾Ð»ÐµÑĤÐ°ÑĢ
ĠÐ±Ð¾Ð³Ð°ÑĤÑģÑĤÐ²Ð¾
Ð°ÑģÑĤÐ°
ÑĤÐ¾ÑĢÑĤ
ÑĥÐ¿Ð¾ÑĤÑĢÐµÐ±
ĠÐ½ÐµÐ½Ð¾ÑĢÐ¼Ð°Ð»ÑĮÐ½ÑĭÐ¹
ĠÐ±ÑĭÐ²ÑĪÐ¸Ð¹
ÑĢÐµÐ°Ð»ÑĮÐ½Ð¾
ĠÐ³ÑĢÐ°Ð¼Ð¾ÑĤ
ĠÐ·Ð°ÑīÐ¸ÑĤÐ°
ĠÐ³Ð¾Ñģ
ĠÐ³Ð¾ÑģÑĥÐ´Ð°ÑĢ
ĠÐ³Ð¾ÑģÑĥÐ´Ð°ÑĢÑģÑĤÐ²ÐµÐ½Ð½ÑĭÐ¹
ĠÐ¿ÑĢÐ¸Ð·ÐµÐ¼
ĠÐ¿ÑĢÐ¸Ð·ÐµÐ¼Ð»
Ð¿Ð¾Ð±ÐµÐ³
Ð¸ÑĨÐºÐ¸Ð¹
ĠÐ¶ÐµÐ½ÑīÐ¸Ð½Ðµ
Ð¿Ð¸Ð½
ĠÐºÑĥÐ¿Ð°Ð»ÑĮÐ½Ð¸Ðº
Ð¿ÑĢÐ¸Ð·Ð½Ð°ÐºÐ¸
ĠÐ¿Ð¾Ð´Ð²ÐµÑĢ
Ð¿Ð¾Ð»ÑĥÑĩÐ°ÐµÑĤÑģÑı
Ð»ÑıÐ´ÐµÐ»
ĠÑģÑĭÐ³
ĠÐ¼ÑĥÐ¼
ÐºÑģÐµÐ½Ð¸Ñı
ĠÑģÐ¾Ð±Ñĩ
ĠÑģÐ¾Ð±ÑĩÐ°Ðº
ĠÐ°Ð±Ð´Ñĥ
Ð´Ð¸Ð½Ð°Ð»ÑĮÐ½Ð¾
ĠÑĪÐµÑģÑĤÐ¾Ð¹
ĠÐ¿Ð¾ÑĢÐ¾Ð´
ĠÑģÑĥÐºÐ¾Ð¹
ĠÐ¾Ð±Ð½Ð°
ĠÐ¾Ð±Ð½Ð°ÑĢÑĥÐ¶
ĠÐ³Ð°Ð·Ð¾Ð½
ĠÐ²Ð·Ð°Ð¸Ð¼Ð¾
ĠÐ²Ð·Ð°Ð¸Ð¼Ð¾Ð¾ÑĤÐ½Ð¾ÑĪ
ĠÐ²Ð·Ð°Ð¸Ð¼Ð¾Ð¾ÑĤÐ½Ð¾ÑĪÐµÐ½Ð¸Ñı
ĠÑģÑĩÐ¸ÑĤÐ°ÐµÑĤ
Ð¸ÑĦÑĢÐ¾Ð²
ĠÐ´ÑĥÐ¼Ð°ÐµÑĤÐµ
Ð´Ð¾Ð±ÑĢÐ¾Ð³Ð¾
ĠÐºÐ¾ÑĤÐ¾ÑĢÑĥÑİ
ĠÐ¿Ð¾Ð¿Ð°Ñģ
ĠÐ¿Ð¾Ð¿Ð°ÑģÑĤÑĮ
ĠÐ¿Ð¾ÑģÑĥÐ´Ð°
ĠÐ¼Ð°ÐºÐ´Ð¾Ð½
ĠÐ¼Ð°ÐºÐ´Ð¾Ð½Ð°Ð»ÑĮ
ĠÐ¼Ð°ÐºÐ´Ð¾Ð½Ð°Ð»ÑĮÐ´
ĠÐ²ÑĭÐ´ÐµÐ»ÑıÐµÑĤÑģÑı
ĠÐºÐ°Ð»Ð¾Ð²ÑĭÐµ
ĠÐ¼Ð°ÑģÑģÑĭ
ĠÐ³Ð¾ÑģÐ¿Ð¾Ð´ÑĮ
Ð±ÑĢÑıÐ½
Ð±ÑĢÑıÐ½ÑģÐº
Ð´Ð¸Ð°Ð»Ð¾Ð³
ĠÐ¼Ð°ÑĤÐ¾Ð²
ĠÐ¾Ð±ÑĭÐºÐ½Ð¾Ð²ÐµÐ½Ð½ÑĭÐ¹
ĠÐ»ÐµÐ½Ð°
ÑıÐ³Ð¸
ĠÐ¿ÐµÑĢÐµÐ¹ÑĤÐ¸
Ð¾ÑĢÐ³Ð°Ð½Ñĭ
ÑĥÑī
ÐµÐ½Ð½Ð¾Ðµ
ĠÐ½Ð¾Ð³Ð°Ñħ
ĠÐ¿Ð¾Ð»Ð·
ĠÑĤÐ¾Ð²Ð°ÑĢÐ¸Ñī
ĠÐ½ÐµÐ·Ð½Ð°Ñĩ
ĠÐ½ÐµÐ·Ð½Ð°ÑĩÐ¸ÑĤÐµÐ»ÑĮ
ĠÑĥÐ½Ð¸ÑĩÑĤÐ¾Ð¶Ð°ÑĤÑĮ
ĠÐ¿Ð¾Ð¿ÑĢÐ¾ÑģÐ¸Ð»Ð¸
Ð´ÑįÐ´
ĠÐ¿ÑĢÐ¸ÐµÐ´ÑĥÑĤ
Ð¼ÑĥÑĢÑĤ
ÐµÑĢÐ°Ð»Ð°ÑĪ
ĠÐ¿ÑĢÐµÐ´ÑģÑĤÐ°Ð²Ð»ÑıÐµÐ¼
Ð²Ð°Ð»Ð¸Ð²Ð°ÐµÑĤÑģÑı
ÐºÐ¾Ð½ÑĨÐµÑĢÑĤ
ĠÐ»ÑİÐ±Ñį
Ð»ÑĥÐ½
ÑģÐºÐ°Ð·ÑĭÐ²Ð°ÑĤÑĮ
ĠÐ¿ÑĢÐ¸Ð²ÐµÐ·Ð»Ð¸
Ð±ÐµÑģÐ¿Ð»Ð°ÑĤÐ½Ð¾
ÐºÐ°ÑĤÐ°Ð»Ð¾Ð³
ĠÐ½Ð°Ð·Ð²Ð°Ð½Ð¸Ñı
ĠÐ¾ÑĤÐºÐ»ÑİÑĩÐ°Ñİ
ĠÐ°Ð»ÐºÐ°ÑĪ
ĠÐ½Ð°ÑģÐ¾Ñģ
ĠÐ¿ÑıÑĤÐ½Ð¸ÑĨÑĥ
Ð°ÑĩÐµÑĩ
Ð½Ð°ÑģÑĤÑİ
ĠÐ²ÑĭÐ·Ð¾Ð²Ñĥ
Ð¿Ð¾ÑĢÐ¾ÑĪÐµÐ½ÐºÐ¾
ĠÑĢÐ¾Ð¼Ð°Ð½
ĠÐ¿ÑĢÐµÐ´Ð¿Ð¾Ð»
ĠÐ¿ÑĢÐµÐ´Ð¿Ð¾Ð»Ð°Ð³
Ð²Ð½ÑĥÑĤÑĢ
ĠÐ²Ð°Ð¶ÐµÐ½
Ð²ÑģÑİ
ĠÐºÑģ
Ð°Ð½Ð¾Ð²Ð¾Ð¹
Ð¼Ð¸ÐºÑĢÐ¾ÑĦÐ¾Ð½
ĠÐ½Ð¸Ñī
ĠÐ¿ÑĥÑĪÐºÐ¸Ð½Ð¾
ÑĢÐ±
Ð½Ð¸ÐºÐ°Ð¼Ð¸
ĠÐ»ÑĭÑģ
ĠÐ¼ÐµÐ»ÑĮÐ½Ð¸Ðº
ĠÐ¿ÑĢÐ¸Ð»ÐµÑĤ
ĠÐ¸Ð¼ÐµÐ»
ĠÑĤÐµÐ¼Ð¿ÐµÑĢÐ°ÑĤÑĥÑĢÑĥ
Ð¾Ð½ÑıÐµÑĪÑĮÑģÑı
ĠÑģÐ°ÑĢÐ°ÑĤ
ĠÑģÐ°ÑĢÐ°ÑĤÐ¾Ð²
Ð²ÑĢÐµÐ¼ÐµÐ½Ð½Ð¾
ĠÑĥÑģÑĤÑĢ
ÐºÑĥÑĢÐµÐ½Ð¸Ðµ
Ð¿Ð¾ÑģÐ¼Ð¾ÑĤÑĢÐ¸ÑĤÐµ
ĠÑģÑĤÐµÐ¿ÐµÐ½Ð¸
ĠÐ¿Ð¾ÑģÐ²
Ð´ÐµÐ²Ð¾ÑĩÐºÐ¸
ÑĭÐ²Ð°ÑİÑĤÑģÑı
ĠÑĢÐ°ÑģÑģÑĤÑĢÐ¾Ð¸
Ð¸Ð»Ð¾Ð²
ĠÐ´Ð¾Ð¶Ð´ÑĳÑĪÑĮÑģÑı
ÑĭÐ²Ð°Ð»ÑģÑı
ĠÐºÐ¾ÑĢÐ¼
ĠÐ²ÐµÑĪ
ĠÑĨÐµÐ¼
Ð³Ð»ÑĥÐ±Ð¾ÐºÐ¾
ĠÐ±Ð¾ÑıÑĢ
Ð°ÑĤÐ¸Ð»Ð°
ĠÑģÑĤÐ°Ð´Ð¸Ð¾Ð½
ĠÑĢÐ°Ð·Ð¸Ð½Ð°
ÐºÐ¾Ð½ÑĨÐµ
ĠÐ¿ÑĢÐµÐ¼
ĠÐ³Ð»Ð¾ÑħÐ½ÐµÑĤ
ĠÐ½ÐµÐ±ÐµÑģ
ĠÐ½Ð°Ð³Ð¾Ð²Ð¾ÑĢ
ĠÐ½Ð°Ð´Ð¾ÐµÐ´
ĠÐ½Ð°Ð´Ð¾ÐµÐ´Ð°ÑĤÑĮ
ĠÐ¸ÑģÐ¿Ð¾Ð»ÑĮÐ·ÑĥÐ¹
ĠÑĢÐ°ÑģÐ¿Ð¾Ð»
Ð½Ð¸ÑĦÐ¸Ð³Ð°
ĠÐ¿Ð¾Ð²ÐµÑĢÑĮ
ĠÐ¾ÑĦÐ¾ÑĢÐ¼Ð¸ÑĤÑĮ
ĠÐ¿ÑĢÐ¾Ð¿Ð°Ð´Ð°ÐµÑĤ
ÑĩÐµÑĢÐº
ĠÐ´Ð¾Ð²
ĠÐ²ÑĭÐ¶Ð°ÑĤÑĮ
ĠÐ°Ð»Ð¾
ĠÐ°Ð»Ð¾Ñį
ĠÑĦÐµÐ´Ð¾ÑĢÐ¾Ð²
ĠÐ¾ÑĤÐ¼
ÐµÑĤÑĮÑĤÐµ
ĠÐ½ÐµÑĥÐ´Ð°
ĠÐ½ÐµÑĥÐ´Ð°Ñĩ
ĠÐ¿Ð¾ÑģÐ»Ð°ÑĤÑĮ
ĠÐ¾Ñħ
ĠÐ¿Ð¾Ð½ÐµÑģ
ĠÑĩÐ°ÑģÐ¾Ð²
ÑħÑĥÑĳÐ²
ĠÐ¿Ð¾Ð»Ð°Ð³
ĠÐ²ÑĭÐ¹Ð´ÐµÑĤ
ÑĦÐ¸Ð³ÑĥÑĢ
ĠÐºÐ¾Ð»Ð»ÐµÐºÑĨÐ¸Ñİ
ĠÐ²ÐµÐ´ÑĥÑģÑĮ
Ð¾Ð·Ð»
ÑĢÐ°Ð¼Ð°ÑĤÐ¾ÑĢ
ÑģÐ¿Ð¸ÑģÐ¾Ðº
ÑĢÐ°Ð½Ð°
ÑĥÑĤÑĢÐ¾Ð¼
ĠÐ¿Ð¾Ð»ÑıÐºÐ¾Ð²
ÐµÑĢÐµÐ´
ĠÐ½Ð°Ð·ÑĭÐ²Ð°Ð»
Ð¸ÐºÐ°ÑĨÐ¸Ñı
ÐµÑĢÐºÐ¸
ĠÐ±ÐµÐ´ÑĢÐ°
Ð±Ð¸Ð»ÐµÑĤÑĭ
ĠÑģÐ¾Ð·Ð´Ð°ÐµÑĤÑģÑı
Ð¼Ð°ÑĢÑĪÑĢÑĥÑĤ
ĠÐ¿Ð¾Ð³Ð¾Ð²Ð¾ÑĢÐ¸
ĠÑģÐ¼ÐµÐ½Ñĥ
ĠÐ»Ð¸Ð·
Ð³ÑĢÑĥÐ´ÑĮ
Ð¿Ð°Ð¿
ĠÐ²Ð¾Ð·ÑĮÐ¼ÑĳÑĤ
Ð·Ð²Ñĥ
Ð¾ÑĤÐ¿ÑĢÐ°Ð²Ð»Ñı
ĠÐºÑĥÐ¶
ĠÐºÑĥÐ¶ÑĥÐ³
ĠÐºÑĥÐ¶ÑĥÐ³ÐµÑĤ
ĠÐºÑĥÐ¶ÑĥÐ³ÐµÑĤÐ¾Ð²Ð¸Ñĩ
Ð¿ÑĥÐ±Ð»Ð¸ÐºÑĥ
ĠÐ½Ð°ÑĩÐ°Ð»ÑĮ
ĠÑģÐ¾Ð¶ÑĢÐ°ÑĤÑĮ
Ð°ÐºÑĨÐ¸Ñı
ĠÐ½Ð°ÐºÑĥÑĢ
ÑĥÐ²Ð°ÑĤÑĮ
ĠÑģÐ¾Ð·Ð´
ĠÐ¸Ð³ÑĢÐ°Ñħ
Ð½Ð°ÑĤÐ½ÑĥÑİ
ĠÐºÐ¸Ð¼Ð¾Ð²
ĠÐºÐ¸Ð¼Ð¾Ð²ÑģÐºÐµ
ĠÐ¼Ð°ÐºÑģÐ¸Ð¼
Ð²Ð½Ðµ
ĠÐ½Ð°Ð»Ð¾Ð³Ð¸
ĠÑģÐ»Ð¾Ð¶Ð½Ð¾
ĠÑģÐ°Ð»Ð°Ð¼
Ð°Ð»ÐµÐ¹ÐºÑĥÐ¼
ĠÐ¿Ð¾Ð²ÑĤÐ¾ÑĢÑıÐµÑĤ
ĠÐ¿ÑĢÐ¸Ð²ÑĭÑĩÐµÐº
ĠÐ»ÑİÐ±Ð¾Ð¿Ñĭ
ĠÐ»ÑİÐ±Ð¾Ð¿ÑĭÑĤÐ½Ð¾
ĠÐ·Ð°Ð¿Ð¾Ð¼Ð¸Ð½Ð°
ĠÑĥÑĤÑĢÐµÐ½
ĠÐ¿ÑĢÐ¸Ð´ÐµÑĤ
ĠÐ´Ð¾ÑĢÐ°Ð¼Ñĥ
ĠÐ¿ÑĢÑıÐ¼Ð°Ñı
Ð»Ð¾Ð¼Ð°Ñİ
ĠÐ·Ð°ÑĢÐ°Ð±Ð°ÑĤÑĭÐ²Ð°ÑĤÑĮ
ĠÐ¾ÑģÑĥÐ¶
ĠÑģÐ¾ÐµÐ´Ð¸Ð½ÑıÐµÑĤ
ĠÑħÐ¾ÑĢÐ¾Ð¼
Ð°Ð·Ð°Ð½Ð¸Ñı
ĠÑģÐ¸Ð¼Ð¿
Ð°ÑģÐ¾Ñģ
ĠÑĢÐ¾Ð»ÑĮ
Ð±Ð°Ð½ÑĭÐ¹
ĠÐ¿ÑĢÐµÐ´ÑģÑĤÐ°Ð²ÑĮÑĤÐµÑģÑĮ
ĠÑģÐ¾ÐµÐ´Ð¸Ð½ÑıÑİÑĤ
ĠÐ±ÑĢÐ¾Ð½Ð¸ÑģÐ»
ĠÐ±ÑĢÐ¾Ð½Ð¸ÑģÐ»Ð°Ð²
Ð¸Ð¼Ð¿ÑĥÐ»ÑĮ
ĠÐ±ÑĥÐ³ÑĥÑĢÑĤ
ÑĳÐ½Ð½ÑĭÐ¹
Ð¼Ð¾Ñİ
ÐºÐ¸ÑĢ
ĠÐ½Ð°ÑĨÐ¸Ð¸
ĠÐ±Ð°ÑĪÐºÑĥ
ĠÑĢÐ¾Ð²Ð½Ð¾
Ð»Ð°Ð½Ð´Ð¸Ñı
Ð²Ð¾Ð·ÑĮÐ¼
Ð²Ð¾Ð·ÑĮÐ¼Ð¸ÑĤÐµ
ĠÐ±ÐµÑģÐ¿Ð¾ÐºÐ¾Ñİ
ĠÑĪÐºÑĥÑĢÐ°
ĠÑĩÐ°ÑĤ
ÑĥÐ³Ð°Ð´
ĠÐºÐ»Ð¸Ð¿Ñĭ
ÑĳÐ³Ð°
ĠÐ¿ÐµÑĢÐµÑĥÐ»Ð¾Ðº
ĠÐ½Ð°ÑħÐ¸Ð¼Ð¾Ð²
ÑĥÐ³Ð¾Ð»Ð¾Ð²
ÐµÐ·ÐµÑĢ
ÐµÐ·ÐµÑĢÐ²
ÐµÐ·ÐµÑĢÐ²Ð°ÑĤÐ¸Ð²
ĠÐ²ÐºÐ»ÑİÑĩÐ¸
ÑıÑĢÐºÐ°
ĠÐ¿ÐµÑĤÑĥÑħÐ¸
ĠÑĥÑĩÐ°ÑģÑĤÐºÐ°
Ð¸ÑģÑĤÐ°
Ð´Ð¾Ð´
Ð´Ð¾Ð´Ð¾
ĠÐ·Ð°Ð´Ð°ÑĩÐ¸
ÑĩÑĥÑĤÑĮ
Ð¿Ð¾ÐºÑĥÐ¿
ÑĭÐ²Ð°Ñı
ĠÐ²ÑĭÑģÑĤÐ°Ð²Ð»ÑıÑİÑĤ
ĠÐºÐ¾Ð¼Ð¿ÑĮÑİÑĤÐµÑĢÐ¾Ð²
Ð¿ÑĢÐµÐ´Ñĥ
ĠÐ¿Ð¾ÐºÑĥÑĪÐµÐ½Ð¸Ðµ
ÐµÐ¿ÐºÐ¾
ĠÐ´ÐµÐ´Ñĥ
ĠÑĥÑĪÐ»Ð¸
ÑĥÑĩÑĪ
ĠÐ¼Ð°ÑħÐ°Ñĩ
Ð°ÑģÐ¸Ð½
Ð¸Ð²Ð°Ð½Ð¾Ð²
ĠÑģÐ½ÐµÐ³ÑĥÑĢ
ĠÑģÐ½ÐµÐ³ÑĥÑĢÐ¾ÑĩÐºÐ°
ĠÑģÐ¼Ð°Ð¹
ĠÑģÐ²ÑıÐ·ÑĮÑİ
Ð¿Ð¾Ð¹Ð´ÑĳÑĪÑĮ
ĠÐ¿Ð¾ÑĩÐ¸Ð½
ĠÐ¿Ð¾ÑĩÐ¸Ð½Ð¸ÑĤÑĮ
Ð²Ð¾Ð·Ð¼Ð¾Ð¶Ð½Ð¾
ĠÐ»ÑİÐ±Ð¾Ð¿ÑĭÑĤ
ĠÐ»ÑİÐ±Ð¾Ð¿ÑĭÑĤÑģÑĤÐ²Ð¾
Ð¸Ð³ÑĢÐ°Ð»Ð°
Ð¸Ð°Ð½
ĠÐ¼Ð¾Ð½Ð¸
ÑĢÑĥÐ±Ñĭ
ÑĢÐ¾ÑģÐ¾Ñİ
ĠÑĢÐ°ÑģÑģÑĩÐ¸ÑĤ
ĠÐ¿ÑĢÐ¾ÑģÑĮ
ĠÐ¿ÑĢÐ¾ÑģÑĮÐ±Ð°
ĠÑĢÐ°ÑģÑĤÐ°Ð¼Ð°Ð½Ð°
ĠÑģÑĥÐ±Ð±Ð¾ÑĤ
Ð²Ð¾ÐµÐ½Ð½ÑĭÐµ
ĠÐ¿ÑĢÐµÑģ
ÑĤÑĢÐº
ĠÑĥÐºÑĢÐ°Ð¸Ð½Ð°
ĠÐ¿ÑĮÑİ
ĠÑģÑĤÑĢÐ°Ð½Ñĥ
ÑĤÑĥÑĢÐ½Ð¾
ĠÑģÐ²ÐµÑĤÑĥ
ĠÑĢÐ¾ÑģÑĤÐ¾Ð²Ðµ
Ð¿Ð¾Ð»Ð½Ð¾Ð¼
Ð¿Ð¾Ð»Ð½Ð¾Ð¼Ð¾Ñĩ
Ð¸Ð´Ð¾ÑĢÑĭ
ĠÐ³ÐµÐ»
Ð¿Ð¾ÑģÐ»ÐµÐ´Ð½ÑıÑı
ÐºÐ¾ÑĦÑĦ
ÐºÑĥÐºÑĥ
ÐºÑĥÐºÑĥÑĢÑĥ
ÐºÑĥÐºÑĥÑĢÑĥÐ·Ð°
ĠÐ·Ð½Ð°ÐºÑĥ
ĠÑģÑĥÐ½
ĠÐ±Ð»Ð°Ð³Ð¾Ð´Ð°ÑĢÑı
ĠÑĤÐ°Ð½ÑĨÑĥÐµÑĤ
ÐµÐ¼Ð¾ÑĢ
ĠÑħÐ¾Ð»Ð¾Ð´Ð½Ð¾Ð¹
ĠÐ²Ð¾Ð´Ð¾Ð¹
ĠÐ·Ð°Ð¹ÑĤÐ¸
Ð¸ÐºÐ¾Ð½
ĠÐ·Ð°ÑħÐ°ÑĢ
ĠÑĢÐ°Ð·Ð¾Ð±ÑĢÐ°ÑĤÑĮ
ĠÑĨÐµÐ»Ð¾Ð²Ð°ÑĤÑĮ
ĠÑģÐ´ÐµÐ»Ð°ÐµÐ¼
Ð¾ÑĤÐºÑĢÐ¾Ð¹ÑĤÐµ
Ð·Ð°Ð²ÐµÑĢ
ĠÑĤÐ²Ð¾ÑĢÐ¾Ð¶
ĠÑĤÐ²Ð¾ÑĢÐ¾Ð¶Ð¾Ðº
ĠÐ¾ÐºÑĤÑıÐ±ÑĢÑĮÑģÐºÐ¾Ð³Ð¾
ÑĦÐ¾ÑĤÐ¾Ð³ÑĢÐ°ÑĦÐ¸Ð¸
ĠÐ¾ÑĤÐ²ÐµÑĤÐ¸Ð»Ð°
Ð·Ð½Ð°ÐºÐ¾Ð¼Ð°Ñı
ĠÐ³Ð»Ð¾ÑĤÐ°ÑĤÑĮ
Ð¿Ð¾Ð¼Ð¾Ð³
ĠÐ±ÐµÑĢÐµÐ¼ÐµÐ½
ÐºÑĥÑĢÑĮÐµÑĢ
Ð´Ð¾Ð³Ð¾Ð²Ð¾ÑĢÑĭ
ĠÐ´ÐµÑĢÐµÐ²Ð½Ñİ
Ð²ÑĭÑģÑĤÑĥÐ¿Ð°Ð»Ð¸
ĠÐ·Ð½Ð°ÐºÐ¾Ð¼Ð¾
ÑĤÑĥÑĢÐµÑĨÐºÐ¸Ð¹
ĠÐ°Ð»ÑĦ
ĠÐ°Ð»ÑĦÐ°Ð²
ĠÐ°Ð»ÑĦÐ°Ð²Ð¸ÑĤ
ĠÑĩÐ°ÑĢ
ĠÐ¿Ð°Ð»ÑĮÑĨÑĭ
ÑģÐ»Ð¾Ð¼
ĠÑıÐ²Ð½Ð¾
ĠÐ¿Ð»Ð°ÑĩÐµÑĤ
ĠÐºÐ¾ÑĢÐ°Ð±Ð»ÑĮ
ÑĩÐµÐ»ÑıÐ±
Ð»Ð°ÑģÑĤ
ĠÐ¸Ð±
Ð²Ð°ÑĢÐµÐ»ÑĮ
ĠÑĦÐ»
ĠÑĤÐµÑĢÐ¼
ĠÑıÐ²Ð»ÐµÐ½Ð¸Ñı
ĠÐ´Ð²Ð¾Ð¹Ð½Ñı
Ð°Ð³ÑĢÐ°Ð¼
ĠÑĢÐµÑģÑĤÐ¾
ĠÑĢÐµÑģÑĤÐ¾ÑĢÐ°Ð½
ĠÐ²ÐºÐ»Ð°Ð´
ĠÐ°Ð½Ð°Ð»Ð¸
ĠÑĢÑĥÐºÐ°
ĠÐ¾ÑĤÐ²ÐµÑĤÑģÑĤÐ²ÐµÐ½Ð½Ð¾ÑģÑĤÑĮ
ĠÑĢÐ¾Ð¶ÐºÐ¾Ð²
Ð±ÑĥÐ´ÐµÑĪÑĮ
ÑĭÐ¶Ð¸ÑĤÑĮ
Ð¼ÐµÑģÑĤÐ°
ĠÐ²Ð·Ð°Ð¸Ð¼Ð¾Ð´
ĠÐ²Ð·Ð°Ð¸Ð¼Ð¾Ð´ÐµÐ¹ÑģÑĤÐ²
ĠÐ¿Ð¾ÑĢÐ°
Ð°Ð¶Ð¸Ð²Ð°ÑĤÑĮ
ĠÐ´ÐµÐº
ĠÐ´ÐµÐºÐ¾ÑĢ
ÑĥÐ¹ÑĤÐµ
ĠÐ´Ð°ÑģÑĤ
ĠÐ¿Ð¸ÑĤÐµÑĢ
ĠÐ°Ð¿ÑĤÐµÐºÐ°
ĠÐ±ÐµÐ»Ð¾ÑĢÑĥÑģÑģÐºÐ°Ñı
Ð²Ð¼ÐµÑģÑĤÐµ
ĠÐ¿Ð¾Ð¹Ð¼Ð°Ð»Ð¸
Ð¾Ð½Ð»Ð°Ð¹Ð½
ÑĨÐ¸Ð¾Ð½Ð½Ð°Ñı
ÑĥÐ»ÐµÑĤ
Ð»ÐµÐºÐ°ÑĤÑĮ
ĠÐ¿Ð¾Ð´ÑĬÐµÐ·Ð¶Ð°ÑĤÑĮ
ÑĥÐ»ÑĮÐºÐ°
ĠÐ¿Ð»ÑİÑĪÐºÐ¸
Ð²ÐºÑĥ
Ð²ÐºÑĥÑģÐ½Ð¾
ĠÐ¿Ð¾ÑĤÑĥÑĪ
ĠÐ¿Ð¾ÑĤÑĥÑĪÐ¸ÑĤÑĮ
ÐµÐ´Ð¸Ð½ÑģÑĤÐ²ÐµÐ½Ð½ÑĭÐ¹
ĠÐ°ÐºÑĨÐ¸Ð¸
ĠÑĥÐ³Ð¾Ð²Ð¾ÑĢ
ĠÐ²ÑĭÑħÐ¾Ð´Ð¸
ĠÑĩÐµÐ»ÑıÐ±
ĠÐ·Ð°Ð¿Ð¸ÑģÑĭÐ²Ð°ÑĤÑĮ
Ð¾ÑģÑĤÐµÐ¹
ĠÑĢÐ°ÑģÑĤÐ²Ð¾ÑĢ
ĠÑİÑĢÐ¸Ð´Ð¸ÑĩÐµÑģÐºÐ¸Ð¹
ÐºÑĢÐ°ÑģÐ½Ð¾Ð³Ð¾ÑĢÑģÐºÐ¸Ð¹
ĠÑģÐ¾ÑģÑĤ
ĠÑģÐ¾ÑģÑĤÐ¾Ð¸ÑĤ
Ð¾ÐºÐ¾Ð»Ð°
ĠÐ²ÐµÑĢÑĤÐ¾Ð»ÐµÑĤ
Ð±Ð°ÑĢÐ½Ð°ÑĥÐ»
ĠÐ½Ð°ÑĥÐ¼
ĠÐ¿ÐµÑĢÐµÑĢ
ĠÐ³Ð¾ÑĢÐ¾Ð´ÑģÐºÐ¾Ð³Ð¾
ĠÑĥÐ»Ñĭ
ĠÑĥÐ»ÑĭÐ±
ĠÐ¿ÑĢÐ¾ÑģÐ»ÑĥÑĪÐ¸Ð²Ð°Ð½Ð¸Ðµ
ĠÐ¿Ð°Ð»Ð°ÑĤ
Ð°ÑĤÐ»Ð¾Ð½
ĠÐ¿ÑĢÐ¾Ð¸Ð·Ð²
Ð¼Ð¸Ñı
ĠÐ¿Ð¾ÑģÐ¸Ð´ÐµÑĤÑĮ
ĠÐºÐ¾ÑĢÐ¸Ð´Ð¾ÑĢ
ÐºÐ°Ð»Ð¸Ð½Ð¸Ð½Ð³ÑĢÐ°Ð´
ĠÐµÐ³Ð¾ÑĢ
Ð¾ÑĩÐ½ÑĭÐµ
ĠÑĥÐ²Ð¸Ð´Ð¸ÑĤÐµ
ĠÑĥÐ²ÐµÑĢÐµÐ½Ð½Ð¾
ĠÐ¿Ð¾Ð´Ð¾ÑĪ
ĠÐ±Ð»Ð¾Ð³ÐµÑĢ
ĠÑĤÐ¾Ð½ÐºÑĥÑİ
ÑĤÑİÑĤ
ÑĤÑİÑĤÑĩÐµÐ²
ĠÐ½Ð¾ÑĢÐ¼Ð°Ð»ÑĮ
ĠÐ½Ð¾ÑĢÐ¼Ð°Ð»ÑĮÐ½Ð¾Ð¼Ñĥ
ĠÐ´Ð¼Ð¸ÑĤÑĢÐ¸Ð¹
ĠÐ³Ð°Ð¹
ĠÐºÑĥÑĤ
ĠÐ¿Ð¾Ð²ÑĤÐ¾ÑĢÑıÑĤÑĮ
ĠÑįÑĤÐ°Ð¿Ðµ
ĠÐ·Ð°ÐºÐ°Ð·ÑĩÐ¸Ðº
ĠÑįÐ»ÐµÐ¼ÐµÐ½ÑĤÐ°
Ð°Ð½ÑĤÑĭ
ĠÐ½ÐµÐ·Ð½Ð°ÐºÐ¾Ð¼
Ð¿ÑĢÐ¾ÐºÐ°Ñĩ
Ð¿ÑĢÐ¾ÑĪ
Ð½Ð°Ð»Ð¾Ð³Ð¸
ĠÐºÐ»Ð°Ð´
Ð±Ð¸ÑīÐµ
ĠÐ¿Ð¾Ð½ÐµÐ´ÐµÐ»ÑĮÐ½Ð¸ÐºÐ°
ĠÐ¿Ð¾Ð»Ð½Ð¾
ÑģÐ¿ÐµÑĨ
Ð¿Ð¾Ð´ÑĢÐ°Ð·Ð´ÐµÐ»
Ð¿Ð¾Ð´ÑĢÐ°Ð·Ð´ÐµÐ»ÐµÐ½Ð¸Ñı
ÑģÐ±ÐµÑĢÐ±Ð°Ð½Ðº
Ð²ÑĪ
ĠÐ¾ÑĤÐ¿ÑĢÐ°Ð²Ð¸ÑĤÑĮ
ÐºÐ½Ð¾Ð¿
ÑģÐµÑĢÑĮÑĳÐ·
ÑģÐµÑĢÑĮÑĳÐ·Ð½Ð¾
ĠÐ¼Ð°Ð»ÐµÐ½ÑĮÐºÐ¸Ð¼
ĠÐ¼ÑıÑĩ
ÑĥÐ¿Ð¸Ð»
ĠÐ¼Ð¸Ð¼Ð¾
ÐµÐ²ÐºÐ°
ĠÐ¼Ð¸ÑĪÐºÐ°
ĠÑģÐµÐ¼ÑĮ
ĠÑģÐµÐ¼ÑĮÐ¸
ĠÐ¿ÑĢÐ¾Ð¿Ð°Ð³
Ð¾ÑĢÐ¸Ðº
ĠÐ±Ð¸Ð±Ð»Ð¸Ñİ
ÑĪÐ¸Ð½Ð°
Ð¾Ð²ÑģÐºÐ¾Ð³Ð¾
ĠÑģÑĢÐµÐ´Ð°
Ð¾Ð²Ð¸Ð´
ĠÑģÐ»ÐµÑĤ
ĠÐºÐ¾Ð»Ð±
ĠÐ¿Ð¾Ð´ÑĢÐ°Ð·Ð´ÐµÐ»
ĠÑĨÐ²ÐµÑĤÑĥ
ĠÑģÑĭÑĤ
Ð¿ÐµÑĤÑĢÐ¾Ð²
Ð¸Ð´Ð¸Ñı
Ð¾ÑģÐ°
ÑģÑĥÐº
ÑģÑĥÐºÐºÐ¾
ĠÐ½ÐµÐ²ÐµÑĢ
ĠÐºÐ°Ð½Ð¸Ðº
ĠÐºÐ°Ð½Ð¸ÐºÑĥÐ»Ñĭ
ĠÐ¼Ð¸Ð»Ð°Ñı
Ð±ÐµÐ¶
ĠÐ¾ÑģÐµÐ½ÑĮ
ĠÑĤÑĢÑĥÐ±Ð¾ÑĩÐºÑĥ
Ð´Ð¸Ð½Ð°ÑħÑĥÐ¹
ĠÑģÐ»ÑĥÑĩÐ°Ð¸
Ð³Ð¾Ñģ
ÑģÑĤÑĢÐ°Ñħ
ĠÑģÐ²Ð¾Ð´Ð¸ÑĤÑģÑı
ĠÑĥÑģÐ»ÑĭÑĪÐ°Ð»Ð°
ĠÐ¿ÐµÑĤÑĥÑĪ
ĠÐ·Ð°ÐºÑĢÐ¾
ĠÐ¿Ð¾Ð»ÐºÑĥ
ĠÐ¿ÑĢÐ°Ð²Ð¾ÑģÐ»Ð°Ð²
ĠÑĥÐ¼ÐµÑĢÐ»Ð°
ĠÑıÑģ
Ð½Ð¸ÑĢ
ÐºÐ¾Ð½ÑĤÐ°ÐºÑĤÐ½ÑĭÐ¹
ĠÐ´Ð°Ð½Ð½Ð¾Ð¼
ĠÐ·Ð°Ð¿ÑĢ
ĠÐ·Ð°Ð¿ÑĢÐµÑī
ĠÐ¿ÑĢÐ¾Ð´Ð°ÑĳÑĤÐµ
ĠÐ¿Ð¾Ð»Ñĥ
ĠÐ¾Ð¿Ñĭ
Ð¿ÑĢÐ¾ÑĦÐµÑģÑģÐ¸Ð¾Ð½Ð°Ð»
ĠÐ°Ð·Ð¸
ĠÑĤÑĢÐ¾ÑĦ
ÑģÑĤÐ²Ð°Ð¼Ð¸
ÑģÐºÐ¾Ð±Ð»Ð¸ÑĤÑĮ
ĠÐºÐ¾Ð½ÑĤÑĢÐ¾Ð»
ĠÐ·Ð°ÑģÑĤÐ°Ð²Ð»ÑıÐµÑĤ
ĠÐ³Ð»Ð¸
ÑģÑĩÐ¸ÑĤ
ĠÑĢÑĥÐºÐ¾Ð²Ð¾Ð´ÑģÑĤÐ²Ð¾
ÑģÐ²ÐµÑĤÐ°
ĠÐ°Ð»ÐºÐ¾Ð³Ð¾Ð»ÑĮ
Ð·Ð°Ð¿Ð¸Ñģ
ÑĥÑĢÐ¾Ð²
Ð²Ð°Ð»Ð°
ĠÐ¿ÑĢÐ¾Ñħ
Ð¿ÑĢÐ¸Ð³Ð¾ÑĤÐ¾Ð²Ð¸ÑĤÑĮ
Ð»Ð¾Ð¿
Ð¿ÑĢÐ¸Ð½ÑıÑĤÑĮ
Ð³Ð¾ÑĢÐ¾ÑħÐ¾Ð²ÑĭÐ¹
ĠÐ¿ÑĢÐ¸ÑħÐ¾Ð´Ð¸ÑĪÑĮ
ĠÑĥÑħÐ¾Ð´
ÐµÐ´ÑĥÑĤ
Ð¾ÑĢÑģÐº
ĠÐ±ÐµÑĪ
ĠÐ¾Ð¿ÑĢÐµÐ´ÐµÐ»Ð¸ÑĤÑĮ
ÑģÐ¾Ñģ
ĠÐ¿Ð¾Ð»ÑĥÑĩÐ°Ð»Ð¸
ĠÐ·ÐµÐ¼Ð»Ðµ
ĠÐ²Ð·Ñĭ
ĠÐ²Ð·ÑĭÑģÐº
ĠÐ²Ð·ÑĭÑģÐºÐ°Ð½Ð¸Ñı
ĠÐ´Ð¾Ð»Ð³Ð¾Ð²
Ð»Ð°ÑĤÑĥ
ĠÑĦÑĥ
ÑĥÑĢÑĭ
ĠÐ¾ÑĤÐ¿Ð¸Ð·Ð´
ĠÐ¿Ð¾ÑģÐ°Ð´Ð¸Ð¼
ĠÑĩÑĥÑĢ
ĠÐ°Ñħ
ĠÐµÐºÐ°ÑĤÐµÑĢÐ¸Ð½Ð±ÑĥÑĢÐ³
ĠÑĤÐ¸Ð¼
ĠÐ¼Ð¾Ð´Ñĭ
ĠÐ´Ð¾Ð´
ĠÐ´Ð¾Ð´ÑĥÐ¼
ĠÑĩÐµÑĢÐµÐ¿
ĠÑĤÐ¾ÑĢÑĤÐ¸Ð»
ĠÐ²Ð¾ÐµÐ½Ð½Ð¾Ðµ
ÐµÑīÐ¸Ð½Ð°
ĠÐ¾ÑĤÐ²ÐµÑĤÐ¸ÑĪÑĮ
ÐºÑĥÐº
ĠÐ¿Ð¾Ð´ÑĢÑĥÐ¶
ÑģÑĦÐ¾ÑĤÐ¾Ð³ÑĢÐ°ÑĦ
ĠÐ´Ð¾Ð½Ñĥ
ĠÐ²Ð½Ð¸Ð·Ñĥ
ĠÐ¿ÑĢÐ¾ÑıÐ²Ð»ÑıÐµÑĤÑģÑı
ĠÐ½Ð°ÑħÐ¾Ð´Ð¸Ð¼ÑģÑı
Ð¿ÑĢÐ¾Ð´Ð°Ð¼
ĠÐ²ÑĭÐ¸Ð³ÑĢÐ°
ĠÐ·Ð°ÑģÑĭÐ¿Ð°Ñİ
ĠÐºÐ°Ð½Ð°Ð´Ð°
Ð½Ð°Ð´ÑĨÐ°ÑĤ
Ð½Ð°Ð´ÑĨÐ°ÑĤÐ¸Ð»ÐµÑĤ
Ð½Ð°Ð´ÑĨÐ°ÑĤÐ¸Ð»ÐµÑĤÐ½ÑıÑı
ĠÑİÐ¶Ð½Ð¾
ĠÑİÐ¶Ð½Ð¾ÑĥÑĢÐ°Ð»ÑĮ
ĠÐ´Ð¾ÑĩÑĮ
ĠÐ»Ð¸ÑĩÐ½ÑĭÐ¹
ĠÑĢÐ¸ÑģÐ¾Ð²Ð°ÑĤÑĮ
ĠÐµÐ²Ñĭ
Ð¸Ð²Ð°Ð»Ð¸
ĠÑħÐ°ÑĤÑĥ
ĠÑĤÑĥÐ¿Ð¾ÑĢ
ĠÑĤÑĥÐ¿Ð¾ÑĢÑĭÐ»
ĠÑĢÐ°Ð·Ð±Ð¸ÑĤ
ĠÐ¿Ð¾Ð¼Ñĥ
ĠÐ¿Ð°ÑĢÐ°
ĠÐ³Ð¾ÑĢÐ¾Ñħ
ĠÐ³Ð¾ÑĢÐ¾ÑħÐ¾Ð²
ÑįÑĤÐ¾Ð¹
ĠÐ¼Ð°Ð½ÑĮÑı
ĠÐ¼Ð°Ð½ÑĮÑıÐº
ĠÐºÐ°Ð¼ÐµÐ½ÑĮ
ĠÐ¼Ð°ÑĪÐ¸Ð½ÐºÐ°
ĠÐ¿Ð¾ÑĢÐ²
ĠÐ±Ð°Ð·Ð°ÑĢÐ¾Ð¼
ĠÐ°ÑĢÐ±
ĠÐ¿Ð¾ÑģÑĤÐ°Ð²Ð¸ÑĪÑĮ
ĠÐ»ÐµÐ·Ð³Ð¸Ð½ÐºÑĥ
ĠÑĢÐ¸ÑĤÑĥ
ĠÐ¿ÑĢÐ¾ÐºÐ»ÑıÑĤÐ¸Ðµ
ĠÑģÐ¾Ð±Ð¸ÑĢÐ°ÑĤÑĮ
Ð¾Ð³ÑĢÐ°ÑĦÐ¸Ñı
Ð±ÑĭÐ»
ĠÑĢÐ°ÐºÐµÑĤÑĭ
ÑĥÑĤÑĢ
ĠÐ°Ð²ÑĤÐ¾Ð±ÑĥÑģ
ÑĭÐ²Ð°Ð¹ÑģÑı
ĠÐ´ÐµÐ²ÐºÐ°
ĠÐ½Ð°Ð¶Ð¸Ð¼Ð°ÐµÑĪÑĮ
ĠÑĢÐ°Ð·Ð»Ð¸Ñĩ
ĠÑĢÐ°Ð·Ð»Ð¸ÑĩÐ¸Ñı
Ð¿ÑĢÐ¸Ð³Ð»Ð°Ñģ
Ð¿ÑĢÐ¸Ð³Ð»Ð°ÑģÐ¸
ĠÑģÑĤÐ¾ÑĢÐ¾Ð½Ðµ
ĠÐ²ÐµÐ·Ð´Ðµ
ĠÐ½ÐµÐ±Ð¾Ð»ÑĮÑĪ
ĠÐ½ÐµÐ±Ð¾Ð»ÑĮÑĪÐ¾Ð¹
ĠÐ¼Ð¸Ð»Ð¸ÑĨÐ¸Ð¾Ð½
ĠÐ¼Ð¸Ð»Ð¸ÑĨÐ¸Ð¾Ð½ÐµÑĢ
ĠÐ¾ÑĪÐ¸Ð±ÑģÑı
ĠÐ±Ð°ÑĢÐ±Ð¸
ÐºÐ»Ð¸Ð¿
ĠÐ¾ÑĦÐ¸Ñģ
Ð¼Ð¾Ð¸
ĠÑĥÐ³ÑĢÐ¾Ð¶Ð°ÑĤÑĮ
ĠÑĤÑĥÐ¿ÑĭÐµ
ÑĳÐ·Ð´
Ð²ÑĭÐ¿Ð¸Ð»Ð°
ĠÑģÑĤÑĢÐ°Ð´
Ð¿ÑĢÐ¾ÑħÐ¾Ð´
Ð¿ÑĢÐ¾Ð¸Ð·Ð²Ð¾Ð´
ĠÐ¿ÑĢÐ¾Ð¸Ð·Ð²ÐµÐ´
ĠÑĪÑĥÑĩ
ĠÑĪÑĥÑĩÑĥ
ĠÑģÑĥÑĤÑĮ
ĠÐ¿ÐµÑĢÐµÐ¶Ð¸Ð²Ð°Ñİ
ĠÑĢÐ°ÑģÑģÑĤÐ¾ÑıÐ½Ð¸Ðµ
ĠÑģÐºÑĢÐ¸Ð¿
Ð¿ÑĢÐµÐ¿Ð°ÑĢÐ°ÑĤ
ĠÐ°Ð¿ÑĤÐµÐºÐµ
ĠÐ³ÑĢÑĥÐ·
ÑİÑĪÐ°
ĠÑĨÐ²ÐµÑĤÐ¾Ð²
ĠÐ´ÐµÐ¶ÑĥÑĢÑģÑĤÐ²Ð¾
ĠÐ¿ÐµÐ½ÑģÐ¸Ð¾Ð½ÐµÑĢÑĭ
Ð²Ð¾ÐµÐ½Ð½Ð¾Ð³Ð¾
Ð°Ð½Ð½Ð¾Ðµ
ĠÐ¿Ð¾Ð½ÑıÑĤÐ¸ÑıÐ¼
ĠÐ¿Ð¾Ð¼Ð½Ð¸ÑĤÑĮ
Ð¸Ð½Ð¸ÑĨÐ°
ĠÑįÑĦÐ¸ÑĢÐµ
ĠÐ·Ð°Ð¿Ð¾Ð¼Ð½Ñİ
ĠÐ²ÑĭÑĤÑĢ
ĠÐ²ÑĭÑĤÑĢÐµÐ·Ð²
ÑĩÐµÐ¼Ð¿Ð¸Ð¾Ð½Ð°ÑĤ
ÑĦÐµÑĢÐµÐ½
Ð¼Ð¾Ð»Ð¾Ð´Ð°Ñı
ĠÐ³Ð²Ð°ÑĢÐ´
ĠÐ¼ÑĭÑĤÐ¸
ĠÐ¼ÑĭÑĤÐ¸Ñī
ĠÐ¿Ð¾Ð½ÑĤÑĭ
ĠÐºÐ¸Ð½Ð¾ÑĦÐ¸Ð»ÑĮÐ¼
ĠÐ¿Ð¾ÐµÑħÐ°Ð»
ĠÑĢÐ°ÑģÑĤÑĳÑĤ
Ð²Ð°Ð¶Ð½Ð¾
ĠÐ¾ÑģÑĤÐ°Ð»Ð¸ÑģÑĮ
ĠÐ´Ð°Ð»ÑĮÐ½ÐµÐ¹
ĠÐ´Ð°Ð»ÑĮÐ½ÐµÐ¹ÑĪÐµÐµ
Ð²ÑĭÑĪ
ÑĤÑĥÑģ
ÑĩÐ°ÑĢ
Ð¿ÑĢÐ¸Ð»Ð¾Ð¶ÐµÐ½Ð¸Ðµ
Ð¾Ð³Ñĥ
ĠÐ²ÑĭÐ¿Ð¸Ð²Ð°Ñİ
Ð²Ð°Ð»ÐµÑĢÐ°
ÐµÐ½Ð½Ð¾ÑģÑĤÑĮ
ĠÐ¾ÐºÑĢÑĥÐ³Ð°
ĠÐ²Ð¾ÑĢÐ¾Ð²Ð°ÑĤÑĮ
ĠÐºÐ¾Ð½ÑģÑĤÑĢÑĥÐº
ĠÐºÐ¾Ð½ÑģÑĤÑĢÑĥÐºÑĤÐ¸Ð²
ÑĢÑĭÐ²Ð°ÐµÑĤÑģÑı
ĠÑĦÐ¾ÑĢÐ¼Ð°
Ð½Ð¾ÑĢÐ¼Ð°Ð»ÑĮÐ½ÑĭÐ¹
Ð³ÑĢÑĥÐ±
ĠÑĩÐ¸ÑĤÐ°ÐµÐ¼
Ð´Ð¾Ð¼Ð¾Ð¹
ĠÐ¿ÑĢÐ¸ÐµÐ·Ð¶Ð°Ð¹ÑĤÐµ
ĠÐ¼ÐµÑĢ
ÑģÐ¸Ð»ÑĮÐ½Ð¾
ĠÐ´Ð°ÐµÑĤ
ĠÑĤÑĥÐ°Ð¿
ĠÑĤÑĥÐ°Ð¿ÑģÐµ
ĠÐºÐ¾ÑĢÐ¾Ð»ÐµÐ²
ÑĥÑģÑĤÐ°Ð½Ð¾Ð²Ð¸
Ð´Ð°Ð»Ð¸
ĠÐ³Ð¾Ð»Ð¾Ð´
ĠÐ³Ð¾Ð»Ð¾Ð´Ð½ÑĭÐ¹
ÑĢÐ°Ð·Ð²
ĠÐºÐ»ÑĥÐ±Ð°
ÑīÑĥÐº
ĠÐ¾Ð±Ð¾Ñģ
ĠÑģÐ¸Ð´ÐµÐ»Ð¸
ÐºÐ°ÑĢÑĤÑĭ
ÑĦÐ°Ð¼Ð¸Ð»Ð¸Ñİ
Ð¸Ð´Ð¸Ð¼
ĠÐ¿Ð¸Ðº
ÑĥÐ½Ð¸
ĠÐ¾ÑĤÐºÑĢÑĭÑĤ
ĠÐ¿Ð¾Ð¿Ð°Ð´Ð°ÑİÑĤ
Ð´Ð²Ð¸Ð¶ÐµÐ½Ð¸Ðµ
ĠÐ¿ÑĥÐ½ÐºÑĤÑĥ
Ð°ÑĨÐ¸Ð¾Ð½Ð½ÑĭÐ¹
ĠÑĨÐ°ÑĢÑİ
ĠÐ»ÑİÐ±Ð¸Ð¼Ð¾Ð¹
Ð¾Ð¼ÐµÐ´
ĠÐ¶Ð°ÑĢÐ¸ÑĤÑĮ
ĠÐ¿ÐµÐ½ÑģÐ¸Ñı
ĠÑĨÐ¸ÐºÐ»
ĠÐ´ÑĥÐ³
ĠÑĤÐµÐ»ÐµÐ²Ð¸Ð´ÐµÐ½Ð¸Ðµ
ĠÐ±Ð°Ð±ÑĥÑĪÐºÐ¾Ð¹
ĠÐ¾Ð±ÑīÐ°Ð»Ð¸ÑģÑĮ
Ð¾ÐµÑħÐ°Ð»
ÐºÐ°Ð¼Ð½Ð¸
ĠÐ°Ð»ÑĮÐ±Ð¸Ð½Ð°
ÑĢÐ¾Ð²ÑģÐºÐ¸Ð¹
ĠÐ¿ÑĢÐ¸Ð·Ð½Ð°Ð²Ð°ÑĤÑĮ
ÑģÐºÐ°Ð·Ð°ÑĤÑĮ
ĠÐ½Ð¸Ð½Ð°
Ð½ÑıÐºÐ¾Ð²Ð°
ĠÑıÐºÑĥÑĪ
ĠÑħÐµÑĢÐ½
ĠÑħÐµÑĢÐ½Ñĳ
ĠÑħÐµÑĢÐ½ÑĳÐ¹
ĠÐ·Ð½Ð°ÐºÐ¾Ð¼Ð¸ÑĤÑĮÑģÑı
ĠÐ¿Ð¾Ð·ÐµÑĢ
ĠÐ¿ÐµÑĢÐµÐ¿Ð¸ÑģÑĭÐ²Ð°ÐµÑĪÑĮÑģÑı
ĠÐ¾ÑĢÐ³Ð°Ð½Ð¸Ð·Ð°ÑĨÐ¸Ñı
ĠÐºÐ¾Ð½ÐºÑĢÐµÑĤÐ½Ð¾Ð³Ð¾
ĠÑģÑĤÑĢÐ°ÑħÐ°
ĠÐ´ÑıÐ´Ñİ
ĠÑĥÐ²Ð¸Ð´ÐµÐ»Ð°
ĠÑģÐµÑĤ
ĠÐ´Ð°Ð²Ð»ÐµÐ½Ð¸Ðµ
Ð¿Ð¾Ð·Ð²Ð¾Ð½Ð¸Ð»Ð¸
ĠÑĢÐ¾Ð´Ð½Ð°Ñı
ĠÑıÐ±Ð»
ÑĪÐµÑĢ
ĠÐ½Ð°Ð¿Ð¸ÑģÐ°Ð½Ð¸Ðµ
Ð²Ð¿ÐµÑĢ
Ð²Ð¿ÐµÑĢÐ²ÑĭÐµ
ĠÐ¶Ð¸Ð²Ð¾Ð³Ð¾
ĠÐ¿Ð¾ÑģÑĤÑĥÐ¿Ð¸Ð»Ð°
ĠÑĩÑĳÑĢÑĤ
ĠÐºÐ¾Ð½ÑĤÑĥÑĢ
ĠÑģÐ°Ð»ÑİÑĤ
ĠÐ²ÑģÐµÐ²
Ð°Ð´ÐµÐºÐ²Ð°ÑĤÐ½Ð°Ñı
ĠÑĢÑĥÐ³Ð°ÑİÑģÑĮ
ĠÐ¿Ð¾Ð¼ÐµÐ½ÑıÑĤÑĮ
Ð´ÑĢÐ°ÐºÐ°
ĠÐ¿Ð¾Ð¹Ð¼Ð°ÑĤÑĮ
Ð·Ð°Ñī
ÑĥÐ±ÑĢÐ°ÑĤÑĮ
Ð°Ð»Ð¼
ĠÐ¿ÑĢÐ¾ÐºÑĥÑĢÐ¾ÑĢÐ°
Ð²Ð½ÑĥÐºÐ¾Ð²Ð¾
ĠÐ¿ÑĢÐ¸ÑĪÐ»Ð¾
ĠÐ¾ÐºÐ°Ð·Ð°Ð»ÑģÑı
Ð½Ð°ÑģÐºÐ¾Ð»ÑĮÐºÐ¾
ĠÐ¿Ð¾ÑħÐ¼ÐµÐ»
ĠÑģÐ°Ð¼Ð¾Ð»ÐµÑĤÐ¾Ð¼
ĠÐ±Ð¾Ð»ÑĮÐ½Ð¾Ð³Ð¾
ĠÐ¿Ð¾ÑģÐ°Ð´Ð¸Ð»Ð¸
ĠÐ¸Ð²Ð°Ð½Ð°
ĠÑĥÑĦÐ°
Ð¿Ð¾Ð´Ð¿Ð¸Ñģ
ÐºÐ°Ð¼ÐµÑĢÐ°
ĠÐ¾Ð±Ð¾ÑĢÐ²Ð°Ð»
ĠÐ¾Ð±Ð¾ÑĢÐ²Ð°Ð»Ð¾ÑģÑĮ
ĠÑħÐ°ÑģÐ°Ð½Ð°
ĠÐºÑĢÑĥÐ³Ð»Ð°Ñı
ĠÐ¶ÐµÐ½ÑīÐ¸Ð½Ð¾Ð¹
ĠÐ¿Ð¾ÑĩÑĤÐ°
ĠÐ¿ÑĢÐ¸Ð±ÑĥÐ´ÐµÑĤ
ÑİÐ·Ð¸
ĠÐºÐ¾Ð²ÑĢÐ¾Ð²
ĠÐ¿ÐµÑĢÐµÐ´Ð°Ð»Ð¸
ĠÑİÑĢÑĮÐµÐ²Ð¸Ñĩ
ĠÐ´ÑĥÐµÑĤ
ĠÑĤÐ°ÑĢÐ°ÐºÐ°Ð½Ð¾Ð²
Ð°Ð½ÑģÐºÐ¸Ð¹
ÐµÐ»Ð°ÑģÑĮ
ĠÑģÐ²Ð¸Ð´ÐµÑĤ
ĠÐ°ÐºÐ±Ð°ÑĢ
Ð·Ð´ÑĢÐ°Ð²ÑģÑĤÐ²ÑĥÐ¹
ĠÑģÐ¼ÐµÑĪÐ½ÑĭÐµ
ĠÐºÑĢÐ¾Ðº
ĠÐºÑĢÐ¾ÐºÐ¾Ð´
ĠÐ¿Ð¾Ð³ÑĢÐ¾Ð¼
Ð¿ÐµÑĢÐ¼
ĠÐºÐ¾Ð»Ð»ÐµÐºÑĤÐ¾ÑĢ
ĠÑģÑĤÐ¾Ð¸ÑĤÑĮ
ĠÐ²Ð¸ÑģÐ¸ÑĤ
ÑĢÐ°Ð·Ð¾Ð±ÑĢÐ°ÑĤÑĮ
ĠÐ²Ð¾Ð½ÑıÐµÑĤ
Ð¿ÐµÑĢÐµÑĥÐ»Ð¾Ðº
ĠÐ¿ÑĢÐ¾ÐºÐ¾Ð»
Ð»ÑĭÐµ
ÑĤÐµÐ»ÐµÐ¿ÑĢÐ¾Ð³ÑĢÐ°Ð¼Ð¼Ð°
ĠÐ²ÑĭÑĢÐ°Ñī
ĠÑħÐ°ÑĢÐ»Ð°Ð¼
ĠÐºÐ°ÑĢÐ°Ð±
ÑĢÐ¸Ð±Ð°Ð½Ð°
Ð¿Ð¾ÑĪÐ»Ð¸
ĠÑģÐ½Ð¾Ð²Ð°
ĠÑĥÑģÐ»ÑĭÑĪÐ°Ð»Ð¸
Ð¾ÑĤÐ²ÐµÑĩÐ°Ñİ
ĠÐ²Ð°Ð½Ñı
ĠÑħÐ¾Ð´ÑıÑĩ
ĠÑħÐ¾Ð´ÑıÑĩÐ¸Ðµ
ĠÑĢÐ°Ð·Ð±ÐµÑĢÐµÐ¼ÑģÑı
ĠÑĦÑĥÐ½ÐºÑĨÐ¸Ñı
ĠÐ¿Ð»Ð°Ð²Ð°ÑĤÑĮ
ĠÐ¼Ð¾ÑĢÐ¾Ð·
ÐµÐ»Ð¸Ñĩ
ĠÐ¿ÑĢÐ¸ÑĩÐ¸Ð½
ĠÐ´Ð¾Ð½Ð¸Ð¼Ð°ÑĤÑĮ
ĠÐ·Ð°Ð²ÑĤÑĢ
ĠÐ·Ð°Ð²ÑĤÑĢÐ°Ðº
ĠÐ¼ÐµÑĢÑĭ
ÐµÐ¿ÐµÑĨ
ÑģÐ¾Ð±Ð°ÐºÐ°
Ð¾ÑĢÐ°Ð·
Ð¾Ð¿ÐµÑĢÐ°
Ð¾Ð¿ÐµÑĢÐ°ÑĤÐ¾ÑĢÑĭ
ĠÐ²Ð·ÑıÐ»Ð°ÑģÑĮ
ĠÑĤÐµÑħÐ½Ð¾Ð»Ð¾Ð³
Ð¶ÐµÐ½ÑģÐºÐ°Ñı
ĠÐ¿ÑĢÐ¸Ð½ÑĨÐµÑģÑģÐ°
ĠÑĢÐ°ÑģÑģÐºÐ°Ð¶
ĠÑĢÐ°ÑģÑģÐºÐ°Ð¶ÐµÑĤ
ĠÐ¿ÑĢÐ¸Ð¼ÐµÐ½
ĠÑĤÐ°Ñģ
ĠÑĤÐ°ÑģÐºÐ°ÑĤÑĮ
ĠÐ¿Ð¾Ð»ÐµÑĤÐµÐ»
ĠÐ¾ÑĤÐ´Ð°ÑĤÑĮ
ĠÑģÑĤÐ°ÑĤÑĮÐµ
Ð¿Ð¾Ð²ÑĭÐµ
ĠÐ¿Ð¸Ð²Ð°
ÐµÐ½ÑģÐºÐ¸Ð¹
ĠÐ¼Ð¾Ð·Ð³Ð°
Ð½Ð°Ð¿Ð¸ÑģÐ°Ð»Ð°
ĠÐ´Ð¶Ð¸Ð³
ĠÑģÐ°Ð¼Ð¾Ð»
ĠÑģÐ°Ð¼Ð¾Ð»ÑĳÑĤ
ĠÐ»ÑĳÐ´
ĠÐ¶ÐµÑģÑĤÐ¾ÐºÐ¾
ĠÐ·Ð²Ð¾Ð½Ð¸ÑĤÑģÑı
ĠÐ¸Ð·ÑĥÑĩ
ÑħÐ²
Ð°ÑĩÑĥ
ĠÐ½ÐµÐ¿ÑĢÐ¾ÑģÑĤÐ¾
ĠÐ±Ð¾Ð»Ð¸
ĠÑĦÑĢÐ°
ĠÑĦÑĢÐ°ÐµÑĢ
ĠÑģÐ´Ð°Ð»
ÑģÐ»ÑĥÑĪÐ°Ñı
ĠÐºÐ¾Ð·Ð°
Ð»ÑİÑĩÐ¸ÑĤ
Ð»ÑİÑĩÐ¸ÑĤÐµÐ»ÑĮÐ½Ð¾
ĠÐ½Ð°ÑģÑĤÐ°Ð»
ĠÑģÐ¸Ð½Ð¾Ð½Ð¸Ð¼
ĠÐ¿Ð¾Ð·Ð´ÑĢÐ°Ð²Ð¸Ð»Ð¸
ĠÑĢÐ°Ð·Ð¾Ð±
ĠÐ¿ÑĢÐ¾ÐºÐ¾Ð½
ĠÐ¿ÑĢÐ¾ÐºÐ¾Ð½ÑģÑĥÐ»ÑĮÑĤÐ¸ÑĢÑĥ
ĠÐ¿ÑĢÐ¾ÐºÐ¾Ð½ÑģÑĥÐ»ÑĮÑĤÐ¸ÑĢÑĥÑİÑģÑĮ
Ð½ÐµÑĥÐ¶ÐµÐ»Ð¸
ÑĥÑĤÐ¸Ð»
ĠÐ»Ð°Ð³
ĠÐ¿ÑĢÐµÐ»ÐµÑģÑĤ
ĠÐ²ÐµÐ»Ð¸ÐºÐ¾Ð»ÐµÐ¿Ð½Ð¾
ĠÐ»Ð°Ñģ
ĠÐ½ÐµÐºÑĢÐ°ÑģÐ¸Ð²ÑĭÐ¹
ĠÐ¿ÑĢÐµÐ´ÐµÐ»
ĠÐ¿ÑĢÐ¾Ð½Ð¸Ðº
ĠÐ´Ð²Ð¾ÑĢÐµÑĨ
ĠÐ¾ÑĤÑģÑĤÐ°Ð²
ĠÐ¾ÑĤÑģÑĤÐ°Ð²ÐºÐµ
ÑĦÐ¾ÑĢÐ¼Ð¸ÑĢÑĥ
Ð¾ÑĢÐ¾ÑĪÐ¸Ð»
ĠÐºÑĢÐ¸ÑģÑĤÐ¸
Ð½Ð¸ÐºÑĥ
ĠÐ±Ð°Ð±Ð»Ð°
ĠÐ³Ð¾Ð»ÑĥÐ±ÑĮ
ĠÐ»ÑĳÑħÐ°
ĠÐ·Ð°ÐµÐ±ÑĭÐ²Ð°ÐµÑĤ
ÐµÐ´Ð½ÑĭÐ¹
ĠÑĥÐµÐ´ÐµÑĤ
ÑĤÐ²ÐµÑĢÐ´
ĠÐµÐ²ÑĢÐµ
Ð°ÑĤÐ¾Ð³Ð¾
ĠÑģÐ¾ÑģÐµÐ´Ð¸
ÑİÑĢÐµ
Ð¼Ð°Ð¹Ð¾ÑĢ
ĠÐ´Ð¾Ð±ÑĢÐ¾
ĠÑĥÐ¼ÑĢÑĥ
ĠÐ´ÑĥÑĢÐ°ÐºÑĥ
ĠÐ±Ð¾Ð»ÑıÑĤ
ĠÑĢÑĥÐ±Ð»ÑıÑħ
ĠÐ¿Ð¾Ð»ÑĥÑĩÐ°Ð»
ĠÐ±Ð°ÑĢÐ½Ð°ÑĥÐ»
Ð°Ð¼ÐµÑĤ
ĠÐ»Ð°Ð¼
ĠÐ¼Ð¾ÑĢÐ°Ð»ÑĮÐ½Ð¾
ĠÐ»ÑĥÑĩÑĪÐ¸Ðµ
ĠÑģÐ»Ð¾Ð¼Ð°ÑĤÑĮ
ĠÐ¿Ð¾Ð¿Ð¾Ð»Ð°Ð¼
ĠÐ¾ÑĤÐ¿ÑĢÐ°Ð²Ð¸Ð»Ð¸
ĠÐ¾Ð¿Ð¾Ð·
Ð¼Ð¸Ð½Ð¸ÑģÑĤÑĢ
ĠÐ¿Ð¾Ð±Ð»Ð¸
ĠÐ¿Ð¾Ð±Ð»Ð¸Ð¶Ðµ
ÑĥÑģÑĤÑĭ
ĠÐ´Ð°ÑĩÐ¸
ĠÑĢÐ°Ð·ÑĢÐ°Ð±Ð¾ÑĤ
ĠÐ´ÑĢÑĥÐ¶Ð±Ð°
ĠÐ²ÑĭÐ´ÐµÑĢÐ¶
ĠÐ±Ð°Ð½ÐºÐ¾Ð¼Ð°ÑĤÑĥ
Ð²ÐºÐ»ÑİÑĩÐ¸ÑĤÑĮ
ĠÐºÑĥÑģÐ¾Ðº
Ð¸Ð½Ð³ÑĤÐ¾Ð½
ĠÐ»ÑĥÐ½Ð¾
ĠÐ»ÑĥÐ½Ð¾ÑħÐ¾Ð´
ĠÐºÑĢÐ¸Ð²
Ð°ÑİÑīÐµÐ³Ð¾
ĠÑģÑĤÑĢÐ°ÑħÐ¾Ð²
ĠÐ¿ÑĢÐ¾Ð¿Ð¸Ð»
ĠÐ¼Ð¾Ð´ÐµÐ»ÑĮ
ĠÐ´ÐµÐ±Ð¸Ð»Ð¾Ð¼
Ð´Ð°Ð½Ð°
ĠÐ»ÑİÐ±Ð¸Ð¼Ð¾Ðµ
ĠÐ·Ð°ÑģÑĤÐ°Ð²Ð¸ÑĤÑĮ
ĠÑħÐ²Ð¾Ð¹
ĠÐ°Ð½Ð°ÑģÑĤÐ°ÑģÐ¸Ñı
ÑĦÐ¾ÑĢÐ¼Ð°ÑĤ
ĠÐ¿ÑĢÐ¾Ð´Ð°ÑĳÑĤÑģÑı
ĠÑĩÐµÑĢÐ´Ñĭ
ÑģÑįÐ¼ÑįÑģÐºÐ¸
ĠÐ¾ÐºÐ½Ð°
ĠÐ±Ð»ÐµÑģÑĤ
ÑĩÐ°Ð¹
ĠÐ³ÑĢÑĥÐ±Ð¾
ĠÐºÐ¾ÑĢÐ¾Ð»ÐµÐ²Ð°
ÑģÐ²Ð¾Ð¹
ĠÐ´Ð¾ÐºÐ°Ð·ÑĭÐ²
ĠÐ¿Ð¾Ð´ÑĢÐ°Ð±Ð°ÑĤ
ÑĭÐ²Ð°Ð»Ð°
ĠÐ¸Ñİ
Ð¾ÑĢÐ³Ð°Ð½Ð¸Ð·
ĠÐ¿Ð¾Ð²ÑĭÑĪ
Ð¿ÑĢÐ¾Ð²ÐµÑĢÐ¸ÑĤÑĮ
ĠÐ²ÑĭÐµÐ·Ð¶
ĠÑģÐºÐ¸Ð½ÑĥÐ»
ĠÐ¾Ð¿Ð»Ð°ÑĤÐ°
ĠÐºÐ°ÑĤÐ¾Ðº
ĠÐ¿Ð¾Ð¹Ð¼ÑĳÑĪÑĮ
ĠÐ¼Ð¾ÑĢÐ´Ñĥ
ĠÑĥÐ³Ð°Ñģ
ĠÑĥÐ³Ð°ÑģÐ½ÐµÑĤ
ĠÐ¿Ð¾ÑħÐ¾Ð¶Ð¸Ð¼
Ð¼Ð¾Ð½Ð´
ĠÐ³ÑĥÐ³Ð»
ÑıÐ¼Ð¸
ĠÑıÑĢÐ¸Ðº
Ð¸Ð·Ð½ÐµÑģ
Ð¾Ð³Ð½Ð°ÑĤÑĮ
ĠÑıÐ±Ð»Ð¾Ðº
ĠÐ¾ÑģÑĤÑĢÐ¾Ð²
Ð±Ð¸Ð½Ð°
ÑĢÐ¾Ð»Ð¸Ðº
ĠÑģÑĤÐµÐ½
ĠÐ´Ð¾ÑģÐ»ÑĥÑĪ
ĠÐ´Ð¾ÑģÐ»ÑĥÑĪÐ°Ð¹
Ð·Ð½Ð°Ðº
Ð´ÐµÐ²Ð¾ÑĩÐºÐ°
Ð¼Ð°ÑĪÐ°
ĠÐ·Ð°ÑģÐ»ÑĥÐ¶Ð¸Ð»
ĠÐºÐ¾ÑĦÐµ
ĠÐµÐ»ÐµÐ½Ð°
Ð¿Ð¾Ð±ÐµÐ´
ĠÐ°Ð½Ð½Ð°
Ð¿ÑĥÐ³
ĠÐ´ÐµÐ»Ð°ÐµÐ¼
ĠÐ·Ð°ÑıÑĨ
Ð¿Ð¾Ð¿ÑĢ
ÑģÐ¾Ð±Ð¸ÑĢ
ÑģÐ¾Ð±Ð¸ÑĢÐ°ÑİÑģÑĮ
ÑģÑĢÐ°Ð²
ÑģÑĢÐ°Ð²Ð½Ð¸ÑĤÑĮ
ĠÐ²Ð½ÑĥÐº
ĠÐºÐ¾Ð¼Ð¸ÑĤ
ĠÐºÐ¾Ð¼Ð¸ÑĤÐµÑĤÐ°
ĠÐ¿ÑĢÐ¸ÑģÑĤÐ°Ð²ÐºÐ¸
ĠÐ¿Ð¾Ð´Ð¿Ð¸ÑģÐ°Ð»
ÑħÑĥÐ´
ĠÑĢÐ°ÑģÐ¿Ð¸ÑģÐ°Ð½Ð¸Ðµ
Ð¿ÐµÑĢÐµÐ¿
ĠÐ¸ÑģÑĤ
ĠÐ³Ð¸Ð³Ð°Ð½ÑĤ
ĠÐ²Ð¾Ð¹ÑĤÐ¸
ĠÐ¿Ð¾ÐµÑĤ
ĠÐ½ÐµÐ¼ÐµÑĨÐºÐ¾Ð¼
ĠÐ·Ð°Ð¿Ð»
ĠÐ³Ð½Ð¾Ð¹
ĠÐ³Ð½Ð¾Ð¹Ð½ÑĭÐ¹
Ð¸Ð²Ð°ÐµÐ¼ÑģÑı
ÐµÐ¼ÐµÐ¹
ĠÑģÐºÑĢÑĭÑĤÐ¾Ðµ
Ð´Ð¾Ð¼Ð°ÑĪ
Ð´Ð¸Ð¼
ÑĢÐ¾ÑģÑĤÐºÐ¸
ÐºÐ²Ð°Ð´ÑĢÐ°ÑĤ
ĠÐ¾Ð±ÑīÐµ
ĠÑģÑĤÐ°Ð½Ð¾Ð²
ĠÐ±ÑĢÐ°Ðº
Ð¼ÑĢ
Ð¼ÑĢÑĤ
ĠÑģÐ¿ÑĢÐ°ÑĪÐ¸Ð²Ð°ÑİÑĤ
ÑįÐºÐ¾
ĠÐ¼Ð¸Ð½Ð¸Ð¼Ð°Ð»ÑĮÐ½Ð°Ñı
ĠÑĤÐ°ÑĤÐ°ÑĢ
ĠÑģÐ¸ÑģÑĤÐµÐ¼Ñĥ
ĠÐ¿Ð¾ÑĳÑĤ
ĠÐ¿ÑĢÐ¾Ð²ÑĳÐ»
ĠÑģÐ¾Ð·Ð²Ð°Ð½
ĠÐ¿ÑĢÐµÐ´Ð»Ð¾Ð¶Ð¸ÑĤÑĮ
ĠÐ²Ð¾Ð»Ñı
ĠÐ¿ÐµÑĢÐµÐ´ÐµÐ»
ÑĨÐµÑĢÐºÐ¾Ð²
ĠÐ¿Ð¸ÑĢÐ¾Ð³Ð¸
ĠÐ»ÑİÐ±Ð¾Ð¼Ñĥ
ĠÐ¿Ð°ÑĢÐ¾Ð¼
ĠÐ¾Ð±Ð½Ð°Ð¶
ĠÐ°ÑĥÐ´Ð¸ÑĤÐ¾ÑĢ
ĠÐ°ÑĥÐ´Ð¸ÑĤÐ¾ÑĢÐ¸Ð¸
Ð°Ð²Ð°Ð»Ð°
ĠÑĤÐ²Ð°ÑĢÐ¸
ÐµÐ³Ð°Ð»Ð¸
ĠÐ¿Ð¾Ð±ÑĢ
ÑģÑĤÐ¸ÑħÐ¸
ĠÐ·Ð½Ð°Ð¼ÐµÐ½Ð¸ÑĤ
ĠÐ·Ð½Ð°Ð¼ÐµÐ½Ð¸ÑĤÐ¾Ð¼
ĠÐºÐ¾Ð¿ÐµÐ¹
ĠÐ°Ð½Ð°Ð½Ð°Ñģ
Ð»ÑİÐ±Ð¸ÑĤÐµÐ»Ð¸
ĠÐ¾ÑĤÐ´ÑĭÑħÐ°
ĠÑĢÐ°Ð·Ð²Ð»ÐµÑĩÐµÐ½Ð¸Ñı
ĠÐ¾Ð¿ÑĭÑĤÐ½ÐµÐ¹
ĠÐ¾Ð¿ÑĭÑĤÐ½ÐµÐ¹ÑĪÐ¸Ð¹
ĠÑħÐ²Ð¾ÑģÑĤÐ¾Ð²
ĠÑħÐ²Ð¾ÑģÑĤÐ¾Ð²Ð¸ÐºÐ¾Ð¼
ĠÐ·Ð°ÑĤÐµÐ¹Ð½Ð¸ÐºÐ¾Ð²
ĠÑįÐ²
ĠÑįÐ²ÐµÐ½ÐºÐ¸
ĠÑĤÐ¾ÑĢÐ³
ĠÐ½Ð°ÑĢÐºÐ¾ÑĤÐ¾Ð¹
ĠÐ»ÑİÐ±Ð²Ð¸
Ð¾Ð³Ð¾Ð²Ð°ÑĢÐ¸Ð²
ĠÐ·Ð°Ð¿Ð»Ð°ÑĤÐ¸Ð»
ĠÑģÐ¾ÐµÐ´Ð¸Ð½Ñİ
ĠÐ¼Ð¸Ð½ÑĥÑĤÐºÑĥ
ĠÐ°Ð½Ð´ÑĢÐµÑı
ĠÐ¿ÑĢÐµÑģÑĤÐ°ÑĢ
ĠÐ¿ÑĢÐµÑģÑĤÐ°ÑĢÐµÐ»ÑĭÑħ
ĠÐ¿ÐµÑĢÐµÑĩÐ¸ÑģÐ»Ð¸ÑĤÑĮ
ÑĪÐºÐ¾Ð»
ĠÑĢÐ°Ð·Ð²Ð¸ÑĤ
ĠÑĢÐ°Ð·Ð²Ð¸ÑĤÐ¸Ñı
ÑĦÐ¸Ð·
Ð½Ð°ÑĩÐ°Ð»
ĠÑĩÑĳÑĢÐ½Ð¾Ð¹
ĠÐ¼Ð°ÑģÐºÐµ
ĠÐ½Ð°ÑĤÑı
ĠÐ´Ð¸ÐºÑĤÐ¾ÑĦÐ¾Ð½
ĠÑĦÐ¾ÑĤÐ¾Ð³ÑĢÐ°ÑĦ
ĠÑģÑĤÐ¸Ð¼
ĠÑģÑĥÑĤÐºÐ¸
ĠÑĤÐ¾ÑĤÐ¾
ĠÑĥÐ¼ÐµÑİ
ĠÑĢÐµÑĪÐ¸Ð»Ð°
ĠÐ²Ð°Ð·
ĠÑģÐ°Ð¹
ĠÑģÐ°Ð¹ÑĤÐ°
ĠÐ¾Ð±ÑĢÐ°ÑīÐ°Ð¹ÑĤÐµ
ĠÐ¿Ð¾Ð½ÑıÐ»Ð¸
ĠÐºÐ°ÑĢÐ°Ð³Ð°Ð½
ĠÐºÐ°ÑĢÐ°Ð³Ð°Ð½Ð´Ðµ
ĠÐ¿Ð°ÑĢÐ°ÑĪÑĥ
Ð¸ÑĪÐµÑĪÑĮ
ĠÐ¿Ð¾ÑĤÐµÑĢÑıÐ»
ĠÐ¿Ð¾Ð´ÑħÐ¾Ð¶Ñĥ
ÑįÑħ
Ð¾Ð¿ÐµÐ´
Ð¿Ð¾Ð´ÑĢÑĥÐ¶
ĠÐ¾Ð±ÑīÐ°ÐµÑĤÐµÑģÑĮ
ĠÑģÐ¿ÑĢÐ°ÑĪÐ¸Ð²Ð°ÐµÑĤÐµ
ÑħÐ¾ÑĢ
ĠÐ²Ð»Ð°Ð´Ð¸Ð¼Ð¸ÑĢÐ¾Ð²Ð½Ð°
Ð¸Ð²Ð°ÑİÑĤÑģÑı
Ð¿ÑĢÐ¾ÑģÑĤÐ¸ÑĤÐµ
ĠÑħÐ°ÐºÐµÑĢÑĭ
ĠÑģÐ¼Ð¾Ð³Ð»Ð°
ÐºÐ¾ÑĤÐ¾Ð²
ĠÑĢÐµÑģÐ¿ÑĥÐ±Ð»Ð¸Ðº
ÐºÑĢÐ¸ÑģÑĤ
ÐºÑĢÐ¸ÑģÑĤÐ¸Ð½Ð°
Ð¸Ð½Ð°Ð»Ð¸
ĠÐ½Ð°Ð±Ð¸ÑĢÐ°Ñİ
ĠÑģÑĤÐ°Ð½ÑĨÐ¸Ð¸
Ð¾ÑģÑĭ
ĠÐ²ÑĢÐ°ÑĩÐ¸
ÑĢÐ°ÑģÑĤ
ĠÐ¾Ð¿ÑĢÐ°Ð²
ĠÐ¾Ð¿ÑĢÐ°Ð²Ð´
ĠÑĢÐ°Ð±Ð¾ÑĩÐµÐ¼
Ð°Ð½Ð°ÑĤÐ¾Ð¼
ĠÐ¿ÑĥÐ·Ñĭ
ĠÐ¿ÑĥÐ·ÑĭÑĢÐµÐº
ĠÐ²ÑĭÐ·ÑĭÐ²Ð°Ð»Ð¸
ĠÑĤÐ¸ÑĤÐ°Ð½
Ð¿Ð¾Ð²ÑĤÐ¾ÑĢÐ¸
Ð°Ð¿ÑĤ
Ð¸Ð·Ð±
ĠÐ¿ÑĢÐ¾ÑĪÐ»ÑĭÐ¹
ĠÐ³Ð¾ÑĢÐ¾Ð´Ð¾Ð²
ĠÐ±ÑĥÐ´ÑĮÑĤÐµ
ĠÐµÐ´ÑĮ
Ð¶Ð´Ñĥ
ĠÐ½Ð¾Ð²Ð¾Ð¹
ĠÐ¿Ð»Ð°Ðº
Ð·Ð°ÐºÑĢÐ¾Ð¹
ĠÐ»Ð¾ÑĪ
ĠÑĥÑģÐ»Ð¾Ð²Ð¸Ñı
ÑįÐ»ÑĮÐ±
ÑįÐ»ÑĮÐ±ÑĢÑĥÑģ
ĠÐ¿Ð¾ÑģÑĩÐ¸ÑĤÐ°Ñİ
Ð²ÑĭÑģÐ¾Ðº
ĠÐ³ÑĢÑıÐ·Ð½ÑĭÐ¹
ÑħÐ¾Ð´ÑıÑĤ
Ð¿ÑĢÐ°Ð·
Ð¿ÑĢÐ°Ð·Ð´
ĠÐ¿Ð¾Ð±ÐµÐ´Ñĭ
ĠÑģÑĤÐ°ÑĢÑĪ
ĠÐ½Ð°ÑģÑĤÐ¾Ð»ÑĮÐºÐ¾
ĠÑģÐ°ÑħÐ°Ð»
ĠÑģÐ°ÑħÐ°Ð»Ð¸Ð½
ÑıÐ¿Ð¾Ð½
Ð¿ÑĢÐµÑģÑĤ
Ð¿ÑĢÐµÑģÑĤÐ¸Ð¶
ÐµÑģÐ½ÑĭÐ¹
ĠÐºÐ¾Ð¶Ñĥ
ĠÐ¿Ð¾Ð´Ð½Ð¸Ð¼Ð°Ñİ
ĠÐ¾ÑģÑĤÐ°Ð»ÑģÑı
ĠÑģÑĥÑĢ
ĠÑĤÐµÑĢÑĢÐ¾ÑĢÐ¸ÑģÑĤ
ĠÐ³ÑĢÐ¾Ð·Ð½ÑĭÐ¹
ĠÐ¼ÐµÑĩÑĤÐ°Ñİ
Ð¿Ð¾Ð¼ÐµÐ½Ñı
Ð¿Ð¾Ð¼ÐµÐ½ÑıÑĤÑĮ
ĠÐ³ÑĢÐ°Ð½Ð°ÑĤÑĥ
ĠÐ¿ÑĢÐ¾Ð³ÑĥÐ»ÑıÑĤÑĮ
ĠÐ¿ÑĢÐ¾Ð³ÑĥÐ»ÑıÑĤÑĮÑģÑı
ĠÐ¼ÐµÑĤÑĢÐ¾Ð¿
Ð¿ÑģÐ¸ÑħÑĥÐ¹
ĠÐ²ÐµÑĢÐ¸ÑĤÐµ
Ð²ÑĭÐ·Ð²Ð¾Ð½Ð¸ÑĤÑĮ
ĠÐ·Ð²Ð¾Ð½Ð¸Ð¼
ĠÐ¼Ð°ÑĢÐ¸Ñı
Ð¿Ð°ÑĪÐ°
Ð¿Ð¾Ð»ÑĮÐ·Ð¾Ð²
ĠÐ¿Ð¾Ð´ÑĥÐ¼Ð°ÐµÑĪÑĮ
ĠÑģÑĤÐ¾Ð¹
ÐµÐ½ÑĤÐ¸Ð½Ð°
Ð±Ð°ÑĢÐ±Ð¸
ĠÐºÑĥÐºÐ»Ñĭ
Ð¿ÑĢÑıÐ¼Ð¾Ð¹
ĠÐ¾Ð±ÑīÐ°ÑİÑģÑĮ
ÐµÑĢÐ°ÑĨÐ¸Ñı
ĠÐ±Ð¾Ð±
Ð¿ÑĢÐ¸Ð¼ÐµÑĢÑĭ
Ð·Ð°Ð¿ÑĥÑģÐº
Ð²Ðº
ĠÐ½Ð¾ÑĥÑĤ
ĠÐ½Ð¾ÑĥÑĤÐ±ÑĥÐº
ĠÐ¸ÑģÐ¿ÑĭÑĤ
ÐºÐ¾Ðµ
Ð½ÐµÑĥÐ¼
Ð½ÐµÑĥÐ¼ÐµÑģÑĤ
Ð½ÐµÑĥÐ¼ÐµÑģÑĤÐ½ÑĭÐµ
ÐµÐ²Ð¾Ð»Ñİ
ÐµÐ²Ð¾Ð»ÑİÑĨÐ¸Ñı
ÑĤÑĢÐµÐ±ÑĥÐµÑĤÑģÑı
ĠÑģÐ¼Ð¾Ð³Ñĥ
Ð¼ÐµÐ³Ð°ÑĦÐ¾Ð½
ÑĥÐ½Ð´
ÑĤÐ¸Ð¸
ĠÑģÐ¾ÑģÑĤÐ¾
ĠÑģÐ¾ÑģÑĤÐ¾Ñı
ĠÑģÐ¾ÑģÑĤÐ¾ÑıÐ½Ð¸
ĠÑģÐ¾ÑģÑĤÐ¾ÑıÐ½Ð¸Ð¸
ĠÑģÐ±Ð¾ÑĢÐ½Ð¸ÐºÐ¸
ĠÐ¸ÑĤÐ°Ð»ÑĮ
ĠÐ¸ÑĤÐ°Ð»ÑĮÑıÐ½
Ð³ÐµÐ½ÐµÑĢÐ°Ð»Ð°
ĠÐ±ÑĭÐ²Ð°Ð»Ð¸
ĠÑĥÐ²Ð¾Ð»ÑĮ
ĠÐ¿Ð¾ÑģÑģÐ¾ÑĢ
ĠÐ¿Ð¾ÑģÑģÐ¾ÑĢÐ¸Ð»Ð¸ÑģÑĮ
ÑĤÐµÑģÑĤÑĭ
ĠÐ¼Ð°ÑĤÐµÐ¼Ð°ÑĤÐ¸Ðº
ĠÐ²Ð¾Ð»Ð¾Ð´
ĠÐ·Ð°ÐµÐ´Ñĥ
ĠÑĥÐ³Ð»Ð¾Ð¼
ÐºÐµÐ¼ÐµÑĢ
ÑĢÑģÑĤ
ĠÑģÐ¾Ð²ÐµÑĤÑģÐºÐ°Ñı
ĠÐ½ÐµÐ¼ÑĨÐ¾Ð²
ĠÑĢÐµÐ³Ð¸ÑģÑĤÑĢ
Ð°ÑĤÑĥÑĢÑĭ
ÑĤÐ¾Ð»Ð¸Ðº
ĠÑĢÐ°Ð·ÑĢÐµÑĪÐ¸Ð»Ð¸
ÐµÐ»ÐµÑĨ
ĠÑģÐ²Ð¾Ð±Ð¾Ð´ÐµÐ½
ĠÐ±Ð¾ÑıÑĤÑģÑı
ĠÑģÐ¾Ð±Ð¸ÑĢÐ°Ñİ
Ð»ÑıÑİÑģÑĮ
ÐµÐ»Ð»Ð¾
ÑĥÑģÑĤÐ¾
ĠÐ²ÐµÑĩÐ½Ð¾
ĠÐ²Ð¾Ð·Ð¼Ð¾Ð¶Ð½Ð¾ÑģÑĤÑĮ
ÑģÑĤÐ°Ð½ÐµÑĤ
ÑıÑĤÐ¾Ð¹
Ð»Ð°Ð±
ĠÐ½Ð¸Ð¶Ð½ÑıÑı
ĠÐ±Ð°Ð»Ð°Ð½Ñģ
ĠÐ´ÐµÑĢÐµÐ²ÐµÐ½ÑīÐ¸Ð½Ð°
ĠÐºÐ²Ð½
Ð½Ð¾ÑĤÐ°ÑĢÐ¸
Ð½Ð¾ÑĤÐ°ÑĢÐ¸ÑĥÑģ
ĠÐ²Ð·Ð¾ÑĢÐ²Ð°Ð»
Ð²ÑģÑĤÑĢÐµÑĤÐ¸Ð¼ÑģÑı
Ð¿ÑĢÐ¾ÐºÐ»Ñı
Ð¿ÑĢÐ¾ÐºÐ»ÑıÑĤÑĭÐ¹
ĠÐºÐ¾Ð»Ð´Ñĥ
ĠÐºÐ¾Ð»Ð´ÑĥÐ½
Ð»Ð°Ð·Ð°ÑĢ
ĠÑĢÐ¾Ð´Ð¾Ð¼
ĠÐ¾Ð±ÑĢÐ°ÑīÐ°ÑĤÑĮÑģÑı
ĠÐ¼Ð¾ÑĢÐºÐ¾Ð²ÑĮ
ÐºÐ²
ÐºÐ²Ð½
Ð°Ð»Ð°Ð±
ÑģÑĤÑĢÐ¾
ĠÐ¿Ð»Ð¾Ñī
ĠÐ¿Ð»Ð¾ÑīÐ°Ð´
ĠÐ¿Ð»Ð¾ÑīÐ°Ð´Ð¸
ĠÐ¿Ð¾Ð¶Ð¸Ð»
ĠÐ°ÑĢÑĤÑĳÐ¼Ð°
ĠÑĢÐ°Ð±Ð¾ÑĤÐ°Ð»Ð°
ĠÐ±Ð°Ð½Ð´Ð°
ĠÐ¼ÑĥÑĢÐ¼Ð°Ð½
ĠÐ¼ÑĥÑĢÐ¼Ð°Ð½ÑģÐº
ĠÑģÐ²ÐµÑĢÐ´
ĠÑĤÐ²ÐµÑĢ
ĠÑĤÐ²ÐµÑĢÑģÐºÐ¾Ð¹
ĠÐºÐ¾Ð¼ÐµÐ½Ð´Ð°ÑĤÑĥÑĢÐ°
ĠÐ·Ð°Ð½Ð¸Ð¼Ð°ÐµÑĤ
ĠÐ²ÑĭÐ½ÐµÑģ
Ð²Ð°Ð»ÑİÑĤÐ°
ÑĩÑĤÐ¾Ð±
Ð¾ÑģÐ»Ð¾Ð²ÐµÐ½Ð¸Ðµ
ĠÐºÐ¾Ð½ÑĤÐ°ÐºÑĤÑĭ
ĠÐ²ÐµÐ»Ð¾ÑģÐ¸Ð¿ÐµÐ´
ĠÐ±ÐµÑģÐ¿Ð¾ÐºÐ¾Ð¸ÑĤ
ĠÐ¿Ðµ
ĠÐ¿ÐµÑģÐºÐ°
ĠÑĢÐ°Ð±Ð¾ÑĤÐ°Ð»
ĠÐ²Ð¾Ð»Ñİ
ÑĦÐµÑĢÐ°
ĠÐ´Ðµ
ĠÐ´ÐµÑıÑĤ
ĠÐ´ÐµÑıÑĤÐµÐ»ÑĮÐ½Ð¾ÑģÑĤÑĮ
ĠÐ¿ÑĢÐ¸Ð¼Ð¸
ĠÐ²Ð·ÑĢÐ¾ÑģÐ»ÑĭÐ¼
ÑĥÑĤÐ¸Ð»Ð¸
ĠÐ¼Ð¾Ð³Ð¸Ð»Ñĥ
ĠÐ²ÑĭÐºÐ»ÑİÑĩÐ¸Ð»ÑģÑı
Ð¿Ð¾Ð»ÐµÐ·Ð½ÑĭÐµ
ÑĪÐ°ÑĢÐ¼
ÑĪÐ°ÑĢÐ¼ÑĥÑĤÐ°
ĠÐ¶Ð´Ð¸ÑĤÐµ
ĠÑİÐ¶Ð½ÑĭÐ¹
ÑģÐ¼ÐµÐ½
ĠÑģÐ¼Ðµ
ĠÐ´Ð¾Ð±Ð¸Ð»Ð¸ÑģÑĮ
Ð´Ð¾Ð·
ĠÐ´Ð¾ÑĤ
ĠÐ¼Ð°ÑĢÑĪÐ°Ð»
Ð´Ð¾Ð¼Ð°
Ð¿Ð¾ÐµÑħÐ°Ð»Ð¸
ĠÐ·Ð°ÐºÑĢÑĭÑĤ
ĠÐ½ÐµÐ·Ð°ÐºÐ¾Ð½
ĠÑħÑĥÐ»Ð¸Ð³Ð°Ð½Ñĭ
ĠÐ·Ð¾Ð»Ð¾ÑĤÐ¾
ĠÑĦÐ¸ÑĢ
ĠÐ¿ÑĢÐ¾Ð´Ð¾Ð»Ð¶Ð°ÑĤÑĮ
ĠÐ¾ÑĤÑĤÑĥÐ´Ð°
ĠÐºÐ°Ð·Ð°ÑħÑģÑĤÐ°Ð½Ð°
ĠÐ¿Ð°ÑĨÐ°Ð½Ð°Ð¼Ð¸
ĠÑģÐ»Ð°Ð±
ÑıÑĤÑĭÐµ
ĠÑģÐ¾Ð±ÑĢÐ°Ð»Ð°ÑģÑĮ
Ð°Ð½ÑĮÑı
Ð¿ÑĢÐ¾Ð¸Ñģ
Ð¿ÑĢÐ¾Ð¸ÑģÑħÐ¾Ð´Ð¸ÑĤ
ĠÑĤÐ°Ð±Ð»Ð¾
ĠÑģÐ¾Ð»Ð´Ð°ÑĤ
ĠÐºÐ°ÑĢÑĤÐ¾Ð¹
Ð¾ÑĢÐ¸Ñı
Ð¾ÑģÑĤÐ°Ð»ÑģÑı
ĠÐ´Ð°Ð»ÑĮÐ½ÐµÐ¹ÑĪ
ĠÐ´Ð°Ð»ÑĮÐ½ÐµÐ¹ÑĪÐµÐ¼
ĠÐ²ÐµÑģÑĮ
ĠÐ²Ð°ÑĢÑİ
ĠÐ·ÐµÐ»Ñĳ
ĠÐ¼ÐµÐ»Ð¾ÑĩÑĮ
ÑģÑĤÑĢÐ°ÑĪÐ½ÑĭÐ¹
ĠÐ¾Ð±ÑĬÑıÐ²Ð»ÐµÐ½Ð¸Ð¹
ĠÐ¼Ð¸Ð½Ð¸
ĠÐ¾ÑĤÐµÐ»Ð¸
Ð¸Ð·Ð´ÐµÐ²
ĠÐ¿Ð¾Ð²ÑĤÐ¾ÑĢÑıÑİÑĤÑģÑı
ĠÐ¿Ð¾ÑģÐ»ÑĥÑĪÐ°Ñİ
Ð°Ð½ÑģÐºÐ°Ñı
ĠÐ³ÑĢÐµÑħ
Ð¸ÑģÐ¿ÑĥÐ³Ð°Ð»ÑģÑı
Ð°ÑĢÑĥ
ĠÐ³ÑĢÐ°Ð²
ĠÐ³ÑĢÐ°Ð²Ð¸ÑĤ
ĠÐ³ÑĢÐ°Ð²Ð¸ÑĤÐ°ÑĨÐ¸Ñı
ĠÑĢÐ°Ð´Ð¾ÑģÑĤÑĮ
Ð²ÐµÐ»Ð¸ÐºÐ°Ñı
ĠÐ°ÐºÑĨÐ¸Ñı
ĠÐ¸Ð½ÑģÑĤÑĢÑĥ
Ð¶ÑĥÑĢ
Ð¶ÑĥÑĢÐ½
Ð¶ÑĥÑĢÐ½Ð°Ð»ÑĮÐ½ÑĭÐ¹
ĠÑĥÑĩÐ¸ÑĤÑĮÑģÑı
Ð¸ÑħÐ½ÑĥÑĤÑĮ
ĠÐ·Ð´Ð°Ð½Ð¸Ðµ
ĠÑĥÑĩÐ°ÑģÑĤÐ²Ð¾Ð²Ð°Ð»Ð¸
ĠÐ´ÐµÐ¹ÑģÑĤÐ²Ð¸ÑıÑħ
ĠÐ½ÐµÐºÐ¾ÑĤÐ¾ÑĢÑĭÑħ
ÐµÑĩÐ½ÑĭÐ¹
ĠÐ¾Ð³Ð¾Ð½ÑĮ
ĠÐ¿ÑĢÐ¾ÑĩÐ¸ÑĤÐ°Ð¹
ÑĳÑģ
ĠÐ¾ÑĢÐ³Ð°Ð½Ð¾Ð²
Ð¾ÑĦÐ¸ÑĨÐ¸Ð°Ð»ÑĮÐ½ÑĭÐ¹
Ð¾Ð¿ÐµÑĢÐ°ÑĤÐ¸Ð²Ð½Ð°Ñı
ĠÐ²Ð¸ÑģÐµÑĤÑĮ
ĠÐ¿ÑĢÐ¾Ð¼ÐµÑĤ
ĠÐ¿ÑĢÐ¾Ð¼ÐµÑĤÐµÐ¹
Ð·Ð°Ð±Ð¾Ð»ÐµÐ²
Ð·Ð°Ð±Ð¾Ð»ÐµÐ²Ð°Ð½Ð¸Ðµ
ÑĥÑĩÐ°ÐµÐ¼
ĠÐ°ÑħÑĥÐµÐ½Ð½Ð¾
ĠÑĤÐ¾Ð¼ÑģÐº
ĠÐ·Ð°Ð½Ð¸Ð¼Ð°ÐµÐ¼ÑģÑı
ĠÐ¿Ð¸Ð´Ð°
ĠÐ¿Ð¸Ð´Ð°ÑĢÐ°Ñģ
ĠÐ¿Ð¸Ð´Ð¾ÑĢÐ°ÑģÐ°Ð¼
ĠÑĢÐ¾Ð·ÑĭÐ³ÑĢÑĭÑĪÐ¸
ĠÑĨÐµÐ»ÑĥÑİ
ĠÑĥÐ²Ð°Ð¶Ð°ÐµÐ¼ÑĭÐ¹
ÐµÑĢÐ¾Ð½
ĠÐ¿ÐµÐ´Ð°ÑĢÐ°ÑģÑĭ
Ð¸ÑĤÐ²Ð°
ĠÐ²ÑĭÑģÐ¾ÑĨ
ĠÐ¿Ð¾Ð¶Ð°Ð»
ÑĩÐµÐ±ÑĥÑĢ
ĠÑģÐ¿ÑĢÑıÑĤ
Ð¾Ð»Ðµ
ĠÑģÑĤÑĥÐ»
ĠÑģÑĤÑĥÐ»Ðµ
ĠÐ¿Ð¾Ð¼Ð¾Ð¶ÐµÑĪÑĮ
ĠÑģÐ½Ð¸Ð¼Ð¸
ĠÐ»ÐµÐ½Ð¸Ð½Ð³ÑĢÐ°Ð´
ĠÐºÑĢÐ°ÑģÐ½Ð¾Ð´Ð°ÑĢÑģÐºÐ¸Ð¹
ĠÑģÐ»Ð¾Ð¼Ð°Ð»Ð¸
ĠÐ·Ð²Ð°Ð½Ð¸Ñı
ĠÐ¿Ð¾Ð´Ð²ÐµÑģÑĤÐ¸
ĠÐ¾ÑģÐ¾Ð±ÐµÐ½Ð½Ð¾
Ð°Ð±Ð¾ÑĢ
Ð»Ð¾ÑħÐ°
ĠÑģÐ»Ð¾Ð¼Ð°Ð»ÑģÑı
ĠÑģÑĥÑħÐ¾Ð¹
ÑĢÐ°Ð·ÑĥÐ¼
ĠÐºÐ¾Ð¼Ð¿Ð»ÐµÐºÑģ
Ð»ÑĳÑħÐ°
Ð¸Ð´Ð·Ðµ
ÑıÑģÑĮ
ĠÐ¿Ð¾Ð´Ð¼Ð¾ÑģÐºÐ¾Ð²
ĠÐ¿Ð¾Ð´Ð¼Ð¾ÑģÐºÐ¾Ð²ÑĮÐµ
ĠÐ°ÑĦÑĢÐ¸Ðº
ĠÐ°ÑĦÑĢÐ¸ÐºÐµ
ÑĢÑį
ÑĢÑįÐ¿
ĠÐ±Ð¸ÑĤÐ²Ð°
ĠÐºÐ¸Ð´Ð°Ð»
ĠÐ¿Ð¾Ð»Ð¾Ð¶Ð¸Ð»
ĠÐ¿Ð¸ÑĢÐ¾Ð³
ÐµÐ´Ð»ÐµÐ½
ĠÐ¿Ð»Ð¾ÑħÐ°Ñı
Ð¿Ð¾ÑģÐµÐ»Ð¾Ðº
Ð·Ð¼
ĠÐ¿Ð¾ÑıÐ²Ð¸Ð»Ð¸ÑģÑĮ
ÑĤÐ°ÑĤÑĥÐ¸ÑĢÐ¾Ð²ÐºÐ°
ĠÑģÑĥÐ¼Ð¼Ð°
ĠÐ¼Ð¸ÑĢÐ½ÑĭÐ¹
ĠÐºÐ¾Ð½ÑģÑĥÐ»ÑĮ
ĠÐºÐ¾Ð½ÑģÑĥÐ»ÑĮÑĤÐ°
ĠÐºÐ¾Ð½ÑģÑĥÐ»ÑĮÑĤÐ°ÑĨÐ¸Ñı
ĠÐ±ÐµÑĢÑĳÑĤ
ĠÐµÐ²Ð³ÐµÐ½
ĠÐ½ÐµÑģÑĳÑĪÑĮ
ĠÐ¿ÑĢÐ¾Ð²ÐµÑĢÐºÑĥ
ÑĮÑĳÑĤ
ĠÐ¾Ð±ÑīÐµÐ¶Ð¸ÑĤ
ĠÐºÐ¾ÑģÑĤÑı
ÐµÐºÐ°ÑĤ
Ð¾ÑģÐºÐ¾ÑĢÐ±
Ð¾ÑģÐºÐ¾ÑĢÐ±Ð»ÐµÐ½Ð¸Ðµ
Ð¿ÑĢÐ¾ÑĤÐ¸Ð²
ĠÑģÐ½ÑıÑĤÑĮ
ĠÐ²ÑĭÐ¿Ð°Ð»
ÑĪÐ°Ð½ÑģÐ¾Ð½
Ð¿Ð¾Ð¼Ð¾Ñī
ĠÑĢÑıÐ·
ĠÑĢÑıÐ·Ð°Ð½Ð¸
ÑĦÐ¾ÑĢÐ¼Ð°ÑĨÐ¸Ñı
ĠÐºÐ¾Ð»ÐµÑģÐ¾
Ð¸Ð½ÑĤÐµÑĢÐµÑģÐ½ÑĭÐ¹
ĠÐ·Ð°ÑĢÐµÐ¶
ĠÐ·Ð°ÑĢÐµÐ¶Ñĥ
Ð°Ñį
Ð°ÑįÑĢÐ¾Ð¿
Ð°ÑįÑĢÐ¾Ð¿Ð¾ÑĢÑĤ
ÑīÐµÐ½ÐºÐ¾
Ð¸Ð½Ð°Ñİ
ĠÑģÐ¼ÐµÑĪÐ½Ð¾Ðµ
ĠÐºÑĥÐºÑĥÑĪÐºÐ°
ÑģÑĤÐ²ÐµÐ½Ð½Ð°Ñı
Ð±ÑĢÐ¾Ð½ÑħÐ¸
Ð±ÑĢÐ¾Ð½ÑħÐ¸Ð¿ÑĢ
Ð±ÑĢÐ¾Ð½ÑħÐ¸Ð¿ÑĢÐµÑĤ
ÐµÐ²Ð°Ð»Ð¸
Ð»Ð¸Ð½Ð¸Ñı
Ð¾ÑħÐ°
ÑĥÐ»ÑĮÑģÐºÐ¾Ð¹
ĠÐ´Ð¾Ð±Ð¸Ð²Ð°ÐµÑĪÑĮÑģÑı
ĠÐ²Ð¾Ð·Ð´ÐµÐ¹ÑģÑĤÐ²Ð¸Ðµ
ĠÐ¿Ð¾Ð´Ð¾Ð±Ð½Ð¾Ðµ
ĠÐ½ÐµÐ¾Ð±ÑĭÑĩÐ½ÑĭÐ¹
ĠÐ³ÐµÐ½Ð½Ð°Ð´ÑĮÐµÐ²Ð¸Ñĩ
ÑĮÐµÑĢÑĭ
ĠÐ²Ð°ÑĤÑĥÑĤ
ĠÐ²Ð¾Ð»ÑĮÐ½Ð¾Ð²ÑĭÐ¼
ĠÑģÐ¸ÑģÑĮÐºÐ¸
Ð¼Ð¸Ñħ
Ð¼Ð¸ÑħÐ°Ð»
ĠÐ¿Ð°Ð»ÑĭÑĩ
ÐµÐ½ÑĤÑĮÐµÐ²
ĠÐ²Ð»Ð¾Ð¶
ĠÐ²Ð»Ð¾Ð¶Ð¸Ð»
ĠÐ¿ÑĢÐ¾Ð¶Ð¸
ĠÐ¿ÑĢÐ¾Ð¶Ð¸ÑĤÐ¾Ñĩ
ĠÐ¿ÑĢÐ¾Ð¶Ð¸ÑĤÐ¾ÑĩÐ½Ð¾Ð³Ð¾
ĠÐ¼Ð¸Ð½Ð¸Ð¼ÑĥÐ¼Ð°
Ð²ÑĤÐ¾ÑĢÐ¾Ðµ
ĠÐ¿ÑĢÐ¸Ð²ÐµÐ´
ĠÐ¿ÑĢÐ¸Ð²ÐµÐ´ÐµÐ½Ñĭ
ĠÑģÐ¾ÐµÐ´Ð¸Ð½Ð¸Ð»Ð¸
Ð¼ÑĥÑī
Ð¼ÑĥÐ»ÑĮÑĤÑĦÐ¸Ð»ÑĮÐ¼Ñĭ
Ð¿ÑĢÐ¸ÑģÐºÐ°Ð·
Ð¿ÑĢÐ¸ÑģÐºÐ°Ð·ÐºÐ°
Ð»ÑıÑħÐ°
ĠÑģÐµÑĢÐ²
ĠÑģÐµÑĢÐ²Ð¸Ñģ
ÑĥÑİÑģÑĮ
ĠÐ¾Ð±ÑĢÐ°ÑīÑĥÑģÑĮ
Ð½ÐµÑĤÑģÑı
ĠÐ²Ð¸ÐºÑĤÐ¾ÑĢÐ¾Ð²Ð¸Ñĩ
Ð½ÑıÐµÑĤ
ĠÑĢÐ°Ð·ÑĥÐ¼Ð½ÑĭÐ¹
Ð¸ÑĤÐµÐ»ÑĮÐ½ÑĭÑħ
ĠÑĢÐ°Ð·Ð¼
ĠÐ²Ð¾ÑĢÐ¾Ð½ÐµÐ¶Ðµ
ÑİÑĢÐ¸Ð¹
Ð²Ð¾Ð´ÐºÐ°
Ð³Ð¾Ð²Ð¾ÑĢÑıÑĤ
ĠÐ°ÑĢÑĤÑĥÑĢ
ĠÐ±Ð°Ð»ÐºÐ¾Ð½Ðµ
ÑĢÐµÐºÐ»Ð°Ð¼
ÑĢÐµÐºÐ»Ð°Ð¼Ð°
ĠÑĢÐµÐºÐ»Ð°Ð¼
Ð·Ð°Ð»
ĠÑĩÐµÑģÑĤÐ¸
ĠÐ¿Ð¾Ð»ÑĮÐ·Ñĥ
ĠÑģÐ¼ÐµÑĪÐ½Ð¾Ð³Ð¾
ĠÐ¼ÐµÐ½Ñİ
ĠÐ±ÑĢÐ¸Ð³Ð°Ð´Ð°
ĠÑħÐ¾Ð´Ñĥ
ĠÐ²ÑĭÐ·ÑĭÐ²Ð°ÑİÑĤ
ĠÐ¿ÑĢÐ¾Ð¿Ð¸ÑĤ
ĠÐ¿ÑĢÐ¾Ð¿Ð¸ÑĤÐ°Ð½Ð¸Ðµ
Ð¾ÑģÑĤÑĢÐ°Ð½
Ð¿ÑĢÐ°Ð²Ð´Ð°
ÑĥÑĤÑĮ
ÑĩÐºÐ°
ĠÐ¿ÐµÑĢÐµÑģÑĤÐ°Ð½
ĠÑģÑĤÐµÑĢ
Ð¸Ð½ÐµÑĨ
ĠÐºÐ»ÑİÑĩÐ¸
Ð¼ÑĥÐºÐ¾Ð¼
Ð°Ð·Ð½Ð°Ñı
ĠÑģÐ¸Ð´ÐµÐ»Ð°
ĠÐ¼ÑĥÐ¶ÑĩÐ¸Ð½
ĠÐ¿ÑĢÐ¾ÑģÐ¸ÑĤ
ĠÐ·Ð°Ð½ÑıÑĤÐ°
ĠÐºÐ¾ÑĢÐ¾Ð²Ð°
ĠÐ½Ð°ÑĢÐ¾Ð´Ð½ÑĭÐµ
Ð¾ÑĤÐµÐ»ÑĮ
ĠÐ¿Ð¾Ð¿ÑĢÐ¾Ð±Ð¾Ð²Ð°ÑĤÑĮ
ĠÐ¿Ð¾ÑĢÐ²Ð°Ð»Ð¸
Ð¾Ð±ÑĬÑıÑģÐ½Ð¸
Ð²Ð½Ð¸Ð¼Ð°ÑĤÐµÐ»ÑĮÐ½Ð¾
ÐµÐ²ÑĢÐ¾Ð¿ÐµÐ¹ÑģÐºÐ°Ñı
ĠÑģÐ¸Ð»ÑĮÐ½ÐµÐ¹ÑĪ
ĠÑģÐ¸Ð»ÑĮÐ½ÐµÐ¹ÑĪÐ¸Ð¼
ĠÑģÐ¸ÑĦ
ĠÑģÐ¸ÑĦÐ¸Ð»
ĠÑģÐ¸ÑĦÐ¸Ð»Ð¸Ñģ
ĠÐ±ÐµÑĢÑĳÐ¼
ĠÐ·Ð°Ð´Ð¾Ð»Ð¶ÐµÐ½
ĠÐ²Ð¾ÑģÑĤÐ¾ÑĩÐ½ÑĭÐ¹
ĠÐ³Ð°Ð·ÐµÑĤÑĭ
ÑĢÐµÐ³Ð¸Ð½Ð°
ĠÐ³Ð¾Ð´Ñĥ
ÑģÐºÐ¸Ð¼
ĠÑıÐ·ÑĭÐºÐ¾Ð¼
ÑĢÐµÐ»ÑģÑı
ÑįÐ»ÐµÐ¼
Ð±Ð°Ð·Ð°
ĠÐ¼ÑĥÑĤ
Ð°Ð½ÑĤÐ¾Ð²
ĠÐ·Ð¾Ð¾Ð¿
ĠÐ¼ÑĥÑģÑĥÐ»ÑĮÐ¼Ð°Ð½Ðµ
ĠÑģÐµÐ½ÑĤ
ĠÑģÐµÐ½ÑĤÑıÐ±ÑĢÐµ
ĠÑĥÑĪÑĳÐ»
ĠÐ³ÑĢÑıÐ·Ð½ÑĭÐµ
ĠÐ»Ð¸Ð»Ð¸Ñı
Ð´ÑĢÐµÐ²
ĠÐ²ÑĭÐ¿Ð¾Ð»Ð½Ð¸ÑĤÑĮ
ĠÐºÐ¸ÐµÐ²
Ð¸ÑĤÐµÐº
ĠÐ·Ð°ÐºÑĢÑĭÐ»Ð°ÑģÑĮ
ĠÐ´Ð·ÐµÑĢÐ¶
ĠÐ´Ð·ÐµÑĢÐ¶Ð¸Ð½ÑģÐº
ĠÑİÑĢÐ°
ĠÐ¿ÐµÑĤÑĢÐ¾Ð²Ð¸ÑĩÐ°
Ð¾Ð³ÑĥÑĢ
ĠÑĥÐ²Ð»
Ð½ÑĥÐ»Ð°
Ð²Ð°Ð¹
ĠÑģÑĤÑģ
ĠÐ¿ÑĢÐ¸Ð²ÐµÐ·ÑĤÐ¸
ĠÑĥÑģÑĤÑĢÐ¾Ð¹
ÑĤÑĢÐ¾ÑĦ
ĠÐ»ÑİÐ±Ð¸ÑĤÑĮ
ĠÐ¾ÑģÐ¾Ð±Ð¾
ĠÐ¿ÑĤÐ¸
Ð°ÑĤÐ½ÑĭÐ¹
ĠÐ½ÐµÑģÑĥ
ĠÐ¿Ð¾ÑĥÑĩ
ĠÑĦÐ»Ñİ
ĠÑĥÐ´Ð°ÑĢÐ¸Ð»Ð¸
ĠÐ»ÑİÐ±Ð¾Ð²ÑĮÑİ
ĠÐ°ÐºÐºÑĥÑĢÐ°ÑĤ
ĠÐ°ÐºÐºÑĥÑĢÐ°ÑĤÐ½ÐµÐ½ÑĮÐºÐ¾
ĠÐ¸Ð²Ð°Ð½Ð³Ð°Ð¹
ĠÐºÑĥÑĢÐ±Ð°Ð½
ÑģÐ¸Ð³Ð½Ð°Ð»
ĠÐ±ÐµÐ·Ð¾Ð±ÑĢÐ°Ð·
ÑģÑĥÑħÐ°ÑĢÐµÐ²
ÑģÑĥÑħÐ°ÑĢÐµÐ²ÑģÐºÐ°Ñı
ĠÑĥÐ±ÐµÑĢÐ¸
ÑĥÑģÑĤÑĢÐ¾Ð¹ÑģÑĤÐ²Ð¾
ĠÑĪÑĤÐ°Ð±
ĠÑĪÑĤÐ°Ð±Ñĥ
ĠÐ¿ÐµÑĢÑģÐ¾Ð½Ð°Ð»Ð°
ĠÐ¼Ð°Ð»Ð¾Ð»ÐµÑĤ
ĠÑĪÐºÐ¾Ð»ÑĮÐ½Ð¸Ðº
ĠÐ¿ÑĢÐ¾Ð¸ÑģÑħÐ¾Ð´Ð¸Ð»Ð¾
ĠÑĪÐµÑĢ
ÑıÑīÐµÐ¼Ñĥ
ĠÑģÐ¿Ð¾ÐºÐ¾
ĠÑģÐ¿Ð¾ÐºÐ¾ÐµÐ½
ÑĢÐ°ÑģÑĤÐ°Ð¼
Ð¼Ð°Ð»ÑĮ
ÑĢÐµÐ»Ð¸Ð³
ÑĢÐµÐ»Ð¸Ð³Ð¸Ñı
ĠÐ½Ð°Ð¹Ð´ÑĥÑĤ
ĠÐ½ÐµÐ´Ð°Ð»ÐµÐºÐ¾
ĠÐ¸Ð·Ð½Ð°Ñģ
ĠÐ¸Ð·Ð½Ð°ÑģÐ¸Ð»
ĠÑĢÐ¾Ðº
ĠÑĥÐºÐ»Ð°Ð´ÑĭÐ²Ð°ÐµÑĤÑģÑı
ĠÐ¾ÑģÐºÐ¾ÑĢÐ±Ð»ÑıÑĤÑĮ
Ð¾ÑĤÐ¾ÑĢ
ĠÐ¿Ð¾ÑģÐ»ÐµÐ´Ð½ÐµÐµ
ĠÐ¾ÑĢÐ³Ð°Ð½Ð¸Ð·Ð¾Ð²
Ð¸Ð½ÑĤÐµÑĢÐµÑģÐ¾Ð²
ĠÐ»Ð¾Ð¶ÑĮ
ĠÐ¿ÑĢÐ°Ð²Ð´Ñĭ
ĠÐ»ÑİÐ±Ð¾Ðµ
Ð¿Ð¾ÐºÐ¾Ð¸Ð»
ÐºÐ¾Ð·ÑĳÐ»
ĠÐ´Ð¾ÑģÑĤÐ¾Ð¸Ð½ÑģÑĤÐ²Ð°
ĠÐ²ÑĭÐ±ÑĢÐ°ÑĤÑĮ
ĠÐ°Ð»Ð¸ÐµÐ²
ĠÑĤÑĢÑĥÑģÐ¾Ð²
ĠÐ¿ÑĢÐ¾ÑĦÐµÑģ
Ð»Ð¸Ñģ
ĠÐ³Ð°ÑĢÐ½Ð¸Ð·Ð¾Ð½Ñĥ
ĠÑĢÐµÑĦÐµÑĢÐ°ÑĤ
ĠÐ¶Ð¸Ð²ÑĳÑĤÐµ
Ð¿Ð¾ÐºÐ¾Ð¸ÑĤÑĮ
Ð°ÑħÑĥÐµÐ»
ĠÐ½Ð°ÑģÑĤÑĢÐ¾Ð¸
ĠÐ½Ð°ÑģÑĤÑĢÐ¾Ð¸Ð»Ð¸
ĠÐ¼Ð¸Ð»Ð»Ð¸
Ð°Ð´Ð¸Ð¼
ĠÐ¿Ð°Ð²Ð»Ð¾Ð²
ĠÐ¿ÑĢÐ¾Ð²ÐµÑĢÑıÑĤÑĮ
ĠÐ¿ÑĢÐ¾Ð±Ð»
ĠÐ¿ÑĢÐ¾Ð±Ð»ÐµÐ¼Ñĥ
ÐºÐ¾Ð»Ð¾Ð³
ĠÑĥÑģÑĤÐ°Ð½Ð¾Ð²Ð¸ÑĤÑĮ
Ð¾ÑĢÑĥÐ¶
ĠÐ¿Ð¾Ð´Ð´ÐµÑĢÐ¶Ð¸ÑĤÐµ
ĠÐ¿ÐµÑĢÐµÐ¿ÑĥÑĤÐ°Ð»
ÑĥÑĪÐºÑĥ
ĠÐ±Ð»ÑįÐº
Ð»ÐµÑĤÐºÑĥ
Ð°ÑĢÑģÑĤÐ²Ð¾
ĠÑİÑĤ
ĠÐ²ÑĭÐ¸Ð³ÑĢÐ°Ð»
ĠÐ±ÐµÐ»ÑĮ
Ð¿Ð¾ÑĩÑĳÐ¼
Ð½Ð°ÐºÐ¾Ð¿
ĠÑģÑĤÐ¾Ñİ
Ð½Ð°Ð¿ÑĢ
Ð½Ð°Ð¿ÑĢÐ¸Ð¼ÐµÑĢ
ĠÑħÐ¾Ð´Ð¸ÑĪÑĮ
ĠÐ¾ÑĤÑĩÐ¸ÑģÐ»
ĠÐ¾ÑĤÑĩÐ¸ÑģÐ»Ð¸Ð»Ð¸
ĠÐ¿ÑĥÐ³Ð°Ñİ
ĠÐ²Ð·Ð¾ÑĢ
Ð²ÑĮÑİ
ĠÐ¿Ð¾Ð´Ð¾Ð¹ÑĤÐ¸
ĠÑĥÐµÐ±
Ð°Ð²Ð»Ð¸Ð²
ÑħÐ°ÑĢÐ°ÐºÑĤÐµÑĢ
ĠÑĥÐ´ÐµÑĢÐ¶
ĠÐ¿Ð¾Ð¼Ð¾ÑīÐ½Ð¸ÐºÐ°
ÑĥÑħÐ¾Ð²Ð¸ÐºÐ¸
ÑĢÐµÑĪÐ¸Ð»Ð¸
Ð»Ð°Ð´Ð¸
ĠÐ²ÑĤÐ¾ÑĢÐ¾Ðµ
ĠÐ¼Ð¾ÑĢÑı
ĠÐ´Ð¼Ð¸ÑĤÑĢ
ĠÐ´Ð¼Ð¸ÑĤÑĢÐ¸Ñı
ĠÐ·Ð°ÑĤÐ¾
ĠÐºÑĥÐ»ÑĮÑĤÑĥÑĢÐ°
Ð¿Ð¾Ð´Ð°Ð»ÑĮÑĪÐµ
ĠÑħÑĢÐµÐ½
Ð½Ð¸ÑĩÐ¾Ðº
ĠÐ¿ÐµÑĢÐµÐ¶Ð¸Ð²Ð°Ð¹
ĠÐ¾ÑģÐ²
ĠÐ¾ÑģÐ²Ð¾Ð±
Ð±Ð»Ð¾Ð³ÐµÑĢ
Ð°Ð¼ÑĥÑĢÑģÐºÐ°Ñı
ĠÐ¿Ð¾Ð»ÑĥÑĩÐ°Ñİ
ĠÐ¿Ð¾Ð·Ð¾ÑĢ
Ð¾ÑĤÐ¿ÑĢÐ°Ð²ÑĮÑĤÐµ
ÑĤÑĢÐ°ÐºÑĤÐ¾ÑĢ
ĠÐ¿ÑĢÐ¸ÐµÐ´ÐµÑĤÐµ
ĠÐ½Ð°ÑĩÐ¸Ð½Ð°Ð»
ĠÐ¿ÑĢÐ¾Ð´ÑĥÐº
ĠÑģÐºÐ°Ñĩ
ĠÑĤÐµÐº
ĠÑĤÐµÐºÑģÑĤÐ°
ĠÐºÐ¾Ð»ÑħÐ¾Ð·
ĠÐºÑĢÐ°ÑģÐ½Ð¾ÑıÑĢ
ĠÐºÑĢÐ°Ñı
ĠÐ³ÑĢÐ¸Ð±Ñĭ
ÑĭÑĤÐ¾
ĠÑıÐ¿Ð¾Ð½Ð¸Ð¸
ĠÐºÑĥÑĢÐ¸ÑĨÐ°
Ð³Ð¾Ð²Ð¾ÑĢÐ¸ÑĤ
ĠÐ±Ð°ÑĤÑİÑĪÐºÐ°
Ð»ÑİÐ±Ð¸Ð¼Ð¾Ð²
ĠÑĤÑıÐ¶
Ð¸Ð½Ð´ÐµÐºÑģ
Ð°Ð»ÑĳÑĪÐ°
ĠÐ²ÑĭÑĥÑĩ
ĠÐ²ÑĭÑĥÑĩÐ¸ÑĤÑĮ
ĠÐ°Ð½Ð³Ð»Ð¸Ð¹ÑģÐºÐ¾Ð¼
ĠÐ°Ð³Ð°
ÑĥÐ¼Ð±
Ð¿ÑĢÐ¸Ð´Ð¸
Ð³ÑģÐºÐ¸Ð¹
ĠÑĢÐ°Ð·ÑĢÑı
ĠÑĢÐ°Ð·ÑĢÑıÐ´Ð°
Ð°Ð»Ð»Ðµ
Ð°Ð»Ð»ÐµÑı
ĠÐ¼Ð°Ð³Ð°Ð·Ð¸Ð½Ðµ
Ð»Ð¾Ð²ÑģÐº
ĠÐ¿Ð°Ð²Ð»
ĠÐ¾Ð±Ð¾Ð¶Ð°Ñİ
Ð¿Ð°ÑĢÐµÐ½ÑĮ
Ð°ÑĤÐ°Ñı
Ð¿Ð¾Ð·Ð¸
ÑİÑħÐ°
Ð½ÐµÐºÑĢÐ°ÑģÐ¸Ð²Ð¾
ĠÐ²Ð¾ÑģÑĤÐ¾ÐºÐ°
ĠÐ¶ÑĥÐºÐ¾Ð²
Ð¿Ð¾ÑģÐ»ÐµÐ´Ð½ÐµÐµ
ĠÐ±ÑĥÐ´ÑĥÑīÐµÐµ
ĠÐ½Ð¾ÑģÐ¾Ðº
ĠÐ¿ÑĢÐ¸Ð³Ð¾ÑĢÐ¾Ð´
ĠÐ´Ð¾ÐºÐ»Ð°Ð´ÑĭÐ²Ð°ÑĤÑĮ
ĠÐºÑĢÑİÑĩ
ĠÐ²Ð¾Ð»Ð½Ð¾Ð²
ĠÑģÐ»Ð¸Ð²Ñĭ
ĠÑħÐ°Ð±
ĠÑĥÐ¿Ð¾ÑĢ
ĠÐ±Ð»ÐµÐ²
ĠÑĢÐ¾Ð±Ð¾ÑĤÑĭ
ĠÐ´ÐµÑĢÑĥÑĤÑģÑı
ĠÐ¼Ð¾ÑĪÐµÐ½Ð½Ð¸Ðº
ĠÑĤÐµÐ¿Ð»Ð¾
Ð³Ð¾Ð»ÑĥÐ±Ð°Ñı
Ð»ÐµÐ½Ð¸Ð½Ð³ÑĢÐ°Ð´
ĠÐ±Ð°Ð»ÑĥÐµÑĤÑģÑı
ÐµÐ»ÑĭÐ¹
ĠÐºÐ¾ÑĢÐ½Ð¸
ÑĢÑĥÐºÐ¾Ð²Ð¾Ð´ÑģÑĤÐ²Ð¾
ĠÑĤÑĥÐ»Ðµ
ÑģÑĤÑĢÐ°Ð´Ð°
ĠÐ»Ð¸ÑĤ
ĠÐ±Ð¾Ð»ÐµÐ·Ð½ÐµÐ¹
ÐºÐ°Ð»ÑĮÐºÑĥÐ»ÑıÑĤÐ¾ÑĢ
ĠÐ»ÑĥÐ¸
ÑĢÐ°Ð³ÐµÐ´
ÑıÐ³Ð¾Ð´Ð°
ĠÐ¿ÑĢÐ¾ÑģÑĤÐ¸ÑĤÐµ
Ð±Ð¾Ð»ÑĮÑĪÐ¾Ð¹
ĠÑĤÑĢÐ°Ñģ
ĠÐ±ÑĥÐ»
Ð°Ð²Ð¾Ðº
Ð¾ÑħÐ½ÐµÑĪÑĮ
Ð¾ÑħÐ½ÐµÑĪÑĮÑģÑı
ĠÐ¿Ð°ÑĤÑĢÐ¸
ĠÐ¸Ð¼ÐµÑĤÑĮ
ĠÐ¿ÑĢÐ¸Ð²Ð»ÐµÑĩÑĮ
ĠÐ¾ÑĤÐ´Ð°Ð¼
ĠÑĥÐ³ÑĢÐ¾Ð¶Ð°ÐµÑĪÑĮ
Ð½Ð°ÑĢÐ¾Ð´
ĠÐºÐ°Ð¶Ð´Ð¾Ð¼Ñĥ
Ð¿ÑĢÐ¸ÐºÐ¾Ð»
ÑĩÐ¸Ð²
ĠÑģÐ¿Ð¸Ð·Ð´Ð¸Ð»
Ð¼Ð¸Ð»ÑĭÐ¹
Ð·Ð¾Ð»Ð¾ÑĤ
Ð·Ð¾Ð»Ð¾ÑĤÐ¾Ð¹
Ð¿ÑĢÐ¾Ð»Ð¾Ð¶Ð¸ÑĤÑĮ
ĠÑĢÐ¾Ð½
ĠÑĢÐ¾Ð½Ð°Ð»
ĠÑĢÐ¾Ð½Ð°Ð»Ð´Ñĥ
Ð»Ð°Ð¹
ÐµÐ»ÑĮÐ¼ÐµÐ½Ð¸
ĠÐ²ÐµÑīÐµ
ĠÐ¼Ð°Ð´
ĠÑĢÑĥÑģÑģÐºÐ°Ñı
ĠÑģÑĤÑĢÐ¸Ð¶
ĠÐ½ÐµÐ¿Ð¾Ð½ÑıÑĤÐ½Ð°Ñı
Ð¿ÑıÑĤÐ½Ð¸ÑĨÑĥ
Ð¿ÑĢÐ¸ÐµÑħ
ĠÐ¶ÑĥÑĢÐ½Ð°Ð»
ĠÐ¾Ð±ÑĬÐµÐºÑĤÑĭ
Ð½Ð°Ð±ÑĢÐ°ÑĤÑĮ
ĠÑĤÑĢÑĥÑģÑĭ
ÐºÑĥÑĤÐ¸ÐºÐ¸
ĠÑĢÐ¾Ð´Ðµ
ĠÐ¿Ð¾Ð´ÑĤÐ²ÐµÑĢÐ¶Ð´
Ð¾Ð±ÑıÐ·Ð°ÑĤÐµÐ»ÑĮÐ½Ð¾
ĠÑĨÐ²ÐµÑĤÑĭ
Ð¾ÐºÐ°Ð¼
Ð´ÐµÐ´ÑĥÑĪÐºÐ°
ĠÐ²ÑģÑĤÐ°ÑĤÑĮ
ĠÐºÑĢÐ°ÑģÐ½Ð¾Ð³Ð²Ð°ÑĢÐ´ÐµÐ¹ÑģÐºÐ¸Ð¹
Ð³Ð¾Ð»Ð¾Ð²Ð¾Ð¹
ĠÑĤÐµÐ¼Ð¿ÐµÑĢÐ°ÑĤÑĥÑĢÐ°
ĠÐ²Ð½ÑĥÐºÐ°
ĠÐºÑĥÑĢÑıÑĤ
ĠÑĤÑĢÐ°Ð²Ñĥ
ĠÐ·Ð°Ð±ÑĭÐ²Ð°Ð¹
ĠÐ³Ð¾Ð¼Ð¾Ñģ
ĠÐ³Ð¾Ð¼Ð¾ÑģÐµÐºÑģ
ĠÐ³Ð¾Ð¼Ð¾ÑģÐµÐºÑģÑĥ
ĠÐ³Ð¾Ð¼Ð¾ÑģÐµÐºÑģÑĥÐ°Ð»Ð¸ÑģÑĤ
ĠÐ²ÑĢÐ°ÑĩÑĥ
ĠÐ²Ð¸Ð´Ð°ÑĤÑĮ
ÑĦÐ°Ð¼Ð¸Ð»Ð¸Ð¸
ÑĦÐ°Ð½
Ð·Ð°ÐºÐ°Ð·Ð°ÑĤÑĮ
ĠÑģÐ°Ðº
ĠÐ¾Ð³ÑĢÐ°Ð½Ð¸Ñĩ
ĠÐ³ÑĢÐ°Ð¼Ð¾ÑĤÐ½ÑĭÐ¹
ĠÐ¿ÐµÑĢÐµÐ´Ð°ÐµÑĤÐµ
ĠÐ±Ð»ÑİÐ´Ð°
Ð±ÐµÑĢ
Ð»ÐµÐ½Ð´
ĠÐ±ÑĭÐ²ÑĪÐ°Ñı
Ð°Ð½Ð¸ÐµÐ¼
ĠÐµÐ±Ð°Ð½Ð½ÑĭÐµ
Ð½ÐµÐ¿ÑĢÐ¸ÑıÑĤ
ĠÐ³Ð»Ð°Ð·Ð°Ñħ
ĠÑģÑĥÐ±ÑĬ
ĠÑģÑĥÐ±ÑĬÐµÐºÑĤÐ°
Ð¸Ð´Ð¾
ÑĢÐ¾Ð¶Ð´ÐµÐ½Ð¸Ðµ
ĠÐ¾Ð±Ð¸Ð¶Ð°ÑĤÑĮÑģÑı
Ð±ÐµÑģÐ¿Ð»Ð°ÑĤ
ĠÐ±Ð¾Ð³Ð¾Ð¼
ĠÐ±Ð¸Ð»Ð°Ð¹Ð½
ĠÐ¸Ð·Ð²Ð¸Ð½ÑıÑİÑģÑĮ
Ð·Ð°Ñı
ÑĤÐ²Ð¾ÐµÐ³Ð¾
ÐµÑĤÑĭÑĢÐµ
ÑĢÐµÐ·ÑĥÐ»ÑĮÑĤ
ÑĢÐµÐ·ÑĥÐ»ÑĮÑĤÐ°ÑĤÑĭ
ĠÑĥÐ´Ð°Ð»Ð¸
ĠÐ»ÐµÑĩÐ¸ÑĤÑĮ
ĠÑģÐµÐ²Ð°ÑģÑĤ
ĠÑħÐ¾ÑģÑĤ
ĠÑħÐ¾ÑģÑĤÐµÐ»
ĠÐ²ÑĭÑħÐ¾Ð´Ð½ÑĭÑħ
ĠÑħÐ¾ÑĤÐµÐ»Ð¾ÑģÑĮ
ĠÐ¿ÑĢÐ¾ÑĦÐ¸Ð»ÑĮ
Ð¾Ð¶Ð´ÐµÐ½Ð¸Ñı
ĠÑģÐ¾ÑģÑĤÐ°Ð²
ÑĢÐ¾Ð»
ĠÐ·Ð°ÑħÐ¾ÑĩÐµÑĤ
ĠÐ´ÑıÑĤ
ĠÑĢÐµÐ·Ð°ÑĤÑĮ
ĠÐ·Ð°Ð¿ÑĢÐ¾ÑģÑĥ
ĠÐ²ÐºÑĥÑģÐ½ÐµÐµ
ÑĤÑĢÐ°Ð²Ð°
ĠÑģÐ·Ð°Ð´
ĠÑģÐ·Ð°Ð´Ð¸
ĠÑģÐºÐ»Ð°Ð´
ĠÐ°Ð»ÐµÐºÑģÐµÐµÐ²
ĠÐ·Ð°ÑģÑĤÑĢ
ĠÐ¾ÑħÑĥÐµÐ²Ð°Ñİ
ĠÑģÐ¿Ð¸Ñģ
ĠÐ¿ÑĢÐ¸Ð±ÑĭÐ²
ĠÐ´Ð¾Ð¼Ð¾Ð²
ĠÑģÐ°ÑħÐ°Ð»Ð¸
ĠÑģÐ°ÑħÐ°Ð»Ð¸Ð½Ðµ
Ð°ÑĩÐµÐ²
ĠÑĨÐµÐ»ÑĭÐ¹
ĠÐ°Ð½Ð¾Ð½Ð¸Ð¼
Ð¼Ð¾ÑĢÐµ
ĠÑħÐ¾ÑĢÐ¾ÑĪÑĥÑİ
ĠÐºÐ°ÑģÐ°Ð½Ð¸Ðµ
ĠÐ¿Ð¾Ð´Ð½Ð¸Ð¼Ð°Ð¹ÑģÑı
ĠÐ²ÑĭÐ¿Ð¸Ð»Ð¸
ĠÐ¼ÐµÐ½ÑĤÐ¾Ð²
Ð³ÐµÑĢÐ¾Ð¹
ĠÐ°Ð´Ð°Ð¼
Ð³ÑĥÐ»ÑıÑĤÑĮ
ĠÐ¶ÑĳÑģÑĤÐºÐ¾
ÐµÐ±Ð°Ð½Ñĥ
Ð¾Ð¸ÑĨ
Ð¾Ð±ÑĥÐ²ÑĮ
ĠÐ¾Ð¿ÑĤÐ¾Ð¼
ĠÐ¾ÑĤÐ¿ÑĥÑģÑĤÐ¸Ð»Ð¸
Ð¼Ð¾Ð»Ð¾Ð´ÐµÑĨ
Ð¿ÑĢÐ¾Ð´Ð°ÑĤÑĮ
ÑģÐ°Ð¼Ð°ÑĢ
ĠÑĩÐµÑĢÑĤ
ĠÑĩÐ°ÑģÐ°
ĠÐ²Ð¾Ð·Ð´ÑĥÑħ
ĠÐ²Ð¾Ð·Ð´ÑĥÑħÐµ
ĠÑıÐº
ĠÑıÐºÐ¾Ð±Ñĭ
ĠÑĢÐ°Ð·Ð½Ð¾
ĠÐ°Ð¿ÑĢ
ĠÐ°Ð¿ÑĢÐµÐ»ÑĮ
Ð½ÐµÐ¼Ñĥ
Ð´Ð¾ÑĢÐ¾Ð³Ð¸
ĠÐ¿ÑĢÐ¾ÑģÑĤÐ¸ÑĤÑĥÑĤÐ¾Ðº
ÑĤÐ°ÐºÑĥÑİ
Ð¸ÑĨÑĨÐ°
ĠÐ·Ð°Ð¿Ð°Ð´Ð»Ð¾
ĠÐ»Ð¸Ð¿ÐµÑĨ
Ð·Ð°ÑĨÐ¸Ñı
Ð¾ÑĤÐµÐ»Ð¸
ĠÐ½Ð¾Ð²ÐµÐ½ÑĮÐºÐ¾Ð³Ð¾
Ð¾Ñı
ĠÐºÑĢÐ°ÑģÐ½ÑĭÐµ
ĠÑħÐ¾ÑĢÐ¾ÑĪÐ¸Ð»Ð¾Ð²Ð°
ĠÑĪÑĥ
ĠÐºÐ¾Ð¼Ð¸ÑĤÐµÑĤ
ĠÐ½ÐµÐ·Ð°Ð²Ð¸Ñģ
ĠÐ½ÐµÐ·Ð°Ð²Ð¸ÑģÐ¸Ð¼
Ð¾Ð²Ð°Ð½Ð¸Ð¹
ĠÐ¿ÑĢÐ¸ÑģÑĭÐ»
Ð¿ÑĢÐ¾Ð¿Ð°Ð´
ĠÑĢÐ¾Ð´Ð°
ĠÑĥÐ±Ð¾Ð³
ĠÑĥÐ±Ð¾Ð³Ð°Ñı
ĠÐ¿Ð¾Ð»ÐºÐ¾Ð²Ð½Ð¸ÐºÐ°
ĠÑĢÑĭÐ±Ñĭ
Ð¿Ð¾ÑĤÐ¾Ð»
Ð¿Ð¾ÑĤÐ¾Ð»Ð¾Ðº
ĠÐ²ÑĭÑıÑģÐ½Ð¸ÑĤÑĮ
Ð¼ÑĥÐ´
Ð¸Ð¼ÐºÐ°
ÑĤÐ¾ÑĩÐ½Ð°Ñı
ĠÐ´ÑĥÑħÐ¾Ð²ÐºÐµ
ĠÐ²ÐµÑĢÑĥÑİÑīÐ¸Ð¹
Ð²ÑĭÐ·Ð¾Ð²Ð¸
ĠÐ¿ÑĢÐ¸Ð·ÑĭÐ²Ð°
ÑĪÐ¸Ñħ
ĠÐ¿ÑĢÐ¸ÑħÐ¾Ð´Ð¸Ð»Ð°
ĠÐ¾ÑħÑĢÐ°Ð½Ðµ
ĠÐ·Ð°Ð±Ð¾Ð»Ð¾ÑĤÐ½Ð¾Ð³Ð¾
Ð¾Ð·Ð°Ð²Ð¾Ð´
ĠÐ´ÐµÐ¹ÑģÑĤÐ²ÑĥÐµÑĤ
ĠÐ¿ÑĢÐ¾ÑģÐ»ÑĥÑĪÐ°ÑĤÑĮ
Ð»ÐµÑĤÑĭ
Ð¿Ð¾Ð·Ð²Ð¾Ð½Ð¸Ð»
ĠÐºÐ°Ð´
ÐºÐ¾Ð½ÐºÑĢÐµÑĤ
Ð¿ÐµÑĤÑĥÑħ
ĠÐ²ÑĭÑħ
ĠÐ²ÑĭÑħÐ¸Ð½Ð¾
ĠÐ¸Ð½Ð²Ð°Ð»Ð¸Ð´Ð¾Ð¼
ĠÑĢÑĥÐ³Ð°ÐµÑĤÐµÑģÑĮ
Ð¾Ð±Ð»Ð°ÑģÑĤÑĮ
ĠÐ¸Ð³ÑĢÑĥ
ÑĢÐ°ÐµÐ¼
ĠÑĤÑİÑĢÑĮÐ¼Ðµ
Ð´ÑĥÑħÐ¸
ĠÐ°Ð½Ð³ÐµÐ»
Ð¸ÑģÑĤÐ°Ð¼Ð¸
ĠÐ±ÑĢÐ°Ð»
Ð°Ð½ÑĮÐºÐ°
ĠÐ¼Ð¾ÑĳÐ¼
ĠÑĤÐ¾ÑĢÐ³ÑĥÐµÑĪÑĮ
ĠÐ°Ð»Ð»
ĠÐ°Ð»Ð»ÐµÑĢÐ³
ĠÐ°Ð»Ð»ÐµÑĢÐ³Ð¸Ñı
ÑĢÐ°ÑĤÐ¸Ð»Ð°ÑģÑĮ
ĠÐ¶Ð°Ð»Ð¾Ð±Ñĭ
ĠÐ²Ð¾Ð·Ð±
ĠÐ¾Ð±ÑıÐ·Ð°Ð½
Ð°Ð½Ð¸Ðº
Ð´Ð²Ð°
ĠÐ¾ÐºÐ°Ð·ÑĭÐ²Ð°ÐµÑĤÑģÑı
ĠÐ²Ð½ÐµÐ·
ĠÐ²Ð½ÐµÐ·Ð°Ð¿
ĠÐ²Ð½ÐµÐ·Ð°Ð¿Ð½Ð¾
ÑħÐ¾Ð¼
Ð´Ð¾Ð¿ÑĥÑģÑĤÐ¸Ð¼
ĠÐµÐ±Ð»Ð¸
ĠÑĩÑĥÐ´
ĠÑĥÐ¼Ð½
ĠÑĥÐ¼Ð½Ð¾Ð¶Ð¸ÑĤÑĮ
Ð³ÑĥÑĢÑĥ
ĠÐ½Ð°Ð²ÑıÐ·
ĠÑĥÐ½Ð¸ÑĩÑĤÐ¾Ð¶Ð¸ÑĤÑĮ
Ð¿Ð¸ÑĤÐµÑĢ
ĠÑģÑĤÐ¾Ð»Ð¾Ð²Ð¾Ð¹
ĠÑģÐ¿Ð¸Ð½Ñĥ
ĠÐ°Ð»Ð³
ĠÐ°Ð»Ð³ÐµÐ±
ĠÑģÐ¸ÑģÑĮÐºÐ°
ĠÑĪÐ¼Ð°ÑĢ
ĠÑĪÐ¼Ð°ÑĢÐ°
ĠÐ¿ÑĢÐ¾ÐµÐºÑĤÐ°
ĠÐ¿ÑĢÐ¾ÐµÐºÑĤ
ĠÐ¾Ð¿ÐµÑĢÐ°ÑĤÐ¸Ð²Ð½ÑĭÐ¼
ĠÑħÐ°Ð»
ĠÐºÐ°Ð¹ÑĢ
ĠÐºÐ°Ð¹ÑĢÐ°ÑĤÐ°
ĠÑĤÑİ
ÐºÐ¾ÑĦÐµ
Ð½Ð°ÑģÑĤÑĢÐ¾Ð¹
ĠÐ·Ð°Ð´Ð°
ĠÐ·Ð°Ð´Ð°ÑĳÑĪÑĮ
ĠÑĢÐ°Ð·Ð²Ð»ÐµÐºÐ°
ĠÐ¾Ð´Ð½Ð¸
ĠÑĤÐ¸ÑħÐ¾
ÑģÑĤÑĢÐ°ÑĪÐ¸Ð»ÐºÐ¸
ĠÐ¿Ð¾Ð´ÑĤÐ²ÐµÑĢÐ´Ð¸ÑĤÐµ
Ð¿ÐµÐ½ÑģÐ¸Ñı
ĠÐ¿Ð¾Ð´Ð½ÑıÐ»Ð°
ĠÑģÑįÐ¼
ÐºÐ¸ÑĤÐ°Ð¹
ÐºÑĢÐ¾Ð²Ð°ÑĤÑĮ
ĠÐ½Ð°Ð¿Ð¸ÑĪÐ¸ÑĤÐµ
ĠÐ·Ð°Ð²ÐµÐ´
Ð¸ÑĩÐµÑģÐºÐ°
ĠÐ¼Ð°Ð»ÑĮÑĩÐ¸ÐºÐ¾Ð²
ĠÐ²Ð¾Ð»ÑĪ
ĠÐ°Ð½Ð¸Ð¼
ĠÐ¼Ð½
ĠÐ±Ð°Ð½Ð°Ð½Ð°
ĠÐ¿ÑĢÐ¾ÑĩÐ¸ÑĤ
Ð¸Ð½ÑĥÑĤÑĮ
ÐºÐ°ÐºÐ¾Ð²Ñĭ
ĠÐ·Ð°Ð½ÑıÑĤÐ¾
ĠÐ¿ÑĢÐµÐ¿Ð°ÑĢÐ°ÑĤ
Ð¾Ð»ÑİÐ±
Ð¾Ð»ÑİÐ±Ð¾Ð²Ð°
ĠÑģÑĬÐµÐ·Ð´
Ð°Ð½Ð¶ÐµÐ»Ð°
ĠÐ½Ð°ÑģÐ¸Ð»Ð¸Ñı
ĠÐ¼Ð°ÑĢÐ³Ð°ÑĢ
ĠÑĦÐµÑĢ
Ð²Ð¾Ð»Ð³Ð¾Ð³ÑĢÐ°Ð´
ĠÐ³Ð¾ÑģÑĤÑıÑħ
Ð³Ð»Ð°Ð²Ð½ÑĭÐ¹
Ð²ÑĭÐºÑĢÐ¾Ð¹ÐºÐ¸
Ð³Ð°Ð³
ÑĤÑĢÐ°Ð½ÑģÐºÑĢÐ¸Ð¿
ÑĤÑĢÐ°Ð½ÑģÐºÑĢÐ¸Ð¿ÑĨÐ¸Ñı
ĠÐ¾Ð±ÐµÐ·ÑĮÑıÐ½Ð°
ĠÐ¿ÑĢÐ¾ÑĪÐ»Ð¸
Ð»Ð°ÑĩÐµÐ½Ð°
ÐºÐ¾Ð¶
ĠÑĥÐ½Ð¸Ð²ÐµÑĢÑģÐ¸ÑĤÐµÑĤ
ĠÐ½ÐµÐ¿ÑĢÐ¸ÑıÑĤÐ½Ð¾
ĠÐ»ÐµÑģÑĥ
ĠÐ¼ÑĥÐ¶ÐµÐ¼
ĠÐ¾ÑĤÐ¾ÑĪ
ĠÐ¾ÑĤÐ¾ÑĪÐ»Ð¸
ĠÐ¿ÑĢÐ¾ÐºÐ¾Ð¼
ĠÐ¿ÑĢÐ¾ÐºÐ¾Ð¼Ð¼ÐµÐ½
ĠÐ¿ÑĢÐ¾ÐºÐ¾Ð¼Ð¼ÐµÐ½ÑĤÐ¸ÑĢÐ¾Ð²Ð°ÑĤÑĮ
ĠÐ¿Ð¾Ð´ÑģÐºÐ°Ð¶Ð¸ÑĤÐµ
ĠÑģÐµÐºÑĥÐ½Ð´Ñĭ
ĠÐ¿Ð¾ÑĢÑĥÑĩÐµÐ½Ð¸Ðµ
ĠÐºÑĢÐ¸ÑĩÐ¸ÑĪÑĮ
Ð¼Ð¾ÑĢÐ¾Ð·
ĠÐ·Ð°Ð³Ð°Ð´ÐºÑĥ
Ð³Ð°Ð´
ĠÐ°Ð½Ð¶
ĠÐºÐ¾Ð½ÑĤÑĢÐ¾Ð»Ñı
ĠÑģÑĤÐ¾ÑıÑĤ
ĠÐ»ÐµÐ¶Ñĥ
Ð²Ð¸Ð´ÐµÐ»
ÑİÐ»Ð¸Ñı
Ð·Ð´Ð¾ÑĢÐ¾Ð²
ÑģÑĤÑĢÐ¾Ð¸Ð»Ð¸
ĠÑĢÐ°Ð±Ð¾ÑĤÐ°ÐµÐ¼
ĠÐ¿ÐµÑĢÐ¸Ð¾Ð´Ðµ
ĠÑĥÐºÑĢÐ°Ð»Ð¸
ĠÐ²ÑĭÑħÐ¾Ð´ÑıÑĤ
ĠÐ¾ÑĦÐ¸ÑĨ
Ð¾ÐºÑĤÑıÐ±ÑĢÑĮÑģÐºÐ¾Ð¹
ĠÑĥÐ·Ð½Ð°ÐµÑĤÐµ
ĠÐºÑĢÑĭÑģÑĭ
ĠÑģÐ¼Ð¾ÑĤÑĢÐ¸ÑĪÑĮ
ĠÐ¾Ð³ÑĥÑĢ
ĠÐ¾Ð³ÑĥÑĢÐµÑĨ
Ð±Ð»Ð°Ð³Ð¾Ð²ÐµÑīÐµÐ½
ĠÐ°Ð¼ÑĥÑĢÑģÐºÐ¾Ð¹
ĠÐ¿Ð¾Ð¿Ð°Ð´Ð°ÐµÑĤÐµ
ĠÐ¿ÑĢÐ¾Ð²ÐµÑĢÐºÐ°
ĠÐ¾ÑģÑĤÐ¾ÑĢÐ¾Ð¶Ð½Ð¾
ĠÐ½Ð°ÑģÑĤÐ¸
ĠÑģÐ¾Ð²ÑĢÐµÐ¼ÐµÐ½
ĠÑģÐ¾ÑĤÑĢÑĥÐ´Ð½Ð¸ÐºÐ¾Ð²
ÐµÑħÐ°
ĠÑģÐ¾Ð»Ð´Ð°ÑĤÐ°
ĠÑĤÑĢÐµÐ½Ð¸ÑĢÐ¾Ð²ÐºÐ°
ĠÐ¿Ð¾ÐºÐ°Ð·Ð°Ð»
Ð±Ð¸Ð±Ð»Ð¸
Ð±Ð¸Ð±Ð»Ð¸Ð¾ÑĤ
Ð±Ð¸Ð±Ð»Ð¸Ð¾ÑĤÐµÐºÐ°
ĠÐ½Ð°Ð²ÐµÑĢÑħÑĥ
ĠÐ¿Ð°Ð´Ð°ÑĤÑĮ
Ð²ÑĭÐ±ÐµÑĢ
Ð²ÑĭÐ±ÐµÑĢÐ¸ÑĤÐµ
Ð¼Ð°Ð»ÑĭÑĪ
Ð°Ð·Ð¾Ð²ÑģÐºÐ¸Ð¹
ÐºÑĢÐ°
ÐºÑĢÐ°ÐµÐ²Ð¾Ð¹
ĠÑģÐ¿ÐµÑĨÐ¸Ð°Ð»ÑĮÐ½Ð¾
ĠÐ²Ð¾Ð¹Ð½Ðµ
ĠÐ¿Ð¾ÑĢÑıÐ´Ð¾Ðº
ÑĤÐ°Ð½Ð°
ĠÐ±ÐµÐ»Ð¾Ð¼
Ð¼Ð°ÑģÐºÐ¸
ÑģÐ¿Ð¾ÑĢ
ĠÐ´Ð¾ÑĢÐ¾Ð¶Ðµ
Ð°Ð½ÑĤÐ°Ð¶
ĠÑĤÐµÑĤÑĢÐ°Ð´ÑĮ
ĠÐ´Ð²Ð¾Ð¹Ð½Ð¾Ð¹
ĠÑĢÐµÐºÐ¾Ð¼
ĠÑĢÐµÐºÐ¾Ð¼ÐµÐ½Ð´
Ð¿Ð¾Ð´ÑĥÐ¼Ð°ÑĤÑĮ
ĠÐ¿Ð¾Ñį
ĠÐ¿Ð¾ÑįÑĤÐ°
ĠÐ¾Ð±Ð¼
ĠÐ¾Ð±Ð¼Ð°Ð·ÑĭÐ²
ĠÐ¾Ð±Ð¼Ð°Ð·ÑĭÐ²Ð°ÑĤÑĮÑģÑı
ĠÐ¿Ð¾Ð»Ñı
ĠÑĤÐµÐºÑĥ
Ð¿Ð¾Ð¼Ð¾Ð¶
Ð¿Ð¾Ð¼Ð¾Ð¶ÐµÑĤ
Ð·Ð°Ð¿Ð¸ÑĪÐ¸
ĠÐ¿Ð¾Ð¼ÐµÑĤ
ĠÐ¿Ð¾Ð¼ÐµÑĤÐºÑĥ
ĠÐ»Ð¾Ð¿
ĠÐ²ÑĭÐµÐ±Ð¾Ð½Ñĭ
ĠÐ¿Ð¾ÑħÐ¾Ð´Ñĥ
ĠÑģÐºÐ°Ð·Ð°Ð½Ð¾
ÐºÐ¸Ð½Ð¾ÑĤÐµÐ°ÑĤÑĢ
ĠÐ·Ð²Ð¾Ð½ÐºÐ¾Ð²
ĠÑģÐ¿ÑĢÐ°ÑĪÐ¸Ð²Ð°Ð¹
ĠÑĥÐ´Ð¾Ð²Ð¾Ð»ÑĮÑģÑĤÐ²Ð¸Ðµ
ĠÐ¿Ð¾Ð²Ð°ÑĢ
ĠÐ²Ð¾Ð´ÐºÐ¸
ĠÐ´ÑĥÐ¼Ð°ÑİÑĤ
ĠÐ¿ÑĮÑıÐ½
ĠÐ´ÑĥÑĢÐ°ÐºÐ¾Ð¼
Ð¾Ð»ÐµÐ¹
ĠÑĳÐ±Ð°Ð½Ð¾Ðµ
ĠÐ¿ÐµÑģÐ½Ðµ
Ð½ÐµÐ¿Ð¾ÑģÐ»ÑĥÑĪ
ÑģÐµÐ²
ĠÐ¼ÐµÐ´Ð²ÐµÐ´
ĠÐºÐ°Ð±Ð°ÑĢ
ÑģÑĥÐ²Ð¾ÑĢÐ¾Ð²ÑģÐºÐ¾Ðµ
ÑģÑĤÐ¸ÑĤÑĥ
ÑĢÑĭÐ²Ð°ÐµÑĤ
ĠÐ¾Ð»Ð¸Ð¼
ĠÐ±Ð¾ÑĢÐ¸Ñģ
ĠÑģÐ¾Ð·Ð²Ð¾Ð½Ð¸Ð¼ÑģÑı
ĠÑģÑĨÐµÐ½
Ð¿ÑĢÐ¾ÑģÑĤÐ°Ð²
ĠÑģÑĤÑĢÐ°
ĠÑĤÐµÐ¼Ð½
ÑģÐ¾Ð»Ð½ÑĭÑĪÐºÐ¾
ĠÑģÑĥÑĤÐ¸
ĠÐ¾ÑĤÐºÑĢÑĭÐ»ÑģÑı
Ð±ÑĥÐ±Ð°
ĠÑģÑĤÐ°ÑĢÐ°Ñı
ÑĥÑĢÐ°
Ð½Ð¸ÐºÐ°Ð¼
Ð¿Ð¾Ð»Ð½ÑĭÐ¹
ÑĪÐ°ÑĤ
ĠÐ´Ð¾Ñģ
ĠÐ¶Ð´Ð°Ð»
Ð¾Ð¿Ð¾Ð»ÑĮ
ĠÐ½Ð¾Ð²Ð¾Ñģ
ĠÐ½Ð¾Ð²Ð¾ÑģÐ¸Ð±
Ð¸ÑĪÐºÐ¸
ĠÐ¼ÐµÐ½ÐµÐµ
Ð¿Ð¾Ð´Ð³Ð¾ÑĤÐ¾Ð²Ð¸ÑĤÑĮ
ĠÐ¿Ð¾ÑĤÐ¾Ð»ÐºÐ¾Ð²
ĠÐ¿Ð°Ñħ
ĠÐ¾ÑģÑĤÐ°Ð»ÑĮÐ½ÑĭÐµ
ÑĩÐµÑĢÐµÐ¿
ÑĩÐµÑĢÐµÐ¿Ð°ÑĪÐºÐ¸
ĠÑģÐ»ÑĥÑħÐ¸
Ð¾ÑĢÐµÑĨ
ĠÐ¾Ð´Ð½Ð¾ÐºÐ»Ðµ
ÑĤÐµÐºÑĥ
ĠÐ±ÐµÐ»Ð³Ð¾ÑĢÐ¾Ð´ÑģÐºÐ¾Ð¹
ĠÑģÑĤÐ¾ÑıÐ»Ð°
Ð¿Ð¾Ð¿ÑĥÐ³Ð°Ð¹
ĠÐºÑĢÐ°ÑģÐ¸Ð²ÑĭÑħ
ĠÐ¼Ð¾Ð»Ð¾Ð´ÑĭÑħ
Ð¿ÑĢÐµÑģÑģ
ĠÐ¿Ð¾ÐºÐ°Ð¶ÐµÑĪÑĮ
ĠÐ´Ð²ÑĥÑħÐ¼ÐµÑģÑı
ĠÐ´Ð²ÑĥÑħÐ¼ÐµÑģÑıÑĩ
ĠÐ´Ð²ÑĥÑħÐ¼ÐµÑģÑıÑĩÐ½Ð¾Ð³Ð¾
ĠÑĩÐµÐ»Ñİ
ÑĤÐµÑĤ
ÐµÐ·Ð´Ðµ
ĠÐ½Ð¾Ð²Ð¸Ð½Ð¸
ĠÑģÐµÑĢÐ²ÐµÑĢ
ĠÐ½ÐµÐ½Ð¾ÑĢÐ¼Ð°Ð»ÑĮÐ½Ð°Ñı
ĠÐµÐ´Ð¸Ð½Ð¸Ñĩ
ĠÐ¿ÑĢÐ¸ÐµÐ·Ð¶Ð°ÐµÑĤ
ÐºÐ²Ð°ÑĢÑĤÐ¸ÑĢÑĥ
Ð¿ÑĢÐ¾ÐºÑĥÑĢ
Ð¿ÑĢÐ¾ÐºÑĥÑĢÐ°ÑĤÑĥÑĢÐ°
ĠÐµÐ¼
ĠÐºÐ¾Ð»Ð¾Ð½ÐºÐ°
ĠÐ·Ð°Ð±ÑĥÐ´
ĠÐ¿ÑĢÐ¾Ð±ÑĮÑİ
ĠÐ±Ð¾Ð¸ÑĤÐµÑģÑĮ
ĠÐ¿ÑĢÐµÐ·Ð¸Ð´
ĠÐ¿ÑĢÐµÐ·Ð¸Ð´ÐµÐ½ÑĤÐ°
ĠÐ¿Ð¾Ð»Ð¾Ð²Ð¸Ð½Ð°
ĠÑĥÑģÐ½ÑĥÐ»
ÐºÐ¾Ð¼Ð°Ð½Ð´Ñĭ
ĠÐºÐ¾Ð¼Ð°ÑĢ
ĠÐ¾Ð¿Ð»Ð°ÑĤ
Ð³Ð¾ÑģÐ¿Ð¾Ð´ÑĮ
ĠÐ±ÑĢÐ°Ñģ
ĠÐ·Ð°Ð±ÑĭÐ»Ð°
ĠÐ·Ð°ÑĢÑıÐ´ÐºÑĥ
Ð½Ð¸ÑħÑĥÑıÑģÐµÐ±Ðµ
ĠÐ°Ð½Ð´ÐµÑĢ
ĠÐ°Ð½Ð´ÐµÑĢÑģÐ¾Ð½
ĠÑĤÐ°Ð½ÐºÐ¾Ð²
ĠÐ¼Ð°Ð³Ð°Ð·Ð¸Ð½Ð°
Ð¸Ð³ÑĢÑĥÑĪÐºÐ°
ĠÑĥÐ³Ð¾Ð»ÑĮÐ½ÑĭÐ¹
ĠÐ³Ð»Ð°Ð·Ð°Ð¼Ð¸
ĠÐºÐ»ÑĥÐ±Ð½ÑıÐº
Ð¿ÑĥÐ»ÑĮÑħ
Ð¿ÑĥÐ»ÑĮÑħÐµÑĢÐ¸Ñı
ĠÐ½ÐµÐºÐ¾ÑĤÐ¾ÑĢÑĭÐµ
ĠÑģÐ°Ð¼Ð°ÑĢÐ°
ĠÐºÐ¾Ð±
Ð¸Ð½Ð¾Ð¹
ĠÐ¼Ð¸ÑĢÐµ
ÑįÐ¹
ÐºÑĢÑĥÐ¿
ĠÑħÑĢÑĥÑģÑĤÐ¸ÑĤ
Ð·Ð°Ð¿ÑĢÐµÑĤ
ÑĥÐµÐ²
ĠÐ¾ÑĪÐ¸Ð±Ð¾ÑĩÐ½Ð¾
ĠÐ¿Ð¸ÑģÑĤÐ¾Ð»ÐµÑĤ
Ð¿ÑĢÐ¸Ð²Ð°ÑĤ
Ð¸Ð°ÑĤÑĢ
ĠÐ·Ð°Ð´Ð°Ð²Ð°Ð»
ĠÐ¿ÑĢÐ¸Ð¼Ð¾ÑĢÑģÐºÐ¸Ð¹
ĠÐ´Ð°ÑİÑĤ
ÑĥÑİÑĤÑģÑı
Ð¸ÐºÑĥ
ÑīÐ¸ÑĨÐ°
ÑģÐ°Ð»Ð¾Ð½
ÑĤÐµÑĢÑĢÐ¸
ÑĤÐµÑĢÑĢÐ¸ÑĤÐ¾ÑĢÐ¸Ñı
ĠÐ°ÑĢÐ³ÑĥÐ¼ÐµÐ½ÑĤ
ĠÐ±ÑĥÐ´ÑĥÑīÐµÐ¼
Ð¿Ð°ÑĨÐ°Ð½
Ð³Ð¾ÑģÐ¿Ð¾Ð´Ð°
ĠÑĤÐ°Ð³Ð¸Ð»Ð°
ĠÑĥÑģÐ²Ð°
ĠÐ·Ð½
ĠÑĦÐ¸Ð»
Ð¾Ð²Ð°Ð»Ð°
ĠÐ¾ÐºÑĢÑĥÐ³Ðµ
ĠÐ¿Ð¾ÑģÑĤÑĥÐ¿Ð°ÐµÑĤ
ĠÐ²ÑģÐµÐ¹
ĠÐ·Ð°ÐºÐ¾Ð½Ð¾Ð¼
ĠÐ¼Ð°ÑĤÐµÑĢÐ¸ÑĤÑģÑı
Ð¾Ð»ÐµÐ»
ĠÑĥÐ²ÐµÐ´Ð¾Ð¼
ÐºÑĢÐ°ÑģÐ¸Ð²ÑĭÐµ
ĠÑģÐ¿Ð¸ÑĢ
ĠÐ½ÐµÐ±Ð¾
ĠÑĥÑīÐµÑĢ
ĠÑĥÑīÐµÑĢÐ±
ĠÐ¿ÑĢÐ¸Ð¼ÐµÑĢÑĥ
ĠÐ³ÑĢÑĥÐ¿Ð¿Ð¾Ð²
ÑĢÐµÐ´Ð¸Ð½Ð°
ĠÐ·Ð°ÑħÐ¾ÑĤÐµÑĤÑĮ
ÑĮÐºÐ¸
ĠÐ¿ÑĢÐ¾Ð´Ð°Ð¼
ĠÑĥÐ³Ð»Ñĥ
ĠÐ¿Ð¾ÑĢÐ°Ð±
ĠÐ¿Ð¾ÑĢÐ°Ð±Ð¾ÑĤ
ĠÐ¿ÑĢÐµÐ´Ð»Ð°Ð³Ð°ÐµÑĪÑĮ
ĠÑĤÐ°Ð»Ð°Ð½ÑĤ
ĠÐ²ÑĢÑĥÐ±Ð°ÐµÑĤÑģÑı
ĠÐ½Ð¸Ð¶Ðµ
Ð¸ÑĨÐ°Ð¼Ð¸
ÑģÑĤÐ°ÑĤÑĮÑı
ÑĳÑĢÐ°
ĠÐ¿Ð¸Ð´Ð¾ÑĢÑĥ
ÑĤÐµÑħÐ½Ð¸ÐºÐ°
ĠÐ´ÐµÐ²ÑĥÑĪÐºÐµ
ĠÐ¿Ð¾Ð´Ð¿Ð¸
ĠÐ¿Ð¾Ð´Ð¿Ð¸ÑģÐºÐ°
ĠÑħÐ¾Ð»
Ð±ÑĥÐ¼ÐµÑĢ
ĠÐ±Ð¾ÐµÐ²
ĠÐ±Ð¾ÐµÐ²Ð¸Ðº
ĠÐ½Ð°ÑħÐ¾Ð´Ð¸ÑĤ
ĠÐ²ÐµÑĢÑģÐ¸Ñİ
ĠÑģÐ¸Ñħ
ĠÐ¿ÑĢÐ¾Ð²ÐµÑĢÐ¸Ð¼
ĠÐµÐ²ÑĢÐ¾
ĠÐ¿Ð¾ÑģÐ¼Ðµ
ÑĩÑĥÐ¶
ĠÑĩÐµÑģÑĤÐ²Ð¾Ð²Ð°ÑĤÑĮ
ĠÐ±ÐµÑģÑģÐ¼ÑĭÑģÐ»
ĠÐ±ÐµÑģÑģÐ¼ÑĭÑģÐ»ÐµÐ½Ð½ÑĭÐ¹
Ð¾ÑģÐºÐ¾Ð¿
Ð»ÐµÐ½Ñĭ
ĠÐ¿ÐµÑĢÐµÐ²Ð¾Ð´Ð¸ÑĤÑģÑı
ĠÐ½Ð°Ð±ÑĢÐ°ÑĤÑĮ
ĠÐ²ÑĭÑħÐ¾Ð´Ð¸ÑĤÐµ
ĠÑĢÐ¾Ð»Ð¸ÐºÐ¸
ĠÐ¿Ð¾Ð¿ÑĥÑĤÐ°Ð»
Ð¼Ð½ÐµÐ½Ð¸Ðµ
ĠÑģÐ²Ð°Ð´ÑĮ
ÐºÑĢÐ°ÑģÐ½Ð¾Ð³Ð¾ÑĢÑģÐºÐ¾Ð³Ð¾
ĠÑģÑĥÐ¼Ð¼Ñĥ
ĠÐ±ÑĥÑħÐ°Ð»Ð°
ĠÐ¾ÑĤÐºÑĢÐ¾Ð¹ÑĤÐµ
Ð³Ð¾ÑĢÐ¾Ð´ÑģÐºÐ°Ñı
Ð¿ÑĢÐ¸ÐºÐ°Ð·Ñĭ
Ð¸ÑĢÐ¾Ð²Ð°ÑĤÑĮÑģÑı
Ð°ÑģÑĤÑĢ
ĠÑĤÐµÐ»ÐµÐºÐ¾Ð¼
ĠÐ²ÑģÑĳÐ¼
ÑĢÐµÐ½ÑĤÐ°Ð±
ÑĢÐµÐ½ÑĤÐ°Ð±ÐµÐ»ÑĮÐ½Ð¾ÑģÑĤÑĮ
ĠÐ½ÐµÐºÐ¾Ð³Ð´Ð°
ĠÐ¿ÑĢÐ¾Ð¸Ð·Ð²Ð¾Ð´Ð¸Ð»
ĠÐºÐ°ÑĢÐ°Ð²
Ð²ÑĭÐ¶
Ð½Ð¾ÑĢÐ¼Ð°
ÑĭÐ»ÑģÑı
Ð²Ð»ÑİÐ±
Ð¾ÐºÐ¾Ð»Ð¾
ĠÑĪÐ¾ÐºÐ¾Ð»Ð°Ð´
Ð¼Ð°Ð½Ð´Ð°ÑĢ
ĠÐ¸Ð³Ð¾ÑĢ
ĠÐ¸Ð³Ð¾ÑĢÑĳÐº
ÐµÑīÐµÑĢÐ°
ÑħÐ¾Ð´Ð°
ĠÐ¶Ð´ÑĳÑĤ
ĠÐ´ÑĥÐ¼Ð°ÐµÑĤ
ĠÐ´Ð¾Ð·Ð²Ð¾Ð½Ð¸Ð»ÑģÑı
ĠÑģÐ¾Ð±Ð¸ÑĢÐ°ÐµÑĤÐµÑģÑĮ
ĠÐ²ÑĭÐ´Ð°Ð²Ð°ÑĤÑĮ
ĠÐ»Ð°
ĠÐ¿Ð°Ð»ÑĮÑĨÐ°Ð¼Ð¸
ÑĢÐ°Ð²Ð¸Ð»Ð°ÑģÑĮ
Ð°ÐºÐ²Ð°Ð¿
Ð°ÐºÐ²Ð°Ð¿Ð°ÑĢÐº
ĠÑĥÐ¿ÑĢÐ°Ð²Ð°
ĠÐ´ÐµÐ±
Ð¿Ð¾ÐºÑĥÐ¿ÐºÐ°
Ð²ÑģÑı
ĠÐ°Ð²ÑģÑĤÑĢ
ĠÐ´Ð½ÐµÐ¹
ĠÐ¿ÑĢÐ¸Ð½ÐµÑģÐ»Ð°
ĠÑįÑĤÐ°Ð¶
ĠÑĤÐµÑħÐ½Ð¸ÑĩÐµÑģÐºÐ¸Ð¹
ĠÐ¿ÐµÑĢÐµÐ³
Ð¿Ð¾Ð´ÐºÐ»ÑİÑĩÐµÐ½Ð¾
ĠÐ»ÐµÐ´
Ð½Ð°ÑĩÐ¸Ð½Ð°
ĠÐ²ÑĢÑĥÐ±Ð°ÑİÑģÑĮ
ĠÐºÐ°ÑĤÐ°Ð»Ð¾Ð³
Ð¿ÑĢÐ¸Ð´ÑĳÑĪÑĮ
ĠÐºÐ¾Ð¼Ð¼ÑĥÐ½Ð¸ÑģÑĤÐ¸ÑĩÐµ
ĠÑĦÑĢÐ°Ð½ÐºÐ¾Ð²
Ð´Ð¾Ð»Ð³Ð¾
ÑģÑĥÐ´Ñı
ĠÐ²ÐºÐ¾Ð½ÑĤÐ°ÐºÑĤ
ĠÐ´Ð¾Ð»Ð±Ð¾ÑĳÐ±Ð¾Ð²
Ð´Ð¾Ð±Ð°Ð²Ð¸ÑĤÑĮ
ĠÐ¿ÑĭÑĤÐ°ÐµÑĤÑģÑı
ĠÐ±Ð»Ð°Ð³Ð¾Ð²ÐµÑīÐµÐ½ÑģÐº
ĠÐ¼ÐµÑĤÐ¾Ð´
Ð¿ÑĢÐµÐ´ÑģÑĤÐ°Ð²ÑĮÑĤÐµ
ĠÐ¿Ð¾Ð·Ð½Ñı
ĠÑĢÐ°ÑģÑģÐ»ÐµÐ´Ð¾Ð²Ð°Ð½Ð¸Ñı
ÑģÑĥÑģ
ĠÑĥÑĤÐ¾ÑĩÐ½Ñİ
ĠÐ¿Ð°ÑĢÐ°Ð¼ÐµÑĤ
ĠÐ²Ð¸Ð½Ð¾Ð²Ð°ÑĤ
Ð¸ÑĤÑĤÐ¾
Ð¾Ð±Ð»Ð¾Ðº
ĠÐ·Ð½Ð°ÐºÐ¸
ĠÑĦÐ¾ÑĢÐ¼Ðµ
ÐºÐ¾Ð¾ÑĢÐ´Ð¸Ð½Ð°ÑĤÑĭ
ĠÐ¿ÑĢÐ¸Ð½Ð¾ÑģÐ¸ÑĤ
Ð²ÑĤÐ¾ÑĢÐ¾Ð¹
ĠÐ½Ð°ÑĢÐºÐ¾Ð¼Ð°Ð½Ñĭ
ĠÐ·Ð°Ð¿ÑĢÐµÑĤ
ĠÐ¿ÑĢÐµÑĤ
ĠÐ¿ÑĢÐµÑĤÐµÐ½Ð·
ĠÐ¿ÑĢÐµÑĤÐµÐ½Ð·Ð¸Ð¸
ĠÐ¾ÐºÐ°Ð·Ð°Ð»Ð¾ÑģÑĮ
Ð¾Ð½Ð¸ÑĤÐµ
Ð¿ÐµÑĢÐ¸Ð¾Ð´
ĠÐ½Ð°ÑĩÐ¸Ð½Ð°ÐµÑĪÑĮ
ĠÐ³Ð¾ÑĢÑĮ
ĠÐ³Ð¾ÑĢÑĮÐºÐ¾Ð³Ð¾
ĠÑĤÑĢÑĥÐ±Ñĭ
ĠÐ¿Ð¾Ð¼Ð¾ÑīÐ¸
ĠÑĨÐ¸Ð»Ð¸Ð½
ĠÐºÐ°ÑĤÑı
ĠÐ¾Ð²
ĠÑĢÐ°Ð´ÑĥÐ¹ÑģÑı
ĠÐºÐ¾Ð¼Ð¿Ð»Ð¸Ð¼
Ð¸ÑĤÐºÐ°
ĠÐ·Ð°ÑħÐ¾Ð¶Ñĥ
ĠÑģÑĤÑĢÐ°Ð½Ð¸ÑĨÑĥ
ĠÐ¿Ð°Ð´Ð°Ð»Ð¸
ĠÐ·Ð°ÑıÐ²ÐºÑĥ
ĠÐ¿Ð¾Ð´Ð°Ð»Ð°
ĠÐ¿Ð¾Ð»ÑĩÐ°Ñģ
ĠÐ¿Ð¾Ð»ÑĩÐ°ÑģÐ°
ĠÐ¼ÑĦÑĨ
Ð¾ÑĦÐ¸ÑĤ
Ð¿Ð»ÐµÐ¹
ĠÑģÐ¸Ð³Ð½Ð°Ð»Ð°
ĠÐ¿ÑĢÐ¸Ð¼ÐµÑĤÐ°
ĠÑģÐºÐ¸Ð´ÑĭÐ²Ð°Ð¹
Ð°ÑĤÐ¸Ð½
ĠÐ¿Ð°ÑĢÑĤÐ½
ÐµÑĩÐºÐ°
Ð»ÑĳÐ³ÐºÐ¸Ðµ
ĠÐ´ÐµÑģ
ĠÑģÑĤÐ°Ð½Ñĥ
ĠÐºÐ¾ÑĤÐ¾Ð²
ĠÐ²Ð°Ð¹
ĠÐ²Ð°Ð¹Ð±
ĠÐ²Ð°Ð¹Ð±ÐµÑĢÐµ
ĠÑģÑģ
Ð°Ð´Ð¼Ð¸Ð½Ð¸ÑģÑĤÑĢÐ°
Ð°Ð´Ð¼Ð¸Ð½Ð¸ÑģÑĤÑĢÐ°ÑĨÐ¸Ñı
Ð¸ÑĤÐ°Ð»Ð¸Ðº
ĠÐ¿Ð¾Ð·Ð¸
ĠÐ¿Ð¾Ð·Ð¸ÑĨÐ¸Ñİ
Ð´Ð¾Ð±ÑĢÑĭÐµ
ÑĥÐ»ÑĮÑıÐ½Ð°
ĠÐ±ÐµÐ»Ð¾Ð²Ð°
ÐºÑĥÐºÑĥÑĪÐºÐ°
Ð²Ð°Ð»Ðµ
ĠÐ´ÐµÐ´ÑĥÑĪÐºÐ¾Ð¹
ĠÐ¿ÐµÑĢÐµÐ·Ð²Ð¾Ð½Ð¸ÑĤ
ĠÐ²ÑħÐ¾Ð´
ĠÐµÑĪÑĮ
ĠÐ²ÐµÑĢÐ½
ĠÐ¼ÐµÐ³
ĠÑĪÐ°Ð¼Ð¿Ð°Ð½
ĠÐ¾ÑĢÑĥÐ¶Ð¸Ðµ
ĠÐ´Ð¾Ñı
Ð¸ÐºÑİÑĢ
ĠÐ¼Ð¾ÑĤ
ĠÐ¿ÑĢÐ¸Ð´ÐµÑĤÑģÑı
ÑĪÐµÐ²ÑĩÐµÐ½ÐºÐ¾
ĠÐ»Ð¾Ð³Ð¸ÐºÐ°
ĠÑĢÐµÐ·ÑĥÐ»ÑĮÑĤÐ°ÑĤÐµ
ĠÐ´ÑĥÑĢÐ´Ð¾Ð¼Ðµ
ĠÐ¿Ð¾Ð·Ð²Ð¾Ð½Ð¸ÑĤ
ĠÐ·Ð¾Ð»Ð¾ÑĤÐ¾Ð¹
ĠÐ¿Ð¾ÑħÐ²
ĠÐ¿Ð¾ÑħÐ²Ð°ÑģÑĤ
ĠÐ³Ð¾Ð»ÑĥÐ±Ð¾Ð¹
ĠÐ¿Ð¾Ð³Ð¾Ð´Ñĭ
ĠÐ¿Ð¾ÐºÐ°Ð·Ð°ÑĤÑĮ
Ð°ÐºÐ¾Ð²Ð¾
ĠÐ¼Ð½Ð¾Ð³Ð¸Ñħ
Ð¸Ð¹ÑģÐº
ĠÐ¾ÑĤÑģÑĤÑĥÐ¿
ĠÐ²ÑĭÐ´Ð°ÑĤÑĮ
ĠÐ¸Ð½ÑĤÐµÑĢÐµÑģÐ½ÑĭÐ¹
ĠÐ¾Ð´Ð½Ð¾Ð¼
ÑĤÐ»
ÑģÐºÐ¾Ñĩ
ĠÐ¿Ð¾Ð²ÐµÑĢÑİ
ÐºÑĢÑĥÑĤ
Ð½ÐµÐ·Ð°ÐºÐ¾Ð½
Ð½ÐµÐ·Ð°ÐºÐ¾Ð½ÑĩÐµÐ½
Ð½ÐµÐ·Ð°ÐºÐ¾Ð½ÑĩÐµÐ½Ð½Ð°Ñı
ĠÐ½Ð°Ð·Ð²Ð°Ð»Ð°
ĠÐ½ÐµÑħÐ¾ÑĢÐ¾ÑĪÐ¾
ĠÑģÐ¾Ð±Ñĭ
ĠÐ¼ÑĭÑģÐ»
ĠÑģÐºÑĢÑĭÐ²Ð°ÐµÑĪÑĮ
ĠÑģÐ°Ð¼Ð°ÑĢÑģÐºÐ°Ñı
ĠÐ¼ÐµÐ½ÑıÑİÑĤÑģÑı
ĠÐ±Ð°ÑģÑģÐµÐ¹Ð½
ĠÐ²ÐµÑĢÐ½ÑĥÑģÑĮ
Ð¾Ð¾
ĠÐºÐ°ÑĤÑİ
ĠÐ·Ð²Ð°Ð»Ð°
Ð²Ð°Ñħ
Ð¼ÑĥÑĢÐºÐ°
ÑĭÐ²Ð°ÐµÑĤÐµ
Ð²ÑĭÐ¿ÑĢÑıÐ¼
Ð²ÑĭÐ¿ÑĢÑıÐ¼Ð¸ÑĤÐµÐ»ÑĮ
Ð¾ÑĤÐ»Ð¸Ñĩ
ĠÐ¾ÑĤÐ»Ð¸ÑĩÐ½Ð¾
Ð¾ÑĤÐ¼ÐµÐ½Ð°
ĠÐ¿ÑĢÐ¾Ð±ÐµÐ»
ĠÐ³Ð»ÑĥÐ¿Ð¾
ĠÐ½Ð¾ÑĢÐ¼Ð°
ĠÑĤÐµÐºÑģÑĤÐµ
ĠÐ¼Ð¾Ðµ
ĠÐ¾Ð±Ð¸Ð¶Ð°ÐµÑĪÑĮÑģÑı
ÑĢÐ°Ð½Ð¾Ð²
ĠÐ±ÐµÑģÐ¿Ð¾ÐºÐ¾Ð¹ÑģÑı
ĠÐ±Ð¾Ð»ÑĮÐ½Ð¸ÑĨÑĥ
Ð¾ÑģÐ½Ð¾Ð²Ð°Ð½Ð¸Ðµ
ĠÐ¿Ð¾Ð´Ð°ÑĢÑİ
ĠÐ¿ÑĢÐ¸ÐºÐ¸Ð½ÑĮ
ĠÑĩÑĥÐ²ÑģÑĤÐ²ÑĥÐµÑĤ
ĠÐ±ÑĢÐ°ÑĤÐ¾Ð¼
ĠÑĤÐµÐ»Ðµ
ÑĩÐ¸ÑĤÐ°Ð¹ÑĤÐµ
ÑģÑĩÐ°ÑģÑĤÑĮÑı
ĠÐ¿ÑĢÐ¾ÐºÐ»ÑıÑĤ
ĠÐºÑĥÐ¿Ð¸ÑĤ
ĠÑĤÐ°Ð½ÑĨÑĥÑİ
Ð¿Ð¾ÑĤÑĢÐµÐ±
ĠÐ±Ð¾ÑĢÑĮÐ±Ñĭ
Ð¾Ð±ÑĢÐ°Ð¶
ĠÑģÑĤÑĢÐ¾Ð¸ÑĤÐµÐ»ÐµÐ¹
ĠÐ±ÑĭÐ²Ð°Ñİ
ĠÐ¾Ð´Ð¸Ð½Ð°ÐºÐ¾Ð²ÑĭÐµ
ĠÐ±ÑĥÐ´Ð¸Ð»ÑĮ
ĠÐ±ÑĥÐ´Ð¸Ð»ÑĮÐ½Ð¸ÐºÐ°
ĠÐºÐ¾Ð¼Ð¸
ĠÐ¿Ð°ÑģÐ¿Ð¾ÑĢÑĤ
Ð¼Ð°Ð³Ð½Ð¸ÑĤ
Ð±Ð»Ð¾ÐºÐ¸
ĠÐ´ÑĢÐ°ÐºÐ¾Ð½Ð¾Ð²
ĠÑģÐµÐ»
ÑħÐ°Ð»
ĠÐºÐ¾Ðº
ĠÐºÐ¾ÐºÐ¾Ñģ
ĠÑĢÑĥÑģÑģÐºÐ¾Ð¹
ĠÐ¸Ð³ÑĢÐ°ÐµÑĪÑĮ
ĠÐ¿ÑĢÑıÑĤÐºÐ¸
ĠÐ°Ð»ÐºÐ¾Ð³Ð¾Ð»Ð¸Ðº
ĠÐ±ÑĢÐ¾ÑģÐ¸Ð»
ĠÑĢÐ°Ð·Ð±Ð¾Ð¹
ÐºÑĢÐ°ÑģÐ°Ð²
ÐºÑĢÐ°ÑģÐ°Ð²Ð¸ÑĨÐ°
ĠÐ¾Ð´ÐµÐ¶Ð´Ðµ
Ð¿Ð°ÑĢÐ½Ð¸
ĠÑĩÑĳÑĤ
ĠÑĩÑĳÑĤÐºÐ¾
ÑĥÐ·Ð±ÐµÐºÑģÐºÐ¸Ðµ
ĠÑĥÐ¼ÐµÑİÑĤ
ĠÐ´ÑĥÐ¼Ð°ÑĤÑĮ
ĠÐ²Ð°ÑģÐ¸Ð»ÑĮÐµÐ²Ð°
Ð³Ð°Ð·
ÐºÐ»Ð°ÑģÑģ
Ð¾ÐºÐ¾Ð½
Ð¾ÐºÐ¾Ð½Ñĩ
ĠÐ·Ñĥ
ĠÐ¾ÑĢÐµÐ»
Ð¼Ð°ÐºÑģ
Ð»Ð¸ÑĦ
ĠÐ¿ÑĢÐ¸Ð½ÐµÑģÑĥ
ÑģÐ¿Ð°ÑĢÑĤÐ°Ðº
ĠÐ±ÐµÑģÐºÐ¾Ð½
ĠÐ±ÐµÑģÐºÐ¾Ð½ÐµÑĩ
ĠÐºÐ¸Ð½ÐµÐ»ÑĮ
ĠÐ¿Ð¾Ð²ÐµÑģÑĤ
Ð¿Ð¾Ð²ÐµÑĢÑĮ
ÐµÐ±ÐµÐ»ÑĮ
Ð¿Ð°Ñģ
ÑģÑĥÐ´Ð¸Ð¼
ĠÑĥÐ¼ÑĢ
ĠÑĥÐ¼ÑĢÑĳÑĤ
ĠÐ½Ð°ÑĩÐ°Ð»Ð¸
ĠÑģÐ²Ð¾Ð»
ĠÐ¾ÑĤÑģÑĥÑĤ
ĠÐ¾ÑĩÐµÑĢÐµÐ´
ĠÐ¾ÑĩÐµÑĢÐµÐ´Ð½Ð¾Ð¹
ĠÐ¿ÑĢÐµÐ´Ð¾ÑĤÐ²
ĠÐ¿ÑĢÐµÐ´Ð¾ÑĤÐ²ÑĢÐ°ÑĤ
ĠÐ¿ÑĢÐµÐ´Ð¾ÑĤÐ²ÑĢÐ°ÑĤÐ¸ÑĤÑĮ
ĠÐ¼Ð°Ð»ÑĮÑĩÐ¸ÐºÐ°
ĠÐ·Ð°ÑħÐ¾Ð´Ð¸
ĠÐ·Ð°ÑģÐµÐºÑĢ
ĠÐ·Ð°ÑģÐµÐºÑĢÐµÑĩ
ĠÐ·Ð°ÑģÐµÐºÑĢÐµÑĩÐµÐ½Ð½ÑĭÐ¹
Ð¾Ð²ÐµÑĢÑĪÐµÐ½
ĠÐ´ÐµÐ²Ð¾ÑĩÐºÑĥ
ĠÐ·Ð°ÑĢÐµÐ³
ĠÐ·Ð°ÑĢÐµÐ³Ð¸ÑģÑĤÑĢ
ĠÐ¿Ð°ÑģÐ¿Ð¾ÑĢÑĤÐµ
ĠÐ¸ÐºÐ¾Ð½
ĠÐ±ÐµÑģÐ¿ÑĢÐµÐ´ÐµÐ»
ĠÐ¿ÑģÐ±
Ð¼ÐµÐ³Ð°Ð¿
ĠÑĢÐ°ÑģÐ¿Ð¾ÑĢ
ĠÐ½Ð°Ð¶Ð°Ð»
Ð¸Ð½ÑģÑĤ
Ð¸Ð½ÑģÑĤÐ¸ÑĤÑĥÑĤ
Ð°Ð½Ð¾Ð²ÐºÐ°
ĠÑĢÐ°Ð¹Ð¾Ð½Ð°Ð¼
ĠÐ¸Ð·Ð±Ð¸Ð²Ð°ÐµÑĤ
ÑĥÐ´Ð°ÑĩÐ°
Ð¿ÑĢÐ¸Ñħ
ĠÐ¿Ð¾ÐºÐ¾Ð¹Ð½Ð¸ÐºÐ°
ĠÐ¿ÑĢÐ¾ÑīÐµÐ½Ð¸Ñı
ĠÑĥÐ¿Ð¾Ð¼
Ð¸ÑĤÐµÐ»ÑıÐ¼
ĠÐ²ÑģÑĤÑĢÐµÑĩÐ°ÑĤÑĮ
ĠÐ¾ÑĦÐ¸ÑĨÐ¸
Ð½ÐµÐ»ÑĮ
Ð½ÐµÐ»ÑĮÐ·Ñı
ĠÐ°Ð»ÐºÐ¾Ð³Ð¾Ð»
Ð½Ð°ÑĤÑĥÑĢÐ°Ð»ÑĮÐ½ÑĭÐ¹
ÐºÑĢÐ¾ÑĤÐ¸Ðº
ĠÐ¿Ð°Ð½Ð´Ð°
ĠÐ½Ð°Ð¹Ð´ÐµÐ¼
ĠÐ·Ð¾Ð½
Ð·Ð°ÐºÐ°Ð¶Ð¸
ÐµÐ´Ð¸Ð½ÑģÑĤÐ²ÐµÐ½Ð½Ð¾Ðµ
ĠÐ±Ð°Ð·Ð°ÑĢÐ¸ÑĤÑĮ
ĠÐ±Ð»Ð¸Ð¶Ðµ
ĠÐ¿ÐµÑĢÐµÐ´Ð°ÑĩÑĥ
ĠÐºÐ¾Ð»Ð»ÐµÐºÑĨÐ¸Ñı
Ð¿Ð¾Ð²Ð°ÑĢ
ÐµÐµÐ²Ð¸Ñĩ
ĠÑģÐ´ÐµÐ»Ð°Ð¹
ĠÐ¿ÑĢÐ¾ÑĪÐ»Ð¾Ðµ
ĠÑıÐ³Ð°
ĠÐ·Ð°ÑīÐ¸ÑĤ
Ð¿ÑĢÐµÐ´ÑģÑĤÐ°Ð²Ð»ÑıÐµÑĪÑĮ
ĠÐ¿ÑıÑĤÐ¾Ð¼
ĠÑģÐ°Ð´Ð°
ÑĤÐ°ÐºÐ¾Ð¹
Ð´ÑĥÐ±ÑĢ
ĠÐ´Ð¾ÑģÑĤÐ°Ð½Ñĥ
ĠÑįÐ»Ð¸ÑĤÐ½ÑĭÐµ
ĠÐ½Ð°ÑĩÐ°Ð»ÑģÑı
ĠÐ³ÑĢÐ°Ð¼Ð¾ÑĤÐ°
ĠÑģÐ¿Ð°Ñģ
Ð½Ð¸ÑĨÐµ
ĠÐ´Ð¾Ð²Ð¾Ð»ÑĮ
ĠÐ±ÑĢÐ¾ÑģÐ°Ð¹ÑĤÐµ
ĠÐºÐ°ÐºÐ¸Ð¼Ð¸
Ð½Ð¾Ð³Ð¾ÑĢÑģÐº
ĠÐ¾Ð´ÐµÑĤÐ°
Ð½ÐµÐ½Ð°Ð²
Ð½ÐµÐ½Ð°Ð²Ð¸Ð´
Ð°Ð½ÑĥÐºÐ°
ÑįÑĤÑĥ
ÑģÐ¸ÑģÑĤÐµÐ¼Ð°
Ð°Ð¼ÐµÑĢÐ¸Ðº
ĠÐ¿Ð¾Ð´ÑĬÐµÐ·Ð¶Ð°ÐµÑĤ
ĠÐ¿Ð¾Ð´Ð½Ð¸Ð¼Ð°ÑĤÑĮ
ĠÐ´Ð²Ð¸Ð¶
ĠÑĢÐ°ÑģÐ¿ÑĢÐ¾ÑģÑĤ
ĠÑĢÐ°ÑģÐ¿ÑĢÐ¾ÑģÑĤÑĢÐ°Ð½
ÐºÑĢÑĭÐ¼
ĠÐ²ÑĢÐ°ÑĩÐ°
ĠÐ²ÑĭÑĢ
ĠÐ·Ð°ÐºÐ¾Ð½ÑĩÐ¸ÑĤÑģÑı
ĠÐ²Ð¸ÑĤÐ°Ð»Ð¸Ð¹
Ð²Ð¾Ð·Ð»ÑİÐ±Ð¸
ĠÐ±Ð»Ð¸Ð¶
ĠÐ±Ð»Ð¸Ð¶Ð½ÐµÐ³Ð¾
ĠÐ½Ð°ÑĢÑĥÑĪÐ°Ñİ
ĠÑģÐ»ÑĥÐ¶Ð±Ñĥ
ĠÐ¿Ð»Ð¾ÑħÐ¾Ð¼Ñĥ
ÑĢÐ°Ð½Ð¸Ðµ
ĠÐµÐ±Ð°Ð»ÑĮÐ½Ð¸Ðº
ĠÐµÐ±Ð°Ð»ÑĮÐ½Ð¸ÐºÑĥ
Ð²Ð¸Ð½Ð¾Ð³ÑĢÐ°Ð´
ĠÐ¿Ð¸Ð½
ĠÐ¿ÑĢÐ¸Ð´ÐµÑĪÑĮ
Ð¾Ð²Ð¸ÑīÐµ
ĠÐµÐ·Ð´Ð¸ÑĤÑĮ
ĠÐ³Ð¾ÑĢÐ¾Ð´ÑģÐºÐ¾Ð¹
ĠÐ½Ð°ÑĩÐ½ÑĳÑĪÑĮ
ĠÑĢÐ°ÑģÑģÑĤ
ĠÑĢÐ°ÑģÑģÑĤÐ°ÑĤÑĮÑģÑı
Ð¼ÐµÐ¶
ĠÐ³Ð¾Ð»Ð¾ÑģÐ°
ĠÐ·Ð°Ð²Ð¸Ð´
ĠÑįÐº
ĠÑįÐºÐ·Ð°Ð¼
ĠÑįÐºÐ·Ð°Ð¼ÐµÐ½
ĠÑĦÐ¾ÑĤÐºÐ¸
ÐºÑĥÐ¿Ð¸ÑĤÐ¸
ĠÐ¾ÑģÐ½Ð¾Ð²Ð°Ð½Ð¸Ñı
Ð¾Ð´ÐµÐ´
ĠÐ¼Ð¾Ð±Ð¸Ð»ÑĮÐ½Ð¾Ð³Ð¾
Ð¿Ð¾ÑĤÐµÑĢ
ĠÑĪÐ°ÑĢÐ¸ÑĤ
ÑħÑĥÐ»Ð¸Ð³Ð°Ð½Ñĭ
ĠÑĤÑĥÐº
Ð°ÑĢÑħÐ¸Ð²
ĠÐ¿ÑĢÐ¸ÐµÐ·Ð¶Ð°Ð»Ð°
ĠÑģÐºÑĥ
ĠÐºÐ¾Ð½ÑĦÐµÑĤ
ĠÐ¿Ð¾ÑģÐ¼Ð¾ÑĤÑĢÐµÐ»
ĠÑģÐ¸Ð±
ĠÑģÐ¸Ð±Ð¸ÑĢ
ĠÑĦÐ°Ð±ÑĢ
ĠÑĦÐ°Ð±ÑĢÐ¸ÐºÐ¸
ĠÑĢÐµÐ²
ĠÑĢÐµÐ²Ð½Ñĥ
Ð½Ð°Ð¹Ð´
ĠÐ´Ð²Ð°Ð¶Ð´Ñĭ
Ð·Ð°Ð½
ĠÑħÐ¾ÑĢÐ¾ÑĪÐµÐ¼Ñĥ
ĠÐ±ÐµÐ³Ñĥ
ĠÐ¾Ð²Ð¾
ĠÐ¾Ð²Ð¾Ñī
ÑĥÐ´Ð°ÑĢÐ¸Ð»
ĠÐºÐ¾Ð»ÑĮ
ĠÐºÐ¾Ð»ÑĮÑĨÐ¾
ĠÐ»ÐµÑĤÐ¸ÑĤ
ĠÐ°Ð»ÐµÐºÑģÐµÐ¹
ÐµÑĤÐ¾Ð½
ĠÐ²ÑģÑıÐºÐ¸Ð¼
ĠÐ±ÐµÑĢÐµÐ·
ĠÐ±ÐµÑĢÐµÐ·Ð¾Ð²ÑģÐºÐ¸Ð¹
ĠÐ¿ÐµÑĢÑģÐ¾Ð½Ð°Ð¶ÐµÐ¹
ĠÐ´Ð¾Ð»Ð³Ð°
ĠÐ´Ð¾Ð»Ð»
ĠÐ´Ð¾Ð»Ð»Ð°ÑĢÐ°
ĠÑĩÑĳÑĢÐ½ÑĥÑİ
ĠÐ¼Ð¾Ð»ÑĮ
Ð»ÑĥÐ±
ĠÐ½Ð°ÑĦÐ¸Ð³
ĠÐ½Ð°Ð·ÑĭÐ²Ð°ÐµÐ¼
ÑĢÐ°Ð½ÑĤ
ÑĨÐ¾Ð²Ð¾
ÑĥÐ´ÑĢÐ°
ĠÑĩÐµÐ»Ð½Ð°Ñħ
ĠÐ´Ð¾Ð±ÑĢÐ°ÑĤÑĮÑģÑı
ĠÐ¾ÑģÐºÐ¾ÑĢÐ±Ð»ÐµÐ½Ð¸Ðµ
ĠÐ·Ð°ÑĤÑĢ
ĠÐ·Ð°ÑĤÑĢÐ¾Ð»Ð¸ÑĤÑĮ
ĠÐ±ÑĢÐ°ÑĤÑĥ
Ð¾ÑĢÐ°Ñĩ
ĠÐ±Ð¾ÑĢÐ¸ÑģÐ¾Ð²Ð½Ð°
ĠÐºÐ»ÑĳÐ½
ĠÐ²ÑĭÑģÐºÐ°Ð·ÑĭÐ²
ĠÐ¾ÑģÑĤÐ°Ð²ÑĮ
ĠÐ¶Ð¸Ð·Ð½ÐµÐ½
ĠÑĨÐ°ÑĢÐµÐ¹
ĠÑĤÐ¾Ð¹
Ð²Ð¾Ð²Ð°
Ð¼ÑĭÑģ
ĠÐ·Ð°Ð±Ð°Ð²
ĠÐ·Ð°Ð±Ð°Ð²Ð½ÑĭÐ¹
ĠÐ¿Ð¾Ð´Ð²ÐµÐ·
ĠÐ¿Ð¾Ð´Ð²ÐµÐ·ÑĤÐ¸
Ð½Ð¸Ð»Ð¸
ĠÑĥÑĪÐ¸
Ð¾ÑĤÐ²ÐµÑĤÑĩÐ¸Ðº
ĠÐ³Ð¾Ð»Ð¾ÑģÐ¾Ð²Ð¾Ðµ
ÑħÐ¾ÑĢÐ¾ÑĪÐ¸Ðµ
ĠÐ³ÐµÑĢÐ¼Ð°Ð½
ĠÐ³ÐµÑĢÐ¼Ð°Ð½Ð¸Ð¸
ĠÐ¼Ð°Ð·
ĠÐ¼Ð°Ð·ÑĥÑĤ
ĠÑĤÑĥÑĦ
ĠÑĤÑĥÑĦÐ»Ð¸
ĠÐ³ÑĢÐ¾Ð±
ĠÐ³Ð¾ÑĤÐ¾Ð²Ð¸ÑĤÑĮ
ĠÐ¾ÑĤÑĢÑı
ĠÐ¾ÑĤÑĢÑıÐ´Ðµ
ĠÑģÑĥÑģÑĤÐ°Ð²
ĠÑģÑĤÑĢÑĥ
ĠÐ¾Ð³Ð½Ñı
ĠÑĢÐµÑĩÐ¸
Ð¿ÐµÑĢÐµÐº
ĠÑģÐ¾Ð³Ð»Ð°ÑĪ
ĠÐ´Ð»Ð¸Ð½
ĠÐ´Ð»Ð¸Ð½Ð½Ð¾Ð³
ĠÐ´Ð»Ð¸Ð½Ð½Ð¾Ð³ÑĥÐ±
ĠÐ´Ð»Ð¸Ð½Ð½Ð¾Ð³ÑĥÐ±Ð°Ñı
ĠÐ°Ð¼Ð±ÑĢÐ¾Ðº
ĠÐ°Ð¼Ð±ÑĢÐ¾ÐºÑģÐ¾Ð»
ĠÐ±Ð°ÑıÐ½
ĠÐ¸Ð·Ð»ÑĥÑĩ
ĠÐ¸Ð·Ð»ÑĥÑĩÐ¸Ð½Ñĥ
Ð¿Ð¾Ð²ÐµÐ·Ð»Ð¾
ĠÐ´ÐµÐ²ÐºÐµ
ÑĢÐ°Ð·ÑĢÑĥÑĪ
ÑĢÐ°Ð·ÑĢÑĥÑĪÐ°ÑĤÑĮ
ĠÑĢÐ°Ð·ÑĢÑĥÑĪÐ°ÑĤÑĮ
ĠÐ¾ÐºÑĢÑĥÐ¶Ð°ÑİÑīÐ¸Ñħ
Ð¿Ð¾Ð»Ð¸ÑĨÐµÐ¹ÑģÐºÐ¸Ð¹
ĠÐ·Ð°Ð¼ÑĥÐ¶Ð½ÑıÑı
ĠÑģÑĳÐ¼ÐºÐ¸Ð½
ĠÐ¿ÐµÑĢÐµÐ¶Ð¸Ð²Ð°Ð¹ÑĤÐµ
ĠÐ°ÑħÑĥÐµÐ»Ð¸
Ð±ÑĥÑĢÐ³ÐµÑĢ
ĠÐ²Ð¾ÑģÐ¿Ð¸ÑĤÑĭÐ²Ð°Ð»Ð¸ÑģÑĮ
Ð±Ð¾Ð»ÑĮÐ½Ð¾Ð¹
ĠÐ³Ð¾Ð´Ð°Ð¼Ð¸
ĠÐ´Ð¾Ð²Ð¾Ð´Ð¸ÑĤÑĮ
ĠÐ¸ÑģÑģÑĤÑĥÐ¿
ĠÐ¸ÑģÑģÑĤÑĥÐ¿Ð»ÐµÐ½Ð¸Ñı
ĠÐ°Ð²Ð°ÑĢÐ¸Ð¹
ĠÐ°Ð²Ð°ÑĢÐ¸Ð¹Ð½Ð¾
ÑĤÐµÑĢÐ¼Ð¸Ð½
ÑĤÐµÑĢÐ¼Ð¸Ð½Ð¾Ð»Ð¾Ð³Ð¸Ñı
ĠÐ±ÑĥÑħÐ³Ð°Ð»ÑĤÐµÑĢÐ¸Ñı
Ð·ÐµÐ¼Ð»ÑıÐ½
Ð·ÐµÐ¼Ð»ÑıÐ½Ð½Ð¸Ðº
Ð·ÐµÐ¼Ð»ÑıÐ½Ð½Ð¸ÐºÐ¾Ð²Ð°
Ð¾ÑĢÐµÐ»
ÑįÐºÑĤÐ¾Ð¼
ÑįÐºÑĤÐ¾Ð¼Ð¾ÑĢ
ÑįÐºÑĤÐ¾Ð¼Ð¾ÑĢÑĦ
ĠÑĤÑĥÑĢÐ±Ð¸ÑĢÐ¾Ð²Ð°Ð½Ð½ÑĭÐ¹
ĠÐ¿ÑĢÐ¸ÑģÐ½
ĠÐ¿ÑĢÐ¸ÑģÐ½Ð¸Ð»ÑģÑı
ĠÐ±ÑĥÐ·
ĠÐ±ÑĥÐ·Ð¾Ð²Ð¾Ð¹
Ð½Ð°ÑĢÐºÐ¾ÑĤ
Ð½Ð°ÑĢÐºÐ¾ÑĤÐ¸ÐºÐ¸
ÑĢÐ°ÑģÑģÐºÐ°Ð¶Ñĥ
ĠÑģÐ¾ÑģÐ½Ñĭ
ĠÑģÐ»Ð¾Ð¼Ð°Ð»
ĠÐºÐ¾Ð»Ð»ÐµÐ³Ð°Ð¼Ð¸
ĠÐ¾Ð±ÑīÐ°Ð»ÑģÑı
ĠÐ³ÑĥÐ»ÑıÐ»
ĠÑģÐ½ÑıÐ»
ÑģÑĦÐ¾ÑĢÐ¼ÑĥÐ»Ð¸
ÑģÑĦÐ¾ÑĢÐ¼ÑĥÐ»Ð¸ÑĢÑĥ
ÑģÑĦÐ¾ÑĢÐ¼ÑĥÐ»Ð¸ÑĢÑĥÐ¹ÑĤÐµ
ĠÑıÑĢÐºÐ¾ÑģÑĤÑĮ
Ð²ÐµÑģÐ½Ð°
ÑĦÐ¸ÐºÑģÐ¸ÑĢÐ¾Ð²Ð°Ð½Ð½ÑĭÐ¹
ĠÑĩÐµÐ¼Ð¿Ð¸Ð¾Ð½Ð°ÑĤÑĥ
ĠÑģÐ¿ÑĢÐ¾ÑģÐ¸Ð»Ð°
ÑįÐ½ÑĤ
ÑįÐ½ÑĤÐ¾Ð½Ð¸
ĠÑĤÑĥÑĢÐ½Ð¸Ðº
ĠÐ²ÑĭÐ¿Ð°Ð´Ð°ÑİÑĤ
ĠÐ½Ñı
ĠÐ½ÑıÐ³Ð°Ð½
ĠÐ½ÑıÐ³Ð°Ð½Ð¸
Ð¸Ð³Ð»Ñĥ
ĠÐ¿ÑĢÐ¸Ð²ÑıÐ¶
ĠÐ¿ÑĢÐ¸Ð²ÑıÐ¶Ð¸ÑĤÐµ
ÑģÐ°Ð´Ð¸ÑģÑĤ
ÑģÐ°Ð´Ð¸ÑģÑĤÑģÐºÐ¸Ðµ
ĠÑģÐµÑĢÐ´ÑĨÐµÐ¼
ĠÑģÑĤÐ°ÑĢÐµÑĤÑĮ
Ð±ÐµÐ·Ð¾Ð¿Ð°Ñģ
Ð±ÐµÐ·Ð¾Ð¿Ð°ÑģÐ½Ð¾ÑģÑĤÑĮ
ĠÐºÑĢÑĭÐ³
ĠÐºÑĢÑĭÐ³Ð¸Ð½Ð°
Ð°ÑĢÐ¼ÑıÐ½
Ð°ÑĢÐ¼ÑıÐ½ÑģÐºÐ°Ñı
ĠÐ¿Ð¾ÑģÑĳÐ»ÐºÐ°
Ð°Ð¿Ð°Ð½Ð´Ð¸
ĠÐ¿Ð¾ÐºÐ¾ÑĢÐ¼
ĠÐ¿Ð¾ÐºÐ¾ÑĢÐ¼Ð¸ÑĪÑĮ
ĠÐ¿Ð¾Ð´Ð¾Ð¶Ð´Ð°ÑĤÑĮ
ÑģÑĥÐ¼Ð°ÑģÑĪÐµÐ´
ÑģÑĥÐ¼Ð°ÑģÑĪÐµÐ´ÑĪÐ¸Ð¹
ÑĨÐµÐ½Ñĭ
ĠÐ±ÐµÐ½Ð·
ĠÐ±ÐµÐ½Ð·Ð¸Ð½
ÑĤÐµÐ¼Ð°
Ð»ÐµÑĢÐ¼Ð¾Ð½ÑĤ
Ð»ÐµÑĢÐ¼Ð¾Ð½ÑĤÐ¾Ð²
Ð½Ð°Ð²Ð¸Ð³
Ð½Ð°Ð²Ð¸Ð³Ð°ÑĤÐ¾ÑĢ
ĠÐ±ÑĮÑİÑĤ
ĠÐ¿Ð¾ÑĩÐºÐ°Ð¼
ĠÐ¿ÐµÑĩÐµÐ½Ð¸
ĠÐºÐ¾ÑĢÐµÐ¹ÑģÐºÐ¸
Ð¿ÐµÑĢÐµÐ´Ð°Ð¹ÑĤÐµ
ĠÐ·Ð°Ð¿Ð¾Ð¼Ð½Ð¸ÑĤÑĮ
ĠÐºÐ¾Ð½ÐµÑĩÐ½ÑĥÑİ
Ð½ÑĥÐ¶ÐµÐ½
ĠÑĥÐ¼Ð½Ð¸Ðº
ĠÐ²ÐµÐ¶
ĠÐ²ÐµÐ¶Ð»Ð¸Ð²
ĠÐ²ÐµÐ¶Ð»Ð¸Ð²Ð¾ÑģÑĤÐ¸
ĠÐ¾ÑĤÐºÐ°Ð·
ĠÐ¾ÑĤÐºÐ°Ð·Ð°ÑĤÑĮÑģÑı
ĠÑĤÐ°Ð¹Ð½Ñĥ
ĠÐºÐ¾ÐºÐ¾
ÑĩÐµÑĩÐ½Ñİ
ĠÑĩÐµÑĩÐ½Ñİ
ĠÐ°Ð±ÑĢÐ°Ð¼Ð¾Ð²Ð¸Ñĩ
Ð²Ð¾Ð½ÑİÑĩÐºÐ°
ÑģÑĤÐ¾Ð»
ÑģÑĤÐ¾Ð»Ð¸ÑĨÐ°
ĠÐºÐ¾Ð»Ð¾Ð¼ÐµÐ½
ĠÐºÐ¾Ð»Ð¾Ð¼ÐµÐ½ÑģÐºÐ°Ñı
Ð½ÐµÐºÑĤÐ°ÑĢ
ĠÐ¼Ð¸ÐºÑĢÐ¾
ĠÑĤÑĢÐµÐ½Ð¸ÑĢÐ¾Ð²Ð°Ð»
Ð²Ð¾Ð·Ð¼Ð¾Ð¶Ð½Ð¾Ð³Ð¾
ĠÐ²Ð·ÑĢÑĭÐ²
ĠÐ²Ð·ÑĢÑĭÐ²Ð°
ĠÑįÐ»ÐµÐºÑĤÑĢÐ¸ÐºÐ¾Ð²
Ð¼Ð¾Ð»Ð¾ÐºÐ¾
Ð¿Ð¾ÑģÐºÐ¾ÑĤÐ¸Ð½Ð°
ĠÐ¿Ð¾Ð´ÑģÐºÐ°Ð·ÐºÐµ
ĠÐ¼ÑĥÐ¶Ð¸ÐºÐ¸
ĠÐ¾Ð±Ð¸Ð¶Ð°ÑİÑĤÑģÑı
ÑĩÐµÑĢÐ½Ð¾Ð²
ÑĩÐµÑĢÐ½Ð¾Ð²ÑĨÑĭ
ĠÐºÐ°Ð¼ÐµÐ½ÐµÑĨ
ĠÐºÐ°Ð¼ÐµÐ½ÐµÑĨÐºÐ¾Ð¹
ĠÑģÑĤÑĢÑĥÐºÑĤÑĥ
ĠÑģÑĤÑĢÑĥÐºÑĤÑĥÑĢÑĥ
ĠÐ¿Ð¾ÑģÑĤÑĢÐ¾Ñİ
ĠÐ·Ð°Ð¼ÐµÑĤÐ¸Ð»Ð°
ĠÐ±ÐµÑģÐµÐ´Ð°
ĠÐ¾Ð±ÑĢÐ°ÑĤÐ¸Ð»Ð°
ÑģÑĥÐ¼ÐºÐ°
ĠÑĤÐµÐ»ÐµÐ¶ÐºÐ°
ĠÑĩÐ¸ÑĤÑĭ
ĠÑĥÐºÐ°Ð·ÑĭÐ²Ð°Ð¹
Ð±Ð°ÑĢÐ°Ð±
Ð±Ð°ÑĢÐ°Ð±Ð°Ð½Ð½ÑĭÐµ
ĠÐ²ÑĭÑĢÐµÐ·Ð°ÑĤÑĮ
ĠÐ»ÑĳÑĤ
ĠÐ»ÑĳÑĤÑĩÐ¸Ðº
ÑģÐ²Ð°ÑĢÐ¾ÑĩÐ½ÑĭÐ¹
ĠÑĦÐ¸Ð·ÐºÑĥÐ»ÑĮÑĤÑĥÑĢÑĭ
Ð²ÑĭÑĢÐ¾ÑģÐ»Ð°
ĠÐ¾ÑĤÐ´Ð°Ð¹
Ð¼Ð°ÑĢÑĤÑĭ
Ð¼Ð°ÑĢÑĤÑĭÐ½Ð¾Ð²
ĠÐ·Ð°Ð±ÐµÑĢÐ¸ÑĤÐµ
Ð¿Ð°ÑĢÐ°Ð»Ð»
Ð¿Ð°ÑĢÐ°Ð»Ð»ÐµÐ»ÑĮ
Ð¿Ð°ÑĢÐ°Ð»Ð»ÐµÐ»ÑĮÐ½Ð°Ñı
ĠÐ»ÑİÐºÑģÐ¾ÑĢ
Ð¾Ð±ÑĬÑıÑģÐ½ÐµÐ½Ð¸Ðµ
Ð»Ð¾ÑĦ
Ð»Ð¾ÑĦÑĤ
Ð±Ð°Ð±Ð°Ð¹ÐºÐ°
ĠÐ¾Ð±Ð¾Ð¹Ð´ÐµÑĤÑģÑı
Ð¿Ð¾Ð´ÑĬÐµÐ·Ð¶
Ð¿Ð¾Ð´ÑĬÐµÐ·Ð¶Ð°ÑĤÑĮ
ĠÐµÐ±Ð°ÑĪ
ĠÐµÐ±Ð°ÑĪÐ¸ÑĤ
ĠÐ¾ÑĢÑĳÑĪÑĮ
ĠÐ¿Ð¾Ð²ÐµÐ»ÐµÐ½Ð¸Ðµ
Ð»Ð¾Ð³Ð¾ÑĤ
Ð»Ð¾Ð³Ð¾ÑĤÐ¸Ð¿
Ð¼ÑĥÐ»ÑĮÑĤÐ¼
Ð¼ÑĥÐ»ÑĮÑĤÐ¼Ð¸ÐºÑģ
ĠÑģÑĤÐ°ÑĤÐ¸ÑģÑĤÐ¸ÐºÐ°
ĠÐ·Ð°Ð¾ÑĩÐ½Ð¾
ĠÐºÐ¾Ð·Ð»Ð¾Ð¼
ÑĤÐ°Ð´
ÑĤÐ°Ð´Ð¶
ÑĤÐ°Ð´Ð¶Ð¸Ðº
ÑĤÐ°Ð´Ð¶Ð¸ÐºÑģÐºÐ¸Ð¹
Ð¿Ð¸ÑĢÑģÐ¸Ð½Ð³
Ð´ÑĥÐ±ÑĨÐ¾Ð²Ð°
Ð°Ð½Ð¾Ð½Ñģ
ĠÑģÐ¼ÐµÐ½Ð¸ÑĤÐµ
ĠÑĪÐ¸ÑĢÐ¾ÐºÐ¸Ð¹
Ð²ÐµÑĩÐµÑĢÐ½ÐµÐµ
Ð²Ð¾Ð¿ÑĢÐ¾ÑģÐ¾Ð¼
ĠÐ°Ð»ÑĮ
ĠÐ°Ð»ÑĮÑĤÐµÑĢ
ĠÐ°Ð»ÑĮÑĤÐµÑĢÐ¼Ð°Ð½
ÑĥÑĩÐ¸Ð»ÑģÑı
ĠÐ¿Ð»Ð¾Ð´
ĠÐºÑĥÐ±Ð°Ð½ÑĮ
ĠÐºÑĥÐ±Ð°Ð½ÑĮÑįÐ½
ĠÐºÑĥÐ±Ð°Ð½ÑĮÑįÐ½ÐµÑĢÐ³Ð¾
Ð²Ð°Ð»ÐµÐ½ÐºÐ¸
Ð°Ð½Ð°ÑģÑĤÐ°ÑģÐ¸Ñı
ĠÐ±Ð°ÑĪÐºÐ¸
ĠÐ±Ð°ÑĪÐºÐ¸ÑĢÑĭ
ĠÐ°ÑĢÐ¼ÐµÐ½
ĠÐ°ÑĢÐ¼ÐµÐ½Ð¸Ð¸
ĠÐ´Ð°Ð½Ð¸ÑģÑģ
ĠÐ´Ð°Ð½Ð¸ÑģÑģÐ¸Ð¼Ð¾
ĠÐ¿Ð¾Ð»Ð¾Ð¶Ð¸ÑĪÑĮ
ĠÐºÑĥÐ¿Ð°ÑĤÑĮÑģÑı
ÐºÐ°Ð¼ÑĭÑĪ
ÐºÐ°Ð¼ÑĭÑĪÐ¸Ð½
ĠÑģÐ¾ÑħÑĢÐ°Ð½Ñı
ĠÑģÐ¾ÑħÑĢÐ°Ð½ÑıÐµÑĪÑĮ
Ð·Ð°Ð¹
Ð·Ð°Ð¹Ñĩ
Ð·Ð°Ð¹ÑĩÐ¸ÑĪ
Ð·Ð°Ð¹ÑĩÐ¸ÑĪÐºÑĥ
ĠÐ·Ð°ÑģÑĥÐ½ÑĥÑĤÑĮ
ĠÐ»Ð¾ÑĢ
ĠÐ»Ð¾ÑĢÐ°Ðº
Ð¾Ð±ÐµÑģÐ¿
Ð¾Ð±ÐµÑģÐ¿ÐµÑĩÐµÐ½
ĠÑĪÐ°Ð³Ð¾Ð²
Ð¼ÐµÐ»Ð¾ÑĩÐ¸
ĠÐ¿ÑĢÐµÐ²Ð·Ð¾ÑĪÐµÐ»
ĠÐ¶ÐµÐ½Ð¸ÑħÐ¾Ð²
ĠÐ¾ÑĢÐ³Ð°Ð½Ð¸Ð·Ð¼
Ð´ÐµÐ¹ÑģÑĤÐ²ÑĥÐµÑĤ
ĠÐ¸Ð·Ð¼ÐµÐ½ÐµÐ½Ð¸Ñı
ĠÐ¸Ð·Ð¼ÐµÐ½ÐµÐ½Ð¸ÑıÐ¼Ð¸
Ð»Ð¸ÐºÐ¸Ð½Ð¾
ĠÐ´ÑĥÐ»
ĠÐ´ÑĥÐ»ÑĳÐ²Ð¾
Ð¿Ð¸ÑĢÐ°
Ð¿Ð¸ÑĢÐ°ÑĨÐµÑĤ
Ð¿Ð¸ÑĢÐ°ÑĨÐµÑĤÐ°Ð¼
ĠÑĥÑĪÐ»Ð°
ĠÐ¿ÑĢÐ¾ÐºÐ¾ÑĦ
ĠÐ¿ÑĢÐ¾ÐºÐ¾ÑĦÑĮ
ĠÐ¿ÑĢÐ¾ÐºÐ¾ÑĦÑĮÐµÐ²Ð°
ÑįÐ»ÐµÐºÑĤÑĢÐ¸ÑĩÐºÐ¸
ĠÐºÑĢÑĥÐ³Ð¸
Ð¿ÐµÐ¿Ðµ
ĠÐ²Ð¾ÑģÐ¿Ð¸ÑĤÐ°Ð»
ĠÐ·Ð°Ð´Ð¾Ð»Ð±Ð°Ð»
ĠÐ°Ð½Ð¶ÐµÐ»
ĠÐ°Ð½Ð¶ÐµÐ»Ð¸ÐºÐ°
Ð¾ÐºÑĤÐ°Ð²Ð°
Ð²ÐµÑĢÑħÐ¾Ð²Ð¾Ð¹
Ð²ÐµÑĤÑĢÐ¾Ð¼
ĠÐ´Ð°Ð»Ñĳ
ĠÐ´Ð°Ð»ÑĳÐºÐ°Ñı
ĠÑģÐ¸Ð½Ñı
ĠÑģÐ¸Ð½ÑıÑı
ÑĢÑĥÐ»ÑĮ
ĠÐ¾ÑĤÐ´ÐµÐ»ÑĮÐ½Ð¾
Ð¼ÑĭÐ»Ð¾
ĠÑĥÐ´Ð¸Ð²Ð»ÐµÐ½Ð¸Ðµ
ÑĥÑģÐ»ÑĭÑĪÐ°ÑĤÑĮ
ÑĨÐµÐ»ÑĭÐ¹
ĠÐ²Ð·ÑĢÑĭÐ²Ð°Ð»Ð¸ÑģÑĮ
ĠÐ´Ð¸Ð²Ð°Ð½Ñĭ
ĠÐºÑĥÐºÐ°ÑĢÐµÐº
Ð¿ÑĢÐ¾Ð²Ð¾ÑĢ
Ð¿ÑĢÐ¾Ð²Ð¾ÑĢÐ½Ð¾
ĠÐ¿Ð¾Ð¹Ð¼Ð°ÑİÑĤ
Ð¿Ð¸ÑĪÐµÑĪÑĮ
ĠÐ°Ð±Ð¾ÑĢ
ĠÐ°Ð±Ð¾ÑĢÑĤÐ¾Ð²
ÑĤÐ¸Ð¼ÑĥÑĢ
ĠÐ´Ð°ÑĪÐ°
ĠÑĢÐ°Ð´Ð¸Ð¾ÑģÑĤÐ°Ð½ÑĨÐ¸Ñİ
ĠÐ½ÐµÐ¾Ð´Ð¸Ð¼
ĠÐ½ÐµÐ¾Ð´Ð¸Ð¼Ð¾Ð²ÑĭÐ¹
ĠÐ²Ð¿ÐµÑĢÑĳÐ´
ĠÑģÐ²ÐµÑĤÐ¸Ðº
ĠÐ¸Ð³ÑĢÐ°Ð»Ð¾
ÑģÐ¸Ðµ
ÑģÐ¸ÐµÑģÑĤÐ°
ÑģÐ°Ð´Ð¾Ð²ÑĭÐ¹
ĠÑĨÐµÐ½ÑĤÑĢÐ°Ð»ÑĮÐ½Ð°Ñı
ĠÑģÐ»Ð°Ð²Ð½Ð°Ñı
ĠÑĢÐ¾Ð´Ð¸Ð½Ð°
ĠÐµÐ´Ð¸Ð½ÑģÑĤÐ²ÐµÐ½Ð½ÑĭÐ¹
ĠÐ²Ð½ÑĥÐºÑĥ
ĠÑģÑĤÑĢÐ°ÑĪÐ½Ð¾Ðµ
Ð¾Ð¶Ð¸Ð´Ð°ÐµÑĤÑģÑı
ĠÐºÐ¾Ð¶Ðµ
Ð¿ÐµÑĢÐµÐ¶
Ð¿ÐµÑĢÐµÐ¶Ð¸Ð²Ð°Ñİ
ĠÑģÐ¿Ð¸Ð½Ð°
ĠÑĪÑĤÑĭÑĢ
ĠÑĪÑĤÑĭÑĢÐµÐ²ÑĭÑħ
Ð°Ð³Ð¾Ð³Ðµ
ĠÑĥÑģÐ¿Ð¾ÐºÐ¾ÑİÑģÑĮ
ĠÐ²ÐµÑĢÑĤÑĥÑĪÐºÐ¸
ĠÑģÐ¾Ð²ÐµÑĤÑģÐºÐ¾Ð¼Ñĥ
ĠÐ²ÑĭÐ±Ð¸Ð²Ð°ÐµÑĤ
ĠÐ³Ñĥ
ĠÐ³ÑĥÑĤÐ¾ÑĢÐ¾Ð²
ĠÐ²ÐµÐ´Ð¾Ð¼
ĠÐ²ÐµÐ´Ð¾Ð¼ÑĭÐ¼
ĠÑħÐ¾Ð¼ÑıÑĩÐºÐ¾Ð¼
ĠÐ²ÑĭÐ¿Ð¸ÑĪ
ĠÐ²ÑĭÐ¿Ð¸ÑĪÑĥÑĤ
ĠÐ¿Ð¾Ð·Ð²Ð¾Ð»Ð¸Ð»
ĠÐ¿ÑĢÐµÐ¿Ð¾Ð´Ð°Ð²Ð°Ð»
ĠÑģÑĤÐ°ÑĤÐ¸
ĠÐ²ÑĭÐ·ÑĭÐ²Ð°Ð¹ÑĤÐµ
ĠÑģÑĤÐ°Ð²ÑĢÐ¾Ð¿Ð¾Ð»ÑĮÑģÐºÐ¸Ð¹
ÐºÐ²Ð¸Ðº
ÐºÐ²Ð¸ÐºÑĥ
ĠÐ¿ÑĢÐ¾ÑĦÐµÑģÑģÐ¸Ð¾Ð½Ð°Ð»ÑĮÐ½ÑĭÐ¹
ĠÐ½Ð°Ð±Ð¾Ðº
ĠÐ½Ð°Ð±Ð¾ÐºÐ¾Ð²Ð°
ĠÐ½ÐµÐ´Ð°Ð»
ĠÐ½ÐµÐ´Ð°Ð»ÐµÐº
ĠÐ½ÐµÐ´Ð°Ð»ÐµÐºÐ¸Ñħ
Ð¿Ð¾Ð´Ð½Ð¸Ð¼Ð¸
ĠÐ¾ÑģÑĤÐ°Ð½Ð°Ð²Ð»Ð¸Ð²Ð°ÐµÑĤ
ĠÑĥÑĢÐ²Ð°Ð½
ĠÑĥÑĢÐ²Ð°Ð½ÑĨ
ĠÑĥÑĢÐ²Ð°Ð½ÑĨÐµÐ²Ð°
ĠÐ¾Ð·Ð¾Ð½Ð¾Ð²
ĠÐ¾Ð·Ð¾Ð½Ð¾Ð²Ð°Ñı
ĠÑģÑĤÐ°Ð²ÑĢÐ¾Ð¿Ð¾Ð»ÑĮÑģÐºÐ°Ñı
Ð²ÑĭÐµÑħÐ°Ð»Ð¸
ĠÐ²Ð¾ÑģÑĤÐ¾ÐºÐ¾Ð²
ĠÑĩÐµÑĢÑĤÐ°
ĠÑĤÐ°ÑĢÐ°Ñģ
ĠÐ¿ÑĢÐ¾Ð²Ð¾Ð´Ð¸ÑĤÑģÑı
Ð¾ÑĤÐ²ÐµÑģÑĤÐ¸
ĠÐ´ÐµÑģÑı
ĠÐ´ÐµÑģÑıÑĤ
ĠÐ´ÐµÑģÑıÑĤÐ¸Ð»ÐµÑĤÐ½ÐµÐ³Ð¾
Ð±ÑĥÐºÐµÑĤ
ĠÐ½ÐµÐ²ÐµÑģÑĤÑĭ
ĠÑģÐ»Ð°Ð²ÑıÐ½Ð¾Ð³Ð¾ÑĢ
ĠÑģÐ»Ð°Ð²ÑıÐ½Ð¾Ð³Ð¾ÑĢÑģÐºÐµ
ĠÑĢÐµÐ·Ð¸Ð½
ĠÑĢÐµÐ·Ð¸Ð½Ð¾Ðº
ĠÐ¾ÑĤÐ¿ÑĥÑģÑĤÐ¸ÑĤÑĮ
ĠÐºÑĢÐµÐ´Ð¸ÑĤÐ½Ð°Ñı
ĠÐ°ÑĪÐ°Ð½
ĠÐºÐ»ÑıÐ½ÑĥÑģÑĮ
ĠÑĤÐµÐ½ÐºÐ¾Ð²
ĠÐ°Ð¹ÑģÐ¸Ðº
ĠÐ°Ð¹ÑģÐ¸ÐºÑĮÑİ
ĠÐ±Ð°Ð¶ÐµÐ½
ĠÐ±Ð°Ð¶ÐµÐ½Ð¾Ð²Ð°
ĠÐ¿Ð¾ÑģÑĤÑĥÐ¿Ð¸Ð»Ð¾
ĠÐ²Ð¾ÐµÐ½Ð½Ð¾Ð¼Ñĥ
ĠÐ±ÐµÑĢÐµÑĩÑĮ
Ð½ÑĥÐ±Ð¾Ð¼
ĠÐ´ÐµÑĢÐ¶Ð°Ð»Ð¸
ĠÐ¸ÑģÐ¿Ð¾Ð»ÑĮÐ·Ð¾Ð²Ð°Ð»Ð¸ÑģÑĮ
ĠÑħÐ°Ð½Ð°
ĠÐ¾Ð½ÑĤÐµ
ĠÐ¾Ð½ÑĤÐµÑĦÐ°
Ð»Ð¸ÑĩÐ½Ð¾ÑģÑĤÑĮ
ÑģÐ¿Ð°ÑĢÐ¶
ÑģÐ¿Ð°ÑĢÐ¶ÐµÐ²Ð¾Ð¹
ĠÑĦÐ°Ñģ
ĠÑĦÐ°ÑģÐ¾Ð»Ð¸
Ð±Ð¾Ð»ÑĮÑĪÐ¾Ðµ
Ð½ÐµÑĢÐ°Ð·
Ð½ÐµÑĢÐ°Ð·Ð²ÐµÑĢ
Ð½ÐµÑĢÐ°Ð·Ð²ÐµÑĢÐ½ÑĥÑĤÑĭÐ¹
ĠÐ½ÐµÐ¾ÑħÐ¾ÑĤÐ°
ĠÑģÐ²ÑıÐ·ÑĭÐ²Ð°ÑĤÑĮÑģÑı
ÑĩÐµÐ±Ð¾ÐºÑģ
ÑĩÐµÐ±Ð¾ÐºÑģÐ°ÑĢÑĭ
ĠÐ½Ð°ÑģÐ»Ð°Ð¶
ĠÐ½Ð°ÑģÐ»Ð°Ð¶Ð´Ð°
ĠÐ½Ð°ÑģÐ»Ð°Ð¶Ð´Ð°ÑİÑģÑĮ
ĠÐ¿ÑĢÐ¸Ð¶Ð¸Ð¼
ĠÐ¿ÑĢÐ¸Ð¶Ð¸Ð¼Ð½Ð¾Ð¹
Ð²Ð¸ÑĢÑĤÑĥÐ°Ð»ÑĮÐ½ÑĭÐ¹
ĠÑģÐ¾Ð´ÐµÑĢÐ¶Ð°Ð½Ð¸Ðµ
ĠÑĤÐ°Ð½ÑĨÐµÐ²Ð°Ð»ÐºÐ°
Ð°Ð»Ð°ÐºÐ°
ĠÐºÐ¾Ð¼ÑĥÑĩÐ°
ĠÐ¼Ð¸ÑħÐ°Ð»
ĠÐ¼Ð¸ÑħÐ°Ð»ÐºÐ¾Ð²
Ð¾Ð³ÑĢÐ°Ð½Ð¸Ñĩ
Ð¾Ð³ÑĢÐ°Ð½Ð¸ÑĩÑĥÑģÑĮ
ĠÐ¿Ð¸Ñĩ
ĠÐ¿Ð¸ÑĩÑĥÐ¶
ĠÐ¿Ð¸ÑĩÑĥÐ¶ÐºÐ°
ĠÑĤÐ°Ð¼Ð¾Ð¶ÐµÐ½Ð½ÑĭÐ¹
ĠÐ¿Ð¾Ð¿ÐµÑĢ
ĠÐ¿Ð¾Ð¿ÐµÑĢÑĳÐº
ÐºÑĥÑĢÐ¸Ð»ÐºÐ°
ĠÐ³ÑĥÐ·
ĠÐ³ÑĥÐ·Ðµ
ĠÐ³ÑĥÐ·ÐµÐµÐ²Ð°
ĠÑĩÐ¸ÑĤÐ°Ñħ
ĠÐ¾Ð¼ÐµÑĢ
ĠÐ¾Ð¼ÐµÑĢÐ¾
ĠÐ¿Ð²Ð¿
ĠÑĩÑĳÑĢÐ½ÑĭÐµ
ĠÐºÐ°ÑģÐ¿
ĠÐºÐ°ÑģÐ¿Ð¸Ñı
ĠÑģÐ²Ð¾Ð´
ĠÑģÐ²Ð¾Ð´Ð¸ÑĪÑĮ
Ð´Ð¾Ð±Ð°Ð²Ð»ÑıÐ¹ÑģÑı
ĠÐ¿Ð¾ÑıÑģÐ°
ĠÐ±ÑĥÑĤÐµÑĢÐ±ÑĢÐ¾Ð´
ÐºÐ°Ð±Ð°ÑĩÐ¾Ðº
ĠÐµÐ´ÑıÑĤ
Ð¾ÑĪÐ¼ÐµÑĤÐºÐ¸
ĠÐ¼Ð°Ð»Ð°Ð·
ĠÐ¼Ð°Ð»Ð°Ð·Ð¸Ð¹
ĠÐ¼Ð°Ð»Ð°Ð·Ð¸Ð¹ÑģÐºÐ¾Ð³Ð¾
ĠÐ»Ð°Ð¹Ð½ÐµÑĢÐ°
Ð´Ð°Ð²Ð½ÐµÐ½ÑĮÐºÐ¾
ĠÑĤÐ°ÑĤÑĥÐ¸ÑĢÐ¾Ð²ÐºÐ¸
ĠÐ±ÑĥÑĤÐ¸ÐºÐ¸
ĠÐ¸Ð»ÑĮÐ´Ð°ÑĢ
ĠÐ¸ÑģÐ»Ð°Ð¼Ð¾Ð²Ð¸Ñĩ
ĠÐ¿Ð¸ÑĪÐµÐ¼
ĠÑĤÐ¾Ð±Ð¾Ð»ÑĮ
ĠÑĤÐ¾Ð±Ð¾Ð»ÑĮÑģÐº
ĠÑĥÑģÑĤÑĢÐ°Ð¸Ð²Ð°Ð»
ĠÐ¿Ð¾Ð±Ð¾Ð¸
ĠÐ¿Ð¾Ð±Ð¾Ð¸ÑīÐµ
ÑĨÐµÐ»ÑĥÑİ
ĠÐ¿Ð¾ÑħÐ¾ÑĢ
ĠÐ¿Ð¾ÑħÐ¾ÑĢÐ¾Ð½
ĠÐ¿Ð¾ÑħÐ¾ÑĢÐ¾Ð½Ð½ÑĥÑİ
ĠÐ½Ð°ÑĢÐ°Ñī
ĠÐ½Ð°ÑĢÐ°ÑīÐ¸Ð²
ĠÐ½Ð°ÑĢÐ°ÑīÐ¸Ð²Ð°Ð»Ð°
ĠÐ²Ð¾Ð½ÑİÑĩÐ¸Ðµ
ĠÐ¿ÑĢÐ¾Ð³ÑĢÐ°Ð¼Ð¼Ñĭ
ĠÐºÐ½Ð¸Ð¶ÐºÐµ
ĠÐ±Ð¸Ñħ
ĠÐ±Ð¸ÑħÐµÐ²Ð¸
ĠÐ±Ð¸ÑħÐµÐ²Ð¸Ð¾ÑĢ
ĠÐ±Ð¸ÑħÐµÐ²Ð¸Ð¾ÑĢÐ¸Ð·Ð¼
Ð´Ð°Ð¼
ĠÐ´ÐµÐ»Ð°ÑĤÑĮÑģÑı
ĠÐ¿ÑĢÐ¸Ð¼ÐµÑĢÐ¸Ð¼
ĠÐ°ÑģÐº
Ð²ÐµÑĢÐ½Ð¸ÑģÑĮ
ĠÑģÐ¸Ð»ÑĮÐ½Ð°Ñı
ĠÑģÑĤÑĢÑĥÐºÑĤÑĥÑĢ
ĠÑģÑĤÑĢÑĥÐºÑĤÑĥÑĢÐ½ÑĭÐµ
ĠÑįÐ»ÐµÐ¼ÐµÐ½ÑĤÑĭ
ÑģÐ¼ÐµÑĪÐ°ÑĢÐ¸ÐºÐ¸
ĠÐ½ÐµÐ¶Ð¸Ð²
ĠÐ½ÐµÐ¶Ð¸Ð²Ð¾Ð¹
ĠÐ¾Ð¿ÑĢÐµÐ´ÐµÐ»ÑĳÐ½
ĠÐ¾Ð¿ÑĢÐµÐ´ÐµÐ»ÑĳÐ½Ð½ÑĭÐ¼
ĠÑģÑĦÐ¾ÑĢÐ¼ÑĥÐ»Ð¸ÑĢÐ¾Ð²Ð°ÑĤÑĮ
ÑĤÐ°ÑĤÑĮÑıÐ½Ðµ
Ð°ÐºÑĤÑĳÑĢ
ĠÐ²Ð°ÑĢÐ¼
ĠÐ²Ð°ÑĢÐ¼Ð¸ÑĤÐ°
ĠÐ¿ÑĢÐ¾Ð±ÐµÐ¶
ĠÐ¿ÑĢÐ¾Ð±ÐµÐ¶ÐºÑĥ
ÑģÑĤÐ°Ð½Ñĥ
ĠÐ³ÐµÐ¾Ð»Ð¾Ð³Ð¸Ñı
ÑĥÑĢÐ°Ð»Ð¾ÑĩÐºÐ°
ĠÐ¶ÑĳÐ»
ĠÐ¶ÑĳÐ»ÑĤÐ¾Ð³Ð¾
ĠÑĨÐ²ÐµÑĤÐ°
ĠÐ°Ð¹Ð´Ð°ÑĢÐ¾Ð²
ĠÐ±ÑĢÐ°ÑĤÐµÐ»ÑĮ
ĠÐ±ÑĢÐ°ÑĤÐµÐ»ÑĮÐ½Ð¸Ðº
ĠÑĤÑĳÐ¼
ĠÑĤÑĳÐ¼Ð°
ÑĥÑĤÐ¾Ð¿
ÑĥÑĤÐ¾Ð¿Ð°Ð»
ĠÐ²Ð·ÑıÑĤÐ¾ÑĩÐ½Ð¸Ðº
ĠÐ¼ÐµÑģÑĤÐ¾Ð¿Ð¾Ð»Ð¾Ð¶ÐµÐ½Ð¸Ñı
ĠÑİÑĢÑģÐºÐ¾Ð³Ð¾
ÑģÑĥÑħÐ¾Ð´
ÑģÑĥÑħÐ¾Ð´Ð¾Ð»ÑĮ
ÑģÑĥÑħÐ¾Ð´Ð¾Ð»ÑĮÑģÐºÐ¸Ð¹
ĠÐ¿ÑĢÐ¸Ð½Ð¸Ð¼Ð°ÑİÑģÑĮ
Ð·ÐµÐ»Ñĳ
Ð·ÐµÐ»ÑĳÐ½ÑĭÐµ
ĠÐ¿Ð¾Ð·Ð¾ÑĢÑĮ
ĠÑģÐ¾Ð±Ð¸ÑĢÐ°Ð»ÑģÑı
ĠÑĩÐµÑĢÐµÑĪ
ĠÑĩÐµÑĢÐµÑĪÐ½Ñı
Ð°Ð²ÑĤÐ¾ÑĢÐ¾Ð¼
ĠÐ¸Ð¼Ð¸ÑĤ
ĠÐ¸Ð¼Ð¸ÑĤÐ¸ÑĢÐ¾Ð²Ð°ÑĤÑĮ
ĠÐ½Ð°Ð»Ð¸Ñĩ
ĠÐ½Ð°Ð»Ð¸ÑĩÐ¸Ðµ
ÑĥÐ²Ð¸Ð´Ð¸ÑĪÑĮ
ĠÐ·Ð°ÑħÐ¾Ð´Ð¸Ð¼
Ð±ÐµÐ»Ð¾ÑĢÑĥÑģÑģÐºÐ°Ñı
Ð±ÐµÐ³ÐµÐ¼
Ð±ÐµÐ³ÐµÐ¼Ð¾ÑĤ
ĠÑįÐ»Ð¸
ĠÑįÐ»Ð¸ÑģÑĤÐ°
Ð¿Ð¾ÑĩÐ¸ÑĤ
Ð¿Ð¾ÑĩÐ¸ÑĤÐ°ÑĤÑĮ
ĠÐ¼Ð°ÑĤÐµÑĢÐ¸Ð°Ð»Ñĭ
ĠÑģÑĤÐ°ÑĤÑĮÐ¸
Ð¿ÑĢÐ¾Ð±Ð¾Ð²Ð°Ð»
ĠÐ½Ð°ÑĢÐºÐ¾Ð¼Ð°Ð½Ð¾Ð¼
Ð¾ÑĤÑĢÐ¸Ñħ
Ð¾ÑĤÑĢÐ¸ÑħÑĤ
Ð¾ÑĤÑĢÐ¸ÑħÑĤÐ¾Ð²Ð°ÑĤÑĮ
ĠÐ·Ð°Ð½ÑıÐ»ÑģÑı
ĠÐ´ÑĥÑħÐ¾Ð²Ð½ÑĭÐ¼
Ð»Ð°ÑĢÐ¸ÑģÐ°
ĠÑıÐºÐ¾Ð²ÐµÐ½ÐºÐ¾
ÑģÑĥÑīÐ½Ð¾ÑģÑĤÑĮ
ĠÐ±ÐµÐ·Ð½Ð°Ðº
ĠÐ±ÐµÐ·Ð½Ð°ÐºÐ°Ð·Ð°Ð½
ĠÐ±ÐµÐ·Ð½Ð°ÐºÐ°Ð·Ð°Ð½Ð½Ð¾ÑģÑĤÑĮ
ĠÐ¿Ð¾Ð»Ð½ÐµÐ¹ÑĪ
ĠÐ¿Ð¾Ð»Ð½ÐµÐ¹ÑĪÑĥÑİ
ĠÐ²Ð¾Ð¹Ð´Ð°
ĠÑģÑĢÐ°Ð²Ð½ÐµÐ½Ð¸Ñı
Ð¿Ð¾ÑģÑĤÐ°Ð²ÑĮÑĤÐµ
ĠÐ¿Ð¾ÑĨ
ĠÐ¿Ð¾ÑĨÐµÐ»Ð¾Ð²Ð°ÑĤÑĮ
Ð¿Ð¾ÐºÐ°Ñĩ
Ð¿Ð¾ÐºÐ°ÑĩÐ°Ð¹ÑģÑı
ĠÐ½Ð°Ð»Ð¸Ð²Ð°ÑĤÑĮ
ĠÑĢÐ°ÑģÐ¿Ð¸Ð·Ð´
ĠÑĢÐ°ÑģÐ¿Ð¸Ð·Ð´ÑıÐµÐ²
ĠÐºÐ¾ÑĪÐ¼Ð°ÑĢÐ½ÑĥÑİ
ĠÐ¿Ð¾ÑĢÑĤÑĭ
ĠÐ¸Ð·Ð½Ð°Ñĩ
ĠÐ¸Ð·Ð½Ð°ÑĩÐ°Ð»ÑĮÐ½Ð¾
ĠÐ¿ÐµÑĢÐµÐ´Ð°ÐµÑĤÑģÑı
ĠÐ½Ð°Ð¿Ð¸Ð·Ð´
ĠÐ½Ð°Ð¿Ð¸Ð·Ð´Ð¸Ð»Ð¸
Ð¿Ð¾ÑĢÑĤÑĥÐ³
Ð¿Ð¾ÑĢÑĤÑĥÐ³Ð°Ð»
Ð¿Ð¾ÑĢÑĤÑĥÐ³Ð°Ð»Ð¸Ñı
ĠÐ¿ÑĢÐ¾Ð¸Ð³ÑĢ
ĠÐ¿ÑĢÐ¾Ð¸Ð³ÑĢÐ°Ð»Ð°
ĠÑĢÐ°Ð±Ð¾ÑĤÐ°Ð¹
ĠÐ¿ÑĢÐ°ÐºÑĤÐ¸ÐºÐ°
ĠÐ½ÐµÐ·Ð°
ĠÐ½ÐµÐ·Ð°ÑĩÐµÐ¼
ĠÐ¼Ð°Ð³ÐµÐ»
ĠÐ¼Ð°Ð³ÐµÐ»Ð»Ð°Ð½Ð°
ĠÐ¿ÐµÑĤÑĢÐ¾Ð²ÑģÐºÐµ
ĠÐ²Ð¸Ð½Ð½ÐµÑĤÑĥ
ĠÐ·Ð°ÐºÐ°Ð¶Ð¸
ĠÑĤÑĢÐ°ÑĦ
ĠÑĤÑĢÐ°ÑĦÐ¸Ðº
ÐºÐ°Ð¿ÑĥÑģÑĤ
ÐºÐ°Ð¿ÑĥÑģÑĤÐ½ÑĭÐµ
ĠÑĢÐ°Ð´Ð¾ÑģÑĤ
ĠÑĢÐ°Ð´Ð¾ÑģÑĤÐ½ÑĭÐ¹
ÑĢÐ°ÐºÑĥÐ»ÑĮÑģÐºÐ°Ñı
Ð±Ð°Ðº
ĠÐºÐ°Ð»Ð¸Ð½Ðµ
ĠÐ²ÑģÑĤÐ°Ð½ÑĮÑĤÐµ
ĠÐ·ÐµÑĢÐºÐ°Ð»ÑĮ
ĠÐ·ÐµÑĢÐºÐ°Ð»ÑĮÑĨÐµÐ¼
ĠÐ¿Ð¾Ð¶Ð°Ð»ÑĥÐ¹
ĠÐ±Ð¾ÑĢÐ¾Ð²ÑģÐºÐ¾Ð³Ð¾
ĠÐºÐ¾Ñĩ
ĠÐºÐ¾ÑĩÐµÐ½ÐµÐµÑĤ
ĠÐ¿ÑĢÐ¾ÑĨÐµÑģÑģÑĥ
ĠÐ¿ÑĢÐ¸ÑģÐ¾ÐµÐ´Ð¸Ð½ÑıÑİÑĤÑģÑı
ĠÐ¿Ð¾Ð¼ÐµÑīÐµÐ½Ð¸Ðµ
ĠÐ¾Ð±ÑģÐ»ÑĥÐ¶
ĠÐ¾Ð±ÑģÐ»ÑĥÐ¶Ð¸Ð²Ð°ÑĤÑĮ
ĠÑİÐ¶Ð½ÑĭÐµ
Ð¿Ð¾Ð·Ð´ÑĢÐ°Ð²Ð¸ÑĤÑĮ
ĠÐ²Ð°ÑĦ
ĠÐ²Ð°ÑĦÐ»Ñı
ĠÐ²ÑģÐ¿Ð¾Ð¼Ð½Ð¸ÑĤÑĮ
ĠÐ¿ÑĢÐ¸Ð³Ð»Ð°ÑĪÐµÐ½Ð¸Ðµ
ĠÐ¶Ð°Ð»Ð¾ÑģÑĤÐ¸
ĠÑĢÐ¸Ð±
ĠÑĢÐ¸Ð±Ð¾Ñģ
ĠÑĢÐ¸Ð±Ð¾ÑģÐ¾Ð¼Ð°
ĠÐ¸Ð·Ð²ÐµÑģÑĤÐ½Ð¾Ðµ
ĠÐ²Ð¾Ð·Ð²ÑĢÐ°ÑīÐµÐ½Ð½ÑĭÐµ
ĠÐ¿ÑĢÑıÐ¼ÑĥÑİ
ĠÑĢÐ°Ð·Ð±ÐµÑĢÐµÑĤÑģÑı
ĠÑĦÐµÐ´Ð¾ÑĢÐµÐ½ÐºÐ¾
ĠÐ´ÐµÑĢÐ·
ĠÐ´ÐµÑĢÐ·ÐºÐ¸Ð¹
ÑģÐ¾Ð±Ñĭ
ÑģÐ¾Ð±ÑĭÑĤÐ¸Ñı
ĠÑĦÐ¾ÑĢÐ¼Ð¸ÑĢÐ¾Ð²Ð°Ð»Ð¸
ĠÐ½ÑĤÐ²
ĠÑģÑĬÐµÐ¼
ĠÑģÑĬÐµÐ¼Ð¾Ðº
Ð·Ð°ÐµÐ·Ð´
ĠÐ½Ð°Ð¿Ð°Ð´ÐºÐ¸
ĠÑıÐ·ÑĭÐºÐ¾Ð²
ĠÐ¿Ð¾Ð¹Ð´ÐµÑĪÑĮ
ĠÑĢÑĭÐ±Ð°Ð»ÐºÐ¸
ĠÐ¿ÑĢÐ¾ÑīÐµ
ĠÐµÐ·Ð´Ð¸ÑĤ
ĠÑĤÐ²Ð·
ĠÐ²ÑĭÑĩÐ¸ÑģÐ»Ð¸Ð»Ð¸
Ð·Ð°ÐºÐ¾Ð²Ð°ÑĤ
ĠÑģÐ°Ð²Ð¾Ð»
ÑĦÐµÐ´Ð¾ÑĢÐ¾Ð²ÑģÐºÐ¾Ðµ
ĠÑģÑĤÑĢÐ¾
ĠÑģÑĤÑĢÐ¾ÑıÑĤ
Ð¼Ð°ÐºÑģÐ¸Ð¼ÑĥÐ¼
ĠÑĥÐ¹Ð¾Ð±
ĠÑĥÐ¹Ð¾Ð±Ð¸ÑīÐµ
ÑĢÐ°ÑģÑģÐºÐ°Ð¶Ð¸
ĠÐ¾Ð±Ð½Ð¸Ð¼
ĠÐ¾Ð±Ð½Ð¸Ð¼Ñĥ
ĠÐ¼ÑĥÐ¶ÑģÐºÐ°Ñı
ĠÐ¿ÑĢÐ¾ÑĪÐµÐ¿
ĠÐ¿ÑĢÐ¾ÑĪÐµÐ¿ÑĤÐ°Ð»
ÑĢÐ°Ð´ÑĥÐµÑĤ
ĠÐµÐ´Ð¸Ð½Ð¾Ð¼
ĠÐµÐ´Ð¸Ð½Ð¾Ð¼ÑĭÑĪ
ĠÐµÐ´Ð¸Ð½Ð¾Ð¼ÑĭÑĪÐ»ÐµÐ½
ĠÐµÐ´Ð¸Ð½Ð¾Ð¼ÑĭÑĪÐ»ÐµÐ½Ð½Ð¸ÐºÐ¸
ĠÐ±ÑĢÐ°ÑĤÑģÐºÐ°Ñı
ĠÐ¼Ð¾Ð³Ð¸Ð»Ð°
Ð¼ÑıÐºÐ¸Ð½
Ð¼ÑıÐºÐ¸Ð½Ð¸Ð½Ð¾
ĠÐ¿ÑĢÐ¾ÑīÐ°Ñİ
ĠÐ»Ð¾ÑħÐ¼Ð°ÑĤ
ĠÐ»Ð¾ÑħÐ¼Ð°ÑĤÐ¾Ð³Ð¾
ÑħÑĥÐ´Ð°Ñı
ĠÐ¿ÑĢÐ¸Ð¼ÑĥÐ»Ñĭ
ĠÑĥÐ¼Ð¸ÑĢÐ°ÐµÑĤÐµ
ĠÑģÐ°Ð½Ð°ÑĨÐ¸Ñı
ĠÑĩÐµÑĢÐ½Ð¾Ð²
ĠÑĩÐµÑĢÐ½Ð¾Ð²ÑĨÐ°Ð¼Ð¸
ĠÑĥÐ½Ð¸
ĠÑĥÐ½Ð¸ÑĦÐ¸Ðº
ĠÑĥÐ½Ð¸ÑĦÐ¸ÐºÐ°ÑĨÐ¸Ð¸
ÑĤÑĥÐ¼
ÑĤÑĥÐ¼ÑģÑĤÐ¾ÑĥÐ½
ĠÐ½ÐµÑĢÐ°Ð±Ð¾Ñĩ
ĠÐ½ÐµÑĢÐ°Ð±Ð¾ÑĩÐ¸Ð¹
ĠÑģÑĥÑī
ĠÑģÑĥÑīÐ½Ð¾ÑģÑĤÑĮÑİ
ĠÐ¿Ð¾ÑĩÐµÑĪ
ĠÐ¿Ð¾ÑĩÐµÑĪÐ¸
ÑĥÐ±ÑĮÑİ
ĠÐ»Ð¾Ð´
ĠÐ»Ð¾Ð´Ð¾ÑĩÐ½Ð¸Ðº
ĠÐ¿ÑĥÐ»Ð¸
ĠÑĥÑĤÐ²ÐµÑĢÐ¶Ð´Ð°ÐµÑĤÐµ
ĠÐ·Ð°Ð¿Ð°ÑģÐ°
Ð¾Ð±Ð·Ð¾ÑĢÑĭ
ĠÐ¼Ð¾Ð½ÐµÑĤ
ĠÑĤÐµÐ»ÐµÐ³ÑĢÐ°Ð¼Ð¼Ð°
Ð¿Ð»ÑİÑģ
Ð¾ÑĦÐ¸ÑĨÐ¸Ð°Ð»ÑĮÐ½Ð°Ñı
ĠÐ¿Ð¾ÑģÐ»ÑĥÑĪÐ°Ð»Ð°ÑģÑĮ
ĠÐ¸ÑģÐºÑĢÐµÐ½
ĠÐ¸ÑģÐºÑĢÐµÐ½Ð½Ðµ
ĠÑģÐ¾ÑĩÑĥÐ²
ĠÑģÐ¾ÑĩÑĥÐ²ÑģÑĤÐ²ÑĥÑİ
Ð¿Ð¸ÑĢÐ°Ð¼
Ð¿Ð¸ÑĢÐ°Ð¼Ð¸Ð´Ð°
ĠÑĨÑĭÐ³Ð°Ð½Ðµ
ĠÐ¸Ð·Ð²ÐµÑģÑĤÐ½Ð°
ĠÐ¿Ð»ÑıÐ¶
ĠÐ¿Ð¾Ð¼ÐµÐ½ÑıÐ»Ð¸ÑģÑĮ
ĠÑĤÐµÐ»Ð°Ð¼Ð¸
Ð´Ð¾ÐµÐ´
Ð´Ð¾ÐµÐ´Ð°Ñİ
Ð¼Ð¸Ð»Ð°Ñı
ĠÐºÐ¾Ð»ÑıÑģÐºÐ°
ĠÑĤÐ¾ÑĢÐ¼Ð¾Ð·Ð¾Ð²
ĠÐ´ÐµÑĢÐµÐ²ÑıÐ½Ð½Ð¾Ð¹
ĠÐ¸Ð³ÑĢÑĥÑĪÐºÐ¸
ĠÐ´ÐµÑĤÑģÑĤÐ²Ðµ
ĠÐ¿Ð¾Ð·Ð½Ð°ÐºÐ¾Ð¼Ð¸ÑĤÑĮ
ĠÐ±Ð°ÑĢÐ¸
ĠÐ±Ð°ÑĢÐ¸ÐµÐ¼
Ð¼Ð¸Ð»Ð¸ÑĨÐ¸Ñı
ÑĥÑĩÐµÐ½
ÑĥÑĩÐµÐ½ÑĭÐ¼
ĠÐ¾Ð±Ð¾ÑģÐ½Ð¾Ð²
ĠÐ¾Ð±Ð¾ÑģÐ½Ð¾Ð²Ð°Ð½Ñĭ
Ð¼ÑĥÐ·ÑĭÐºÐ°Ð»ÑĮÐ½ÑĭÐµ
ĠÐ²ÐµÐ»Ð¸ÐºÐµ
ĠÐ²ÑĭÐºÐ°Ðº
ĠÐ²ÑĭÐºÐ°ÐºÐ°ÑĤÑĮ
ĠÐ°Ð´ÐµÐºÐ²Ð°ÑĤÐ½Ð°Ñı
ĠÑģÐµÐ¼ÐµÑĢÐ¸Ðº
ĠÐµÐ²ÑĢÐ¾Ð¿ÐµÐ¹ÑģÐºÐ¸Ð¹
ĠÑģÑĤÐ¸Ð»ÑĮ
ĠÐ·Ð°Ð¼ÐµÑĩÐ°ÑĤÐµÐ»ÑĮÐ½Ð¾Ðµ
ĠÑħÐ°Ñı
ĠÑħÐ°ÑıÑĤ
ĠÑģÐ»Ð°Ð´Ð¾ÑģÑĤÑĮ
ĠÐ±ÐµÐ·ÑĢÑĥ
ĠÐ±ÐµÐ·ÑĢÑĥÐºÐ¾Ð²
ĠÐ±ÐµÐ·ÑĢÑĥÐºÐ¾Ð²Ñĥ
ĠÐ±ÑĥÐºÐ²Ð°Ð»ÑĮÐ½Ð¾Ð¼
Ð²Ð°ÑĪÑĥ
ĠÐ¸Ð´ÐµÐ°Ð»Ðµ
ĠÐ¼ÑĥÑĢÐ°Ð²ÑĮ
ĠÐ¼ÑĥÑĢÐ°Ð²ÑĮÐ¸ÑĪÐºÐ°
ÑĦÐ°ÑĢ
ÑĦÐ°ÑĢÐ¸ÑĪ
ÑĦÐ°ÑĢÐ¸ÑĪÑĤÐ°
Ð³Ð¾Ð´
Ð³Ð¾Ð´Ð°Ñı
ĠÑģÐ»Ñĥ
ĠÑģÐ»ÑĥÑĨ
ĠÑģÐ»ÑĥÑĨÐºÐµ
ĠÑģÐµÐ²ÐµÑĢÑıÐ½Ð¸Ð½
ÑĩÐ¸Ñģ
ÑĩÐ¸ÑģÐ»Ð¾
ĠÑģÑĩÐ°ÑģÑĤ
ĠÑģÑĩÐ°ÑģÑĤÐ»Ð¸
ĠÑģÑĩÐ°ÑģÑĤÐ»Ð¸Ð²Ð¾
ÑĥÑĢÐ°Ð²Ð½ÑıÑĤÑĮ
ĠÐ²Ð¾ÐµÐ½Ð½Ð¾Ð¼
ĠÐ³Ð»Ð°Ð²Ð½Ð°Ñı
ĠÐ¾ÑĤÐ¿ÑĥÑģÐºÐ°
ĠÐ´Ð¶Ð¾Ð½
ĠÑģÐ¸Ð½Ð°
ĠÐ±ÑĢÐ¾ÑģÐ¸ÑĤÐµ
ĠÐ¼Ð°ÑħÑĢÐ¾Ð²
ĠÐ¼Ð°ÑħÑĢÐ¾Ð²Ð°Ñı
ÑĤÐµÑħÐ½Ð¾Ð¿
ÑĤÐµÑħÐ½Ð¾Ð¿Ð¾Ð¸Ð½
ÑĤÐµÑħÐ½Ð¾Ð¿Ð¾Ð¸Ð½ÑĤ
Ð·Ð°Ð¼ÐµÑĩÐ°ÑĤÐµÐ»ÑĮÐ½Ð°Ñı
ÑĤÐ½ÑĤ
ĠÐºÐ°Ð²ÐºÐ°Ð·ÑĨÑĭ
ĠÐ¿ÑĥÑīÑĥ
ĠÐ¿ÐµÑĤÑĥÑĪÐºÐ¸
ĠÐºÐ°ÑĢÑĤÐ¾ÑĩÐºÐ¸
ĠÐ´Ð¾ÑģÑĤÐ¸Ð¶
ĠÐ´Ð¾ÑģÑĤÐ¸Ð¶ÐµÐ½Ð¸Ñı
ĠÐºÐ¾Ð½ÑĢÐ°Ð´Ð°
ĠÐ¿ÐµÑĢÐµÐ´ÑĥÐ¼
ĠÐ¿ÐµÑĢÐµÐ´ÑĥÐ¼Ð°Ð»
Ð°Ð»ÐµÐºÑģÐ°Ð½Ð´ÑĢÐ°
ĠÐ¿Ð¾Ð»ÑĥÑĩÐ¸Ð»ÑģÑı
ĠÑģÐ°Ð¼Ð¾Ð¸
ĠÑģÐ°Ð¼Ð¾Ð¸ÑĢÐ¾Ð½
ĠÑģÐ°Ð¼Ð¾Ð¸ÑĢÐ¾Ð½Ð¸Ð¸
ĠÐ¸ÑĢÐ¾Ð½
ĠÐ¸ÑĢÐ¾Ð½Ð¸Ñı
ĠÑģÐ¸ÑĤÑĥÐ°ÑĨÐ¸ÐµÐ¹
ĠÐ¸Ð½ÑĤÐµÑĢÐµÑģÐ°Ñħ
ĠÑĥÑĢÐ°Ð»ÑĮ
ĠÑĥÑĢÐ°Ð»ÑĮÑģÐº
Ð¼ÑĥÐ¶Ð¸Ðº
Ð¿Ð¾ÑģÐ»ÐµÐ·
Ð¿Ð¾ÑģÐ»ÐµÐ·Ð°Ð²
Ð¿Ð¾ÑģÐ»ÐµÐ·Ð°Ð²ÑĤÑĢÐ°
ĠÐ·Ð°Ð¼ÐµÑĢÐ·
ĠÐ·Ð°Ð¼ÐµÑĢÐ·Ð½ÐµÑĪÑĮ
ĠÑĤÑĢÑıÑģ
ĠÑĤÑĢÑıÑģÐ¸
ĠÑĤÐ¸ÑĪ
ĠÑĤÐ¸ÑĪÐ¸Ð½Ðµ
ĠÐ¿Ð¾Ð»Ð¸ÑĤÐ¸ÑĩÐµÑģÐºÐ¸Ñħ
ÐºÐ¸Ð½Ð¾Ð¿
ÐºÐ¸Ð½Ð¾Ð¿Ð¾Ð¸ÑģÐº
ĠÐ¹Ð¾Ð±Ð°Ð½Ð°Ð²
ĠÐ¹Ð¾Ð±Ð°Ð½Ð°Ð²ÑĢÐ¾ÑĤ
ĠÐ¿ÑĢÐ¾ÑģÑĤÐ¸ÑĤÑĥÑĤÐºÐ°Ð¼Ð¸
Ð¼Ð°Ð´Ð°Ð¼
ĠÐ¸ÑģÑħÐ¾Ð´Ðµ
ĠÐ¾Ð±ÑĢÐ°Ð·Ð½Ð¾
ÑĩÐ¼Ð¾
Ð½Ð°Ð¼Ð°Ð¶
Ð½Ð°Ð¼Ð°Ð¶ÑĮ
ĠÐ¸ÑĢÐ¸ÑĪÐºÐ°
ĠÑĩÐµÑĢÐ½Ñĥ
ĠÑĩÐµÑĢÐ½ÑĥÑħÐ°
ĠÑĤÐµÑĢÐ½Ð¾Ð²ÐºÐ°
Ð±Ð¾ÑĢÐ´
Ð±Ð¾ÑĢÐ´Ð¾Ð²ÑĭÐ¹
ĠÐºÐ¾Ð½ÑģÑĥÐ¼
ĠÐºÐ¾Ð½ÑģÑĥÐ¼Ð°ÑĨÐ¸Ñı
ÑģÐ°Ð»Ð°Ð¼Ð°ÑĤ
ĠÐ¿ÑĢÐµÐ´ÐµÐ»Ð°
ÐºÐ¾Ð»ÑıÑģÐºÐ°
Ð¼Ð°ÑĢÐ¸Ð¹
Ð¼Ð°ÑĢÐ¸Ð¹ÑģÐºÐ¸Ð¹
Ð¿Ð¾Ð»ÑĳÑĤ
ĠÐ·Ð°Ð¿ÑĥÑģÑĤÐ¸
Ð¶ÐµÐ»ÑĤÑĭÐ¹
ĠÐ¼ÑĥÐ¶ÑģÐºÐ¾Ð¹
ĠÐ½ÐµÐ¸Ð¼
ĠÐ½ÐµÐ¸Ð¼ÐµÐ½Ð¸ÐµÐ¼
ĠÑģÐµÑģÑĤÑĢÑĥ
ĠÐ¿ÑĢÐ¸Ð·Ð½Ð°ÑĳÑĤ
Ð¿Ð¾Ð·Ð½Ð°ÐºÐ¾Ð¼
Ð¿Ð¾Ð·Ð½Ð°ÐºÐ¾Ð¼Ð¸Ð»Ð¸ÑģÑĮ
ĠÑģÐµÐ±Ñĥ
ĠÐºÐ¾Ð½ÐºÑĥÑĢÑģ
ĠÐ¼Ð°Ð¹Ð´Ð°Ð½
ÑĢÐ°Ð·Ð»Ð¾Ð¼
ÑĢÐ°Ð·Ð»Ð¾Ð¼Ð¸ÑĤÐµ
ĠÐ¾ÑģÑĮÐ¼Ð¸Ð½
ĠÐ¾ÑģÑĮÐ¼Ð¸Ð½Ð¾Ð³
Ð·Ð°ÐºÑĥÐ¿ÐºÐ°
ĠÐ½ÐµÑħÐ¾ÑĢÐ¾ÑĪÐ¸Ð¹
ĠÑħÐ°Ð¹ÑģÐµ
Ð¿Ð¾Ð´ÑĬÐµÐ·
Ð¿Ð¾Ð´ÑĬÐµÐ·Ð´Ñĥ
ĠÐ²ÑģÑĤÑĢÐµÑĩÑĥ
ÑģÐºÐ¾ÑĢÐµÐµ
ĠÑģÑĤÑĢÐ°Ð½ÑģÑĤÐ²
ĠÑģÑĤÑĢÐ°Ð½ÑģÑĤÐ²ÑĥÑİÑī
ĠÑģÑĤÑĢÐ°Ð½ÑģÑĤÐ²ÑĥÑİÑīÐ¸Ð¼
ĠÑĥÐ°Ð·
ÑĤÐ°Ð½ÑĮ
ÑģÐ¿ÑĥÑĤ
ÑģÐ¿ÑĥÑĤÐ½Ð¸Ðº
ĠÐ»Ð¾Ð¼Ð±Ð°ÑĢ
ĠÐ»Ð¾Ð¼Ð±Ð°ÑĢÐ´
ĠÐ½Ð°Ð´Ð¾Ð»Ð³Ð¾
ĠÐ¸Ð·Ð´ÐµÐ²Ð°ÑĤÑĮÑģÑı
ĠÑıÑīÐ¸ÐºÐ¾Ð¼
Ð³Ð¾Ð»ÑĥÐ±Ð¸ÑĨÐºÐ°Ñı
Ð¿Ð¾Ð¿ÑĥÐ»ÑıÑĢÐ½ÑĭÐµ
ĠÑģÐ²ÐµÐ¶Ð°Ñı
ĠÐ¼Ð¾ÑĢÑİ
ĠÐ´ÑĭÑĢÐºÐ¾Ð¹
ĠÑİÐ½Ñĥ
ĠÑİÐ½ÑĥÑģ
Ð¿Ð¾Ð´ÑĬÐµÑħÐ°Ð»
ĠÐ¼Ð¾ÑĢÐºÐ¾Ð²ÐºÐ°
ĠÑĨÐ²ÐµÑĤÐ¾Ð¼
ĠÑįÐºÑģÐ¿ÐµÑĢÑĤÐ¸
ĠÑįÐºÑģÐ¿ÐµÑĢÑĤÐ¸Ð·Ð°
ĠÐ¿Ð¾Ð¿ÑĢÐ°Ð²ÐºÑĥ
ĠÐ¿Ð¾ÑģÐ¼Ð¾ÑĤÑĢÐ¸ÑĪÑĮ
ĠÐ´Ð¾ÐºÐ°Ð·Ð°ÑĤÐµÐ»ÑĮÑģÑĤÐ²Ð¾Ð¼
Ð¿ÑĢÐ¾ÑģÐ»ÑĥÑĪ
Ð¿ÑĢÐ¾ÑģÐ»ÑĥÑĪÐ¸Ð²Ð°Ð½Ð¸Ðµ
ĠÐ¿Ð¾Ð·Ð²Ð¾Ð½Ð¸Ð¼
ÑģÐºÐ¸Ð½ÑħÐµÐ´
ÑģÐºÐ¸Ð½ÑħÐµÐ´ÐºÐ¸
ĠÑĢÐ¸ÑģÐ¾Ð²Ð°Ð»Ð¸
ĠÐ¿Ð¾ÑģÑĤÐ°Ð²Ð»ÐµÐ½
ĠÐ¿Ð¾ÑģÑĤÐ°Ð²Ð»ÐµÐ½Ð¾
ÑĢÑĥÐºÐ°
ĠÐ¼Ð¾Ð¸ÑģÐµ
ĠÐ¼Ð¾Ð¸ÑģÐµÐµÐ²Ð°
ÑģÐ°Ð½Ð¸ÑĤÐ°ÑĢ
Ð²ÐµÑĢÐ½ÑĥÑģÑĮ
Ð»Ð°Ð±Ð¸Ð½
Ð»Ð°Ð±Ð¸Ð½ÑģÐºÐ¸Ð¹
ĠÑįÐ´ÑĥÐ°ÑĢÐ´
ĠÑįÐ´ÑĥÐ°ÑĢÐ´Ð¾Ð²Ð¸Ñĩ
ÐºÐ¸Ð¿ÐµÐ»
Ð½Ð°Ð´ÑĢÑĭÐ²
ĠÐ¿ÑĢÐµÐ´Ð¿ÑĢÐ¸ÑıÑĤÐ¸ÑıÐ¼Ð¸
ĠÐ´ÐµÐ²ÑĥÑĪÐºÐ¾Ð¹
ĠÐ¿Ð¾Ð»ÑĥÑĩÑĥ
ĠÐºÐ¾Ð½ÑģÐºÑĥÑİ
ĠÑħÑĥÐ»Ð¸Ð³Ð°Ð½ÐºÐ°
ĠÐ¿Ð¸Ð·Ð´Ð°ÑĤÐ°
ÑĢÐ°ÑģÑģÐ»
ÑĢÐ°ÑģÑģÐ»Ð°Ð±
ÑĢÐ°ÑģÑģÐ»Ð°Ð±Ð»ÑıÑĤÑĮ
ÑĢÐ°ÑģÑģÐ»Ð°Ð±Ð»ÑıÑĤÑĮÑģÑı
ĠÐ³ÑĢÑıÐ·Ð½ÑĥÑİ
ÐºÐ¾Ð½ÑİÑĪ
ÐºÐ¾Ð½ÑİÑĪÐ½Ñı
ĠÑģÑĤÐ°Ð²Ð¸Ð»
ĠÐ·Ð°ÐºÐ°Ñĩ
ĠÐ·Ð°ÐºÐ°ÑĩÐ¸Ð²Ð°ÑĤÑĮ
Ð·Ð°ÐºÐ¾Ð½ÑĩÐ¸Ð»
ĠÑģÑĤÐ°ÐºÐ°Ð½Ð¾Ð²
ĠÐ¿Ð°ÑĢÐ°Ð³ÑĢÐ°ÑĦ
Ð±Ð¾Ð»ÑĮÑĪÐ¾Ð³Ð¾
ĠÑĤÐ²Ð¾ÑĢÐ¸ÑĤÑģÑı
ĠÐ¾Ð±ÑĬÑıÑģÐ½ÑıÐ»Ð°
ĠÐ»ÑĳÐ³ÐºÐ¸Ð¹
ĠÐ³ÑĢÐ¾Ð¼ÐºÐ¾ÑģÑĤÐ¸
ĠÐ±Ð°Ð½ÑĮ
ĠÐ±Ð°Ð½ÑĮÐºÐµ
ĠÑĦÐ¾ÑĢÐµÐ»ÑĮ
Ð´Ð¸Ð°Ð³Ð½
Ð´Ð¸Ð°Ð³Ð½Ð¾Ð·Ð°
ĠÐ¿Ð¾ÑĢÑĤÐ½Ð¸ÐºÐ¾Ð²
ĠÐ²ÑĭÑĢÑĥÑĩ
ĠÐ²ÑĭÑĢÑĥÑĩÐ°Ð¹
ĠÐ¿ÑĢÐµÐ´Ð°Ð¼
ÑĢÐ¾Ð´Ð¸ÑĤÐµÐ»Ð¸
Ð·Ð°Ð´Ð°ÑĩÐ¸
ĠÐ¾Ð¿Ð¾Ð²
ĠÐ¾Ð¿Ð¾Ð²ÐµÑģÑĤ
ĠÐ¾Ð¿Ð¾Ð²ÐµÑģÑĤÐ¸ÑĤÑĮ
ĠÐ¾ÑĤÐºÐ°Ð·ÑĭÐ²Ð°ÑĤÑĮ
ĠÑģÑĥÐ¿ÑĢÑĥÐ³
Ð¾ÑĪÐ¾
ĠÑĤÐ¾ÑĪ
ĠÑĤÐ¾ÑĪÐ½Ð¸ÑĤ
ĠÐ²Ð¸Ð½Ð¾Ð²Ð°ÑĤÐ°
ĠÑĤÐµÐ»ÐµÐ³
ĠÑĤÐµÐ»ÐµÐ³ÑĢÐ°ÑĦ
ÑģÐºÐ°Ð½Ð´
ÑģÐºÐ°Ð½Ð´Ð°Ð»
ĠÐ¸ÑģÐ¿Ð°Ð½Ð¸Ð¸
Ð²ÑĭÐºÐ¾Ð»
Ð²ÑĭÐºÐ¾Ð»ÑĥÐ¿
Ð²ÑĭÐºÐ¾Ð»ÑĥÐ¿ÑĭÐ²Ð°ÑĤÑĮ
ĠÐºÐ°Ð·Ð°Ð½
ĠÐºÐ°Ð·Ð°Ð½ÑģÐºÐ¾Ð¼
ĠÐ¿ÑĢÐ¾ÑĤÑıÐ¶ÐµÐ½Ð¸Ð¸
ĠÑĢÐ°Ð·Ð´Ñĥ
ĠÑĢÐ°Ð·Ð´ÑĥÐ»Ð¾
ĠÐ¿ÑĢÐ¸ÑĩÐ¸Ð½Ñĭ
Ð²Ð°Ð»ÑĮÑģ
ĠÐ¾ÑĤÐ´Ð°Ð²Ð°ÑĤÑĮ
ÑģÐ¾Ð±Ð»Ñİ
ÑģÐ¾Ð±Ð»ÑİÐ´Ð°ÑĤÑĮ
Ð±Ð¾Ð»ÑĤÑĭ
ĠÑĤÐ²Ð¾ÑĢÐµÐ½Ð¸ÐµÐ¼
ĠÑħÐ¸Ð¼Ð¸Ð¸
Ð³ÑĥÐ»ÑıÐ¹
ĠÑĥÑģÑĤÐ°Ð½Ð°Ð²Ð»Ð¸Ð²Ð°ÐµÑĤÑģÑı
Ð´ÐµÑĢÐ·
Ð´ÐµÑĢÐ·ÐºÐ¸Ðµ
ĠÑģÑĤÐ°ÑĤÑĥÑģÑĭ
ĠÐ´Ð°Ð¼Ð±Ñĥ
ĠÑĤÐ¾Ð½Ðµ
ĠÑĪÐ¸ÑĪÐºÐ°
Ð½ÐµÐ¿ÑĢÐ°Ð²Ð¸Ð»ÑĮÐ½Ð¾
ĠÐ°Ð¼ÑĥÑĢÑģÐºÐ°Ñı
Ð¿Ð°Ð¼ÑıÑĤ
Ð¿Ð°Ð¼ÑıÑĤÐ½Ð¸ÐºÐ¸
ĠÐ¼ÑĢÐ°Ð¼
ĠÐ¼ÑĢÐ°Ð¼Ð¾ÑĢÐ°
ĠÑģÑĢÐµÐ´ÑģÑĤÐ²Ð¾Ð¼
Ð¶ÐµÐ»ÐµÐ¹
Ð¶ÐµÐ»ÐµÐ¹Ð½ÑĭÐ¹
ĠÐ±ÑĥÑĢÐ³
ĠÐ±ÑĥÑĢÐ³ÐµÑĢ
ĠÐ¾Ð±Ð¾Ð·Ð²Ð°ÑĤÑĮ
ĠÐ¶ÐµÐ½Ð°ÑĤÑĭÐ¹
Ð¿Ð°ÑĢÐ¸Ðº
Ð¿Ð°ÑĢÐ¸ÐºÐ¼Ð°Ñħ
Ð¿Ð°ÑĢÐ¸ÐºÐ¼Ð°ÑħÐµÑĢ
ĠÐ¿ÑĢÐ¸Ð²Ð¸Ð²ÐºÐ¸
Ð¾ÑĤÐ´ÑĭÑħÐ°Ð¹
ĠÐ½Ð°Ð¸Ð±Ð¾Ð»ÑĮÑĪÐµ
ĠÐ½Ð°Ð¸Ð±Ð¾Ð»ÑĮÑĪÐµÐµ
ĠÐ·Ð°Ð³ÑĥÐ±
ĠÐ·Ð°Ð³ÑĥÐ±Ð¸Ð»Ð¸
ÑĢÐ°ÑģÑĩÐµÑĤ
ÑĢÐ°ÑģÑĩÐµÑĤÐ½ÑĭÐ¹
ÐºÑĥÐºÐ¾Ð»
ÐºÑĥÐºÐ¾Ð»ÐºÐ°
ÐºÐ¸Ð½Ð¾ÑĤ
ÐºÐ¸Ð½Ð¾ÑĤÐ°Ð²ÑĢ
ĠÐ¿Ð¾ÐºÑĥÑĪÐ°ÐµÑĪÑĮ
ĠÐºÑĥÐ¼Ð¸ÑĢ
ĠÑģÑĤÐ°ÑĤÑĥÑģ
ĠÐ´Ð¾Ð¶Ð´ÑĮ
ĠÑģÐ¼Ð¾Ð¶ÐµÐ¼
ĠÐºÑĢÐ°ÑģÐ½Ð¾Ð³Ð¾ÑĢÑģÐºÐµ
Ð±ÑĥÑĤÑĩÐµÑĢ
ĠÑģÐ¾ÑĩÐ¸Ð½
ĠÑģÐ¾ÑĩÐ¸Ð½ÑıÐ¹
ĠÑģÐ¾ÑĩÐ¸Ð½ÑıÐ¹ÑĤÐµ
ÐºÑĢÐµÐ´Ð¸ÑĤÐ½ÑĭÐµ
ĠÐ±Ð°ÑģÑģÐµÐ¹Ð½Ðµ
ĠÐ´ÑĢÐ°Ð³Ð¾ÑĨÐµÐ½Ð½Ð¾Ðµ
Ð¿Ð¾Ð¼Ð½Ð¸
ĠÐ±Ð¾Ð³Ð°ÑĤÑĭÐ¹
Ð¿Ð¾Ð´Ð½Ð¸Ð¼ÑĥÑģÑĮ
ĠÐ¿Ð°Ð»ÐµÑĨ
ĠÑĥÐºÑĥÑģ
ĠÑĥÐºÑĥÑģÐ¸Ð»
ĠÐ½Ð¾ÑģÑĥ
ĠÐ¶ÐµÑĢ
ĠÐ¶ÐµÑĢÐ¼ÐµÐ½
ĠÑģÑĥÑħ
ĠÑģÑĥÑħÐ¾ÑĦ
ĠÑģÑĥÑħÐ¾ÑĦÑĢÑĥÐº
ĠÑģÑĥÑħÐ¾ÑĦÑĢÑĥÐºÑĤÐ¾Ð²
ĠÐºÐ°Ð¼Ð¸Ðº
ĠÐºÐ°Ð¼Ð¸ÐºÐ°Ð´
ĠÐºÐ°Ð¼Ð¸ÐºÐ°Ð´Ð·Ðµ
Ð½Ð°Ð¶Ð¸Ð¼
Ð½Ð°Ð¶Ð¸Ð¼Ð°Ñİ
ĠÐ±Ð¸Ð¾Ð»Ð¾Ð³
ĠÐ±Ð¸Ð¾Ð»Ð¾Ð³Ð¸ÑĩÐµÑģÐºÐ°Ñı
ÑģÑĥÑĦÐ»Ðµ
ĠÐ»ÐµÐ·ÐµÑĪÑĮ
Ð°Ð¹Ð°Ð»Ð°
ĠÐ´Ð¾Ð¿Ð»Ð°Ñĩ
ĠÐ´Ð¾Ð¿Ð»Ð°ÑĩÐ¸Ð²Ð°ÐµÑĤ
ĠÑħÐ°ÑĩÐ°Ð¼Ð¸
ĠÐ¿Ð¾Ð²ÐµÐ´ÑĳÑĪÑĮÑģÑı
ĠÐ½Ð°Ð±ÐµÑĢÑĳÑĪÑĮÑģÑı
ĠÐ¿ÑĢÐ¸Ð³Ð¾ÑĤÐ¾Ð²Ð¸Ð»
ĠÐºÑĥÐ»Ð°ÐºÐ¾Ð²
ĠÐ°Ð½Ð°Ð»ÑĮÐ½ÑĭÐµ
ĠÐ²Ð¸Ð±ÑĢÐ¾Ð¼
ĠÐ²Ð¸Ð±ÑĢÐ¾Ð¼Ð°ÑģÑģ
ĠÐ²Ð¸Ð±ÑĢÐ¾Ð¼Ð°ÑģÑģÐ°Ð¶
ĠÐ²Ð´Ð²Ð¾ÑĳÐ¼
ĠÑĩÐµÑĢÐ¿Ð°ÐµÑĤÐµ
Ð±Ð°ÑĢÐ°Ð½
Ð±Ð°ÑĢÐ°Ð½Ñĭ
ĠÑĢÐµÑĨÐµÐ¿ÑĤ
ĠÐ¾Ð¿ÑĢÐ¾Ð²ÐµÑĢ
ĠÐ¾Ð¿ÑĢÐ¾Ð²ÐµÑĢÐ³
ĠÐ¾Ð¿ÑĢÐ¾Ð²ÐµÑĢÐ³Ð½ÑĥÑĤÑĮ
ĠÐ¾Ð±ÑıÐ·Ð°Ð½Ñĭ
ĠÑĥÑģÐ¿Ð¾ÐºÐ¾Ð¸Ð»Ð°
ĠÐ´Ð°Ð´
ĠÐ´Ð°Ð´ÑĥÑĤ
ĠÑĥÐºÑĢÐ°Ð´Ð¸
ĠÐ±ÑĥÐ¼Ð°Ð³Ð¸
ÐºÐ¾Ð¿ÑĤ
ÐºÐ¾Ð¿ÑĤÐ¸Ð»ÐºÐ°
ĠÐºÐ¾Ð½Ð²ÐµÑĢÑĤÐ¾Ð¼
ĠÐ²ÑĭÐ»ÐµÑĤÐ°
ĠÐ¿Ð¾Ð³ÑĢÑĥÐ¶ÐµÐ½Ð½ÑĭÐ¼Ð¸
Ð½Ð¸Ð³ÐµÑĢ
Ð½Ð¸Ð³ÐµÑĢÑģÐºÐ°Ñı
Ð±Ð°Ð±Ñĥ
ĠÑıÐ³Ñĥ
ĠÐ¾ÑĤÐ¿ÑĢÐ°Ð²ÐºÐ¸
ÑĢÐµÑĪÐ°Ð¹
ĠÑĨÐ¸ÑĢ
ĠÑĨÐ¸ÑĢÐºÑĥÐ»Ñı
ĠÑĨÐ¸ÑĢÐºÑĥÐ»ÑıÑĢ
ĠÑĨÐ¸ÑĢÐºÑĥÐ»ÑıÑĢÐ½Ð¾Ð¹
ĠÐ½Ð°Ð¿Ð¾Ð´Ð¾Ð±
ĠÐ½Ð°Ð¿Ð¾Ð´Ð¾Ð±Ð¸Ðµ
ĠÐ¿ÑģÐ¸ÑħÐ¾Ð»Ð¾Ð³Ð¸Ñı
ĠÐ²ÐµÑĤÐµÑĢÐ¸Ð½Ð°ÑĢ
ĠÐ·Ð°Ð²ÐµÐ»Ð°
ĠÑĥÐ³Ð¾Ð»Ð¾Ð²Ð½Ð¾Ðµ
ĠÐºÐ°Ð»Ð¾ÑĢ
ĠÐºÐ°Ð»Ð¾ÑĢÐ¸Ð¹
ĠÑĢÐ¾Ð¼Ðµ
ĠÐ¿Ð¾ÑĤÑıÐ½Ñĥ
ĠÐ¿Ð¾ÑĤÑıÐ½ÑĥÐ»Ð¾
ĠÐ¿Ð¾Ð´ÑĩÐ¸Ð½ÐµÐ½
ĠÐ¿Ð¾Ð´ÑĩÐ¸Ð½ÐµÐ½Ð½ÑĭÐ¼Ð¸
ĠÐ¸Ð·Ð¼ÐµÐ½Ð¸ÑĤ
ĠÐ¿ÑĢÐ¸Ð´Ð°ÑİÑĤ
ĠÐ¿ÐµÐ½ÑģÐ¸Ñİ
ÐºÐ¾Ð½ÑģÐºÐ¾Ðµ
ĠÑģÐ°Ð»Ð¾
ĠÑģÐ´ÐµÑĢÐ¶Ð°Ð»
ĠÑıÑģÑĤÑĢ
ĠÑıÑģÑĤÑĢÐµÐ±
ĠÐ°Ð¿Ð¿Ð°ÑĢÐ°ÑĤÐ°Ð¼Ð¸
ÑĥÑĢÐµÐ³
ÑĥÑĢÐµÐ³ÑĥÐ»Ð¸ÑĢÐ¾Ð²Ð°ÑĤÑĮ
ĠÐºÐ¾Ð½ÑĦÐ»Ð¸ÐºÑĤ
Ð·ÐµÐ¼ÑĦÐ¸ÑĢÐ°
Ð²Ð»Ð°Ð´Ð°
ĠÐ¾Ð±ÑĬÑĳÐ¼
ĠÐ¾ÐºÐµÐ°Ð½
ĠÑģÐºÐ°Ð·Ð°Ð½Ð¸Ð¹
ĠÐ¿ÑĢÐ¸ÐµÐ¼Ð»ÐµÐ¼
ĠÐ¿ÑĢÐ¸ÐµÐ¼Ð»ÐµÐ¼Ð¾
ĠÑĥÑĩÐ¸ÑĤÑĭÐ²Ð°ÑİÑĤ
ĠÐ²Ð¾Ð·ÑĢÐ°ÑģÑĤ
ĠÐ½Ð¸Ð¶ÐµÐ³Ð¾ÑĢÐ¾Ð´
ĠÐ½Ð¸Ð¶ÐµÐ³Ð¾ÑĢÐ¾Ð´ÑģÐºÐ¾Ð¹
Ð¾Ð°Ð¾
ĠÐºÑĢÐµÐ´Ð¸ÑĤÐ½ÑĭÐ¹
ĠÐ¾Ð¼ÑģÐº
ĠÐ²ÑĭÑģÑĤÐ°Ð²Ð¾Ðº
ĠÐ¾Ð±ÑĥÐ²
ĠÐ¾Ð±ÑĥÐ²Ð¸
Ð½ÐµÐ¸Ð·
Ð½ÐµÐ¸Ð·Ð²ÐµÑģÑĤ
Ð½ÐµÐ¸Ð·Ð²ÐµÑģÑĤÐ½Ð°Ñı
ĠÐ°Ð»Ð´Ð°
ĠÐ¼Ð¸Ð´Ð¾ÑĢ
ĠÐ¼Ð¸Ð´Ð¾ÑĢÐ¸Ñı
ĠÐ½ÐµÐ²Ð¸Ð½
ĠÐ½ÐµÐ²Ð¸Ð½Ð½Ð¾Ð¼
ĠÐ½ÐµÐ²Ð¸Ð½Ð½Ð¾Ð¼ÑĭÑģ
ĠÐ½ÐµÐ²Ð¸Ð½Ð½Ð¾Ð¼ÑĭÑģÑģÐºÐ¾Ð¼
Ð¿ÑģÐ¸ÑħÐ¾Ð»Ð¾Ð³Ð¸
Ð±Ð¸ÑĢÐºÐ°
ĠÐ¿Ð¾Ð»Ð¾
ĠÐ±ÑĥÐ´ÑĥÐ°ÑĢ
ÐµÐ²ÑĢÐ¾Ð¿Ð°
ĠÐ¾ÐºÐ¾Ð½Ñĩ
ĠÐ¾ÐºÐ¾Ð½ÑĩÐ°ÑĤÐµÐ»ÑĮÐ½Ð¾
ĠÐºÐ°Ð±Ð¸Ð½ÐµÑĤÐ¾Ð¼
ĠÐ¾ÑĤÐ²ÐµÑĤÐ¾Ð¼
ÑĥÐ±Ð¸Ð¹ÑģÑĤÐ²Ð¾
ĠÐ·Ð²ÐµÑĢÐµÐ²
ĠÑĤÑĥÐ¿ÑĭÐ¼
ĠÐ¼Ð¾Ð·Ð³Ð¾Ð¼
ĠÐ½Ð°ÑĥÑĩÐ¸Ð»ÑģÑı
ĠÐ¿Ð°Ð»ÑĮÑĩÐ¸ÐºÐ¾Ð¼
ĠÑĤÐ¸Ð¿Ñĭ
ĠÐ¿Ð°Ð»ÑĮÑĩÐ¸ÐºÐ¾Ð²
ĠÐ¿Ð°Ð»ÑĮÑĩÐ¸ÐºÐ¾Ð²ÑĭÑħ
ĠÐ¿Ð¾Ð¿Ðµ
ÑĦÐ¸Ð±
ÑĦÐ¸Ð±ÑĢÐ¸Ð»
ÑĦÐ¸Ð±ÑĢÐ¸Ð»Ð»Ñı
ÑĦÐ¸Ð±ÑĢÐ¸Ð»Ð»ÑıÑĨÐ¸Ð¾Ð½
ÑĦÐ¸Ð±ÑĢÐ¸Ð»Ð»ÑıÑĨÐ¸Ð¾Ð½Ð½ÑĭÐ¹
ĠÐ¿Ð¾Ð´ÑĬÐµÐ±
ĠÐ¿Ð¾Ð´ÑĬÐµÐ±ÑĭÐ²Ð°ÐµÑĤ
ĠÑĢÐ°Ð·Ð¾ÑĢÐ²Ð°Ð»Ð°ÑģÑĮ
ĠÐ¿ÐµÑĢÐµÐ»Ð¸Ð²Ð°Ð»ÑģÑı
ĠÑįÑĦÑĦÐµÐºÑĤ
ĠÐ´Ð°Ð½Ð¸Ñı
ÐºÐ¾Ð¼ÐµÑĤÐ°
ĠÐºÐ¾Ð¼ÐµÑĤÐ°
ĠÐ»Ð¸Ð¶
ĠÐ»Ð¸Ð¶ÑĥÑĤ
ĠÑĥÐ´Ð°Ð»Ð¸Ð»Ð¸
Ð½ÐµÐ²Ð°Ð¶Ð½Ð¾
ÑįÑĤÐ°Ð¿
ÑįÑĤÐ°Ð¿Ñĭ
ĠÐ¼Ð¸ÐºÑĢÐ¾Ðº
ĠÐ¼Ð¸ÐºÑĢÐ¾ÐºÐ»Ð¾Ð½
ĠÐ¼Ð¸ÐºÑĢÐ¾ÐºÐ»Ð¾Ð½Ð°Ð»ÑĮÐ½Ð¾Ð³Ð¾
ĠÐ»ÐµÐ³ÐºÐ¸Ñħ
Ð¼ÑĥÐ½Ð°
Ð¼ÑĥÐ½Ð°ÑĦÐ¸Ðº
ĠÑĥÑģÑģÑĥÑĢÐ¸Ð¹ÑģÐºÐ¸Ð¹
ĠÐ·Ð°Ð¹ÐºÐ°
ĠÐ¿Ð»Ð¾ÑħÑĥÑİ
Ð²ÑĭÑģÑĪÐµÐµ
Ð¾Ð±ÐµÑĢÐµÐ³Ð¸
ĠÐ¾Ð±ÑīÐ¸Ðµ
ĠÑĦÑĢÐ°Ð·Ñĭ
ĠÐ½ÐµÐ¼ÐµÑĨÐºÐ¸Ð¹
ĠÑĢÐ°Ð·Ð³Ð¾Ð½Ð¸Ð¼
ĠÑĩÐ°ÑģÐ°Ð¼
ĠÐ¿ÑĢÐµÐ±ÑĭÐ²Ð°Ð¹
ĠÑĢÐ¾Ð²Ð½Ð¾Ð¼
ĠÐºÐ°ÑĢÑĤÐ°ÑĤ
ĠÐºÐ°ÑĢÑĤÐ°ÑĤÐ°Ð¹
Ð³Ð»Ð°Ð³
Ð³Ð»Ð°Ð³Ð¾Ð»Ð¾Ð¼
ĠÐ·Ð°ÑĢÐµÐºÐ°ÑİÑĤÑģÑı
ĠÐ¼Ð¾Ð»Ð¾Ð´ÑĳÐ¶Ð¸
ĠÑģÐµÐ³Ð¾Ð´Ð½ÑıÑĪÐ½Ð¸Ð¹
ĠÐ¼Ð¾ÑģÐºÐ¾Ð²ÑģÐºÑĥÑİ
ÑĤÐ¾ÑĩÐ½Ð¾Ðµ
ĠÐ¿Ð¾Ð´ÐµÑĢÐ¶
ĠÐ¿Ð¾Ð´ÐµÑĢÐ¶Ñĥ
Ð°Ð²ÑĤÐ¾Ð½
Ð°Ð²ÑĤÐ¾Ð½Ð¾Ð¼Ð¸Ñı
ĠÐ±Ð°Ð»ÐºÐ°
ĠÐ¼ÐµÑĩÐ¸
ĠÐ¿ÑĢÐ¸Ð±ÑĭÑĤÐ¸Ðµ
ĠÐ»Ð¾ÑģÐºÑĥ
ĠÐ»Ð¾ÑģÐºÑĥÑĤÐ°
Ð¾ÑĩÐ¸Ñī
Ð¾ÑĩÐ¸ÑīÐ°Ð¹
ĠÑģÐ¸Ð½Ð³
ĠÑģÐ¸Ð½Ð³Ð»Ð¾Ð²ÑĭÐµ
Ð¾ÑĤÐ±ÐµÐ»
Ð¾ÑĤÐ±ÐµÐ»Ð¸ÑĤÑĮ
ĠÐ¾ÑĤÐ´ÐµÐ»ÐºÐ¾Ð¹
ĠÐ°Ð²Ð°ÑĤ
ĠÐ°Ð²Ð°ÑĤÐ°ÑĢ
ĠÐ°Ð²Ð°ÑĤÐ°ÑĢÐºÐ¸
ĠÑģÐ°Ñĥ
ĠÑģÐ°ÑĥÐ½Ñĥ
ĠÐ¿ÑĢÐ¸Ð¿ÑĥÑħ
Ð¼Ð¸ÑĪÐ°ÑĢÐ¸
ĠÑĤÐ²Ð°Ð¹Ð»
ĠÑĤÐ²Ð°Ð¹Ð»Ð°Ð¹ÑĤ
ĠÐ½Ð°ÑģÐ»ÐµÐ´
ĠÐ½Ð°ÑģÐ»ÐµÐ´Ð½Ð¸ÐºÐ¸
ĠÑĦÐ¸Ðº
ĠÑĦÐ¸ÐºÑģÐ¸
ĠÑĦÐ¸ÐºÑģÐ¸ÑĢÑĥÐµÑĤ
ĠÑĤÐµÐ»ÐµÐ³ÑĢÐ°Ð¼Ð¼Ðµ
ĠÑģÐ¸Ð»Ñĭ
ĠÑĤÑĢÐ°ÑĤÑĮÑĤÐµ
Ð±ÑĥÐ»ÑĮÐ¾Ð½
ĠÐºÑĥÑĢÐ¸Ð½
ĠÐºÑĥÑĢÐ¸Ð½ÑĭÐ¹
ÑģÐ½ÑıÑĤÐ¸Ðµ
ĠÐ±Ð°Ð»Ð»
ĠÐ±Ð°Ð»Ð»Ð¾Ð½Ð°
Ð±ÑĥÑĤÑĭÑĢ
Ð±ÑĥÑĤÑĭÑĢÑģÐºÐ¸Ð¹
ÑĢÐµÑĪÐ¸Ð»Ð°
ĠÐ¾ÑģÑĤÐ°Ð²Ð»ÑıÐ»Ð¸
Ð¿ÑĢÐµÐ´Ð»Ð¾Ð¶
Ð¿ÑĢÐµÐ´Ð»Ð¾Ð¶Ð¸ÑĤÐµ
ĠÐ¿ÑĢÐµÐ´Ð»Ð¾Ð¶Ð¸Ð»Ð¸
ĠÐ¿ÑĢÐµÐ´Ð½Ð°Ð·
ĠÐ¿ÑĢÐµÐ´Ð½Ð°Ð·Ð½Ð°Ñĩ
ĠÐ¿ÑĢÐµÐ´Ð½Ð°Ð·Ð½Ð°ÑĩÐµÐ½
ĠÐºÑĥÐ½Ð³
ĠÐºÑĥÐ½Ð³ÑĥÑĢ
Ð¿ÐµÑĢÐ²Ð¾Ð¼
Ð¿ÐµÑĢÐ²Ð¾Ð¼Ð°Ð¹
Ð¿ÐµÑĢÐ²Ð¾Ð¼Ð°Ð¹ÑģÐºÐ¸Ð¹
ĠÐºÐ¾ÑģÑĤÑĢÐ¾Ð¼Ðµ
ĠÑĦÑĳ
ĠÑĦÑĳÐ´Ð¾ÑĢ
ĠÑĦÑĳÐ´Ð¾ÑĢÐ¾Ð²Ð°
ĠÐ¿Ð¾Ð»ÐµÐ·Ð½Ð¾Ðµ
ĠÐ°Ð¿Ð¸Ð´ÑĢÐ°
ĠÐ°Ð²Ð¸Ð°ÐºÐ¾Ð½
ĠÐ°Ð²Ð¸Ð°ÐºÐ¾Ð½ÑģÑĤÑĢÑĥÐº
ĠÐ°Ð²Ð¸Ð°ÐºÐ¾Ð½ÑģÑĤÑĢÑĥÐºÑĤÐ¾ÑĢÐ¾Ð²
ĠÐ°ÐºÑĥÐ»Ð°
ĠÐµÐ±ÑĥÑĢÐ³
ÐµÑĦ
ÐµÑĦÑĢÐµÐ¹
ÐµÑĦÑĢÐµÐ¹ÑĤÐ¾ÑĢ
ĠÑģÐ¸Ð½ÑĤ
ĠÑģÐ¸Ð½ÑĤÐµÐ·
ĠÑģÐ¸Ð½ÑĤÐµÐ·Ð°
Ð¿Ð°Ðº
Ð¿Ð°ÐºÐ¸ÑģÑĤ
Ð¿Ð°ÐºÐ¸ÑģÑĤÐ°Ð½
Ð¿Ð°ÐºÐ¸ÑģÑĤÐ°Ð½ÑģÐºÐ¾Ðµ
Ð¾Ð±Ð½Ð¸Ð¼
Ð¾Ð±Ð½Ð¸Ð¼Ð°Ñİ
ÑĢÑĥÐ»ÐµÐ²
ÑĢÑĥÐ»ÐµÐ²Ð°Ñı
ĠÑĤÑıÐ³Ð°
ĠÐ½ÐµÑģÐ¿
ĠÐ½ÐµÑģÐ¿ÐµÑĪ
ĠÐ½ÐµÑģÐ¿ÐµÑĪÐ½Ð¾
ĠÐ¿ÑĢÐ¾Ð±Ð¸Ð²Ð°ÑİÑĤ
ĠÐ¿Ð°Ð»ÑĮÑĨÐ°
ĠÐ¾Ð±Ð¾ÑģÑģ
ĠÐ¾Ð±Ð¾ÑģÑģÐ°ÑĤÑĮ
ĠÐ²ÑĥÐ»ÐºÐ°Ð½
ĠÑĨÐ²ÐµÑĤÐ¾ÐºÐ¾ÑĢ
ĠÑĨÐ²ÐµÑĤÐ¾ÐºÐ¾ÑĢÑĢÐµÐº
ĠÑĨÐ²ÐµÑĤÐ¾ÐºÐ¾ÑĢÑĢÐµÐºÑĨÐ¸Ñı
ĠÐ¿ÑĢÐ¸ÑĨÐµÐ¿
ĠÐ¿ÑĢÐ¸ÑĨÐµÐ¿Ñĭ
ĠÐ¿ÑĢÐ¸Ð³Ð¾ÑĤÐ¾Ð²Ð¸Ð»Ð°
ĠÐ±Ð¾Ð½Ð´
ĠÑĤÑĢÑĥÐ±ÐºÐ¾Ð¹
ÑĥÐºÐ°Ð·ÑĭÐ²
ÑĥÐºÐ°Ð·ÑĭÐ²Ð°ÑĤÑĮ
ĠÐ¿ÑĢÐ¸Ð¿Ð¸Ð·Ð´
ĠÐ¿ÑĢÐ¸Ð¿Ð¸Ð·Ð´Ð½ÑĥÑĤÑĭÐ¹
ĠÐ¾Ð½Ð°Ð½
ĠÐ¾Ð½Ð°Ð½Ð¸ÑģÑĤ
ÐºÑĭÑĢ
ÐºÑĭÑĢÐ³
ÐºÑĭÑĢÐ³Ñĭ
ÐºÑĭÑĢÐ³ÑĭÐ·
ÐºÑĭÑĢÐ³ÑĭÐ·ÑģÑĤÐ°Ð½
ĠÐ¸Ð·Ð²ÐµÑģÑĤÐµÐ½
ÐºÑĢÐ°ÑģÐ½Ð¾
ĠÑĢÑĥÐºÐ¾Ð²Ð¾Ð´Ð¸ÑĤ
ĠÑĢÑĥÐºÐ¾Ð²Ð¾Ð´Ð¸ÑĤÐµÐ»Ñı
ĠÑĢÑĥÐºÐ¾Ð²Ð¾Ð´Ð¸ÑĤÐµÐ»ÑıÐ¼Ð¸
ĠÐ´Ð¾Ð³Ð¾Ð²Ð¾ÑĢÐ¸ÑĤÐµÑģÑĮ
ĠÐ±ÑĭÐ²Ð°ÑİÑĤ
ĠÐ²ÑĭÐ²Ð¾Ð´Ð¾Ð²
ĠÑģÐ¸Ð³Ð°ÑĢÐµÑĤ
ÑĤÐµÑĢÐ¼
ÑĤÐµÑĢÐ¼Ð¾Ð±
ÑĤÐµÑĢÐ¼Ð¾Ð±ÐµÐ»ÑĮÐµ
ÑħÐ¾ÑĤÐµÐ»Ð¸
ĠÑıÐ»ÑĤÑĭ
ĠÑİÐ»Ð¸
ĠÑİÐ»Ð¸Ð°Ð½Ð°
ĠÑģÐµÐ¼ÑĳÐ½Ð¾Ð²Ð°
Ð½ÐµÐ´Ð¾Ð»Ð³Ð¾
ĠÑĤÑĢÐ°Ð²ÐºÑĥ
ÑħÑĥÐ¹Ð½Ðµ
ĠÐ·Ð°ÐºÑĢÑĭÑĤÐ¸Ñı
Ð¼Ð¾Ð½ÐµÑĤ
Ð¼Ð¾Ð½ÐµÑĤÐ½ÑĭÐµ
ĠÐ·Ð°ÑĤÐ¾ÑĩÐºÐ¸
ĠÑĥÐ½Ð¸ÐºÐ°Ð»ÑĮÐ½Ð¾Ð³Ð¾
ÑħÑĥÐ¹Ð½Ð°
ÑģÑĤÑĢÐ°Ð½Ñĭ
ĠÐ½ÐµÐ½ÑĥÐ¶Ð½Ð¾Ðµ
ĠÑĥÑĩÐ°
ĠÑĥÑĩÐ°ÑīÐ¸Ðµ
ĠÑĥÑĩÐ°ÑīÐ¸ÐµÑģÑı
ÑĥÐ³Ð°ÑĢÐ½ÑĭÐµ
ĠÐ¿ÑĢÐ¾Ð´Ð¾Ð»Ð¶Ð°ÐµÑĤ
ĠÑĢÐ°ÑģÑĤÑıÐ¶
ĠÑĢÐ°ÑģÑĤÑıÐ¶ÐºÑĥ
ĠÑĤÐ¾Ð½Ð¸ÑĢÐ¾Ð²
ĠÑĤÐ¾Ð½Ð¸ÑĢÐ¾Ð²Ð°Ð½Ð¸Ðµ
ĠÐ¿ÑĥÐ»ÑĮÐ¿Ð°
ĠÐ´ÑĥÐ¼Ð°ÐµÑĤÑģÑı
ĠÐºÐ°Ð½Ð°Ð»Ðµ
ĠÐ·Ð°Ð±Ð¾Ð»Ð¾ÑĤÐ½Ð¾Ðµ
Ð½Ð¾ÑĢÐ¼Ð°Ð»ÑĮÐ½ÑĭÐµ
Ð¾ÑĤÑĢÐ°Ð²Ð»ÐµÐ½Ð¸Ðµ
ĠÐ³ÑĢÐ¸Ð±Ð°Ð¼Ð¸
ĠÐ´Ð¸Ð²Ð¸Ð»Ð¸ÑģÑĮ
Ð»ÑĥÐ¿
Ð»ÑĥÐ¿Ð°ÑĢÐµÐ²
ĠÐ½Ð°Ð²ÐµÐ»Ð°
ĠÑĩÐµÐ»Ð¾Ð²ÐµÑĩÐµÑģÑĤÐ²Ñĥ
Ð´Ð¶ÐµÐ½Ð½Ð¸
Ð´Ð¶ÐµÐ½Ð½Ð¸ÑĦÐµÑĢ
ĠÑįÐ½Ð¸ÑģÑĤ
ĠÑįÐ½Ð¸ÑģÑĤÐ¾Ð½
ÐºÐ¾Ð»ÐµÑģÐ°
ĠÑĢÐµÐ·Ð¸Ð½Ð°
ĠÑģÐ¾ÑĤÑĢÑĥÐ´Ð½Ð¸ÐºÐ¸
Ð½ÑĥÑĤÑĢÐ¸Ð¼
Ð½ÑĥÑĤÑĢÐ¸Ð¼Ð°Ðº
Ð½ÑĥÑĤÑĢÐ¸Ð¼Ð°ÐºÑģ
ÑĪÑĥÐ¼Ð°Ð½
ÑĪÑĥÐ¼Ð°Ð½Ð¸ÑĤ
ĠÐ»ÑİÐ±Ð¸
ĠÑĤÑĢÑĥÐ±ÐºÐ°
ĠÐ´Ð¾Ð»Ð¸ÑĤÑĮ
Ð¾ÐºÑĢÐ¾ÑĪÐºÐ°
ĠÑģÑĤÑĢÐ¾Ð¿
ĠÐ¿Ð°ÑĢÐ°ÑĪÑİÑĤÐ°
Ð²Ð¾Ð·ÑĮÐ¼Ñĥ
ÑįÐ±Ð°
ĠÐ½Ð°ÑĢÐºÐ¾Ð¼Ð°Ð½ÐºÐ¸
ĠÐµÐ¶ÐµÐ´Ð½ÐµÐ²Ð½Ð°Ñı
ĠÐ¿ÐµÑĢÐµÐ¿Ð¸ÑģÐºÐ°
ĠÑįÐ»ÐµÐºÑĤÑĢÐ¾Ð½Ð½Ð¾Ð¹
ĠÐ¿Ð¾ÑĩÑĤÐµ
ĠÐ´ÑĥÐ½ÐµÑĪÑĮ
ÑģÐ¾ÑħÑĢÐ°Ð½Ð¸
ĠÐºÑĢÑĥÑĤÐ¸Ð»
ÑĤÑĥÑĪ
ÑĤÑĥÑĪÐ¸Ð½ÑģÐºÐ¸Ð¹
Ð¿Ð¾Ð³Ð¾Ð²Ð¾ÑĢÐºÐ°
Ð¿ÑĢÐ¾ÐºÐ°ÑĤ
ĠÑħÐ¾ÑĢÐ²Ð°ÑĤÐ¸Ñı
ĠÐ±ÐµÐ³Ð°ÐµÑĤÐµ
Ð´Ð¶ÐµÐ¹Ð¼Ñģ
ĠÐ¼Ð°ÐºÑį
ĠÐ¼Ð°ÐºÑįÐ²Ð¾Ð¹
ĠÐ¿ÑĢÐ¾Ð¸Ð³ÑĢÐ°
ĠÐ¿ÑĢÐ¾Ð¸Ð³ÑĢÐ°ÐµÑĤÐµ
ĠÐ¿ÐµÑĪÐºÐ°
ĠÐ°Ð¹ÑĦÐ¾Ð½
ĠÐ°Ð¹ÑĦÐ¾Ð½Ð°
Ð»Ð¸Ð´
Ð»Ð¸Ð´Ð¸Ñı
Ð·Ð°ÐºÐ°Ð·
ĠÐ¼Ð°ÑĢÑĪÑĢÑĥÑĤÐºÐ¸
ÑģÐµÐº
ÑģÐµÐºÐ¾Ð½
ÑģÐµÐºÐ¾Ð½Ð´
ĠÐºÐ¾Ð½ÐºÑĢÐµÑĤÐ½ÑĭÐ¹
ĠÐ½Ð°ÑģÑĤÑĥÐ¿Ð¸Ð»
ĠÐ²ÑĢÑĥÐ±Ð°ÐµÑĪÑĮÑģÑı
ĠÐ¿ÑĢÐµÐ¿ÑıÑĤ
ĠÐ¿ÑĢÐµÐ¿ÑıÑĤÑģÑĤÐ²Ð¸ÐµÐ¼
ĠÐ¾Ð³Ð¾ÑĢÑĩÐ¸Ð»Ð°ÑģÑĮ
ÐºÐ¾ÑĢÐ¿Ð¾ÑĢ
ÐºÐ¾ÑĢÐ¿Ð¾ÑĢÐ°ÑĨÐ¸Ñı
ĠÐ·Ð»Ð°
ĠÑģÑĤÐ¾ÑĢÐ¾Ð¶Ñĥ
ĠÐ¶Ð´ÑĥÑĤ
Ð¿ÐµÐ´Ð¾ÑĢÐ°Ñģ
ÑĦÐ½Ð°
ÑĦÐ½Ð°ÑĦ
ĠÐ½Ð¾Ð²Ð¾Ð¼Ð¾ÑģÐºÐ¾Ð²ÑģÐº
Ð¾Ð±ÑĥÑĩÐµÐ½Ð¸Ðµ
ĠÐ¿ÐµÑĢÐµÐ·Ð²Ð°Ð½Ð¸Ð²Ð°ÑĤÑĮ
ĠÑİÐ»Ñİ
ĠÑģÐµÐºÑģÑĪ
ĠÑģÐµÐºÑģÑĪÐ¾Ð¿
ĠÐ¿ÑĢÐ¾ÑģÐ»ÑĥÑĪÐ¸Ð²Ð°ÑİÑĤ
ĠÑĢÐ°Ð±Ð¾ÑĤÐ½Ð¸ÐºÐ¾Ð²
ĠÐ±ÐµÐ·Ð³ÑĢÐ°Ð¼Ð¾ÑĤÐ½ÑĭÐ¹
ĠÐºÑĢÐ¸Ð¿ÐµÑĢ
ĠÐ±Ð°Ð±Ñĭ
ĠÐµÐ±ÑĳÐ¼
ĠÐºÐ»Ð°ÑģÑģÐ½ÑĥÑİ
ĠÑĥÐ¼ÐµÐµÑĤÐµ
ĠÑĢÐ°Ð²Ð½ÑıÑĤÑĮÑģÑı
ĠÑģÐ°Ð´Ð¸ÑĤÑģÑı
ĠÐ¿Ð¾Ð´Ð¾Ð´ÐµÑı
ĠÐ¿Ð¾Ð´Ð¾Ð´ÐµÑıÐ»ÑĮ
ĠÐ¿Ð¾Ð´Ð¾Ð´ÐµÑıÐ»ÑĮÐ½Ð¸Ðº
Ð³Ð°Ð»Ð°Ð¹
Ð³Ð°Ð»Ð°Ð¹ÐºÐ¾
ĠÐ¿Ð°ÑĢÑħ
ĠÐ¿Ð°ÑĢÑħÐ¸Ð¼
ĠÐ¿Ð°ÑĢÑħÐ¸Ð¼ÑĩÐ¸Ðº
ÑĢÐ°Ð·Ð³Ð¾Ð²Ð¾ÑĢÐ½Ð¾Ðµ
Ð¿ÑĢÐ¸Ð´ÑĥÑĢÐºÐ¸
ĠÐ½Ð°Ð¼Ð½Ð¾Ð³Ð¾
ĠÐºÐ°ÑĢÐ¼Ð°Ð½
ĠÐºÐ°ÑĢÐ¼Ð°Ð½Ð°Ð¼
ĠÑĪÐ°ÑĢÐ¸Ð»Ð°
ĠÑĪÐ°ÑĢÑİ
ĠÐ½ÐµÑģÐ»ÑĭÑĪ
ĠÐ½ÐµÑģÐ»ÑĭÑĪÐ½Ð¾
Ð²Ð·Ð°
Ð²Ð·Ð°Ð¸Ð¼
Ð²Ð·Ð°Ð¸Ð¼Ð½Ð¾
ĠÐ²Ð·Ð°Ð¸Ð¼Ð½Ð¾
ĠÐ¿ÐµÑĢÐ´ÐµÑĤÑĮ
ĠÑģÑĤÑĢÐ°ÑħÐ¾Ð²Ð¾Ð¹
Ð¿ÑĢÐ¾Ð´Ð°Ð²
Ð¿ÑĢÐ¾Ð´Ð°Ð²ÑĨÐ¾Ð¼
ÑģÑĥÑħÐ¾Ð¹
ĠÐ´ÐµÐ¹Ð´Ð°
ĠÐ´ÐµÐ¹Ð´Ð°ÑĢÐ°
ĠÑģÑĤÑĢÑĥÐºÑĤÑĥÑĢÐ°
ĠÐ½ÐµÐ±ÐµÑģÐ°
Ð¿Ð°Ð½Ð¾ÑĩÐºÐ¾
ĠÑĥÐ½ÐµÑģÐµÑĤ
ĠÐ¿Ð¾Ð¿ÑĮ
ĠÐ¿Ð¾Ð¿ÑĮÑĳÐ¼
Ð¾Ð±Ð¸Ð´Ð½Ð¾
ĠÐ¾Ð±ÑģÑĥÐ¶Ð´Ð°ÐµÑĤÑģÑı
ĠÐ½Ð°ÐºÐ»ÐµÐ¹
ĠÐ½Ð°ÐºÐ»ÐµÐ¹ÐºÐ¸
ÑİÐ²ÐµÐ»
ÑİÐ²ÐµÐ»Ð¸ÑĢÐ½ÑĭÐ¹
ĠÐ¼ÐµÐ½ÑıÑİÑģÑĮ
ĠÑĢÐ°Ð·Ð²ÐµÐ´ÐºÑĥ
ĠÐ¾Ð´Ð¾Ð»Ð¶
ĠÐ¾Ð´Ð¾Ð»Ð¶Ð¸ÑĤÑĮ
ĠÐ´Ð¸ÐºÑĤÐ¾Ð²Ð°ÑĤÑĮ
ĠÐ¸Ð·Ð²ÐµÑģÑĤÐ½Ñĭ
ĠÐ¾Ð±Ð¼Ð°Ð½ÑĭÐ²Ð°Ñİ
ĠÑģÐµÐºÑĥÐ½Ð´Ð¾ÑĩÐºÑĥ
ĠÐ²ÑģÐ»ÐµÐ´
ĠÐ²ÑģÐ»ÐµÐ´ÑģÑĤÐ²Ð¸Ðµ
ĠÑģÐ¿Ð¸Ð´
ĠÑģÐ»ÑĥÐ¶Ð¸ÑĤ
ÑģÐ°Ð¼Ð°ÑĢÐ°
ĠÐ·Ð°Ð¿Ð¾Ð¼Ð½Ð¸ÑĪÑĮ
ĠÐ¶ÐµÐ»Ð°Ð½Ð¸Ñİ
ĠÐºÐ¸ÑĢÐ¸ÑĪÐ¸
Ð»ÑİÐ±Ð¾Ð²Ð½Ð¸ÑĨÐ°
ĠÐ²ÐµÐ´ÑĳÑĤÐµ
ĠÐºÐ°ÑĢÐ¿
ĠÐºÐ°ÑĢÐ¿Ð¾Ð²Ð°
Ð½ÐµÐ¸Ð½Ð²
Ð½ÐµÐ¸Ð½Ð²Ð°Ð·
Ð½ÐµÐ¸Ð½Ð²Ð°Ð·Ð¸Ð²
Ð½ÐµÐ¸Ð½Ð²Ð°Ð·Ð¸Ð²Ð½Ð°Ñı
ÑģÐ°Ð¼Ð¾Ð´
ÑģÐ°Ð¼Ð¾Ð´ÐµÐ»ÐºÐ°
ĠÑĢÐ°ÑģÐºÐ¸
ĠÑĢÐ°ÑģÐºÐ¸Ð´Ð°Ñİ
ĠÐ³Ð¾ÑĢÐ¾Ð´Ð°Ð¼
Ð¿Ð¾ÑģÐ»ÐµÑģ
Ð¿Ð¾ÑģÐ»ÐµÑģÐ»Ð¾Ð²
Ð¿Ð¾ÑģÐ»ÐµÑģÐ»Ð¾Ð²Ð¸Ðµ
ÑģÑİÐ´Ð°
Ð¿Ð¸ÑĢÐ¾Ð¶ÐºÐ¾Ð²
ĠÑĩÐ¸ÐºÐ°
Ð½ÐµÐ¿ÑĤ
Ð½ÐµÐ¿ÑĤÑĥÐ½
ĠÐ¸Ð´ÐµÐ°Ð»ÑĮÐ½Ð¾
ĠÐ°Ð»ÑĤÑĥ
ĠÐ°Ð»ÑĤÑĥÑĦÑĮÐµÐ²
ĠÐ°Ð»ÑĤÑĥÑĦÑĮÐµÐ²ÑģÐºÐ¸Ð¹
ĠÐ¿ÑĢÐµÐ¿Ð¾Ð´Ð°Ð²Ð°Ð»Ð¸
ĠÑĤÑĥÑĢÑĨÐ¸Ð¸
ĠÐ¿ÑĢÐ¾Ð³Ð¾Ð²Ð¾ÑĢ
ĠÐ¿ÑĢÐ¾Ð³Ð¾Ð²Ð¾ÑĢÐ¸Ð»Ð¸
ĠÑģÐºÑĢÐ°ÑĦ
ĠÑģÐºÑĢÐ°ÑĦÑĤ
ĠÑģÐºÑĢÐ°ÑĦÑĤÐ¸ÑĤÑĮ
ĠÑģÐ¾ÑĤÑĢÑĥÐ´Ð½Ð¸ÑĩÐµÑģÑĤÐ²Ð¾
ÑĥÐ³Ð¾Ð»ÑĮ
ĠÐ°ÐºÑĤÐ¸Ð²Ð¸ÑĢÐ¾Ð²Ð°Ð½Ð½ÑĭÐ¹
ĠÐ¼Ð¾Ñĩ
ĠÐ¼Ð¾ÑĩÐ°Ð»ÐºÐ¸
Ð²Ð¾Ð»Ð³
Ð²Ð¾Ð»Ð³Ð°ÑĤÐµÐ»
Ð²Ð¾Ð»Ð³Ð°ÑĤÐµÐ»ÐµÐºÐ¾Ð¼
ĠÐ¿Ð°ÑĢÐºÑĤÑĢ
ĠÐ¿Ð°ÑĢÐºÑĤÑĢÐ¾Ð½Ð¸Ðº
Ð¸Ð³Ð½Ð¾ÑĢÐ¸ÑĪÑĮ
ÑħÐ¸Ð¿
ÑİÑĢÑĤÐ°
ÑĤÐ°ÐºÐ¸Ð¼
ĠÐ¸Ð¼ÐµÐ½
ĠÐ¸Ð¼ÐµÐ½ÐµÐ¼
ÑĤÐ°ÑĢÐ°Ñģ
Ð¿ÑĢÐ¾Ð»ÐµÑĤÐ°ÑĢÐ¸Ð¹
Ð·Ð°ÑĤÐ¾
ĠÐ²Ð¸Ð½ÐºÑģ
ĠÐ±Ð°Ð±ÑĥÑĪÐºÑĥ
ĠÐ±Ð°ÑģÑĤÐ°
ĠÐ´ÑĢÑĥÐ¶ÐµÐ»
ĠÐ´ÑĢÑĥÐ¶ÐµÐ»ÑİÐ±
ĠÐ´ÑĢÑĥÐ¶ÐµÐ»ÑİÐ±Ð½Ð°Ñı
ĠÐ´ÐµÑĢÐ¶Ð¸
ÑĥÐ»ÑĭÐ±
ÑĥÐ»ÑĭÐ±Ð°ÐµÑĤÑģÑı
ĠÐ¿ÑĢÐ¸Ð²ÐµÑĤÐ»Ð¸Ð²
ĠÐ¿ÑĢÐ¸Ð²ÐµÑĤÐ»Ð¸Ð²Ð¾ÑģÑĤÑĮ
ÑĥÐ¿Ð¾ÑĤÑĢÐµÐ±Ð»ÑıÑı
ĠÐ¿Ð¾ÑĤÑĢÐµÐ±Ð»ÑıÑİ
Ð¿Ð¾Ð¹Ð´Ñĥ
Ð·Ð°Ð³Ð»Ð¾Ñħ
Ð·Ð°Ð³Ð»Ð¾ÑħÐ½Ð¸
ĠÐºÐ¾ÑģÐ°ÑĢÐºÐ°
ÑģÐ²ÑıÐ·Ð¸
ĠÐ¼Ð¾ÑĪÐµÐ½Ð½
ĠÐ¼Ð¾ÑĪÐµÐ½Ð½Ð¸ÑĩÐµ
ĠÐ¼Ð¾ÑĪÐµÐ½Ð½Ð¸ÑĩÐµÑģÑĤÐ²Ð¾Ð¼
ÑĥÐ»Ð¸Ñģ
ÑĥÐ»Ð¸ÑģÐµÑģ
ĠÐºÑĢÐ°Ð±
ĠÐºÑĢÐ°Ð±Ð°
ĠÐ³ÑĢÐ°Ð¼Ð¾ÑĤÐ½Ð°Ñı
ĠÑħÐ¾ÑĢÐ¾ÑĪÐµÐ¼
ĠÑĦÐ°ÐºÑĤÑĭ
Ð¿Ð¾Ð´ÐºÐ»ÑİÑĩÐ¸
ĠÑĢÑĥÐ»ÐµÐ¼
ĠÐ¿Ð¾ÑģÐ»ÐµÐ´Ð¾Ð²Ð°ÑĤ
ĠÐ¿Ð¾ÑģÐ»ÐµÐ´Ð¾Ð²Ð°ÑĤÐµÐ»Ð¸
ĠÐ¿ÑĢÐ¸Ð·ÐµÐ¼Ð»Ð¸Ð»ÑģÑı
ĠÐ¼Ð¸ÐºÑĢÐ¾Ð²
ĠÐ¼Ð¸ÐºÑĢÐ¾Ð²Ð¾Ð»
ĠÐ¼Ð¸ÐºÑĢÐ¾Ð²Ð¾Ð»Ð½Ð¾Ð²ÐºÐ°
ĠÐ»Ð¾ÑħÐ²
ĠÐ»Ð¾ÑħÐ²Ð¸ÑĨÐºÐ¸Ð¹
ĠÐ¿Ð¾ÑĢÑıÐ´Ð¾Ñĩ
ĠÐ¿Ð¾ÑĢÑıÐ´Ð¾ÑĩÐ½Ð¾Ð¹
ÑĢÐµÑģÐ°Ð½ÑĤÐ°
Ð¿Ð¸Ð½ÐºÐ°Ð¼
Ð¿Ð¸Ð½ÐºÐ°Ð¼Ð¸Ð½Ð°
ĠÐ²ÐµÑĢÐ½ÑĥÐ»Ð°ÑģÑĮ
ĠÐºÑĥÐ¿Ð°Ð»ÑĮÐ½Ð¸ÐºÐ¾Ð²
ĠÐ³ÑĢÑĥ
ĠÐ³ÑĢÑĥÑīÑĥ
ĠÐ¾ÑĤÐ²ÐµÑĢÐ½ÑĥÐ»
ĠÑĥÐ³Ð¾ÑĢ
ĠÑĥÐ³Ð¾ÑĢÐ°Ñİ
ĠÑıÐ³Ð¾Ð´ÐºÐ°
ĠÐ±Ð¾Ð»Ð³
ĠÐ±Ð¾Ð»Ð³Ð°ÑĢÐ°
ĠÐ·Ð½Ð°ÐºÐ¾Ð¼ÑĭÑħ
ĠÑĩÐµÑĢÐºÐ¸
ĠÑĩÐµÑĢÐºÐ¸Ð·
ĠÑĩÐµÑĢÐºÐ¸Ð·Ð¾Ð²Ð¾
ĠÐ°Ð¼ÑĥÑĢÐºÐ¸Ð½Ð¾
ĠÐ¿ÐµÐ´Ð¾ÑĦÐ¸Ð»Ð¸
ĠÐ¿ÐµÐ´Ð¾ÑĦÐ¸Ð»Ð¸Ð¸
ĠÐ¿Ð¾Ð´Ð²ÐµÑĢÐ¶ÐµÐ½
ÐºÑĥÑĨ
ÐºÑĥÑĨÐµÐ½ÐºÐ¾
ĠÐ¿Ð¸Ð´Ð¾ÑĢÐ°ÑĪÐºÐ°
ĠÐ²ÑĭÐ³Ð»ÑıÐ´ÐµÐ»
ĠÐ²ÑĭÐ³Ð»ÑıÐ´ÐµÐ»Ð°
ĠÑģÑĭÐ³ÑĢÐ°Ð»Ð¸
ĠÐ·Ð°Ð½ÑıÑĤÑĭ
ĠÐºÐ°Ð¿ÐµÐ»ÑĮ
ĠÐºÐ°Ð¿ÐµÐ»ÑĮÐºÐ¸
ĠÐ·Ð°Ð³Ð»Ñı
ĠÐ·Ð°Ð³Ð»ÑıÐ½ÑĥÑĤÑĮ
ÑĥÐºÑĤÐ°Ð¼
ĠÐ¼ÑĥÐ¼Ð¸Ð½Ð¾Ð²
ĠÐ°Ð±Ð´ÑĥÑĢÐ°
ĠÐ°Ð±Ð´ÑĥÑĢÐ°Ñĥ
ĠÐ°Ð±Ð´ÑĥÑĢÐ°ÑĥÑĦ
ĠÑĢÐ°ÑģÐ¿ÑĢÐµÐ´ÐµÐ»ÑıÑİÑĤÑģÑı
ĠÐ½ÑĥÐ¶Ð½ÑĭÐ¼
ÐºÐ°ÑĢÐ´Ð¸Ð½Ð°Ð»ÑĮÐ½Ð¾
ĠÐ¿Ð¾Ð¼ÐµÐ½ÑıÐ»Ð¾ÑģÑĮ
Ð¶ÐµÐ»ÐµÐ·Ð¾
ĠÐµÐºÐ°ÑĢ
ĠÐµÐºÐ°ÑĢÑĤÑĥ
ĠÐ¿Ð¾ÑĢÐ¾Ð´Ð°
ĠÐ¸Ð¼ÐµÐ»Ð°
ĠÐ¾Ð±Ð½Ð°ÑĢÑĥÐ¶Ð¸Ð²Ð°ÑĤÑĮ
Ð±ÑĥÐ±
Ð±ÑĥÐ±Ð»Ð¸Ðº
ĠÐ±Ð¾Ð»ÐµÐ¹
Ð½Ð°ÑĪÐ¸
ĠÐ·Ð°ÑĪÐ¸ÑĦÑĢÐ¾Ð²
ĠÐ·Ð°ÑĪÐ¸ÑĦÑĢÐ¾Ð²Ð°Ð»Ð¸ÑģÑĮ
Ð´Ð°Ð½Ð¸Ñı
Ð´Ð°Ð½Ð¸ÑıÑĢ
ĠÐ»Ð¾Ð¶Ð½Ð¾Ðµ
ĠÑģÐºÐ¸Ð½ÑĥÑĤÑĮ
ÑĤÑĢÐ°Ð²Ñĥ
ĠÐ±ÑĥÐºÐ¸
ĠÐ±ÑĥÐºÐ¸Ð½Ñĥ
ÑĢÐ°Ð·Ð³Ð¾Ð²Ð°ÑĢÐ¸Ð²Ð°ÑĤÑĮ
ĠÐ²Ð¾ÐµÐ½Ð½ÑĭÐ¼
Ð¿Ð¾Ð¿ÑĢÐ¾Ð±ÑĥÐµÐ¼
ĠÐ²ÑĭÐ´ÐµÐ»Ð¸Ð¼
ĠÐºÐ°Ð·Ð±ÐµÐº
ĠÑģÐ¸Ð½ÑıÐº
ĠÐ²Ð´Ð¾Ð³
ĠÐ²Ð´Ð¾Ð³Ð¾Ð½
ĠÐ²Ð´Ð¾Ð³Ð¾Ð½ÐºÑĥ
ĠÑĥÑĩÐ¸ÑĤÐµÐ»ÐµÐ¼
Ð½Ð¸ÐºÐ¾Ð»Ð°ÐµÐ²
ĠÐ¼ÑĥÑĩÐ¸ÑĤÐµÐ»ÑĮ
ĠÐ¿ÑĢÐ¾Ð´Ð°Ð²Ð°Ð»
ÑģÑĤÐ¾Ñİ
ĠÐ¼Ð°ÐºÐ´Ð¾Ð½Ð°Ð»ÑĮÐ´ÑģÐ°
ĠÐ¾Ð±Ð¸Ð»ÑĮÐ½Ð¾
ĠÐ½Ð¸ÑģÐºÐ¾Ð»ÑĮÐºÐ¾
ĠÑģÐ¼ÐµÐ¹
Ð´Ð¸Ð°Ð»Ð¾Ð³Ð¸
ĠÑĩÐ¿Ñĥ
Ð´Ð¸ÑģÐº
Ð´Ð¸ÑģÐºÐ¾Ð²Ð¾Ð´
ĠÐ¼Ð°ÑĤÐ¾Ð²Ð¾Ð¼
ĠÐ²ÑĢÐµÑĤÐµ
ĠÐ½Ð°ÑħÐ¾Ð´Ð¸ÑĤÑĮ
ĠÐ½ÐµÐ¿Ð°ÑĢÐ°
ĠÐ²ÑĭÑĤÐ°
ĠÐ²ÑĭÑĤÐ°Ñī
ĠÐ²ÑĭÑĤÐ°ÑīÐ¸Ð»Ð°
ĠÑĤÑİÑĢÑıÐ³Ð¸
ÐºÐ»ÐµÑĤÐºÐ¸
ĠÐ²ÑĢÐµÐ¼ÐµÐ½Ð°
ÑĤÐ°Ð¿ÐµÑĤ
ÑĤÐ°Ð¿ÐµÑĤÑĥÐ¼
ĠÑģÐºÑĥÑĩÐ°ÐµÑĤ
ĠÐ°ÐºÑĤÐ°
Ð²Ð»Ð¸
Ð²Ð»Ð¸ÑıÐ½Ð¸Ðµ
ĠÐ³ÑĢÐ¸Ð±Ð¾Ð²
ÐºÐ¾Ð¼Ð¾Ð´Ñĭ
ĠÐ¼Ð¾ÑĢÐ¾
ĠÐ¾Ð¿ÐµÐºÐ¸
ĠÐ¾Ð¿ÑĥÑī
ĠÐ¾Ð¿ÑĥÑīÐµÐ½Ð½Ð¾Ðµ
ĠÐ¿Ð¾Ð»Ð·Ð°ÑĤÑĮ
Ð±Ð°Ð»Ð°Ð±
Ð±Ð°Ð»Ð°Ð±Ð°Ð½Ð¾Ð²
Ð±ÑĢÐ¾ÑģÐ°Ð¹ÑĤÐµ
Ð»ÑĥÑĩÐ¸
Ð»ÑĥÑĩÐ¸Ð°Ð½Ð¾
ĠÐ½ÐµÐ·Ð½Ð°ÑĩÐ¸ÑĤÐµÐ»ÑĮÐ½Ð°Ñı
ĠÐ½ÐµÐ¸Ð·
ĠÐ½ÐµÐ¸Ð·Ð´Ð°Ð½
ĠÐ½ÐµÐ¸Ð·Ð´Ð°Ð½Ð½Ð¾Ðµ
ĠÐºÐ¾ÑĤÐ¸ÐºÐ°
ĠÐ¿ÑĢÐ¾Ð´Ð°ÑĳÐ¼
Ð´ÑįÐ´Ð¿
Ð´ÑįÐ´Ð¿ÑĥÐ»
ĠÑĥÐ´Ð¼ÑĥÑĢÑĤ
ĠÑĥÐ´Ð¼ÑĥÑĢÑĤÑģÐºÐ¸Ð¹
ĠÐ¿Ð¾Ð¿ÑĢÐ¾Ð±ÑĥÐµÑĪÑĮ
ĠÐ³ÐµÐ¹
ĠÐ³ÐµÐ¹Ð¿Ð°
ĠÐ³ÐµÐ¹Ð¿Ð°ÑĢÐ°Ð´Ñĭ
ĠÐºÐ»Ð¸Ð½
ĠÐºÐ»Ð¸Ð½ÑĨÑĭ
Ð°Ð½ÑİÑĤÐ°
ÑĢÐ°Ð·Ð²Ð°Ð»Ð¸Ð²Ð°ÐµÑĤÑģÑı
ĠÐ¿Ð¾Ð¿Ð¾Ðº
ĠÐ¿Ð¾Ð¿Ð¾ÐºÐ°ÑĤ
ĠÐ¿Ð¾Ð¿Ð¾ÐºÐ°ÑĤÐµÐ¿
ĠÐ¿Ð¾Ð¿Ð¾ÐºÐ°ÑĤÐµÐ¿ÐµÑĤ
ĠÐ¿Ð¾Ð¿Ð¾ÐºÐ°ÑĤÐµÐ¿ÐµÑĤÐ»ÑĮ
Ð¼Ð¸Ð½ÐµÑĢÐ°Ð»
Ð¼Ð¸Ð½ÐµÑĢÐ°Ð»ÐºÐ°
ĠÐ¿ÑĢÐ°Ð²Ð¸Ð»ÑĮÐ½Ð°Ñı
Ð»ÑĥÐ½Ð½ÑĭÐ¹
ĠÐºÐ°Ð»ÐµÐ½
ĠÐºÐ°Ð»ÐµÐ½Ð´Ð°ÑĢ
ĠÐºÐ°Ð»ÐµÐ½Ð´Ð°ÑĢÑĮ
ĠÐ¾Ð¿ÑĢÐµÐ´ÐµÐ»ÐµÐ½Ð¸Ñı
ÑĢÐ°ÑģÑģÐºÐ°Ð·ÑĭÐ²Ð°ÑĤÑĮ
ĠÑĢÑĭÐ½Ð¾Ðº
ĠÐ¼Ð°ÑĢÑģ
ĠÑĤÑĢÐµÑĤÑĮÑİ
ÑĦÐ°Ñģ
ÑĦÐ°ÑģÐ°Ð´Ñĭ
ĠÐºÑĥÑħÐ¾Ð½ÑĮ
Ð°Ð²ÐµÑĢÐ¸Ð½Ð°
ĠÑģÐ²ÐµÑĤÐ»Ð°Ð½Ð°
ĠÐ¼Ð¾Ð»Ð¾Ð´ÑĳÐ¶ÑĮ
ĠÐ°Ð»ÐºÐ°ÑĪÐ½Ñı
ÑįÐ»ÐµÐºÑĤÑĢÐ¸ÑĩÐµÑģÐºÐ¸Ð¹
ĠÐ¿ÑĢÐ°ÑĩÐµÑĩ
ĠÐ¿ÑĢÐ°ÑĩÐµÑĩÐ½Ð°Ñı
ĠÑĥÑģÐ»ÑĭÑĪÑĥ
ĠÐ¾ÑĤÐºÐ»ÑİÑĩÐ¸ÑĤÐµ
ÑĤÐµÐ»ÐµÑĦÐ¾Ð½Ð¾Ð³ÑĢÐ°Ð¼Ð¼Ð°
ĠÐ¿ÐµÑĢÐµÐ´Ð°Ð¹ÑĤÐµ
ĠÐºÑĥÑģÐ°Ñİ
ĠÐ¿ÑĢÐ¸Ð¶Ð¼Ð¸
ĠÐ¿Ð¾Ð»ÐµÑĤÐ¸ÑĤÐµ
ĠÑģÐ¸Ð³Ð½Ð°Ð»Ð¾Ð²
Ð¼ÐµÑĢÑĤÐ²
Ð¼ÐµÑĢÑĤÐ²ÐµÑĨ
ĠÐºÐ¾ÑĢÐ¾Ð½Ð°
ĠÐºÑĥÐ»ÐµÑĢ
ĠÐ±ÑĢÐ°ÑĤÑģÐºÐ¸
Ð¿Ð¾Ð¶Ð¸Ð²Ð°ÐµÑĤ
ĠÐ¿Ð¾ÑģÐµÐ»Ð¾Ðº
ĠÐ¿ÑĢÐµÐ´Ð¿Ð¾Ð»Ð°Ð³Ð°Ð»Ð°
Ð²ÑĭÐ¿Ð¾Ð»Ð½Ð¸ÑĤÑĮ
Ð²Ð½ÑĥÑĤÑĢÐµÐ½
Ð²Ð½ÑĥÑĤÑĢÐµÐ½Ð½ÑıÑı
ĠÐ¾ÑĤÐ´ÐµÐ»ÐºÐ°
Ð²ÐµÑĢÐ½ÑĥÑĤÑĮÑģÑı
Ð²ÑĭÐ¸Ð³ÑĢÐ°Ð»
ĠÑģÐ¾ÑĢÐµÐ²
ĠÑģÐ¾ÑĢÐµÐ²Ð½Ð¾Ð²
ĠÑģÐ¾ÑĢÐµÐ²Ð½Ð¾Ð²Ð°Ð½Ð¸Ñı
ĠÐºÑģÐ°Ð½ÑĤ
ĠÐºÑģÐ°Ð½ÑĤÐ°Ð½Ð¾Ð²Ð¾Ð¹
ĠÐ¿Ð°Ð»Ð¾ÑĩÐºÐ°
ĠÐ½Ð¸ÑīÐµÑĤÐ°
ÑĢÐ±Ðº
ĠÑįÑĤÐ°Ð¼
ĠÑįÑĤÐ°Ð¼Ð±ÑĥÑĤ
ĠÑįÑĤÐ°Ð¼Ð±ÑĥÑĤÐ¾Ð»
ĠÐ³ÐµÐ½Ð½Ð°Ð´Ð¸Ð¹
Ð¼Ð¸Ð½Ð¸
ĠÐ²ÑĭÐ¶Ð¸Ð³Ð°ÑĤÐµÐ»ÑĮ
ĠÐ²ÑĭÐ¿Ð¸Ð²Ð°ÐµÑĤÐµ
ÑĢÐµÐºÐ¾Ð¼
ÑĢÐµÐºÐ¾Ð¼ÐµÐ½Ð´Ð°
ÑĢÐµÐºÐ¾Ð¼ÐµÐ½Ð´Ð°ÑĨÐ¸Ð¸
ĠÐ¿Ð¾ÑħÐ»ÐµÐ±
ĠÐ¿Ð¾ÑħÐ»ÐµÐ±ÐºÐ¸
ĠÑĢÐ¾Ð²ÐµÑģ
ĠÑĢÐ¾Ð²ÐµÑģÐ½Ð¸ÐºÐ°Ð¼Ð¸
ĠÑģÐ¾Ð±Ð¸ÑĢÐ°Ð»Ð°ÑģÑĮ
ĠÐ¼Ð¾Ð»Ð¾Ð´ÑĭÐ¼
ĠÐ»ÑĭÑģÑĭÐ¼
ĠÐ±Ð°ÑĤÐµÐ¹
ÑģÑĤÐ°Ð´Ð¸Ð¾Ð½
ĠÐ¼ÐµÐ»ÑĮÐ½Ð¸ÐºÐ¾Ð²Ð¾Ð¹
ÑģÑĤÑĢÐ°Ð½Ð¾Ð²ÐµÐ´
ÑģÑĤÑĢÐ°Ð½Ð¾Ð²ÐµÐ´ÑĩÐµ
ÑģÑĤÑĢÐ°Ð½Ð¾Ð²ÐµÐ´ÑĩÐµÑģÐºÐ¸Ð¹
ĠÐ´Ð¸Ð°Ð½Ð°
ĠÐ¿ÑĢÐ¸Ð»ÐµÑĤÐ°ÐµÑĤ
Ð²ÑĭÐºÐ¾ÑĢÐ¼
Ð²ÑĭÐºÐ¾ÑĢÐ¼Ð¸ÑĤÑĮ
Ð½ÐµÐ¿ÑĢÐ°Ð²Ð´Ð°
ĠÐ²ÐµÐ·ÑĤÐ¸
ĠÑĢÐ°Ð·Ð³Ð¾Ð½ÑıÐµÑĪÑĮÑģÑı
ÑģÑĥÐ²ÐµÑĢ
ÑģÑĥÐ²ÐµÑĢÐµÐ½
ÑģÑĥÐ²ÐµÑĢÐµÐ½Ð¸ÑĤÐµÑĤ
Ð°ÐºÑĥÐ»Ñĭ
ĠÑĳÐ¿ÑĤ
ĠÑģÐºÐ¾Ð±Ð»Ð¸ÑĤÑĮ
ĠÑĤÐ°Ð¹Ð½Ð°
ĠÐ´ÐµÑĢÐµÐ²Ð¾
ĠÐ¶ÐµÐ»Ð°Ð½Ð¸Ð¹
ĠÐ¿Ð¾ÑĤÑıÐ½ÑĥÐ»Ð°ÑģÑĮ
ĠÐ¸Ð½ÑĤÑĢ
ĠÐ¸Ð½ÑĤÑĢÐ¾Ð²ÐµÑĢ
ĠÐ¸Ð½ÑĤÑĢÐ¾Ð²ÐµÑĢÑģÐ¸Ñı
ĠÐ½Ð¾ÑĪÑĥ
Ð¿ÑĢÐ¾Ð»Ð¾Ð¶Ð¸
ÑĤÑĢÐ¸Ðº
ÑĤÑĢÐ¸ÐºÐ¾Ð»
ÑĤÑĢÐ¸ÐºÐ¾Ð»Ð¾ÑĢ
ĠÑĥÑģÑĤÑĢÐ¾Ð¸ÑĤ
ĠÑģÐ¸Ð½ÐµÐ¼Ð°ÑĤÐ¸Ðº
ĠÑĥÑħÑĥ
ĠÐ¾Ð¿ÑĥÑħ
ÑĢÑĥÐ³Ð°ÑĤÑĮÑģÑı
ĠÐ²ÑĭÑıÑģÐ½Ð¸Ð¼
Ð°Ð±Ð¾ÑĢÑĤ
ĠÐ¿Ð°ÑĢÑĤÐ¸Ñı
ĠÐºÑĢÐ°ÑĪ
ĠÐºÑĢÐ°ÑĪÑĥ
ĠÐ¿Ð¾ÑģÐ²ÑıÑī
ĠÐ¿Ð¾ÑģÐ²ÑıÑīÐ°Ð»Ð¸ÑģÑĮ
ĠÐ¸Ð³ÑĢÐ¾Ð²
ĠÐ¸Ð³ÑĢÐ¾Ð²ÑĭÐµ
ĠÑģÐºÐ°Ð·ÑĭÐ²Ð°ÑİÑĤÑģÑı
ĠÑĢÐ°ÑģÑģÑĤÑĢÐ¾Ð¸Ð»Ð°ÑģÑĮ
ĠÐ¼Ð¸ÑĨÑĥ
ĠÐ¼Ð¸ÑĨÑĥÐºÐ¸
Ð°Ð´Ð¸Ð»Ð¾Ð²
ĠÐ·Ð°Ð¿Ð¸ÑģÑĭÐ²Ð°Ð»ÑģÑı
ĠÐºÐ¾ÑĢÐ¼Ð¸ÑĤÑĮ
ĠÐ´ÐµÑĢÐµÐ²Ð°
ĠÐ²ÐµÑĪÐ°Ð¹ÑĤÐµ
Ð´Ð¾Ð³Ð¾ÑĢ
Ð´Ð¾Ð³Ð¾ÑĢÐ¸
ĠÐ´ÑĢÐ¸Ð³
ĠÐ´ÑĢÐ¸Ð³Ð¾Ð¼
ĠÐ²Ð¸ÑĤÐ¾ÑĢ
ĠÐ²Ð¸ÑĤÐ¾ÑĢÐ³Ð°Ð½
ĠÑĨÐµÐ¼Ð·Ð°Ð²Ð¾Ð´
ĠÐ¸Ð½Ð´Ð¸Ð²
ĠÐ¸Ð½Ð´Ð¸Ð²Ð¸Ð´
ĠÐ¸Ð½Ð´Ð¸Ð²Ð¸Ð´Ñĥ
ĠÐ¸Ð½Ð´Ð¸Ð²Ð¸Ð´ÑĥÐ°Ð»ÑĮÐ½Ð¾ÑģÑĤÑĮ
ĠÐ¼ÑĢÐ°Ðº
ĠÐ±Ð¾ÑıÑĢÑĭÑĪ
ĠÐ±Ð¾ÑıÑĢÑĭÑĪÐ½Ð¸ÐºÐ°
ĠÐ½Ð°ÐºÐ°ÑĤÐ¸Ð»Ð°
ĠÐ¿ÑĢÐµÐ¼Ð¸Ð½Ñĥ
ĠÐ¿ÑĢÐµÐ¼Ð¸Ð½ÑĥÐ»
ĠÐ²Ð¾ÑģÐ¿Ð¾Ð»ÑĮÐ·Ð¾Ð²
ĠÐ²Ð¾ÑģÐ¿Ð¾Ð»ÑĮÐ·Ð¾Ð²Ð°ÑĤÑĮÑģÑı
ĠÐ»Ð°Ð·
ĠÐ»Ð°Ð·ÐµÐ¹
ĠÐ»Ð°Ð·ÐµÐ¹ÐºÐ°
ÐºÐ°Ð¹
ÐºÐ°Ð¹Ð»Ð¾
ĠÐ¿Ð¾Ð³Ð°Ð½Ð°Ñı
ĠÐ¿ÑĢÐµÐºÑĢÐ°ÑīÐ°ÐµÑĤÑģÑı
Ð´Ð°Ð¹Ð´Ð¾
ÑĤÐ°Ð¼Ð¾Ð¶
ÑĤÐ°Ð¼Ð¾Ð¶Ð½Ñı
ĠÐ»Ð½
ĠÐ»Ð½ÑĢ
ĠÐºÐ¾ÑĢÐ¾ÑĤÐºÐ¾Ð¹
ĠÐ½ÐµÐ²Ð¾
ĠÐ½ÐµÐ²Ð¾ÐµÐ½Ð½Ð¾
ĠÐ½ÐµÐ²Ð¾ÐµÐ½Ð½Ð¾Ð¾Ð±ÑıÐ·
ĠÐ½ÐµÐ²Ð¾ÐµÐ½Ð½Ð¾Ð¾Ð±ÑıÐ·Ð°Ð½Ð½Ð°Ñı
ĠÑģÐ²ÐµÑĤÐ¸ÑĤ
ĠÐ½ÐµÐ±ÐµÑģÐ½Ð¾Ð³Ð¾
Ð¿Ð»Ð°Ñĩ
Ð¿Ð»Ð°ÑĩÑĥÑĤ
ĠÐ½Ð°Ð³Ð¾Ð²Ð¾ÑĢÐ¸Ð»ÑģÑı
ÑĦÑĥÑĤÐ±Ð¾Ð»ÐºÐ°
ĠÐ·Ð°Ð·
ĠÐ·Ð°Ð·Ð²Ð¾Ð½
ĠÐ·Ð°Ð·Ð²Ð¾Ð½Ð¸Ð»
ĠÐ·Ð°ÑģÑĤÐ°Ð²Ð»ÑıÑİÑĤ
ĠÑĢÐ°ÑģÐ¿Ð¾Ð»Ð¾Ð¶
ĠÑĢÐ°ÑģÐ¿Ð¾Ð»Ð¾Ð¶ÐµÐ½Ð°
ĠÑĤÐ¾Ð½Ð½
ÑĤÐ¾Ð¿Ð»Ð¸Ð²
ÑĤÐ¾Ð¿Ð»Ð¸Ð²Ð½ÑĭÐ¹
ĠÑĦÐ¸Ð»ÑĮÑĤÑĢ
ĠÐ¿Ð¾Ð²ÐµÑĢÑĮÑĤÐµ
ĠÑĢÑİ
ĠÑĢÑİÐº
ĠÑĢÑİÐºÐ·Ð°Ðº
ĠÑĢÑİÐºÐ·Ð°ÐºÐµ
ĠÐ·Ð°ÑĩÐµÑĢÐº
ĠÐ·Ð°ÑĩÐµÑĢÐºÐ½ÑĥÐ»
Ð´ÑĥÐ±Ð»ÑĮ
Ð´ÑĥÐ±Ð»ÑĮÐ³
Ð´ÑĥÐ±Ð»ÑĮÐ³Ð¸Ñģ
ĠÐ²ÑģÑĤÐ°Ð²Ð°ÑĤÑĮ
ĠÐºÐ¸Ñģ
ĠÐºÐ¸ÑģÐµÐ»Ñĳ
ĠÐºÐ¸ÑģÐµÐ»ÑĳÐ²
ĠÐºÐ¸ÑģÐµÐ»ÑĳÐ²ÑģÐº
ÑģÐ½Ð¸Ð¼Ñĥ
ĠÐ´Ð¾Ð²ÐµÑģÑĤÐ¸
ÐºÐ¾ÑģÑĤÑİÐ¼
ĠÐ¸Ð·Ð´Ð°ÑĤ
ĠÐ¸Ð·Ð´Ð°ÑĤÐµÐ»ÑĮ
ĠÐ¸Ð·Ð´Ð°ÑĤÐµÐ»ÑĮÑģÑĤÐ²Ð¾
ĠÐ¾ÑĤÐ¼ÐµÑĤÑĮÑĤÐµ
ÑĤÑĢÐ°Ð½ÑģÐ¿Ð¾ÑĢÑĤ
ÑĤÑĢÐ°Ð½ÑģÐ¿Ð¾ÑĢÑĤÐ½ÑĭÐ¹
ĠÐºÐ¾Ð»Ð»Ð°Ð¿
ĠÐºÐ¾Ð»Ð»Ð°Ð¿Ñģ
Ð±Ð»ÑıÐ´
Ð±Ð»ÑıÐ´ÑģÐºÑĥÑİ
ÑģÐ´ÐµÐ»Ð°Ð»Ð¸
ĠÐ½ÐµÑĥÐ´Ð°ÑĩÐ½ÑĥÑİ
ĠÐ¾Ð¿ÐµÑĢÐ°ÑĨÐ¸Ñİ
ĠÐºÐ²Ð°ÑĪÐ°
Ð¿Ð¾Ð³Ð¾Ð½
Ð¿Ð¾Ð³Ð¾Ð½ÑıÑĤÑĮ
ĠÐ´Ð¸ÑģÐº
ĠÐ´Ð¸ÑģÐºÐ°Ñħ
Ð±ÐµÑģÑģÐ¾Ð²
Ð±ÐµÑģÑģÐ¾Ð²ÐµÑģÑĤ
Ð±ÐµÑģÑģÐ¾Ð²ÐµÑģÑĤÐ½ÑĭÐ¹
ĠÐ½Ð°ÐºÐ°Ð»
ĠÐ¿Ð¾Ð½ÐµÑģÐµÑĪÑĮ
ĠÐ¿Ð¸Ð´Ð¾ÑĢÐ¾Ð¼
ĠÐ¿ÑĢÐµÐ´Ð°Ñİ
ÑģÐ¼Ð°Ð¹
ÑģÐ¼Ð°Ð¹Ð»Ð¸ÐºÐ¸
ĠÑģÐ¿ÐµÑĨÐ¸Ð°Ð»ÑĮÐ½Ð¾ÑģÑĤÑĮ
ĠÐ¿Ð¾Ð»Ð°Ð³Ð°ÑĤÑĮÑģÑı
ĠÑĩÑĥÐ²Ð°ÑĪ
ĠÑĩÑĥÐ²Ð°ÑĪÑģÐºÐ¾Ð¹
ĠÑĢÐµÑģÐ¿
ÑĤÐ°ÑĤÐ°ÑĢ
ÑĤÐ°ÑĤÐ°ÑĢÑģÐºÐ¸Ð¹
ĠÐ»Ð¸ÑģÐ¸Ð½
ĠÐ²Ð°Ð»Ñİ
ĠÐ²Ð°Ð»ÑİÑĤÑĭ
ĠÑĤÐ¾Ñģ
ĠÑĤÐ¾ÑģÐ½Ð¾
ĠÑģÑĥÐºÐ°Ð½
ĠÑģÑĥÐºÐ°Ð½Ð°Ñħ
ĠÐºÑĢÐ°ÑģÐ½ÑĥÑİ
ÑĦÐ¸Ð³ÑĥÑĢÐ¸ÑģÑĤÑĭ
ĠÐºÐ½Ð¸Ð³
ÑĢÐ°Ð·Ð¾Ð·Ð»
ÑĢÐ°Ð·Ð¾Ð·Ð»Ð¸Ð»ÑģÑı
ÑģÐ°Ð¼ÑĪ
ÑģÐ°Ð¼ÑĪÐ¸ÑĤ
ÑģÐ°Ð¼ÑĪÐ¸ÑĤÐ¾Ð²Ð°Ñı
ĠÐºÑĢÐ°Ð¼Ð°ÑĤÐ¾ÑĢ
ĠÐºÑĢÐ°Ð¼Ð°ÑĤÐ¾ÑĢÑģÐºÐ°
ĠÑĤÐ¸Ð³
ĠÑĤÐ¸Ð³ÑĢÐ°Ð½Ð°
ĠÐºÐ°ÑĢÑĤÐµÑĢ
ĠÐ¿ÑĢÐ¸Ð»ÐµÑĩÑĥ
ĠÐ¿Ð¾Ð»ÑıÐºÐ¾Ð²Ð°
ĠÑģÐ¾Ð³Ð»Ð°ÑģÐ¸Ð»ÑģÑı
ÑĥÐ³ÑĢ
ÑĥÐ³ÑĢÐ¾Ð¶Ð°Ð¹
ÑĦÐ¸Ð³ÑĥÑĢÐºÐ°
ĠÑģÐ»Ð°Ð¹
ĠÑģÐ»Ð°Ð¹Ð¼Ð¾Ð²
ÑĤÑĢÑĥÑģ
ÑĤÑĢÑĥÑģÐ¾Ð²
ÑĤÐ¾Ð¼ÑģÐº
ĠÑĤÐµÐ»ÐµÐ¿
ĠÑĤÐµÐ»ÐµÐ¿ÐµÑĢÐµÐ´
ĠÑĤÐµÐ»ÐµÐ¿ÐµÑĢÐµÐ´Ð°Ñĩ
Ð°Ð¿Ð¿Ð»
Ð°Ð¿Ð¿Ð»Ð¸ÐºÐ°ÑĨÐ¸Ñı
ĠÑģÑĥÐ¼ÐµÑĢÐºÐ¸
ÑĦÐ¼
ÑĦÐ¼Ð»
ĠÐ·Ð²ÐµÐ·Ð´
ĠÐ·Ð²ÐµÐ·Ð´Ð°Ð¼Ð¸
ĠÐ²Ð°ÑģÑĮÐºÐ°
ĠÐ±ÐµÑĢÐ»Ð¸Ð½
ĠÐ¿Ð¾ÐµÐ´ÐµÑĤ
ĠÑĩÐµÑĩÐµÐ½ÐµÑĨ
ĠÐ¾Ð¿ÐµÑĢÑĥ
Ð¿ÑĢÐ¾ÐµÐºÑĤÐ°
ĠÐ¿Ð¾ÑģÐ²Ð¸ÑģÑĤ
ĠÐ¿Ð¾ÑģÐ²Ð¸ÑģÑĤÐ¸Ð¼
ĠÐ¿Ð¾Ð³Ð¾Ð²Ð¾ÑĢÐ¸ÑĪÑĮ
ĠÑģÐ¿ÑĢÐ°ÑĪÐ¸Ð²Ð°Ð»Ð¸
ĠÐ²Ð·Ð´
ĠÐ²Ð·Ð´Ð¾Ñħ
ĠÐ²Ð·Ð´Ð¾ÑħÐ½ÑĥÐ»
ÑģÑĤÐµÐ¿
ÑģÑĤÐµÐ¿Ð°Ð½
ĠÐ°ÑĢÐ¸ÑģÑĤ
ĠÐ°ÑĢÐ¸ÑģÑĤÐ°ÑĢ
ĠÐ°ÑĢÐ¸ÑģÑĤÐ°ÑĢÑħÐ¾Ð²
ĠÐ»Ð¸Ð·ÑĥÐ½Ð°
Ð¼Ð¾ÑģÐºÐ²Ðµ
ĠÐ±ÐµÐ³Ð°ÐµÑĪÑĮ
ĠÑģÑĢÐ°Ð²Ð½Ð¸
ĠÑĤÐµÐ¿Ð»Ðµ
ĠÑĥÐ¿ÑĢÑĥÐ³
ĠÑĥÐ¿ÑĢÑĥÐ³Ð¾Ð¹
Ð¿Ð°Ð¿Ð°
ĠÑģÐ³Ð¾Ð²Ð¾ÑĢ
ĠÑģÐ³Ð¾Ð²Ð¾ÑĢÐ¸Ð»Ð¸ÑģÑĮ
ĠÑģÐ²ÐµÑĢÑħ
ĠÑģÐ²ÐµÑĢÑħÐ·Ð²Ñĥ
ĠÑģÐ²ÐµÑĢÑħÐ·Ð²ÑĥÐºÐ¾Ð²
ĠÑģÐ²ÐµÑĢÑħÐ·Ð²ÑĥÐºÐ¾Ð²Ð¾Ð¹
ĠÑħÐ°ÑĢÐ°ÐºÑĤÐµÑĢÐ¸ÑģÑĤÐ¸ÐºÐ°
Ð¾ÑĤÐ¿ÑĢÐ°Ð²Ð»ÑıÐ¹ÑĤÐµ
Ð¾ÑģÑĤÑĢÐ¾Ð²Ð°
Ð³Ð¾ÑĢÐ²Ð¾ÐµÐ½ÐºÐ¾Ð¼Ð°ÑĤ
Ð¾Ð·Ð²ÑĥÑĩ
Ð¾Ð·Ð²ÑĥÑĩÐºÐ°
ĠÑĩÐ¸Ð±
ĠÑĩÐ¸Ð±Ð¸Ñģ
ĠÐ·Ð°ÑģÑĭÐ¿ÐºÑĥ
ÑĢÐµÑģÐ¿ÑĥÐ±Ð»Ð¸ÐºÑĥ
ĠÐ±Ð»ÑıÐ´
ĠÐ±Ð»ÑıÐ´ÐºÐ¸
ĠÐºÑĢÑĭÑĪÐ°Ð¼
ĠÐ±ÐµÐ³Ð°ÑĤÑĮ
ĠÐ½Ð°ÑĩÐ°Ð»ÑĮÑģÑĤÐ²Ð°
ĠÐ¿ÑĢÐ¸ÑĩÐ°Ð»ÑĮÐ½ÑĭÑħ
ĠÐ¿Ð¾ÑģÐ»Ð°Ð»
ĠÑģÐµÑĢÑĳÐ¶Ñĥ
Ð²Ð¾Ð¿ÑĢÐ¾ÑģÐ¾Ð²
Ð°Ð±ÑģÑĤÑĢ
Ð°Ð±ÑģÑĤÑĢÐ°ÐºÑĨÐ¸Ñı
ÑĤÐ²ÐµÑĢÑģÐºÐ¾Ð¹
ĠÐ½Ð°ÐºÑĥÑĢÐ¸Ð²Ð°ÑĤÑĮ
ĠÐ·Ð°Ð´ÑĥÐ²Ð°ÑĤÑĮ
ĠÑģÐ¾Ð·Ð´Ð°Ð²Ð°ÑĤÑĮ
ĠÐ¿Ð°ÑĢÐ¾ÑĩÐºÑĥ
ÐºÐ¾ÑģÑĤÑİ
ÐºÐ¾ÑģÑĤÑİÐ¼Ñĭ
ĠÐ¸ÑģÐ¿Ð¾Ð»ÑĮÐ·ÑĥÐµÑĤÑģÑı
ĠÑĢÐ¾Ð»ÐµÐ²ÑĭÑħ
ĠÐ¾Ð´Ð½Ð¾ÐºÐ¾Ð¼
ĠÐ¾Ð´Ð½Ð¾ÐºÐ¾Ð¼Ð½Ð°ÑĤÐ½ÑĥÑİ
Ð»ÑĥÑĨ
Ð»ÑĥÑĨÐº
ĠÐ¾Ð¿ÐµÑĢÐ°ÑĨÐ¸Ñı
ÑħÑĥÑıÐºÑģ
ĠÐ·Ð¾Ð½Ñĭ
Ð¾Ð±Ð¸Ð¶
Ð¾Ð±Ð¸Ð¶ÐµÐ½Ð½ÑĭÐ¹
ĠÐ¸Ð¿
ĠÐ¿ÑĢÐµÐ´Ñģ
ĠÐ¿ÑĢÐµÐ´ÑģÐµÐ´
ĠÐ¿ÑĢÐµÐ´ÑģÐµÐ´Ð°ÑĤÐµÐ»ÑĮ
ÑĦÑĢÐ°Ð½ÑĤÐ¾Ð¼
ĠÐ°Ð»ÐµÐ¹ÐºÑĥÐ¼
ĠÐ²Ð°Ð°Ð»ÐµÐ¹ÐºÑĥÐ¼
ĠÐ°ÑģÑģÐ°Ð»Ð°Ð¼
ĠÑĥÑĤÐ¾ÑĩÐ½Ð¸Ð»Ð°
Ð¿Ð°ÑĢÐºÐ¾Ð²ÑĭÐ¹
ĠÐ·Ð°Ð¿Ð¾Ð¼Ð¸Ð½Ð°ÑİÑĤ
ĠÐºÐ¸ÑĢÐ³Ñĥ
ĠÑĥÑĤÑĢÐµÐ½Ð½Ð¸ÐºÐ°
Ð¿Ð¾ÑĩÑĥÐ²
Ð¿Ð¾ÑĩÑĥÐ²ÑģÑĤÐ²Ð¾Ð²Ð°ÑĤÑĮ
ĠÐºÐ°Ð¿Ð»Ñı
ĠÑĩÐµÐ»Ð¾Ð²ÐµÑĩÐµÑģÑĤÐ²Ð°
ĠÐ¿Ð¾ÑģÐ»ÑĥÑĪÐ½Ð¾ÑģÑĤÐ¸
ĠÐ¸Ð·Ð¼ÐµÐ½Ð¸
ĠÐ¿ÑĢÐ¾Ð´ÑĥÐ¼
ĠÐ¿ÑĢÐ¾Ð´ÑĥÐ¼Ð°Ð½Ð¾
ĠÑģÐµÐ¼ÑĳÑĢ
ĠÑģÐµÐ¼ÑĳÑĢÐºÐ¸
ĠÐ¿ÐµÐ³
ĠÐ¿ÐµÐ³Ð°Ñģ
ĠÐ¿ÐµÐ³Ð°ÑģÐ¾Ð¼
ĠÐµÐ»Ðµ
ĠÑĥÐ´ÑĢ
ĠÑĥÐ´ÑĢÐ°Ð»
ĠÑĤÑĢÐ°Ð½Ñģ
ĠÑĤÑĢÐ°Ð½ÑģÐ»Ñı
ĠÑĤÑĢÐ°Ð½ÑģÐ»ÑıÑĨÐ¸Ñı
ĠÑĢÐ°Ð·Ð¾ÑģÐ»
ĠÑĢÐ°Ð·Ð¾ÑģÐ»Ð°Ð»
ĠÐ¾Ð±Ð»Ð¾Ð¼Ð°Ñİ
ĠÐ¾ÑģÑĥÐ¶Ð´Ð°
ĠÐ¾ÑģÑĥÐ¶Ð´Ð°ÐµÑĪÑĮ
ĠÐ¿ÑĢÐ¾Ð¿Ð¸Ð»Ð°
ĠÐ³Ð°Ñı
ĠÐ³Ð°ÑıÑĤÑĢÐ¸
ĠÑĥÐºÐ°Ð·Ð°Ð½Ð¸Ñı
Ð´Ð¾Ð²Ð¾Ð»ÑĮ
Ð´Ð¾Ð²Ð¾Ð»ÑĮÐ½ÑĭÐ¹
ĠÐ³Ð¾Ð»Ð¾ÑģÐ¾Ðº
ĠÑģÐ¸Ð¼Ð¿Ð°ÑĤ
ĠÑģÐ¸Ð¼Ð¿Ð°ÑĤÑİÐ»Ñı
Ð°Ð¹ÑĤÐ¸
ĠÐºÐ¾Ð»Ñĭ
ĠÐºÐ¾Ð»ÑĭÐ¼Ñĥ
ÑħÐ¾ÑĤÐ¸ÑĤÐµ
ĠÑĤÑĥÑĢÐ±Ð¾Ð½
ĠÑĤÑĥÑĢÐ±Ð¾Ð½Ð°ÑģÐ¾Ñģ
ĠÐ½Ð°Ð´ÑĥÑĪ
ĠÐ½Ð°Ð´ÑĥÑĪÐµÐ½Ð°
ĠÐºÐ¾Ð½Ð¸
ĠÑĢÑĭÐ±Ð°
Ð´Ð¾Ð»Ð±Ð°Ð½ÑĭÐ¹
ĠÑĤÐµÑĢÑĢÐ¸ÑĤÐ¾ÑĢÐ¸
ĠÑĤÐµÑĢÑĢÐ¸ÑĤÐ¾ÑĢÐ¸Ð°Ð»ÑĮÐ½Ð¾
Ð¸Ð·Ð²Ð¸Ð½Ð¸ÑĤÑĮÑģÑı
ĠÑĤÐº
ĠÑĤÐºÐ°Ð½Ð¸
Ð¿ÑĢÑı
Ð¿ÑĢÑıÐ½Ð¸ÐºÐ¸
ĠÑĢÐµÐ³Ð¸Ð½Ð°
Ð¸Ð¼Ð¿ÑĥÐ»ÑĮÑģÑĭ
ĠÐ¾Ð±Ð»ÐµÐ³
ĠÐ¾Ð±Ð»ÐµÐ³Ñĩ
ĠÐ¾Ð±Ð»ÐµÐ³ÑĩÑĳÐ½Ð½ÑĭÐ¹
ÑĢÐ°ÑģÐºÑĢÐ°Ñģ
ÑĢÐ°ÑģÐºÑĢÐ°ÑģÐºÐ°
Ð²Ð°Ð»ÑĮÐºÐ¸ÑĢ
Ð²Ð°Ð»ÑĮÐºÐ¸ÑĢÐ¸Ñı
Ð¶Ð°Ð»ÐµÑĤÑĮ
Ð¿ÑĢÐ¾ÑĦÐµÑģÑģÐ¸Ð¾Ð½Ð°Ð»ÑĮÐ½ÑĭÐ¹
ĠÐ¿ÐµÑĢÑĦ
ĠÐ¿ÐµÑĢÑĦÐ¾ÑĢÐ°
ĠÐ¿ÐµÑĢÑĦÐ¾ÑĢÐ°ÑĤÐ¾ÑĢ
ĠÐ¼Ð¾Ð½ÑĤ
ĠÐ¼Ð¾Ð½ÑĤÐ°Ð¶
ĠÐ¾ÑĤÑĢÐµÐ°Ð³Ð¸ÑĢÐ¾Ð²Ð°Ð»Ð°
Ð½Ð°Ð¼Ð½Ð¾Ð³Ð¾
ĠÐ¿ÑĢÐ¸Ð´ÑĥÐ¼Ð°Ð»Ð°
ĠÐ´Ð¾ÐºÐ°Ð·Ð°ÑĤÑĮ
ĠÐ¾Ð±Ð¸
ÑĥÑģÐ¿ÐµÑħ
ÑĥÑģÐ¿ÐµÑħÐ¾Ð²
ÑĪÐ°ÑĢ
ÑĪÐ°ÑĢÐ»Ð°Ð½Ð´Ð¸Ñı
ĠÑģÐ°ÑħÐ°ÑĢ
ĠÑģÐ°ÑħÐ°ÑĢÐ½ÑĥÑİ
ĠÐ¿ÑĥÐ´
ĠÐ¿ÑĥÐ´ÑĢÑĥ
Ð»ÑİÐ±Ð¸ÑĪÑĮ
ÑħÐ¾Ð·Ð±Ð»Ð¾Ðº
ĠÐ¿Ð¾Ð¿Ñģ
ĠÐ¿Ð¾Ð¿ÑģÐ¾Ðº
ĠÐ¿Ð¾Ð¿ÑģÐ¾ÐºÐµÑĤ
Ð·Ð°Ð±Ð¾ÑĢ
Ð·Ð°Ð±Ð¾ÑĢÑĭ
ĠÐ¾ÑĤÐ¿ÑĢÐ°Ð²Ð»ÑıÑİ
ÐºÐ¾Ð·ÑĭÑĢ
ÐºÐ¾Ð·ÑĭÑĢÐ½ÑĭÐ¹
ĠÐ°Ð²ÑĤÐ¾ÑĢÐ°Ð´Ð¸Ð¾
Ð½ÑĥÐ¶Ð½Ð°Ñı
ĠÐ¾Ð±ÑĬÑĳ
ĠÐ¾Ð±ÑĬÑĳÐ¼Ñĥ
ÑħÐ¾Ð»Ð¾Ð´
ÑħÐ¾Ð»Ð¾Ð´Ð½ÑĭÐ¹
ĠÐ¶Ð°Ð»Ð¾Ð±Ð°
ÑĥÐ³Ð°Ð´Ð°Ð¹
ĠÑĥÑĩÐ¸ÑĤÐµÑģÑĮ
ĠÐ²ÑĭÐ·Ð¾Ð²Ð°
ĠÑĥÑĩÑĳÑĤÐµ
Ð¼Ð¸ÑĢÐ¾ÑģÐ»
Ð¼Ð¸ÑĢÐ¾ÑģÐ»Ð°Ð²Ð°
ĠÐ³ÑĢÐµÐ±
ĠÐ³ÑĢÐµÐ±Ð»Ñı
ÑģÐµÑĢÑĳÐ³Ð°
ĠÐ³Ð¾Ð»Ð¸Ðº
ĠÐ³Ð¾Ð»Ð¸ÐºÐ¾Ð²ÑģÐºÐ¸Ð¹
ĠÐ¶ÑĥÑĢÐ½Ð°Ð»Ð¸
ĠÐ¶ÑĥÑĢÐ½Ð°Ð»Ð¸ÑģÑĤÐ°
ĠÐ½Ð°ÑħÐ¸Ð¼Ð¾Ð²ÑģÐºÐ¾Ð³Ð¾
ĠÑĢÐ°Ð·Ð²ÐµÐ´ÐµÐ½Ð¸Ñı
ÑĥÐ³Ð¾Ð»Ð¾Ð²Ð½Ð¾Ð³Ð¾
Ð¿ÑĢÐµÐ·ÐµÑĢÐ²Ð°ÑĤÐ¸Ð²
Ð¿ÑĢÐµÐ·ÐµÑĢÐ²Ð°ÑĤÐ¸Ð²Ñĭ
Ð±ÐµÐ½
Ð±ÐµÐ½Ð´ÐµÑĢ
ĠÐ´ÐµÐ³Ñĥ
ĠÐ´ÐµÐ³ÑĥÑģÑĤÐ°
ĠÐ´ÐµÐ³ÑĥÑģÑĤÐ°ÑĨÐ¸Ñı
ĠÐºÑĥÐ·Ð¾Ð²Ð°
ĠÐºÐ°Ð»Ð¸Ð½Ð°
Ð»ÐµÐ½ÐºÐ°
ĠÐ´Ð¾ÑıÑĢÐºÐ°
ĠÐ²ÑĭÐ´ÑĥÐ¼
ĠÐ²ÑĭÐ´ÑĥÐ¼Ð°Ð½Ð½ÑĭÐµ
ĠÑģÐºÐ°Ð·ÐºÐ¸
Ð±Ð¾ÑĢÐ¸Ñģ
ĠÑģÐ½Ð¸Ð¼Ð°ÐµÑĪÑĮ
Ð·Ð°ÑĤ
Ð·Ð°ÑĤÐ¾Ð½
Ð·Ð°ÑĤÐ¾Ð½ÑĥÐ²
Ð·Ð°ÑĤÐ¾Ð½ÑĥÐ²ÑĪÐ¸Ðµ
Ð¿Ð¾Ð»ÑĮ
Ð¿Ð¾Ð»ÑĮÐ·Ð°
ĠÑģÐ¿Ð¾ÑĢÑĮ
ĠÑĦÑĥÑĤÐ±Ð¾Ð»Ð¸ÑģÑĤÐ°
ĠÑĩÐµÐ¼Ð¿Ð¸Ð¾Ð½Ð°ÑĤÐµ
ĠÐ·Ð°ÑĢÐ¿Ð»Ð°ÑĤÐ°
ĠÐ·Ð²ÑĥÐº
Ð¿Ð¸Ð´Ð¾ÑĢ
Ð¿Ð¸Ð´Ð¾ÑĢÐ°ÑĪÐºÐ°
ĠÑģÐ»ÑĥÐ¶Ð±
ĠÐ¼ÐµÑģÑĤÐ¾Ð½Ð°Ñħ
ĠÐ¼ÐµÑģÑĤÐ¾Ð½Ð°ÑħÐ¾Ð¶Ð´ÐµÐ½Ð¸Ðµ
ĠÐ²ÑĢÐ°Ñī
ĠÐ²ÑĢÐ°ÑīÐ°ÑĤÐµÐ»ÑĮÐ½Ð°Ñı
ĠÑģÐ¿ÐµÑĨÐ³ÑĢÑĥÐ¿
ĠÑģÐ¿ÐµÑĨÐ³ÑĢÑĥÐ¿Ð¿Ñĥ
ĠÐ¸Ð²Ð°Ð½Ð¾Ð²Ð¸ÑĩÑĥ
ĠÐ²ÑĭÐ·Ð¾Ð²ÐµÐ¼
ĠÑģÐ¾ÑģÐµÐ´ÑģÑĤÐ²Ñĥ
ĠÐ²ÑģÑĤÑĢÐµÑĩÐ°ÐµÑĪÑĮÑģÑı
ĠÐ¾Ð±Ð¾Ð¶Ð°Ð»Ð°
Ð¿Ð¾ÐºÑĥÐ¿Ð°Ñİ
ĠÐ²ÐµÐ´ÑĳÑĪÑĮ
ĠÐ±Ð¾Ð»ÑĮÐ½Ð¸ÑĨÐµ
ĠÐ±Ð¾Ð»ÑĮÐ½ÑĭÑħ
ĠÑģÑĥÐ±ÐºÑĥÐ»ÑĮÑĤÑĥÑĢÐ°
ĠÐ¿ÑĢÐ¸ÑĤÐ°Ð½
ĠÐ¿ÑĢÐ¸ÑĤÐ°Ð½ÑĨÐ¾Ð²
ĠÐ¿ÑĢÐ¸ÑĤÐ°Ð½ÑĨÐ¾Ð²ÑĭÐ²Ð°Ñı
ĠÐ¼ÐµÐ½Ñĭ
Ð¿ÑĢÐµÐ´ÑĥÐ¿ÑĢÐµÐ´
Ð¿ÑĢÐµÐ´ÑĥÐ¿ÑĢÐµÐ´Ð¸ÑĤÑĮ
ĠÑĥÑģÐ¿ÐµÐ²
ĠÑĥÑģÐ¿ÐµÐ²Ð°ÑĤÑĮ
ĠÐ·Ð°ÑģÑĤÐ°Ð²Ð»ÑıÐµÑĪÑĮ
ĠÑģÐ»ÐµÐ´ÑĥÑİÑīÐ¸Ð¹
ĠÐ¾Ð¶Ð¸Ð´Ð°
ĠÐ¾Ð¶Ð¸Ð´Ð°ÑİÑĤ
ÑĢÑĥÐºÐ¾Ð¿
ÑĢÑĥÐºÐ¾Ð¿Ð¾Ð¶
ÑĢÑĥÐºÐ¾Ð¿Ð¾Ð¶Ð°ÑĤ
ÑĢÑĥÐºÐ¾Ð¿Ð¾Ð¶Ð°ÑĤÐ¸Ðµ
ĠÐºÑĢÐµÐ¿ÐºÐ¾
Ð¿Ð¾Ð¿Ð°Ð´
Ð¿Ð¾Ð¿Ð°Ð´Ð°Ñı
ĠÐ³Ð»Ñİ
ĠÐ³Ð»ÑİÑĤÐµÐ½
ĠÑĤÑĢÐ¾Ðµ
ĠÑģÐ»ÐµÐ´ÑĥÑİÑīÑĥÑİ
ĠÐ½Ð°Ð¸Ð»
ĠÐ½Ð°Ð¸Ð»ÑĥÑĩÑĪ
ĠÐ½Ð°Ð¸Ð»ÑĥÑĩÑĪÐ¸Ð¼
ĠÐ²ÐµÑĢÑĤÑĥÑħÐ¸
ĠÐ·Ð°ÑĩÐµÑĤ
ĠÐ·Ð°ÑģÑģÐ°Ð»
ĠÐ¿ÑĢÑĭÐ³Ð°Ð»Ð°
ĠÐ¼Ð°ÑħÐ°ÑĩÐºÐ°Ð»Ðµ
Ð°ÑģÑģÐ°ÑģÐ¸Ð½
ĠÐ¼Ð°ÑħÐ½ÐµÐ¼
ĠÐ´ÑĢÐ¾Ð²
Ð´ÑįÐ´ÑĪ
Ð´ÑįÐ´ÑĪÐ¾ÑĤ
Ð¸Ð²Ð°Ð½Ð¾Ð²ÑģÐºÐ°Ñı
ĠÐ·Ð¾Ð½Ð°
ĠÑĢÐ¾Ð»Ð¸ÐºÐ°Ñħ
Ð¶Ð¸Ð²ÑĳÑĤÐµ
ĠÑģÐ¼Ð°Ð¹Ð»Ð¸ÐºÐ¸
ÑĪÐ¾ÐºÐ¾Ð»
ÑĪÐ¾ÐºÐ¾Ð»Ð°Ð´Ñĭ
ĠÑĢÐ°Ð·Ð±Ð»Ð¾Ðº
ĠÑĢÐ°Ð·Ð±Ð»Ð¾ÐºÐ¸ÑĢÐ¾Ð²Ð°Ð»Ð°
ÑĤÑĥÑĢÐº
ĠÐºÑĥÑĪÐ¸ÐºÐ»
ĠÐºÑĥÑĪÐ¸ÐºÐ»Ð°ÑĢÐ¸
ĠÐ¸Ð´ÐµÑĪÑĮ
ĠÐ·Ð°Ð¸Ð³ÑĢÐ°Ð»Ð°
ĠÐ¼Ð¾Ð½Ð¸ÑĤÐ¾ÑĢ
ĠÐ¼Ð¾Ð½Ð¸ÑĤÐ¾ÑĢÐ¾Ð¼
ĠÑģÐ¾Ð½Ð°ÑĤÐ°
ĠÐ±ÑĢÐ°ÐºÐ¾Ð½
ĠÐ±ÑĢÐ°ÐºÐ¾Ð½ÑĮÐµÑĢ
ĠÐ±ÑĢÐ°ÐºÐ¾Ð½ÑĮÐµÑĢÑģÑĤÐ²Ð¾
ĠÐ±ÐµÑĢÐµÐ¼ÐµÐ½Ð½ÑĭÐ¼
ĠÑĤÐ¾Ð¼Ð°
ĠÑĤÐ¾Ð¼Ð°ÑĤÐ¾
ĠÐ°Ð½Ð³Ð»Ð¸Ð¹ÑģÐºÐ¾Ð¼Ñĥ
ÑĤÑĢÑĥÐ±Ñĭ
ĠÐµÐ²ÑĢÐ¾ÑģÐ¾Ñİ
ĠÐµÐ²ÑĢÐ¾ÑģÐ¾ÑİÐ·
ĠÑĢÐ°ÑģÑģÑĩÐ¸ÑĤÐ°Ð»
ĠÐ½ÐµÐ°Ð´ÐµÐºÐ²Ð°ÑĤÐ½Ð¾
ĠÑģÐµÑĢÑĮÐµÐ·Ð½ÑĭÑħ
Ð¼ÐµÐ´Ð¸ÑĨ
Ð¼ÐµÐ´Ð¸ÑĨÐ¸Ð½Ð°
ĠÐ±Ð¾ÑĢÑĮÐ±Ð°
ĠÐ²ÐµÑĤÑĢÑı
ĠÐ²ÐµÑĤÑĢÑıÐ½ÑĭÐ¼Ð¸
ĠÐ¼ÐµÐ»ÑĮ
ĠÐ¼ÐµÐ»ÑĮÐ½Ð¸
ĠÐ¼ÐµÐ»ÑĮÐ½Ð¸ÑĨÐ°Ð¼Ð¸
Ð¾ÑĤÐ²ÐµÑĩÑĥ
ĠÑĪÑĤÐµÐ¹
ĠÑĪÑĤÐµÐ¹Ð½Ð°
ĠÑģÑĥÐ±Ð±Ð¾ÑĤÐ½Ð¸Ðº
Ð³ÑĢÐ°Ñĩ
Ð³ÑĢÐ°ÑĩÐ¾Ð½Ð¾Ðº
Ð¿Ð¾Ð³Ð¾Ð²Ð¾ÑĢÐ¸
ĠÐ¼Ð¸Ð½ÑĥÑĤÐ¾ÑĩÐºÑĥ
Ð¿ÑĢÐ¸Ð·ÑĭÐ²
Ð¿ÑĢÐ¸Ð·ÑĭÐ²Ð½Ð¾Ð¹
Ð°ÑĤÑĢÐ¸
Ð°ÑĤÑĢÐ¸ÑĥÐ¼
ĠÐ¾ÑĪÐµÐ¹Ð½Ð¸ÐºÐ¾Ð²
ĠÐ¿ÑĢÐµÑģÐ»ÐµÐ´
ĠÐ¿ÑĢÐµÑģÐ»ÐµÐ´Ð¾Ð²Ð°ÑĤÑĮ
ĠÑĤÐµÐ»ÐµÐ¿ÑĢÐ¾Ð³ÑĢÐ°Ð¼Ð¼Ð°
Ð¿ÑĢÐ¸ÐµÐ´Ñĥ
ĠÐ½Ð°Ð´ÐµÑĢÑĥ
ĠÐºÐ¾Ð»ÑİÑģÑĮ
ĠÐºÐ¾Ð¼Ð½Ð°ÑĤÐ°
ÑģÐºÐ°ÑĩÐ°Ð»
ĠÐ½Ð°Ð´Ð¾ÐµÐ»Ð¸
ĠÑĥÐ±Ð»ÑİÐ´ÐºÐ¸
ĠÐ½Ð°ÑģÑĤÑĢÐ¾Ð¹
ĠÐ½Ð°ÑģÑĤÑĢÐ¾Ð¹ÐºÐ°Ñħ
ĠÐ¼Ð¾ÑĤÐ¾ÑĢÑĭ
ĠÐ½ÐµÐºÑĥÐ»ÑĮ
ĠÐ½ÐµÐºÑĥÐ»ÑĮÑĤÑĥÑĢÐ½Ð¾
ĠÑģÐ´Ð°ÑĩÐ¸
ĠÐ·Ð°ÐºÐ¸Ð½Ñĥ
ĠÐ·Ð°ÐºÐ¸Ð½ÑĥÐ»Ð°
Ð¼ÐµÑĤÐ°Ð»
Ð¼ÐµÑĤÐ°Ð»Ð»Ð¸ÑģÑĤ
ĠÑĥÐ¿Ð¾Ð»Ð½Ð¾Ð¼Ð¾Ñĩ
ĠÑĥÐ¿Ð¾Ð»Ð½Ð¾Ð¼Ð¾ÑĩÐ¸Ðµ
Ð¿Ð¾Ð¼Ð¸Ð´Ð¾ÑĢÑĭ
ĠÐ²Ð¸ÑĤÑıÐ·
ĠÐ²Ð¸ÑĤÑıÐ·ÑĮ
Ð·ÑĥÐ±Ð°ÑĢ
Ð·ÑĥÐ±Ð°ÑĢÐµÐ²Ð°
ĠÐ¼Ð¾ÑĢÐ´ÐºÐ¾Ð²
ĠÐ¼Ð¾ÑĢÐ´ÐºÐ¾Ð²Ð¸Ñĩ
ĠÑĳÐ±Ð½Ñĥ
ĠÐ³Ð¸Ð±Ð»Ð¸
ĠÐ¾Ð±Ð¼Ð°Ð½ÑĥÐ»
ĠÐ¾Ð´Ð½Ð¾ÐºÐ»Ð°ÑģÑģ
ĠÐ¾Ð´Ð½Ð¾ÐºÐ»Ð°ÑģÑģÐ½Ð¸ÐºÐ¸
ĠÑĤÐ¾ÑĢÐ¼Ð¾Ð·Ð¸
ĠÑĦÐ°Ð½ÑĤÐ°Ð·ÐµÑĢ
Ð¿Ð¾Ð´Ð°Ð¼
ĠÐ³ÐµÐ»ÐµÐ½
ĠÐ³ÐµÐ»ÐµÐ½Ð´Ð¶
ĠÐ³ÐµÐ»ÐµÐ½Ð´Ð¶Ð¸ÐºÐ¾Ð¼
ĠÐ¿Ð¾Ð´Ð°Ð¼
Ð²Ð·Ð¾ÑĢ
Ð²Ð·Ð¾ÑĢÐ²
Ð²Ð·Ð¾ÑĢÐ²Ð¸ÑģÑĮ
ĠÑħÐ¾Ð¼ÐºÐ¸
ĠÑĤÐ¸Ð½ÑĮ
ĠÑĤÐ¸Ð½ÑĮÐºÐ¾ÑĦÑĦ
ĠÑģÑĥÐ½Ð¸Ð»
ĠÑģÐ»ÐµÐ³
ĠÑģÐ»ÐµÐ³ÐºÐ°
ĠÐ´Ð¾ÑģÑĤÐ¸Ñĩ
ĠÐ´Ð¾ÑģÑĤÐ¸ÑĩÑĮ
ĠÐ´ÐµÐ¼Ð¾Ð½ÑģÑĤÑĢÐ°
ĠÐ´ÐµÐ¼Ð¾Ð½ÑģÑĤÑĢÐ°ÑĨÐ¸Ð¸
ĠÐ¿Ð¾ÐºÐ°Ð·Ð°ÑĤÐµÐ»ÑĮÐ½ÑĭÐµ
ĠÐºÐ°Ð·Ð½Ð¸
ĠÐ¼ÐµÑĪÐ°Ð»Ð¸
ĠÐ³ÐµÐ¼Ð¾ÑĢ
ĠÐ³ÐµÐ¼Ð¾ÑĢÑĢÐ¾
ĠÐ³ÐµÐ¼Ð¾ÑĢÑĢÐ¾Ñı
ĠÐ½Ð°Ð´ÑĥÐ²
ĠÐ½Ð°Ð´ÑĥÐ²Ð½ÑĭÐµ
ĠÐ´Ð¾Ð¿Ð¸Ð²Ð°ÑĤÑĮ
Ð°ÑĢÐµÐ½
Ð°ÑĢÐµÐ½Ð´Ñĥ
ĠÑģÐµÑĢÐ¾Ð²
Ð´ÑĢÑĥÐ³Ð°Ñı
ĠÐ»ÑİÐ±Ð¸Ð¼ÑĥÑİ
ĠÐ±ÑĥÑħÐ¾Ð¹
ĠÐ¸ÑģÐ¿Ð¾ÑĢÑĤÐ¸Ð»Ð¸
Ð½ÑĥÑĤÑĢÐ¸ÐºÐ¾Ð½
ĠÑĪÑĥÐ¼ÐµÑĢ
ĠÑĪÑĥÐ¼ÐµÑĢÐ»Ðµ
ĠÐ·Ð°Ð¿ÑĢÐ°Ð²Ð¾Ðº
ĠÐ³ÑĢÐ¾Ð´
ĠÐ³ÑĢÐ¾Ð´Ð½Ð¾
ĠÐ·Ð°ÑħÐ°ÑĢÐ¾Ð²Ð°
ĠÐ¿Ð¾Ð»Ð¸ÑĨÐ¸Ñı
ÑĢÑıÐ´ÑĭÑĪÐºÐ¾Ð¼
ĠÐ°Ð»Ð¼Ð°ÑĤ
ĠÐ°Ð»Ð¼Ð°ÑĤÐµ
ĠÐ¿Ð»Ð°Ð½Ð¸ÑĢÐ¾Ð²Ð°Ð»Ð°
ĠÐºÐ°ÐºÐ°ÐµÑĤ
Ð¼Ð¾ÐµÐ³Ð¾
ĠÑĩÐµÑĩÐµÑĢ
ĠÑĩÐµÑĩÐµÑĢÑģÐºÐ¸Ð¹
Ð·Ð°Ð²ÐµÑĢÐ±Ð¾Ð²
Ð·Ð°Ð²ÐµÑĢÐ±Ð¾Ð²Ð°Ð»Ð¸
ÑĪÑĥÑĤÐ¸ÑĪÑĮ
Ð³ÑĥÑĢ
Ð³ÑĥÑĢÑĩÐµÐ½ÐºÐ¾
ĠÐ¼Ð°ÑĢÑĤÐµ
ĠÐ»ÑĥÐ½Ñĥ
ĠÐ·ÑĢÐµÐ»
ĠÐ¾Ð±Ð½Ð¾Ð²
ĠÐ¾Ð±Ð½Ð¾Ð²Ð»ÑıÑı
Ð½Ð¸ÑĩÐµÐ¼
ĠÐ·Ð°Ð´ÐµÐ½
ĠÐ·Ð°Ð´ÐµÐ½ÐµÑĪÑĮ
ĠÐ¿ÑĢÐ¾Ð±Ñĭ
ĠÐ¿ÑĢÐ¾Ð±ÑĭÐ»
ĠÐ¿ÐµÐ´Ð°Ð»ÑĮÐ½ÑĭÐ¹
ĠÐ¿Ð¾Ð»ÐµÐ·Ð½Ð¾ÑģÑĤÑĮ
ĠÐ¿ÐµÑĢÐµÐ´Ð°ÑİÑĤ
ĠÐ¾Ð±Ð¾Ð·Ð½Ð°ÑĩÑĮÑĤÐµ
ĠÑĥÐ¿Ð°ÐºÐ¾Ð²Ð¾ÑĩÐ½Ð°Ñı
ĠÐ±Ð¾ÑĢÐ¸ÑģÐ¾Ð²Ð½Ñĭ
ĠÐ¿ÑĢÐµÐ´Ð¿Ð¾Ð»Ð°Ð³Ð°Ñİ
ĠÐ²ÐµÐ´ÑĥÑĤ
Ð¿Ð¾Ð¼Ð¾Ð³Ð¸ÑĤÐµ
Ð´Ð°ÑĳÑĤ
ĠÐ±ÐµÑĢÐµÐ¼ÐµÐ½Ð½Ð¾Ð¹
ÑģÐµÑĢÐµÐ´
ÑģÐµÑĢÐµÐ´Ð¸Ð½Ð°
ĠÑĢÐµÐ±ÑĢÐ°
ĠÑĥÐµÑħÐ°Ð»
ĠÐ½Ð°ÑģÑĤÐ¾ÑıÑīÐ¸Ðµ
ĠÑĩÑĥÐ²ÑģÑĤÐ²Ð¾Ð²Ð°Ð»
ĠÐ·Ð°ÐºÐ°ÑĤ
Ð³Ð°Ð¼Ð»ÐµÑĤ
ĠÐ²Ð¾ÑģÐ¿ÑĢÐ¸Ð½Ð¸Ð¼Ð°ÐµÑĤ
ĠÑĢÐ¾Ð»Ð¸
ĠÑĤÐ°Ð½ÑĨÑĥÐ¹ÑĤÐµ
ĠÑģÐ°Ð´Ð¾Ð²Ð¾Ð´
ĠÑģÐ°Ð´Ð¾Ð²Ð¾Ð´Ðµ
ÑĥÑĢÐ¾Ð¶Ð°Ð¹
ÑĥÑĢÐ¾Ð¶Ð°Ð¹Ð½Ð¾ÑģÑĤÑĮ
ĠÐ¿Ð¾ÑĤÐµÑĢÐ¸
ĠÐ»Ð¸ÑĩÐ½Ð¾Ð¹
Ð½ÑİÑħÐ°ÑĤÑĮ
ĠÐºÐ»ÐµÐ¹
ĠÐ´Ð¾Ð»Ð³Ð¸
ĠÐ¾ÑĤÐ´Ð°ÑİÑĤ
ÑģÑĤÐ°ÑĢÑĤÐ¾Ð²
ÑģÑĤÐ°ÑĢÑĤÐ¾Ð²Ð°Ð»
ĠÑĩÐ°ÑĢÐ²
ĠÑĩÐ°ÑĢÐ²Ð°Ðº
ĠÐ¿Ð¾Ð²ÐµÑĢÐ¸ÑĪÑĮ
ÑģÐ»Ð¾Ð¼Ð°Ð»
ĠÑģÑĥÐ´ÑĮÑı
Ð´ÑĥÑĢÐ°ÐºÐ¾Ð²
ÑĥÐ±Ð¸ÑĢÐ°Ð¹
ÑĥÐ±Ð¸ÑĢÐ°Ð¹ÑĤÐµÑģÑĮ
ĠÐ±ÑĢÐ¾ÑģÐ¸Ð»Ð°
ÑĩÐµÐ»ÑıÐ±Ð¸Ð½ÑģÐºÐ°Ñı
ĠÐ¿Ð»Ð°ÑģÑĤ
ÑħÐ»ÐµÐ±
Ð¶Ð¸Ð²Ð¾ÑĤÐ½Ð¾Ðµ
ĠÑģÑĢÐµÑĤ
ĠÐ¸Ð±Ð¸ÑĨÐ°
ĠÐºÐ°ÑĢÑĤÐµ
Ð½ÐµÐ¾ÑħÐ¾ÑĤÐ°
Ð°ÐºÐ²Ð°ÑĢÐµÐ»ÑĮ
ĠÐ¿Ð°Ð»Ð¾ÑĩÐºÑĥ
ĠÐ¿ÑĢÐ°Ð½ÐºÐ°Ð¼Ð¸
ĠÑĦÐ»Ð°Ð²Ð¸
ĠÑĦÐ»Ð°Ð²Ð¸Ð°Ð½
ĠÑģÐ¾ÑħÑĢÐ°Ð½ÐµÐ½Ð¸Ñı
ĠÑįÐ»ÐµÐºÑĤÑĢÐ¾Ð»
ĠÑįÐ»ÐµÐºÑĤÑĢÐ¾Ð»Ð¸Ð·Ð°
ĠÑĦÐ¸Ð·Ð¸ÐºÐ°
ĠÑĤÐµÑĢÐ¼Ð¾Ð´Ð¸Ð½
ĠÑĤÐµÑĢÐ¼Ð¾Ð´Ð¸Ð½Ð°Ð¼
ĠÑĤÐµÑĢÐ¼Ð¾Ð´Ð¸Ð½Ð°Ð¼Ð¸ÐºÐ°
ĠÑĤÐµÐ¿Ð»Ð¾Ð²ÑĭÐµ
Ð±Ð¼
Ð±Ð¼Ð²
ÑģÐ²ÑıÐ·Ð°Ð½Ð¾
Ð°ÑĢÐ±
Ð°ÑĢÐ±ÑĥÐ·
ĠÐ¾ÑģÑĤÐ°Ð²Ð°ÑĤÑĮÑģÑı
ÐºÐ¾ÑĢÐ¼Ð»ÐµÐ½Ð¸Ðµ
ĠÐ±ÑĢÐ°ÑħÐ¼
ĠÐ±ÑĢÐ°ÑħÐ¼Ð°Ð½Ð¾Ð²
ĠÐ¸Ð½ÑģÑĤ
ĠÐ¸Ð½ÑģÑĤÐ°Ð³ÑĢÐ°Ð¼
ĠÐ¸Ð½ÑģÑĤÐ°Ð³ÑĢÐ°Ð¼Ðµ
ĠÐ¿ÑĢÐ¾Ð¿Ð°Ð»Ð¸
Ð¾Ð±ÑĭÑĩÐ½Ð¾
ĠÑħÑĥÑħÑĥ
ĠÑħÐ¾Ñħ
ĠÑħÐ¾ÑħÐ¾
ĠÐ´Ð¾Ð±ÑĢÑĭÐ½Ñı
ĠÐ¸ÑģÐºÐ°Ð¶
ĠÐ¸ÑģÐºÐ°Ð¶ÐµÐ½Ð¾
ĠÐ²ÑĭÐ»ÐµÑĤÐ°Ñİ
ĠÐ½Ð°ÑĢÐ¸Ñģ
ĠÐ½Ð°ÑĢÐ¸ÑģÐ¾Ð²Ð°ÑĤÑĮ
Ð¼ÑĭÑģÐ»Ð¸
ĠÐºÑĢÑĥÑĤÐ¸Ð»Ð¸ÑģÑĮ
ĠÑĢÐ¸ÑĤ
ĠÑĢÐ¸ÑĤÐ¼Ðµ
ĠÐ²ÐµÐ½ÑĤ
ĠÐ²ÐµÐ½ÑĤÐ¸Ð»Ñı
ĠÐ²ÐµÐ½ÑĤÐ¸Ð»ÑıÑĤÐ¾ÑĢÐ°
Ð°ÐºÐ°Ð´
Ð°ÐºÐ°Ð´ÐµÐ¼
Ð°ÐºÐ°Ð´ÐµÐ¼Ð¸Ðº
ĠÐ¿ÑĢÐ¸Ð½Ð¸Ð¼Ð°ÑİÑĤ
ĠÐ¸Ð¿Ð¾ÑĤ
ĠÐ¸Ð¿Ð¾ÑĤÐµÐºÐ°
ĠÐ²ÐºÐ»Ð°Ð´Ñĭ
ĠÐ°Ð½Ð°Ð»Ð¸Ð·
ĠÐ¼Ð°ÑĦ
ĠÐ¼Ð°ÑĦÐ¸Ñı
Ð±Ð°ÑĢÑĭÐ¶Ð¸ÑĤÑĮ
ĠÐ±Ð°ÑĢÑĭÐ¶Ð¸ÑĤÑĮ
ĠÐ¼ÑıÑģÐ¾Ð¼
ĠÐ´ÑĭÑĢÐºÐ°Ð¼Ð¸
ĠÐ±Ð¾Ð³ÑĥÑĩ
ĠÐ±Ð¾Ð³ÑĥÑĩÐ°ÑĢ
ĠÑĢÐ°Ð·Ð³ÑĥÐ»Ñı
ĠÑĢÐ°Ð·Ð³ÑĥÐ»ÑıÐ¹
ĠÐ½ÐµÐ³ÑĢÐ°Ð¼
ĠÐ½ÐµÐ³ÑĢÐ°Ð¼Ð¾ÑĤ
ĠÐ½ÐµÐ³ÑĢÐ°Ð¼Ð¾ÑĤÐ½ÑĭÐµ
ĠÐ²Ð°ÑģÐ¸Ð»ÑĮÐµÐ²ÑģÐºÐ¾Ð³Ð¾
ĠÑİÐ¼
ĠÑİÐ¼Ð¾ÑĢÐ°
ĠÐ²Ð·Ð°Ð¸Ð¼Ð¾Ð´ÐµÐ¹ÑģÑĤÐ²Ð¾Ð²Ð°ÑĤÑĮ
ĠÐ±Ð°Ð·Ð¾Ð¹
Ð²ÑĭÑģÑĤÑĢÐµÐ»
ĠÐ²ÑĭÐ»Ð°Ð¶Ð¸Ð²Ð°ÑĤÑĮ
Ð²ÑĭÐ»Ð¾Ð¶Ð¸ÑĤÑĮ
ĠÑīÐ¸
Ð¾Ð±ÑĢÐ°Ð·ÑĥÐ¹ÑĤÐµ
ĠÑģÑĤÑĢÐ¾Ñİ
ÐºÐ¾Ð½ÑĤ
Ð´Ð°Ð²Ñĭ
Ð´Ð°Ð²ÑĭÐ´
Ð´Ð°Ð²ÑĭÐ´Ð¾Ð²Ð°
ĠÐ·Ð¸Ð½Ð°Ð¸Ð´Ð°
ĠÐ½Ð°Ð´ÐµÑĤÑĮ
ĠÐ±Ð°Ð³Ð°Ð¶Ð°
Ð¸Ð·Ð²Ð¸Ð½ÑıÐµÑĤÑģÑı
ĠÐ¸Ð½ÑĤÐµÑĢÐµÑģÑĥÐµÑĤÑģÑı
ĠÐºÑĥÐ»Ð¸
ĠÐºÑĥÐ»Ð¸Ð½Ð°ÑĢ
ĠÐºÑĥÐ»Ð¸Ð½Ð°ÑĢÐ¸Ð¸
ÐºÑĢÐµÑģÐ»Ð¾
ĠÐ¿ÑĢÐ¾ÑıÑģ
ĠÐ¿ÑĢÐ¾ÑıÑģÐ½
ĠÐ¿ÑĢÐ¾ÑıÑģÐ½Ð¸Ð»Ð¾ÑģÑĮ
ĠÐºÐ¾Ð½Ð²ÐµÑĢÑĤÐ°
Ð¿Ð¾Ð´Ð¾ÑĢÐ¾Ð¶
Ð¿Ð¾Ð´Ð¾ÑĢÐ¾Ð¶Ð½Ð¸Ðº
ĠÐ¿ÑĢÐ¾Ð¹Ð´
ĠÐ¿ÑĢÐ¾Ð¹Ð´ÐµÑĪÑĮ
Ð¼Ð¸Ð³ÑĢÐ°
Ð¼Ð¸Ð³ÑĢÐ°ÑĨÐ¸Ð¾Ð½Ð½Ð°Ñı
ĠÐ½Ð°Ð·ÑĭÐ²Ð°Ñİ
Ð°Ð½Ð°ÑģÑĤÐ°Ñģ
Ð°Ð½Ð°ÑģÑĤÐ°ÑģÐ¸Ð·
ÑĥÐ»ÐµÑĤÐ°Ð¹
ĠÐ¿ÑĢÐ¸Ð²Ð»ÐµÐºÐ°ÑĤÑĮ
ĠÐ¿Ð¾ÑĤÑĢÐµÐ±Ð»ÐµÐ½
ĠÐ¿Ð¾ÑĤÑĢÐµÐ±Ð»ÐµÐ½Ð¸Ñİ
ĠÐ²ÐµÐ»Ð¸ÐºÐ¾Ð»ÐµÐ¿Ð½ÑĭÐ¹
ĠÐ¿ÑĢÐ¸ÐºÐ¾Ð»ÑĮÐ½ÑĭÐ¹
ĠÐºÑĢÐ°ÑģÐ¾ÑĤÑĥÐ»ÑĮÐºÐ°
ĠÐ¿ÐµÑĢÐµÐ·Ð²Ð¾Ð½Ð¸Ð»Ð°
Ð¿ÑĢÑĭÐ³Ð°ÑİÑīÐ¸Ð¹
ĠÐ¾Ð¶
ĠÐ¾Ð¶Ð¸Ð´
ĠÐ¾Ð¶Ð¸Ð´Ð°Ð½Ð¸Ð¸
ÐºÐ²Ð°Ð´ÑĢÐ¾Ðº
ÐºÐ²Ð°Ð´ÑĢÐ¾ÐºÐ¾Ð¿
ÐºÐ²Ð°Ð´ÑĢÐ¾ÐºÐ¾Ð¿ÑĤÐµÑĢ
ĠÐ¸Ð·Ð²Ð¸Ð½ÑıÐ»ÑģÑı
ĠÐ¾ÑĤÐºÐ»ÑİÑĩÐµÐ½Ñĭ
ĠÐ¼ÑıÑģÐ¾
Ð¸Ð½ÑĤÐµÐ»
Ð¸Ð½ÑĤÐµÐ»Ð»ÐµÐº
Ð¸Ð½ÑĤÐµÐ»Ð»ÐµÐºÑĤÑĥ
Ð¸Ð½ÑĤÐµÐ»Ð»ÐµÐºÑĤÑĥÐ°Ð»Ñĭ
Ð¿Ð¾Ð·Ð´ÑĢÐ°Ð²
Ð¿Ð¾Ð·Ð´ÑĢÐ°Ð²Ð»ÑıÑİ
ĠÐ¾Ð±Ð¸Ð´ÐºÐ°
Ð°Ð¼Ð¾Ñģ
Ð°Ð¼Ð¾ÑģÐ¾Ð²Ð°
ĠÐ½Ð°Ð¼ÐµÑĢ
ĠÐ½Ð°Ð¼ÐµÑĢÐµÐ½Ð°
ĠÐ¾ÑģÑĤÐ°Ð²Ð»Ñİ
ĠÐ¼Ð¾Ð»Ð¾Ð´ÑĩÐ¸Ð½
ĠÐ¼Ð¾Ð»Ð¾Ð´ÑĩÐ¸Ð½ÐºÐ°
ĠÐ¿ÑĢÐµÐ´ÐµÐ»Ð¾Ð²
Ð¸ÐºÐ¾Ð½Ð°
ĠÐ±ÑĥÑĤÑĭÐ»ÐºÐ¸
ĠÐ½ÐµÑģÐºÐ°Ð¶Ñĥ
ĠÐ±Ð¾ÑĢÐ¾Ð´Ð¸Ð½
ĠÐ¾ÑħÑĢÐµÐ½
ĠÐ¾ÑħÑĢÐµÐ½ÐµÐ»
Ð¾ÑĤÑģ
Ð¾ÑĤÑģÑĥÑĤ
Ð¾ÑĤÑģÑĥÑĤÑģÑĤÐ²
Ð¾ÑĤÑģÑĥÑĤÑģÑĤÐ²ÑĥÑİÑīÐ¸Ð¹
ĠÐ´ÑĭÑĢÐºÐ°
ĠÐ¼ÑıÑģÐµ
Ð´ÐµÐ»Ñĥ
ĠÑĥÐ³Ð¾Ð²Ð¾ÑĢÐ¸Ð»
ĠÐ¿Ð¾Ð¿Ð°Ð»ÑģÑı
ĠÐ²ÑĭÑħÐ¾Ð´Ð¸Ð»Ð°
ĠÑĩÐµÐ»ÑıÐ±Ð¸Ð½ÑģÐº
ĠÐ¿Ð¸Ð·Ð´Ð¸ÑĤÐµ
Ð°Ð½ÑĦÐ¸Ð»
Ð°Ð½ÑĦÐ¸Ð»Ð°Ð´Ð°
ĠÐ²Ð¾Ð¸Ð½
ĠÐ²Ð¾Ð¸Ð½ÑģÐºÐ°Ñı
Ð°ÑĤÐ°Ð¼ÑĥÑĢ
Ð°ÑĤÐ°Ð¼ÑĥÑĢÐ°ÑĤ
ĠÐ°Ð²ÐµÐ½
ĠÐ°Ð²ÐµÐ½Ñİ
ĠÐ²Ð¾Ð·Ð¼Ð¾Ð¶Ð½
ĠÐ²Ð¾Ð·Ð¼Ð¾Ð¶Ð½Ð¾ÑģÑĤÐµÐ¹
ĠÑģÐ²ÑıÐ·Ð½Ð¾Ð¼
ĠÑĢÐ°ÑģÑĤÐ²Ð¾ÑĢÐµ
ÑĦÐ°Ðº
ÑĦÐ°ÐºÑĥÐ»ÑĮÑĤ
ÑĦÐ°ÐºÑĥÐ»ÑĮÑĤÐµÑĤ
Ð¿Ð¾ÐºÐ¾Ð¹Ð¾
ĠÐ¸Ð½ÑĤÐµÑĢÐµÑģÐ½Ð°Ñı
ĠÑģÐ¾ÑģÑĤÐ¾Ð¸ÑĤÑģÑı
Ð¾ÐºÑĢÐ°Ñģ
Ð¾ÐºÑĢÐ°ÑģÐºÐ°
ÐºÐ¾Ð»Ð¾ÐºÐ¾Ð»Ð°
ĠÐ¿ÑĢÐµÐ¼Ð¸Ñİ
ĠÐ¿ÑĢÐ¸ÐºÐ¾Ð»Ñĭ
ĠÐ±Ð»Ð°Ð³Ð¾Ð´ÐµÐ½
ĠÐ±Ð»Ð°Ð³Ð¾Ð´ÐµÐ½ÑģÑĤÐ²Ð¸Ðµ
ĠÐ²ÐµÑĢÑĤÐ¾Ð»ÐµÑĤÐ¸ÐºÐ¸
ĠÐ¿Ð°ÑĢÐ¾Ð²Ð¾Ð·Ð¸ÐºÐ¸
ĠÐ·Ð°Ð²Ð¾Ð´Ð¸Ð¼
ĠÑįÐ»Ð¸ÑĤÐ½ÑĥÑİ
ĠÐ³ÑĥÑģ
ĠÐ³ÑĥÑģÐµÐ¹
Ð½Ð°ÑĤÐ°Ð»ÑĮ
Ð½Ð°ÑĤÐ°Ð»ÑĮÑı
ĠÐ½Ð°ÑĥÐ¼Ð¾Ð²Ð°
Ð¶Ð°Ð½
ĠÑģÐµÐºÑĢÐµÑĤÐ½ÑĭÐµ
ĠÑģÐ¼Ð¾ÑĤÑĢÑıÑīÐ¸Ð¹
ĠÐ¿ÐµÑĢÐµÑĢÐ°Ð±
ĠÐ¿ÐµÑĢÐµÑĢÐ°Ð±Ð°ÑĤ
ĠÐ¿ÐµÑĢÐµÑĢÐ°Ð±Ð°ÑĤÑĭÐ²
ĠÐ¿ÐµÑĢÐµÑĢÐ°Ð±Ð°ÑĤÑĭÐ²Ð°ÑİÑī
ĠÐ¿ÐµÑĢÐµÑĢÐ°Ð±Ð°ÑĤÑĭÐ²Ð°ÑİÑīÐµÐ¹
ĠÑģÐ¿ÑĢÐ°Ð²
ĠÑģÐ¿ÑĢÐ°Ð²Ð¾ÑĩÐ½Ð¸Ðº
ĠÐºÐ°Ð½Ð°Ð»Ð°
ĠÑĥÐ»ÑĭÐ±Ð°ÑİÑģÑĮ
Ð½Ð°Ð¿Ð¾Ð¼Ð½Ð¸ÑĤÑĮ
ĠÐ¿Ð°Ð»Ð°ÑĤÐºÑĥ
ĠÐ³Ð¾ÑģÐ¿Ð¾Ð´Ð°
ĠÐ±Ð¸Ð°ÑĤÐ»Ð¾Ð½
ĠÐ±Ð¸Ð°ÑĤÐ»Ð¾Ð½Ð¸ÑģÑĤÑĭ
ĠÐ¿ÑĢÐ¾Ð¸Ð·Ð²ÐµÐ»Ð°
ĠÐ²ÑĭÑĢÐ¾Ð´
ĠÐ²ÑĭÑĢÐ¾Ð´Ð¾Ðº
ĠÐ¶Ð¸Ð»Ð°Ñı
ĠÐ¿Ð¾Ð³ÑĥÐ»Ñı
ĠÐ¿Ð¾Ð³ÑĥÐ»ÑıÐµÐ¼
ĠÐ°ÑĢÐ¸ÑĤ
ĠÐ°ÑĢÐ¸ÑĤÐ¼Ð¸Ñı
Ð³Ð¾Ð»ÑĥÐ±Ð¾Ð¹
ĠÑģÐ°Ð¸Ð´
ĠÑģÐ°Ð¸Ð´Ð¾Ð²Ð°
Ð²Ð¾ÑĢÐ¾Ð½
Ð²Ð¾ÑĢÐ¾Ð½ÐµÐ¶
Ð²Ð¾ÑĢÐ¾Ð½ÐµÐ¶ÑģÐºÐ°Ñı
ĠÐ²ÐºÐ»ÑİÑĩÐµÐ½Ð¸Ð¸
ĠÐºÐ¾Ð¼Ð¿ÑĮÑİÑĤÐµÑĢÐ°
ĠÑģÐ¼Ð¾ÑĤÑĢÐ¸ÑĤ
ĠÐ³Ð°Ð·Ð´
ĠÐ³Ð°Ð·Ð´Ð°Ð½Ð¾Ð²
ĠÐ³Ð°Ð·Ð´Ð°Ð½Ð¾Ð²ÑĭÑħ
ÐºÐ°Ð»Ð¸Ð½Ð¸Ð½Ð³ÑĢÐ°Ð´ÑģÐºÐ¸Ð¹
ĠÑĦÐ¸Ð»Ð¸
ĠÑĦÐ¸Ð»Ð¸Ð°Ð»
ĠÑģÐ¾Ð²ÐµÑĤÑĭ
Ð½ÐµÐ»Ð¸
Ð½ÐµÐ»Ð¸ÑĨ
Ð½ÐµÐ»Ð¸ÑĨÐµÐ¿ÑĢ
Ð½ÐµÐ»Ð¸ÑĨÐµÐ¿ÑĢÐ¸ÑıÑĤ
Ð½ÐµÐ»Ð¸ÑĨÐµÐ¿ÑĢÐ¸ÑıÑĤÐ½ÑĭÐµ
ĠÐµÐ³Ð¾ÑĢÐ¾Ð²Ð°
ÑįÐ»Ð¸ÑĤ
ĠÐ¿Ð¾Ð±Ð¾ÑĩÐ½ÑĭÐµ
ĠÑįÑĦÑĦÐµÐºÑĤÑĭ
ĠÐ¿Ð¾Ð´Ð¾ÑĪÐµÐ»
ĠÐ´ÐµÑĢÐµÐ²Ñĥ
ĠÐ²Ð¸ÑģÑı
ĠÐ²Ð¸ÑģÑıÑī
ĠÐ²Ð¸ÑģÑıÑīÐ¸Ð¼
ĠÑĤÐµÐ»Ð¾Ð¼
Ð³ÑĢÐ¾Ð¼
Ð³ÑĢÐ¾Ð¼Ð¾Ð²Ñĭ
ĠÑĪÐºÐ°Ð»Ð°
ĠÐºÐ¾Ð»Ð¾Ð±
ĠÐºÐ¾Ð»Ð¾Ð±Ð¾Ðº
ĠÐ´ÐµÐ½ÑĳÐº
ĠÑĤÑĢÐµ
ĠÑĤÑĢÐµÑĥÐ³
ĠÑĤÑĢÐµÑĥÐ³Ð¾Ð»ÑĮÐ½Ð¸Ðº
ĠÐ½Ð°ÐºÐ°Ð·Ð°Ð½
ĠÐ¿Ð¾ÑĩÐ°ÐµÐ²
ĠÐ¿Ð¾ÑĩÐ°ÐµÐ²ÑģÐºÐ¸Ð¹
Ð²ÑĭÐ·Ð¾Ð²Ð¸ÑĤÐµ
ĠÐ±ÑĢÐ¾ÑģÐ°Ð¹
ĠÐ³Ð°Ð¹Ð´ÑĥÐº
ĠÐ·Ð°Ð±Ð»Ð¾Ðº
ĠÐ·Ð°Ð±Ð»Ð¾ÐºÐ¸ÑĢÐ¾Ð²Ð°Ð»
ĠÐ½Ð°ÐºÐ¾Ñģ
ĠÐ½Ð°ÐºÐ¾ÑģÑıÑĩ
ĠÐ½Ð°ÐºÐ¾ÑģÑıÑĩÐ¸Ð»Ð°
ĠÐºÑĥÑĤÑĥÐ·
ĠÐºÑĥÑĤÑĥÐ·Ð¾Ð²ÑģÐºÐ°Ñı
Ð¿ÑĢÐ¸ÑıÑĤ
Ð¿ÑĢÐ¸ÑıÑĤÐµÐ»Ð¸
ĠÑģÐ¾ÑĢÐ°ÑĤ
ĠÑģÐ¾ÑĢÐ°ÑĤÐ½Ð¸ÐºÐ¸
ĠÐ¶ÐµÐ»Ð°ÑİÑī
ĠÐ¶ÐµÐ»Ð°ÑİÑīÐ¸Ðµ
Ð¾Ð±ÑĬÐµÐº
Ð¾Ð±ÑĬÐµÐºÑĤÐ¾Ð¼
ĠÐ·Ð°ÐºÐ¾Ð½ÑĩÐ¸Ð»ÑģÑı
ĠÐ²ÐµÑĢÑĤÐµ
ĠÐ²ÐµÑĢÑĤÐµÑĤÑĮ
ĠÐ·Ð°Ð»ÑĥÐ¿
ĠÐ·Ð°Ð»ÑĥÐ¿Ðµ
ĠÑįÐ»ÐµÐ¼ÐµÐ½ÑĤÐ°Ñħ
ĠÐ²Ð°ÑĢÐ¸Ð°Ð½ÑĤÑĭ
ĠÐ½ÐµÐ·Ð½Ð°ÐºÐ¾Ð¼ÑĭÐµ
ĠÐ²Ð¾Ð·Ð¸Ð»
ĠÐ°Ð²Ð´Ðµ
ĠÐ°Ð²Ð´ÐµÐµÐ²
Ð¿ÑĢÐ¾ÐºÐ°ÑĩÐ°Ð½Ð°
Ð¿ÑĢÐ¾ÑĪÐµÐ´
Ð¿ÑĢÐ¾ÑĪÐµÐ´ÑĪÐ¸Ðµ
ĠÐ»ÐµÑĤÐ¾
ĠÐ³Ð°ÑĢÐ°Ð¶
ĠÐ³Ð°ÑĢÐ°Ð¶Ð°Ð¼Ð¸
ĠÐ¾ÐºÐµÐ°Ð½Ð°
ĠÐ·Ð°ÐºÐ¾Ð¿
ĠÐ·Ð°ÐºÐ¾Ð¿Ð°Ñİ
ĠÐºÐ¾ÑĤÐ»Ñı
ĠÐºÐ¾ÑĤÐ»ÑıÐºÐ¾Ð²
ĠÐºÐ¾ÑĤÐ»ÑıÐºÐ¾Ð²ÑģÐºÐ¾Ð¼
ĠÐºÐ»Ð°Ð´Ð±Ð¸ÑīÐµ
Ð¿Ð¾Ð¿Ð¸ÑģÐ°Ð»
ĠÐ¿Ð¾Ð»Ð½Ð¾ÑĩÐ¸
ĠÑĤÐ½
ĠÑĤÐ½Ðº
ÑģÐ¿ÐµÑĨÐ¿Ð¾Ð´ÑĢÐ°Ð·Ð´ÐµÐ»ÐµÐ½Ð¸Ñı
ÑģÑĤÑĢÑĥÐ¼Ð¸Ð»
ÑģÑĤÑĢÑĥÐ¼Ð¸Ð»Ð¸Ð½
ĠÐ¾ÐºÑĥÐ¿
ĠÐ¾ÐºÑĥÐ¿Ð°ÐµÐ¼ÑĭÐ¹
ĠÐ±ÐµÑģÐ¿Ð¾Ð»ÐµÐ·Ð½ÑĭÐ¹
ĠÐ·Ð¸Ð³ÑĥÑİ
ĠÑħÐ°Ð¹Ð»ÑĮ
Ð³Ð¾Ð½ÐºÐ¸
ĠÐ²ÐµÑģÑĭ
ĠÑģÑĩÐ¸ÑĤÐ°ÐµÑĤÑģÑı
ĠÐ²ÑĭÑĩÐ¸ÑģÐ»ÐµÐ½Ð°
Ð°Ð»ÐµÐºÑģÐµÐ¹
ĠÐ¼Ð¸Ð½ÑĥÐ²ÑĪ
ĠÐ¼Ð¸Ð½ÑĥÐ²ÑĪÐµÐ¼Ñĥ
ĠÑĢÐ°Ð·ÑĢÑĥÑĪÐ¸ÑĤÑĮ
ĠÐ·Ð°Ð´Ð½Ð¸Ð¹
ĠÐ¿ÑĢÐ¾ÑħÐ¾Ð´
ĠÐ¼Ð¸ÑĤÐ¸Ð½
Ð¿ÑĢÐ¸Ð±ÑĥÐ´
Ð¿ÑĢÐ¸Ð±ÑĥÐ´ÐµÑĤ
ÐºÐ¾ÑĢÐ¾Ð²Ð°
ĠÑĢÑĥÐºÐ°Ð²Ð°
ÐºÐ½Ð¾Ð¿ÐºÑĥ
ĠÑģÐ¾Ð»Ð¸ÑĤÑĮ
Ð¿Ð¾Ð¹Ð´ÑĳÐ¼
ÑįÐ²Ð¾Ð»
ÑįÐ²Ð¾Ð»Ñİ
ÑįÐ²Ð¾Ð»ÑİÑĨÐ¸Ð¾Ð½Ð½Ð°Ñı
ĠÐ¼ÑıÑĩÐ¾Ð¼
Ð²Ð°ÑģÑı
ĠÐ·Ð½Ð°ÐºÐ°Ð¼Ð¸
ĠÑģÑĤÑĥÐ¿Ð¸Ð»
ĠÐ¿ÑĢÐ¾ÑħÐ¾Ð´Ð¸ÑĤÐµ
ÑĤÑĥÑĢÐ³ÐµÐ½
ÑĤÑĥÑĢÐ³ÐµÐ½ÐµÐ²ÐºÐ°
ĠÐ³Ð¾ÑĤÐ¾Ð²Ð¾
ĠÐ¿ÑĢÐ¾Ð¿Ð°Ð³Ð°Ð½Ð´Ð¸
ĠÐ¿ÑĢÐ¾Ð¿Ð°Ð³Ð°Ð½Ð´Ð¸ÑĢÑĥ
ĠÐ¿ÑĢÐ¾Ð¿Ð°Ð³Ð°Ð½Ð´Ð¸ÑĢÑĥÑİ
ĠÐ²Ð¾ÑĢÐ¾Ð²ÑģÑĤÐ²Ð¾
ĠÐ½Ð°ÐºÐ¾Ð¿
ĠÐ½Ð°ÐºÐ¾Ð¿Ð¸ÑĤÑĮ
Ð·Ð¾Ð¼
Ð·Ð¾Ð¼Ð±Ð¸
ĠÐ¶Ð¾ÑĢÐ¸Ðº
Ð¿ÑĢÐ¾Ð¶
Ð¿ÑĢÐ¾Ð¶Ð¸Ð²Ð°Ð½Ð¸Ðµ
ĠÐ¿ÑĢÐ¾ÑīÐµÐ»
ĠÐ¿ÑĢÐ¾ÑīÐµÐ»ÐºÐ°Ð»
ĠÐ¼ÑĥÐ¶Ð¸ÐºÑĥ
ĠÐ´Ð»Ð¸
ĠÐ´Ð»Ð¸Ð½Ñĥ
ĠÐ¿Ð¾Ð³Ð»Ð¾Ñī
ĠÐ¿Ð¾Ð³Ð»Ð¾ÑīÐ°ÐµÑĤÑģÑı
ĠÐ²ÑĭÐ½Ðµ
ĠÐ²ÑĭÐ½ÐµÑģÑĤÐ¸
ĠÑģÐ»Ð°Ð´ÐºÐ¸Ð¹
ĠÐ²ÐµÑĢÑĪÐ¸Ð½Ð°
ĠÐ¿Ð¾Ð´Ð½ÑıÐ»
ĠÐ¿Ð¾Ð´Ð½Ð¸Ð¼Ð°ÑİÑĤ
Ð°Ð´ÐµÐºÐ²Ð°ÑĤÐ½Ð¾Ðµ
ĠÐ²Ð¾Ð¿ÑĢÐ¾ÑģÐ°
ĠÐ±ÑĥÑĤÐ¾Ð²ÑģÐºÐ¾Ð³Ð¾
ĠÐ´Ð¸ÐºÑĤÐ¾Ð²
ĠÐ´Ð¸ÐºÑĤÐ¾Ð²Ð°Ð»Ð¸
ÑĤÐ°Ð¿ÐµÑĢ
ĠÑĤÑĥÐ½
ĠÑĤÑĥÐ½Ð´ÑĢÐ°
Ð²Ð°ÑĢÐ¸Ð¼
ĠÑĥÐ¿ÑĢÐ°Ð¶
ĠÑĥÐ¿ÑĢÐ°Ð¶Ð½ÐµÐ½Ð¸Ðµ
ĠÐ°ÐºÑĤÐ¸Ð²Ð¸Ð·
ĠÐ°ÐºÑĤÐ¸Ð²Ð¸Ð·Ð¸ÑĢÑĥÐµÑĤ
ĠÑīÐ¸ÑĤ
ĠÑīÐ¸ÑĤÐ¾Ð²Ð¸Ð´
ĠÑīÐ¸ÑĤÐ¾Ð²Ð¸Ð´Ð½ÑĥÑİ
ĠÐ¶ÐµÐ»ÐµÐ·Ñĥ
ĠÑģÐ»ÐµÑĤÐ°Ð»
ĠÐ¿ÐµÑĢÐ²Ð¾Ð³Ð¾
ĠÐºÐ¾Ð»Ð±Ð°ÑģÑĭ
ĠÑģÐ°Ð²Ð¸ÑĨÐ°
ĠÐ¿Ð¾Ð´ÑĢÐ°Ð·Ð´ÐµÐ»ÑıÑİÑĤÑģÑı
ĠÐ»Ð¸Ð³Ð¸
ĠÐ½Ð°ÑģÐµÐ»ÑıÐµÑĤ
ĠÑĥÑģÐ¿Ð¾ÐºÐ¾Ð¸ÑĪÑĮÑģÑı
ĠÑģÐ»Ð¾Ð¶Ð°
Ð¿ÐµÑĤÑĢÐ¾Ð²Ð½Ð°
ĠÐ»Ð¸Ð´Ð¸Ñı
ĠÐºÑĢÐ¸Ð²Ð¾Ð½
ĠÐºÑĢÐ¸Ð²Ð¾Ð½Ð¾ÑģÐ°
ĠÐ´ÐµÐ¶ÑĥÑĢÐ½Ð¾Ð¼
ĠÐ½ÐµÐ²ÐµÑĢÐ½ÑĭÐµ
ĠÑĢÐ°ÑģÐ¿ÑĥÑģÑĤ
ĠÑĢÐ°ÑģÐ¿ÑĥÑģÑĤÐ¸Ð»Ð¸
ĠÑĪÑĢ
ĠÑĪÑĢÐµÐ´Ð¸Ð½
ĠÑĪÑĢÐµÐ´Ð¸Ð½Ð³
ĠÑĪÑĢÐµÐ´Ð¸Ð½Ð³ÐµÑĢÐ°
ĠÑĢÐ°Ð·Ð±ÐµÑĢÐ¸ÑĤÐµ
Ð´ÑĢÐ°Ð¼
Ð´ÑĢÐ°Ð¼Ð°
Ð±ÐµÐ¶ÐµÐ²ÑĭÐµ
ĠÐ½Ð°ÑĥÑĩÐ½Ð¾Ð¼Ñĥ
ÐºÐ°Ð¿ÐºÐ°Ð½
ĠÑģÐ»ÑĥÑĪÐ°Ð¹ÑĤÐµ
ĠÐ·Ð°Ð±Ð¸ÑĢÐ°ÑĤÑĮ
ÑĢÐ¾ÑģÐ³Ð¾Ñģ
ÑĢÐ¾ÑģÐ³Ð¾ÑģÑģÑĤÑĢÐ°Ñħ
ĠÑĳÐ±Ð°Ð½ÑĭÐ¹
ĠÑĳÐ±Ð°Ð½ÑĭÐ¹Ð²
ĠÑĳÐ±Ð°Ð½ÑĭÐ¹Ð²ÑĢÐ¾ÑĤ
ÐºÐ¾Ð½ÑģÑĤÐ°Ð½
ÐºÐ¾Ð½ÑģÑĤÐ°Ð½ÑĤÐ¸Ð½Ð°
ĠÐ°Ð±ÑĢÐ°Ð¼Ð¾Ð²Ð°
ĠÐ½ÐµÐ¾Ð¿
ĠÐ½ÐµÐ¾Ð¿Ð¾Ð·
ĠÐ½ÐµÐ¾Ð¿Ð¾Ð·Ð½
ĠÐ½ÐµÐ¾Ð¿Ð¾Ð·Ð½Ð°Ð½Ð½ÑĭÐ¹
ĠÑĤÑĢÑĥÐ¿
ĠÐ¼Ð¾ÑĢÑĤÐ°Ð»
ÑģÐ´ÐµÑĢÐ¶
ÑģÐ´ÐµÑĢÐ¶Ð°Ð²
ĠÑĢÐ²Ð¾ÑĤ
ĠÑĢÐ²Ð¾ÑĤÐ½ÑĭÐµ
ĠÐ¿Ð¾Ð·Ñĭ
ĠÐ¿Ð¾Ð·ÑĭÐ²Ñĭ
ĠÑģÑĤÐ¸Ð²Ð°
ĠÐ¿ÐµÑĤÑĥÑĪÐ¾Ðº
ĠÑĨÐµÐ»Ð¸Ðº
ĠÑĨÐµÐ»Ð¸ÐºÐ¾Ð¼
ĠÐ¼Ð°ÑģÑģÐ¾Ð²Ð¾Ð³Ð¾
ĠÐ¿Ð¾ÑĪÐ¸Ð²Ð°
ĠÐ·Ð°ÐºÑĢÐ¾ÐµÑĪÑĮ
ÑĥÐ´Ð¾Ð±
ÑĥÐ´Ð¾Ð±Ð½ÑĭÐ¹
ĠÐ¿Ð¾ÑĢÑĤÑĦÐµÐ»ÑĮ
ĠÑĤÐ¾Ðº
ĠÑĤÐ¾ÐºÐ¼Ð°Ðº
ĠÑĤÐ¾ÐºÐ¼Ð°ÐºÐ¾Ð²Ð°
ĠÐ¿ÐµÑĢÐµÐ¿Ð¾Ð´
ĠÐ¿ÐµÑĢÐµÐ¿Ð¾Ð´Ð³Ð¾ÑĤÐ¾Ð²
ĠÐ¿ÐµÑĢÐµÐ¿Ð¾Ð´Ð³Ð¾ÑĤÐ¾Ð²ÐºÐ¸
ĠÐ¿Ð¾Ð´Ð´ÐµÐ»ÑĮ
ĠÐ¿Ð¾Ð´Ð´ÐµÐ»ÑĮÐ½Ð°Ñı
Ð·Ð½Ð°ÑĩÐ¾Ðº
ĠÐ¿ÑĢÐ°Ð²Ð¾ÑģÐ»Ð°Ð²Ð½ÑĭÐµ
ĠÐ±ÐµÑģÐµÐ´Ñĭ
ĠÑĪÐ¿Ð¸
ĠÑĪÐ¿Ð¸Ð¾Ð½Ð°
Ð¼ÑıÑĩÐ¸
ĠÑıÑģÐ¸Ð½ÑģÐºÐ¸Ð¹
ĠÐ´Ð¾Ð¿Ð¾Ð»
ĠÐ´Ð¾Ð¿Ð¾Ð»Ð½
ĠÐ´Ð¾Ð¿Ð¾Ð»Ð½Ð¸ÑĤÐµÐ»ÑĮ
ĠÐ´Ð¾Ð¿Ð¾Ð»Ð½Ð¸ÑĤÐµÐ»ÑĮÐ½Ð¾Ð¹
ĠÐºÐ°Ð¼ÐµÑĢ
ĠÐºÐ°Ð¼ÐµÑĢÐ¾Ð¹
Ð½Ð¸ÑĢÐ²
Ð½Ð¸ÑĢÐ²Ð°Ð½Ð°
ĠÐºÑĢÑĭÐ¼Ð¾Ð²Ð°
ĠÐ¿Ð¾Ð»Ð¸Ð½Ñĥ
ÑģÑĤÑĢÐ°Ð½Ð½Ð¾
ĠÑĩÑĥÑĢÐ¾Ðº
ĠÐ·Ð°Ð¿ÑĢÐµÑīÐ°Ñİ
ĠÐ¿Ð¾Ð»ÑĥÑĤÐ¾ÑĢ
ĠÐ¿Ð¾Ð»ÑĥÑĤÐ¾ÑĢÐ½ÑĥÑİ
ĠÑıÐºÐ¾Ð¼Ñĥ
ĠÐ¾Ð¿ÑĭÑĤÐµ
ĠÑĥÐ±ÐµÐ´Ð¸Ð»ÑģÑı
ĠÐ°Ð·Ð¸Ð°ÑĤÑĭ
ĠÑĤÑĢÐ¾ÑĦÐ¸Ð¼
ÑĤÐµÐ»ÐµÑĦÐ¾Ð½Ð½ÑĭÐµ
ĠÑģÐ²Ð¾Ð¹ÑģÑĤÐ²Ð°Ð¼Ð¸
ĠÐ¿ÑĢÐ¾Ð´Ð°Ð¶Ñĥ
ĠÑĩÐ¸ÑģÐ»Ðµ
Ð±Ð°Ð»ÑĮ
Ð±Ð°Ð»ÑĮÐ·Ð°Ð¼
ĠÐ²ÑĭÐ¿Ð°Ð´
ĠÐ²ÑĭÐ¿Ð°Ð´Ð°ÑĤÑĮ
Ð¿ÐµÐ½Ð·Ð°
ĠÑİÑĢÐ¾Ð¹
ĠÐ¼Ð°ÑĤÐºÑĥ
Ð°Ð½Ð´ÐµÑĢ
ĠÑİÐ³
Ð´Ð¾Ð½Ð°Ð»
ĠÐ³Ð»Ð¸ÑģÐ¾Ð½
Ð¿Ð¾Ð´ÑģÑĩÐ¸ÑĤ
Ð¿Ð¾Ð´ÑģÑĩÐ¸ÑĤÐ°Ð»Ð¸
ĠÐ½ÐµÐ¿Ð¾ÑģÑĢÐµÐ´ÑģÑĤÐ²ÐµÐ½Ð½Ð¾
ĠÐºÐ¾Ð¶Ð¸
Ð²ÐµÐ»Ð¸ÐºÐ¸Ð¹
ĠÑģÐ²Ð¸Ð½
ĠÑģÐ²Ð¸Ð½ÑĮÑı
ĠÐ±Ð°ÑĢÐ°ÑĪÐºÐ°
Ð²ÑĭÐ¿Ð¸Ð»
ĠÐ³Ð¾Ð¼ÐµÐ»Ðµ
Ð·Ð°Ð¿Ð¸ÑģÐ°Ð»Ð°
ĠÐ¿Ð¾Ð´Ð¾Ð·ÑĢÐµÐ½Ð¸Ðµ
ÑĥÑĢÐ¾Ð²ÐµÐ½ÑĮ
ĠÐ²ÑĭÐ±ÑĢÐ¾ÑģÐ¾Ð²
ÐºÐ¾Ð»ÐµÐ½
ÐºÐ¾Ð»ÐµÐ½Ð²Ð°Ð»Ð°
ĠÐ³Ð½Ñĥ
ÑĤÐ¸ÑĢÐµ
ÑĤÐ¸ÑĢÐµÐ¾Ð³
ÑĤÐ¸ÑĢÐµÐ¾Ð³Ð»Ð¾Ð±
ÑĤÐ¸ÑĢÐµÐ¾Ð³Ð»Ð¾Ð±Ñĥ
ÑĤÐ¸ÑĢÐµÐ¾Ð³Ð»Ð¾Ð±ÑĥÐ»Ð¸Ð½
Ð±ÑĥÑĢÑĥÐ½
Ð±ÑĥÑĢÑĥÐ½Ð´ÑĥÐº
ĠÐ¿ÑĢÐ¾ÑģÑĭÐ¿
ĠÐ¿ÑĢÐ¾ÑģÑĭÐ¿Ð°ÐµÑĤÑģÑı
ĠÐ¿ÑĢÐ¾ÑħÐ¾Ð¶
ĠÐ¿ÑĢÐ¾ÑħÐ¾Ð¶Ð¸Ñħ
ĠÑĤÑĥÑĢÐ¸ÑģÑĤ
ĠÑĤÑĥÑĢÐ¸ÑģÑĤÐ¸ÑĩÐµÑģÐºÐ¸Ðµ
ĠÐ»Ð¸ÐºÐ°ÑĢ
ĠÐ»Ð¸ÐºÐ°ÑĢÐ´
ĠÑģÐ¼ÐµÑĪÐ°ÑĢÐ¸ÐºÐ¸
ĠÑĤÑĢÐ°Ð½ÑģÐ¿Ð¾ÑĢÑĤ
ĠÐ¿ÑĢÐµÐ´ÑģÑĤÐ°Ð²Ð»ÑıÑĤÑĮ
ĠÑĢÐ°Ð·Ð¾Ð·Ð»
ĠÑĢÐ°Ð·Ð¾Ð·Ð»Ð¸Ð»
ÑħÐ»Ð¾Ð¿
ÑħÐ»Ð¾Ð¿ÐºÐ¾Ð²ÑĭÐ¹
ĠÑĪÑĤÐ°ÑĤ
ĠÐ¿ÑĢÐµÐ´Ð¿ÑĢÐ¸Ð½ÑıÑĤÑĮ
ĠÐ²ÑĭÐ»ÐµÑĤÐ¸ÑĤ
ĠÑĢÐµÐ±ÑĢÑĭÑĪ
ĠÑĢÐµÐ±ÑĢÑĭÑĪÐµÐº
Ð¾Ð¿ÑĢÐµÐ´ÐµÐ»ÐµÐ½Ð½ÑĭÐ¹
ĠÑĥÑħÐ¾Ð´Ð¸ÑĪÑĮ
ĠÐ¾ÑĤÐ²ÐµÐ´Ñĥ
ĠÐ±Ð°Ð»ÐºÐ°Ð½
ĠÐ±Ð°Ð»ÐºÐ°Ð½ÑģÐºÐ¾Ð¹
ĠÐ¾ÑĤÐ²ÐµÐ´ÑĥÑĤ
Ð¼Ð°ÑĢÐ¸Ð½
Ð¼Ð°ÑĢÐ¸Ð½Ð¾Ð²Ð°ÑĤÑĮ
ĠÐ¿Ð¾Ð´Ð³Ð¾ÑĤÐ¾Ð²
ĠÐ¿Ð¾Ð´Ð³Ð¾ÑĤÐ¾Ð²Ð¸Ð¼
Ð¾Ð±ÑīÐ¸Ðµ
ĠÑĢÐµÑĪÐ°ÑİÑĤÑģÑı
ĠÐ´Ð°Ð»ÑĮÐ½ÐµÐ³
ĠÐ´Ð°Ð»ÑĮÐ½ÐµÐ³Ð¾ÑĢÑģÐº
ĠÐºÐ¾ÑĤÐ°Ð¼
ĠÐ±ÐµÑĪÐ¸Ðº
ĠÑĥÐ¹Ð´Ñĥ
ĠÐ¾ÑĤÐ±
ĠÐ¾ÑĤÐ±Ð¸ÑĢÐ°
ĠÐ¾ÑĤÐ±Ð¸ÑĢÐ°ÐµÐ¼
ÑģÐ¾ÑģÐºÑĥÑĩ
ÑģÐ¾ÑģÐºÑĥÑĩÐ¸Ð»Ð°ÑģÑĮ
ĠÑģÐ»ÐµÐ´ÑĥÑİ
ĠÑģÐ»ÐµÐ´ÑĥÑİÑīÐµÐµ
ĠÐ³ÑĢÑĭ
ĠÐ³ÑĢÑĭÐ·
ĠÐ³ÑĢÑĭÐ·ÑĥÑĤ
ĠÑħÐ¾ÑĢÐ¾Ð½
ĠÑħÐ¾ÑĢÐ¾Ð½Ð¸ÑĤ
ĠÐ¿Ð°Ð´ÑĥÐ½
ĠÐ¿Ð¸ÑĤÐµÑĢÐ°
ĠÐºÑĢÐ°ÑģÐ¸Ð²Ð¾Ðµ
ĠÐ»ÐµÑĤÐ¸ÑĪÑĮ
ĠÐ»ÐµÐ¶Ð¸ÑĪÑĮ
ĠÐ½ÐµÑĥÐ¿
ĠÐ½ÐµÑĥÐ¿Ð»Ð°ÑĤÑĥ
Ð²Ð¾ÐµÐ½ÐºÐ¾Ð¼Ð°ÑĤÐµ
Ð²Ð¾Ð·Ð´ÑĥÑħ
ĠÑĦÑĥÑĤÐ¾ÑĢ
ĠÑĦÑĥÑĤÐ¾ÑĢÐºÐ°
ĠÑĥÐ´Ð¾Ð²Ð¾Ð»ÑĮÑģÑĤÐ²Ð¸ÐµÐ¼
ĠÑĤÐµÐºÑģÑĤÑĥÑĢÑĭ
ĠÐ¾ÑĤÐ¿Ð¸Ð·Ð´Ð¸Ð¼
ĠÑĩÑĥÑĢÐºÐ°Ð¼Ð¸
ĠÐ°ÑħÑĤÑĭÑĢ
ĠÐ°ÑħÑĤÑĭÑĢÐºÐµ
ĠÑĢÐ°Ð·ÑĢÐµÑĪÐ¸Ð»Ð°
ĠÑĢÐ°Ð·ÑĢÑĥÑĪÐ¸Ð»
ĠÐµÐºÐ°ÑĤÐµÑĢÐ¸Ð½Ð±ÑĥÑĢÐ³Ðµ
ÐµÐ±Ð»Ð¸
ĠÑĤÐ¸Ð¼Ð°ÑĤÐ¸
Ð·Ð½Ð°ÐµÑĤÐµ
ĠÐ¿ÐµÑĢÐµÐ¶Ð¸Ð»Ð°
ĠÐ´Ð¾Ð´ÑĥÐ¼Ð°ÐµÑĤÑģÑı
ĠÑĩÐµÑĢÐµÐ¿Ð°Ñħ
ĠÑĩÐµÑĢÐµÐ¿Ð°ÑħÐ¸
ĠÑĤÐ¾ÑĢÑĤÐ¸Ð»Ð»Ñĭ
ĠÑģÑĥÐ²Ð¾ÑĢÐ¾Ð²ÑģÐºÐ¾Ðµ
ĠÐ²ÑĭÐ±Ð¾ÑĢÑĭ
ĠÑģÐ»Ð¾Ð¶Ð½Ð°Ñı
ĠÐ´Ð°Ð½Ñĥ
ĠÑĤÑĢÐµÑīÐ¸Ð½Ð°
ÐºÑĥÐºÐ»Ð°
ĠÐ¿Ð¾Ð´Ð´ÐµÑĢÐ¶Ñĥ
ÑģÐ¾Ð±ÑĢÐ°ÑĤÑĮ
ÑĤÐ¸Ñħ
ÑĤÐ¸ÑħÐ¾Ðµ
ĠÐ¿Ð¾ÑĢÑĥÑĩ
ĠÐ¿Ð¾ÑĢÑĥÑĩÐ¸Ð»
ĠÐ¿Ð¾Ð´ÑĢÑĥÐ¶Ð¸ÑĤÑĮ
ÑģÑĦÐ¾ÑĤÐ¾Ð³ÑĢÐ°ÑĦÐ¸ÑĢÑĥ
ÑģÑĦÐ¾ÑĤÐ¾Ð³ÑĢÐ°ÑĦÐ¸ÑĢÑĥÐ¹ÑģÑı
ĠÑĤÑĢÐ°Ð´
ĠÑĤÑĢÐ°Ð´Ð¾
ĠÐ¿Ð¾Ð¿ÑĥÐ»ÑıÑĢÐ½Ñĭ
ĠÑĦÐµÑģÑĤ
ĠÑĦÐµÑģÑĤÐ°Ð»Ð°
ÐºÐ¾ÑĢÐ½Ð¸
ÐºÐ¾ÑĢÐ½Ð¸ÑĪ
ĠÑĤÑĢÐ°Ñħ
ĠÑĤÑĢÐ°ÑħÐ°ÐµÑĪÑĮ
ĠÐºÑĥÐ±Ð¸ÐºÐ¸
ĠÐ²ÑģÐ¿Ð»
ĠÐ²ÑģÐ¿Ð»ÑĭÐ²Ð°ÐµÑĤ
ĠÐ¿Ð¾ÑħÐ¾Ð¶Ð¸Ðµ
ĠÐ¾Ð»ÑĮÐ³Ð°
ĠÐ±ÑĥÐ´Ð¸ÑĤÑĮ
ĠÐ²ÑĭÐ¸Ð³ÑĢÐ°ÐµÑĤ
ĠÐ¿Ð¾Ð»Ð¸ÑĤÐ¸ÐºÐ°
ĠÐ²Ð¾Ð»ÐºÐ¾Ð²ÑģÐºÐ¸Ð¹
ÑĥÑģÐ»
ÑĥÑģÐ»ÑĥÐ³Ð°
ĠÐ¾Ð±ÑĭÐºÐ½Ð¾Ð²ÐµÐ½Ð½ÑĭÐ¼
ĠÐºÐ¾Ð·Ð»Ð¸Ðº
ĠÐ±ÑĮÑĳÑĤÑģÑı
ĠÐ»ÑĥÑģÐ¿
ĠÐ»ÑĥÑģÐ¿ÐµÐºÐ°
ĠÐ»ÑĥÑģÐ¿ÐµÐºÐ°ÐµÐ²
ÑģÐµÐ¼Ð½Ð°Ð´ÑĨÐ°ÑĤÐ¸Ð»ÐµÑĤÐ½ÑıÑı
ĠÐ²Ð¾ÐºÐ°Ð»Ð°
ĠÐ²ÑĭÐºÐ»ÑİÑĩÐ°ÐµÑĤÑģÑı
ĠÐ»ÐµÐ½ÑĤÑĭ
ĠÐ¾Ð´Ð¸Ð½Ð°ÐºÐ¾Ð²ÑĭÐ¹
ÑģÐ¿ÑĥÑģÑĤ
ÑģÐ¿ÑĥÑģÑĤÑı
ĠÐ³Ð»ÑĥÐ¿Ð¾ÑģÑĤÑĮ
ĠÐ³Ð¾Ð»ÑĭÐ¼
ĠÑĤÐ°ÑĢÐ¸
ĠÑĤÐ°ÑĢÐ¸ÑĦÐµ
Ð°ÐºÐºÐ¾ÑĢ
Ð°ÐºÐºÐ¾ÑĢÐ´
ĠÑİÐ¶Ð½Ð¾ÑĥÑĢÐ°Ð»ÑĮÑģÐºÐ°Ñı
Ð¸Ð½Ð¾Ð¼Ð°ÑĢÐ¾Ðº
ĠÐ»ÐµÐ³ÐºÐ¸Ðµ
Ð²Ð¾Ð´Ð¸ÑĤÐµÐ»ÑĮ
ĠÐ´Ð¶Ð¸
ĠÐ´Ð¶Ð¸Ð¿Ð°
ĠÐ°Ð»ÐµÐºÑģÐµÑı
ĠÐ½Ð¾Ð³ÑĤÑı
ĠÐ½Ð¾Ð³ÑĤÑıÑħ
ÑĪÑĥÑĤÐºÐ¸
ĠÐ¹Ð¾ÑĢ
ĠÐ¹Ð¾ÑĢÐ´Ð°Ð½
ĠÐ¹Ð¾ÑĢÐ´Ð°Ð½ÑģÑĮ
ĠÐ¹Ð¾ÑĢÐ´Ð°Ð½ÑģÑĮÐºÐ°
Ð¸Ð·Ð¼ÐµÐ½
Ð¸Ð·Ð¼ÐµÐ½ÐµÐ½Ð¸Ðµ
ĠÐ²Ð½ÑĥÑĤÑĢÐµÐ½Ð½ÐµÐ¹
ĠÑįÐ½ÐµÑĢÐ³Ð¸Ð¸
ĠÑĥÐ±Ð¸Ð²Ð°Ð»Ð¸
ĠÐ¿ÑĢÐ¸Ð´ÑĥÐ¼Ð°Ð¹ÑĤÐµ
Ð±ÐµÐ¶Ð°ÑĤÑĮ
ĠÐ¿Ð¾Ð´Ð½Ð¸Ð¼Ð°Ð¹
ĠÐ¸ÑģÐ¿Ð¾ÑĢÑĤÐ¸Ð»Ð¾ÑģÑĮ
Ð½ÐµÐ·Ð°Ð²Ð¸Ñģ
Ð½ÐµÐ·Ð°Ð²Ð¸ÑģÐ¸Ð¼Ð¾ÑģÑĤÑĮ
ĠÐ¾Ð±Ð¼Ð°Ð½Ñĥ
ĠÐ¾Ð±Ð¼Ð°Ð½ÑĥÑĤÑĭÑħ
ĠÐ»Ð¸Ð¿Ð¾Ðº
ĠÐ»Ð¸Ð¿Ð¾ÐºÐ°ÑĢ
ĠÐ»Ð¸Ð¿Ð¾ÐºÐ°ÑĢÐ½Ð¸ÑĤ
Ð¿ÑĢÐ¸Ð²Ð¾Ð»ÑĮÐ½Ð°Ñı
ĠÐ°Ð½Ð°Ð»ÑĮÐ½ÑĭÐ¹
ĠÐ½Ð°Ð¿ÑĢÐ°Ð²Ð»ÐµÐ½Ð¸Ðµ
Ð´Ð¸ÑģÑĤÐ°Ð½
Ð´Ð¸ÑģÑĤÐ°Ð½ÑĨÐ¸Ñı
ÑĢÐµÐ±ÑıÑĤ
ĠÑĤÑĥÐ¿Ð¾ÑĢÑĭÐ»ÑĭÑħ
ĠÐ¾Ð±ÑĢÐ°ÑīÐ°Ð»ÑģÑı
ĠÐ¾ÐºÑĤÑıÐ±ÑĢÑĮÑģÐºÐ¾Ð¼Ñĥ
Ð¸Ð·Ð³Ð¾ÑĤÐ¾Ð²
Ð¸Ð·Ð³Ð¾ÑĤÐ¾Ð²Ð»Ñİ
ĠÐ¿Ð¸ÑĢÐ¾Ð¶ÐºÐ¾Ð²
ĠÑĢÐ°Ð·Ð±Ð¸ÑĤÑĭÐ¹
ĠÑģÐ½Ð°Ð±
ĠÑģÐ½Ð°Ð±Ð¶
ĠÑģÐ½Ð°Ð±Ð¶Ð°ÑĤÑĮ
ĠÐ¿ÐµÐ½Ñģ
ĠÐ¿ÐµÐ½ÑģÐ¸Ð¸
ĠÑģÐ´Ð¾ÑħÐ½ÐµÑĤ
ĠÑģÐ´Ð¾ÑħÐ½ÐµÑĤÐµ
ĠÐ¿Ð¾Ð¼ÑĥÑĤ
ĠÐ¿Ð¾Ð¼ÑĥÑĤÐ¸Ð»ÑģÑı
ĠÑĢÐ°ÑģÑģÑĥÐ´
ĠÑĢÐ°ÑģÑģÑĥÐ´Ð¾Ðº
ĠÑģÑģÐ¾ÑĢÐ¸Ð»ÑģÑı
Ð°ÑħÑĥÐµÐ½Ð½Ð°Ñı
ĠÐ³Ð¾ÑĢÐ¾ÑħÐ¾Ð²ÑĨÐµ
ĠÐ¾ÑĤÐ¾ÑĢÐ²Ð°ÑĤÑĮ
ĠÐ¾Ð»ÐµÐ½ÑĮÐºÐ°
Ð¿Ð¾Ð´Ð³Ð¾ÑĤÐ¾Ð²ÐºÐ°
ĠÐ¿ÑĢÑıÐ¼Ð¾Ð¹
ĠÐ¿ÑĢÐµÐ·Ð¸Ð´ÐµÐ½ÑĤÐ¾Ð¼
ĠÐ´Ð°Ð³
ĠÐ¿Ð¾ÑĢÐ²ÑĥÑĤ
ĠÐ½Ð°ÑģÑĤÑĥÐ¿Ð¸Ð»Ð°
Ð¿Ð¾ÑģÐºÐ¾Ð»ÑĮ
Ð¿Ð¾ÑģÐºÐ¾Ð»ÑĮÐºÑĥ
Ð·Ð°Ð²Ð°Ð»
Ð·Ð°Ð²Ð°Ð»Ð¸ÑĤÑĮ
ĠÐ°ÑĢÐ±Ð°Ð¶Ðµ
ĠÑģÑĤÐ°Ð½ÑĨÑĥ
ĠÑģÑĤÐ°Ð½ÑĨÑĥÐµÑĪÑĮ
ĠÑĢÐ¸ÑĤÑĥÐ°Ð»ÑĮÐ½ÑĥÑİ
ĠÑģÑĢÐ°Ð±Ð¾ÑĤ
ĠÑģÑĢÐ°Ð±Ð¾ÑĤÐ°Ð»Ð¾
ĠÐ´Ð¾Ð»Ð³Ð¾Ðµ
ÑĦÐ¸ÑĪÐºÐ°
ĠÑģÑĤÐ°ÑĢÐ¾Ð¹
ĠÐ¿Ð¾Ð»ÑĮÑĪÐµ
ĠÐºÐ¾Ð¶Ð°
ĠÐ±Ð¸Ð¾Ð³ÑĢÐ°ÑĦÐ¸Ñı
ÑģÐ¾ÑģÐµÐ´Ð¸
ĠÑĪÐ»
ĠÑĪÐ»ÐµÐ¿
ĠÑĪÐ»ÐµÐ¿Ð°Ð»Ð¸
ÑĥÐ±Ð»ÑİÐ´
ÑĥÐ±Ð»ÑİÐ´Ð°Ðº
ÑĥÑĤÑĢÐ¸ÑĢÐ¾Ð²Ð°ÑĤÑĮ
ĠÑĥÐ»ÐµÑĤÐ°ÐµÐ¼
ĠÑĢÐµÐ¹
ĠÑĢÐµÐ¹ÑģÐ¾Ð²
ĠÑĢÐµÐ¹ÑģÐ¾Ð²Ð¾Ð¼
ĠÐ°Ð²ÑĤÐ¾Ð±ÑĥÑģÐµ
ĠÐ²ÑĭÑĳÐ±ÑĭÐ²Ð°Ð¹ÑģÑı
ÑĢÐµÑĨÐµÐ¿ÑĤ
ĠÐ±ÐµÐ»ÑĭÐ¹
ĠÐ°Ð´Ð¼Ð¸ÑĢ
ĠÐ°Ð´Ð¼Ð¸ÑĢÐ°Ð»
ĠÐ±ÐµÑĢÑĳÑĪÑĮ
ĠÑģÐ²Ðµ
ĠÑģÐ²ÐµÑĤÐ¾
ĠÑģÐ²ÐµÑĤÐ¾ÑĦÐ¾ÑĢ
Ð½ÐµÐ½Ð°Ð´Ð¾
ĠÐ½ÐµÐ½Ð°Ð´Ð¾
ĠÐ¾ÑĦÐ¸ÑģÐµ
ĠÐ¿ÑĳÐ·Ð´
ĠÐ¿ÑĳÐ·Ð´Ñĭ
ĠÐ¾Ð±ÑģÑĥÐ¶Ð´Ð°ÑİÑĤ
ĠÐ·Ð°ÑģÐ»ÑĥÐ¶Ð¸Ð²Ð°ÐµÑĤ
ĠÐºÐ»ÐµÑĤÐºÐ¸
ĠÑģÑĤÑĢÐ°Ð´Ð°ÑİÑĤ
Ð¿ÑĢÐ¾Ð¸Ð·Ð²Ð¾Ð´Ð¸ÑĤÐµÐ»ÑĮ
ĠÐ°ÑĥÐ´Ð¸Ð¾Ð²
ĠÐ°ÑĥÐ´Ð¸Ð¾Ð²Ð¸Ð·
ĠÐ°ÑĥÐ´Ð¸Ð¾Ð²Ð¸Ð·Ñĥ
ĠÐ°ÑĥÐ´Ð¸Ð¾Ð²Ð¸Ð·ÑĥÐ°Ð»ÑĮÐ½Ð¾Ð³Ð¾
ĠÐ¿ÑĢÐ¾Ð¸Ð·Ð²ÐµÐ´ÐµÐ½Ð¸Ñı
Ð±ÑĢÐµÐ´
Ð¼ÐµÑĤÑĢÐ¾Ð¼
Ð¼ÐµÑĤÑĢÐ¾Ð¼Ð°ÑĢÐº
Ð¼ÐµÑĤÑĢÐ¾Ð¼Ð°ÑĢÐºÐµÑĤ
ĠÐ¾Ð±Ð¾Ð·Ð½Ð°ÑĩÐ°ÐµÑĤÑģÑı
ÑģÐ°Ð¼Ð¾Ð»
ÑģÐ°Ð¼Ð¾Ð»ÐµÑĤÑĭ
ĠÐ»ÐµÑĤÐ°ÑİÑĤ
ÑĤÑĢÐ°Ð²Ð¼Ð°
ĠÐ¿ÑĢÐ¾Ð¸ÑģÑĪÐµ
ĠÐ¿ÑĢÐ¾Ð¸ÑģÑĪÐµÑģÑĤÐ²Ð¸Ñı
ĠÑĤÐ¾ÑĩÐ½ÑĭÐ¹
ÑĤÐ¸ÑĢÐ°ÑģÐ¿
ÑĤÐ¸ÑĢÐ°ÑģÐ¿Ð¾Ð»ÑĮ
ĠÐ¿Ð¾Ð¹Ð´ÑĥÑĤ
ÐºÐ¾Ð½Ð½ÑĭÐ¹
ĠÑģÐºÑĢÐ¸Ð¿ÑĤÐ¾Ð½
ĠÑģÐºÑĢÐ¸Ð¿ÑĤÐ¾Ð½Ð¸ÑĤ
ĠÑĥÐ±ÐµÐ³Ð°ÐµÑĤÐµ
ĠÑĥÐ½Ð¸Ð²ÐµÑĢÑģÐ¸ÑĤ
ĠÑĥÐ½Ð¸Ð²ÐµÑĢÑģÐ¸ÑĤÐµÑĤÐµ
ĠÐ·Ð°Ð¿Ð¸ÑģÑĭÐ²Ð°ÐµÑĤ
ÑĢÐ¾Ð¼Ð°Ð½Ð¾Ð²
ĠÑģÑĤÑĥÐ´ÐµÐ½ÑĤÐ°
ĠÐ±Ð°Ð·Ð°ÑĢÐ¾Ð²
ĠÐ³ÑĢÑĥÐ·Ð¸ÑĤ
ĠÑĢÐ°Ð·Ð±ÐµÑĢÐµÑĤÐµÑģÑĮ
ĠÐºÐ°ÑĢÐ°Ð¼
ĠÐºÐ°ÑĢÐ°Ð¼Ð±Ð°
ÑĤÐ°Ð½ÑİÑĪÐ°
ĠÑĤÐµÐºÑģÑĤÐ¾Ð¼
ĠÑĢÐµÑĪÐµÐ½Ð¸Ð¸
Ð±Ð¾Ð»ÐµÐ·
Ð±Ð¾Ð»ÐµÐ·Ð½ÑĮ
ĠÐ³Ð¾Ð½Ð¸ÑĪÑĮ
ĠÐ¾ÑĪÐ¸Ð±Ð°Ð»ÑģÑı
ÑģÑĥÐ¼Ð¼Ð°
ĠÑĤÑĥÐ»ÑĮÑģÐºÐ°Ñı
ĠÑĤÑĥÐ»Ñĥ
Ð²ÑĭÑħÐ¾Ð´
Ð²ÑĭÑħÐ¾Ð´Ð½Ð¾Ð¹
ĠÐ¿ÑĢÐµÐ´ÑĥÐ¿ÑĢÐµÐ´Ð¸
ĠÐ²ÑĭÑģÑĤÐ°Ð²Ð¸Ð»Ð°
Ð½ÐµÐºÐ¾ÑĤÐ¾ÑĢÑĭÐµ
ĠÐ¿Ð°ÑĢÐ½Ð¸
Ð¿ÑĢÐ¾Ð´Ñĥ
Ð¿ÑĢÐ¾Ð´ÑĥÑĨÐµÐ½
Ð¿ÑĢÐ¾Ð´ÑĥÑĨÐµÐ½ÑĤÑĭ
ĠÐºÐ¾Ð½ÑģÐºÐ°Ñı
ĠÐºÑĢÑĭÑģÐ°
ĠÐ¿Ð¾ÑģÑĤÑĥÐ¿Ð°Ð¹
Ð¿Ð¾Ð´ÑĥÐ¼Ð°Ñİ
ĠÐ½Ð°Ð¶Ð¸Ð¼Ð°Ñİ
ĠÐºÐ½Ð¾Ð¿ÐºÑĥ
Ð²ÑĭÑĢÐ°Ð·
Ð²ÑĭÑĢÐ°Ð·Ð¸
ĠÐ¿Ð¾Ð³Ð¾Ð²Ð¾ÑĢÑİ
ĠÑįÐ¹
ĠÑįÐ¹Ð²Ð¾Ð½
ĠÐ·Ð°ÑģÑĤÑĥÐ¿Ð°ÑİÑĤ
ĠÐ³ÐµÐ½Ñĭ
ĠÐºÐ¾Ð¼Ð¿ÑĮÑİÑĤÐµÑĢÐ½Ð¾Ð³Ð¾
Ð¼ÐµÐ»Ð¾Ð´
Ð¼ÐµÐ»Ð¾Ð´ÑĢÐ°Ð¼
Ð¼ÐµÐ»Ð¾Ð´ÑĢÐ°Ð¼Ñĭ
ÑĳÐ±Ð½ÑĥÑĤÑĭÐ¹
ĠÑĤÑĢÐ¾Ð½
ĠÑĤÑĢÐ¾Ð½ÑĥÑĤ
ĠÐ¼ÑĢ
ĠÐ¼ÑĢÐ¼
ĠÐ¼ÑĢÐ¼Ð·
ĠÐ¾ÑĤÐºÐ»ÑİÑĩÐµÐ½
ĠÑĢÐ°Ð¹Ð¾Ð½Ð°Ñħ
Ð½ÐµÑĦ
Ð½ÐµÑĦÑĤÑı
Ð½ÐµÑĦÑĤÑıÐ½Ð¸Ðº
ĠÑģÐ¾Ð¾Ð±ÑīÐ°Ð»Ð¸
ĠÐ´Ð¸ÑģÐ¿ÐµÑĤÑĩÐµÑĢÑģÐºÐ¾Ð¹
ĠÐ¾Ð±ÐµÑīÐ°Ð½Ð½Ð¾Ðµ
Ð³Ð¾ÑģÑĤ
Ð³Ð¾ÑģÑĤÐ¸Ð½Ð¸ÑĨÐ°
ĠÑģÐ°Ð¼Ð±Ð¾
Ð¿Ð¾Ð¼Ð½Ð¸ÑĤÑĮ
ĠÐ¼Ð°ÐºÑģÐ¸Ð¼Ð°
ĠÑĤÐ°Ð½ÐºÐ°
ÐºÑģÑĤÐ°ÑĤÐ¸
ĠÑĦÐ¸Ð½Ð»Ñı
ĠÑĦÐ¸Ð½Ð»ÑıÐ½
ĠÑĦÐ¸Ð½Ð»ÑıÐ½Ð´Ð¸
ĠÑĦÐ¸Ð½Ð»ÑıÐ½Ð´Ð¸Ð¸
ĠÐ²ÑĭÑĤÑĢÐµÐ·Ð²Ð¸ÑĤÐµÐ»Ð¸
Ð¿ÑĢÑĭÐ³Ð°Ð»
ÐºÐ¾Ð½ÑĦÐµÑĢÐµÐ½
ÐºÐ¾Ð½ÑĦÐµÑĢÐµÐ½ÑĨ
Ð¾Ð±Ð¾ÑģÑĤ
Ð¾Ð±Ð¾ÑģÑĤÑĢ
Ð¾Ð±Ð¾ÑģÑĤÑĢÐµÐ½Ð¸Ðµ
ĠÐ¼Ð¾ÑĢÐ³
ĠÐ³Ð²Ð°ÑĢÐ´Ð¸Ñı
Ð¶Ð¸Ð²Ð¾ÑĤÐ½ÑĭÐµ
ĠÑĢÐ¾Ð²Ð½ÑĭÐ¹
ÐºÑĢÐ°ÑģÐ½Ð¾Ð´Ð°ÑĢ
ÐºÑĢÐ°ÑģÐ½Ð¾Ð´Ð°ÑĢÑģÐºÐ¸Ð¹
ĠÐ·Ð°Ð¸Ðº
ĠÐ·Ð°Ð¸ÐºÐ°Ð»ÑģÑı
ĠÐ²Ð¸ÐºÐ¸
Ð¾ÐºÐ½Ð°
ĠÐ½Ð¾Ð²Ð¾ÑģÑĤ
ĠÐ½Ð¾Ð²Ð¾ÑģÑĤÑĢÐ¾Ð¹
ĠÐ½Ð¾Ð²Ð¾ÑģÑĤÑĢÐ¾Ð¹ÐºÐ¸
ĠÐ¼ÑĭÑĤÐ¸ÑīÐ¸
ĠÐ¿ÑĢÐ¾Ð¼ÑĭÑĪ
ĠÐ¿ÑĢÐ¾Ð¼ÑĭÑĪÐ»
ĠÐ¿ÑĢÐ¾Ð¼ÑĭÑĪÐ»ÐµÐ½Ð½ÑĭÐ¹
ĠÐ¿ÑĢÐ¸Ð±ÑĭÑĤ
ĠÐ¿ÑĢÐ¸Ð±ÑĭÑĤÐºÐ¾Ð²Ð¾
ĠÑĤÐ°Ð½ÐºÐ¸ÑģÑĤ
ĠÐºÐ¸Ð½Ð¾ÑĦÐ¸Ð»ÑĮÐ¼Ðµ
ĠÑĤÑİÑĢÑĮÐ¼Ñĭ
ĠÐ°Ð¼Ð¾ÐºÑģ
ĠÐ°Ð¼Ð¾ÐºÑģÐ¸ÐºÐ»
ĠÐ°Ð¼Ð¾ÐºÑģÐ¸ÐºÐ»Ð°Ð²
ĠÐ»Ð¾Ð¼Ð¾Ð²Ð¾Ð¹
ĠÑįÐ»ÑĮ
ĠÑįÐ»ÑĮÐ´Ð°ÑĢ
ĠÐ±Ð¾Ð¼Ð±
ĠÐ±Ð¾Ð¼Ð±Ð¸Ð»Ð°
ĠÑĤÐµÑĢÐ»Ðµ
ĠÑĤÐµÑĢÐ»ÐµÐµÐ²Ð°
ĠÐºÐ°Ð¶Ð´ÑĭÐ¼
ĠÐ²ÑĭÐ»ÐµÑĩÐ¸ÑĤÑĮ
Ð¿Ð¾ÑģÐ¼Ð¾ÑĤÑĢÐ¸
ĠÑģÐ¶
ĠÑģÐ¶ÐµÑĩÑĮ
Ð¶ÐµÐ»ÐµÐ·Ð½Ð°Ñı
Ð²ÑĭÑĪÐµÐ»
ĠÐºÐ°ÐºÑĤÑĥÑģ
ĠÐºÐ°ÐºÑĤÑĥÑģÐ°Ð¼Ð¸
ĠÐ·Ð°ÑĢÐ¿Ð»
ĠÐ·Ð°ÑĢÐ¿Ð»Ð°ÑĤÑĥ
ÑĩÐ°ÑĢÐ»Ð¸Ðº
Ð´ÐµÐ»Ð°ÑİÑĤ
Ð²ÑģÐµÐ¼Ð¾Ð³Ñĥ
Ð²ÑģÐµÐ¼Ð¾Ð³ÑĥÑīÐµÐ³Ð¾
ĠÐ¿Ð¾Ð¿ÑĭÑĤÐ°ÑİÑģÑĮ
ĠÐ´ÑĥÐ±Ð°
ĠÐ´ÑĥÐ±Ð°Ðµ
ĠÐ³Ð²Ð°ÑĢÐ´ÐµÐ¹ÑģÐºÐ°Ñı
ĠÐ¿Ð°Ð½ÑĤ
ĠÐ¿Ð°Ð½ÑĤÐ°Ð»
ĠÐ¿Ð°Ð½ÑĤÐ°Ð»Ð¾Ð½Ñĭ
ĠÑħÐ°ÑĤÐµ
ĠÐ±ÑĢÐ¾ÑģÐ°Ð»Ð°
ĠÐ²Ð¾Ð·Ð²ÑĢÐ°ÑīÐ°ÐµÑĪÑĮÑģÑı
Ð¾ÐºÑĤÑıÐ±ÑĢÑĮÑģÐºÐ¾Ð³Ð¾
ĠÑĤÑĢÐ°Ðº
ĠÑĤÑĢÐ°ÐºÐ°Ð¹
ĠÐ´Ð¾Ð²ÐµÑĢÐµÐ½Ð½Ð¾ÑģÑĤÑĮ
Ð³ÑĢÐ°Ð½Ð´
ĠÐºÐ°Ð½ÑĮ
ĠÐºÐ°Ð½ÑĮÐ¾Ð½
ĠÐ¾Ð³Ð½ÐµÐ¼
ĠÐ¾Ð³Ð½ÐµÐ¼ÐµÑĤ
ĠÐ»ÑĥÐ½
ĠÐ»ÑĥÐ½ÑĤÐ¸Ðº
ĠÐºÑĥÑĢÑģÐºÐ°
ĠÑĪÐ°Ð³Ð°ÐµÐ²
ĠÐºÐ¸Ð´Ð¾Ðº
ĠÐºÐ°Ð²ÐµÑĢÐ·
ĠÐºÐ°Ð²ÐµÑĢÐ·Ð½ÑĭÐµ
Ð¾Ð±ÐµÑģÐ¿Ð¾ÐºÐ¾
Ð¾Ð±ÐµÑģÐ¿Ð¾ÐºÐ¾ÐµÐ½Ñĭ
ĠÐ¼ÑĥÑĤÐ¸ÑĤÑĮ
ĠÐ²Ð¾Ð´Ñĥ
ĠÐ¸Ð·Ð´ÐµÐ²Ð°Ð»ÑģÑı
ĠÐ·Ð°ÑħÐ¾ÑĤÐµÐ»
ĠÐ·Ð°ÑħÐ¾ÑĤÐµÐ»Ð¾ÑģÑĮ
ĠÐºÐ¾Ð½ÑģÑĤÑĢÑĥÐºÑĤÐ¸Ð²Ð½ÑĭÐ¹
ĠÐ·Ð°Ð¼ÐµÐ½Ð°
ĠÑĢÐ°Ð·ÑĢÑĭÐ²Ð°ÐµÑĤÑģÑı
ĠÐ´ÐµÑĤÐ¾Ðº
ĠÑĥÑģÐ½ÑĥÑĤÑĮ
Ð³ÑĢÑĥÐ±ÑĭÐ¹
ÑģÐµÑĢÐ¾Ð²Ð¾Ð´
ÑģÐµÑĢÐ¾Ð²Ð¾Ð´Ð¾ÑĢÐ¾Ð´
ĠÐ¿ÑĢÐ¾ÑĩÐ¸ÑĤÐ°Ð»
ĠÐ²Ð¸Ð´Ð¸Ð¼
ĠÐ¿Ð¾Ð¼Ð¸Ð½ÐºÐ¸
ĠÐ¼Ð¸ÑĪÐ°
ĠÐ¾ÐºÑĢÑĥÐ¶ÐµÐ½Ð¸Ðµ
ĠÐ²ÐµÑĢÐ¾Ð½
ĠÐ²ÐµÑĢÐ¾Ð½Ð¸ÐºÐ°
ĠÑĥÐ·Ð±
ĠÑĥÐ·Ð±ÐµÐºÐ¾Ð¼
ĠÑĥÐ±Ð¸Ð¹ÑĨÐ°
ĠÐ¼ÐµÑĢÐ¾Ð¿ÑĢ
ĠÐ¼ÐµÑĢÐ¾Ð¿ÑĢÐ¸ÑıÑĤ
ĠÐ¼ÐµÑĢÐ¾Ð¿ÑĢÐ¸ÑıÑĤÐ¸Ðµ
Ð²Ð²
Ð²Ð²ÐµÐ´Ñĥ
ĠÑĤÐ°ÐºÑģÐ°
Ð¾ÐºÐ°Ð·ÑĭÐ²
Ð¾ÐºÐ°Ð·ÑĭÐ²Ð°ÐµÑĤÑģÑı
ĠÐ¿ÑĢÐ¸Ð´ÑĥÐ¼Ð°ÑĤÑĮ
ĠÐ¾ÐºÑĢÑĥÐ¶Ð°ÑİÑīÐ¸Ð¼
Ð½Ð°ÑĤÐ°ÑĪ
ĠÐ´Ð°Ð»ÐµÐºÐ¸
ĠÐºÑĥÐ»ÑĮÑĤÑĥÑĢÐ½Ð¾
ĠÐ¸Ð·Ð´Ð°Ð»Ð¸
ĠÐ¿ÑĢÐ¾Ð´ÐµÐ»
ĠÐ¿ÑĢÐ¾Ð´ÐµÐ»Ð°Ð½Ð¾
ĠÐ°Ð¼ÐµÑĢÐ¸ÐºÐ°Ð½ÑģÐºÐ¾Ð¹
ĠÑĢÐ°Ð·Ð²ÐµÐ´ÐºÐ¾Ð¹
ÑĥÐ·Ð½Ð°Ð¹
ĠÐ¾Ð¿Ð»Ð°Ñĩ
ĠÐ¾Ð¿Ð»Ð°ÑĩÐ¸Ð²Ð°ÐµÑĤÐµ
ÑĢÐ°Ð·Ð²Ð»ÐµÐºÐ°ÑĤÑĮ
ÑĢÐ°Ð±Ð¾ÑĤÐ½Ð¸ÐºÐ¸
ĠÐ´ÑĥÐ°Ð»ÑĮÐ½Ð¾Ð³Ð¾
ĠÑĤÑĢÑĥÐ´Ð°
ĠÑģÐ¸ÑģÑĮÐºÑĥ
Ð´ÐµÐ¶ÑĥÑĢÐ½Ð¾Ð¼Ñĥ
ĠÐ½Ð¾ÑĩÐ½Ð¾Ð³Ð¾
ĠÐ¶Ð¸ÑĢÐ½ÑĭÐ¹
Ð¸Ð²Ð°ÑīÑĥÐº
ĠÐ¾Ð±Ð¾ÑģÑĢ
ĠÐ¾Ð±Ð¾ÑģÑĢÐ°Ð»Ð¸ÑģÑĮ
ĠÑģÑĢÐ°Ð²Ð½Ð¸Ð²Ð°ÐµÑĤ
ĠÑĩÐ°Ð¹ÐºÑĥ
ĠÑĤÐ°ÑĢÐ¾
ĠÐ½ÑĥÑĢÐ³
ĠÐ½ÑĥÑĢÐ³Ð°Ð»Ð¸
ĠÐ½ÑĥÑĢÐ³Ð°Ð»Ð¸ÐµÐ²
Ð¿ÑĢÐ¾Ð±ÐºÐ¸
Ð¾ÑĤÐ¼Ð°Ð·
Ð¾ÑĤÐ¼Ð°Ð·ÐºÐ°
ĠÐ·Ð°Ð¼Ð¾Ð»
ĠÐ·Ð°Ð¼Ð¾Ð»Ñĩ
ĠÐ·Ð°Ð¼Ð¾Ð»ÑĩÐ°Ð»
ÑģÐ¸Ð´Ð¸Ð¼
ĠÐ·Ð°Ð´Ð°Ð¹ÑĤÐµ
ÑĦÐ°ÑĪ
ÑĦÐ°ÑĪÐ¸ÑģÑĤÑĭ
ĠÑģÐ°ÑĪÐµ
ĠÐ¿Ð¸ÐºÐ¸ÑĢÐ¾Ð²Ð°ÑĤÑĮ
ĠÐ¿ÐµÑĤÑĥÐ½Ð¸
ĠÐ¿ÐµÑĤÑĥÐ½Ð¸Ñİ
ĠÐ¾ÑĤÐºÑĢÑĭÑĤÑĭÐ¹
ĠÑĥÑģÐ½
ĠÐ¿ÑĥÐ½ÐºÑĤÑĥÐ°ÑĨÐ¸Ð¾Ð½Ð½ÑĭÐ¹
ĠÐ²ÑģÑĤÑĥÐ¿
ĠÐ²ÑģÑĤÑĥÐ¿Ð°Ð¹ÑĤÐµ
ĠÐ°Ð´Ð¼Ð¸Ð½
ĠÐ°Ð´Ð¼Ð¸Ð½ÐºÑĥ
ĠÐ·Ð°ÑģÑĭÐ¿Ð°Ð»
Ð²ÐµÑĢÐ°
ĠÐ¼Ð°Ð³Ð°
ĠÐ¼Ð°Ð³Ð¾Ð¼ÐµÐ´
ĠÐºÐ¾ÑĢÐ¼ÑıÑĤÑģÑı
ĠÑģÐ»Ð¸Ð²Ð½Ð¾Ð¹
ĠÐ¾Ð·ÐµÑĢÐµ
Ð²Ð°ÑĪÐµÐ¼Ñĥ
ĠÐ½Ð°ÑĩÐ°Ð»ÑĮÑģÑĤÐ²Ñĥ
ĠÑģÑĤÐ°ÑĢÐ¸Ðº
ĠÐ´Ð¸Ð²Ð°Ð½Ð°
ĠÐ¿Ð¾Ð´Ð¾ÑĢ
ĠÐ¿Ð¾Ð´Ð¾ÑĢÐ²
ĠÐ¿Ð¾Ð´Ð¾ÑĢÐ²Ð°Ð»ÑģÑı
ĠÐ¿Ð¾ÑģÐ¾Ð»Ð¸ÑĤÑĮ
Ð¼ÐµÐ½ÑģÑĤÑĢÑĥ
Ð¼ÐµÐ½ÑģÑĤÑĢÑĥÐ°Ð»ÑĮÐ½ÑĭÐ¹
ĠÐ¿ÑĢÐ¸Ð´ÑĥÐ¼Ð°ÐµÐ¼
ĠÐ¿ÑĢÐµÐ´Ð¿ÑĢÐ¸ÑıÑĤÐ¸
ĠÐ¿ÑĢÐµÐ´Ð¿ÑĢÐ¸ÑıÑĤÐ¸ÐµÐ¼
ĠÐ´Ð²Ð¾Ð¹Ð½Ð¸ÐºÐ°
ĠÐµÐ»ÑĮ
ĠÐµÐ»ÑĮÑĨ
ĠÐµÐ»ÑĮÑĨÐ¸Ð½Ð°
ĠÐ´ÑĥÐ³Ð¾Ð²Ð¾Ð¹
ĠÐ¿ÑĢÐ¾ÑģÑĤÐ¾ÑĢÐ°Ñħ
ĠÐ´Ð¾ÐµÑħÐ°Ð»
ĠÐ°ÐºÐ²Ð°ÑĢÐµÐ»ÑĮ
ĠÐ°ÐºÐ²Ð°ÑĢÐµÐ»ÑĮÑİ
ÑģÐ²ÐµÑĢ
ÑģÐ²ÐµÑĢÑħÑĥ
ĠÐ¼Ð°Ð»ÐµÐ½ÑĮÐºÐ¾Ð¹
ĠÐ¶Ð¸Ð²Ð¾ÑĤÐ½ÑĭÐ¼Ð¸
ÑģÐµÑĢÐ´Ñİ
ÑģÐµÑĢÐ´ÑİÐºÐ¾Ð²
Ð±Ð¾Ð»Ð¾ÑĤÐ½ÑĭÐ¹
ĠÐ´Ð°Ð½Ð½Ð¾Ð³Ð¾
ĠÐ³ÑĢÐ°Ð±
ĠÐ³ÑĢÐ°Ð±Ð»Ð¸
ÑĤÑĢÐµÐ±Ð¾Ð²Ð°Ð½Ð¸Ñı
ĠÐµÐ¶ÐµÐ´Ð½ÐµÐ²Ð½Ð¾
Ð¿Ð¾ÐºÑĢÐ¾Ð²ÑģÐºÐ¸Ð¹
Ð»ÑİÐ±Ð¾Ð¹
ĠÑģÐ¿Ð¾ÑĢÑĤÐ°
ĠÑĢÐ¸ÑģÑĥÐµÐ¼
ĠÐ¿Ð¾Ð·Ð´Ð½ÑıÐºÐ¾Ð²Ð°
ĠÑıÐºÑĥÑĪÐµÐ²Ð°
ĠÐ¿Ð¾ÑĤÑĢÐ°ÑĤ
ĠÐ¿Ð¾ÑĤÑĢÐ°ÑĤÐ¸ÑĤÐµ
Ð¼Ð¸Ð½ÑĥÑĤ
ÑĤÐ°ÐºÐµÐ»
ÑĤÐ°ÐºÐµÐ»Ð°Ð¶
ĠÐ´Ð°Ð²Ð¸Ð´Ð¾Ð¼
ĠÑĤÑĢÐ¾Ð¸ÑĨÐ°
ĠÐ¿Ð¾Ð·Ð½Ð°ÐºÐ¾Ð¼Ð¸Ð¼ÑģÑı
ĠÑĢÐ°ÑģÑĤÐ°Ñİ
ĠÐ¸Ð½ÑĤÐµÑĢÐµÑģÑĥÑİÑĤ
ĠÑĤÐµÑĢÑıÑĤÑĮ
ĠÐ¿Ð¾Ð·ÐµÑĢÑģÑĤÐ²Ð¾
Ð¿Ð¾ÐºÑĥÑĢ
Ð¿Ð¾ÐºÑĥÑĢÐ¸Ð²Ð°ÐµÑĤ
ĠÐ²ÑĭÐ¿Ð°Ð»Ð°
ĠÐ½Ð°ÑĪÐµÐ»
ĠÑĥÐ±ÐµÐ³Ð°Ð¹ÑĤÐµ
ĠÑĢÐµÐ°Ð»ÑĮÐ½ÑĭÐ¹
ÑģÐºÐµÐ»
ÑģÐºÐµÐ»ÐµÑĤÑĭ
ĠÑĤÐ°Ð±ÑĥÑĢ
ĠÑĤÐ°Ð±ÑĥÑĢÐµÑĤÑĭ
ĠÐ±ÑĢÑİÑħÐ¾Ð²
ĠÐ±ÑĢÑİÑħÐ¾Ð²ÐµÑĨ
ĠÐ±ÑĢÑİÑħÐ¾Ð²ÐµÑĨÐºÑĥÑİ
ĠÐ½Ð°ÐºÐ¾ÑĢÐ¼Ð¸ÑĪÑĮ
ĠÐ»Ð¾ÑģÑĮ
ÐºÐ¾Ð¼Ð½Ð°
ÐºÐ¾Ð¼Ð½Ð°ÑĤÐ°
Ð¿Ð¾Ð³ÑĥÐ»Ñı
Ð¿Ð¾Ð³ÑĥÐ»ÑıÐµÑĪÑĮ
ĠÐ¸Ð·Ð±Ð¸
ĠÐ¸Ð·Ð±Ð¸ÐµÐ½Ð¸Ðµ
ĠÑħÑĢÑİÑĪ
ĠÑħÑĢÑİÑĪÑĥ
ĠÑĤÑĢÐ¾ÑĦÐ¸Ð¼Ð¾Ð²
ĠÑģÐµÑĤÐºÐµ
ĠÐ¿ÑĢÐ¾Ð´Ð°Ð¶Ð°
ĠÐ´Ð¾Ð±ÑĢÐ°Ð»Ð¸ÑģÑĮ
ĠÐ³ÑĢÐ°Ð¶Ð´Ð°Ð½ÐºÐ°
ÐºÐ°Ñĩ
ÐºÐ°ÑĩÐ°Ñİ
ĠÐ·Ð°ÑıÐ²Ð¸Ð»
Ð²Ð°Ð½Ñı
ĠÐ·Ð°Ð½Ð¸Ð¼Ð°ÐµÑĤÑģÑı
ĠÑģÐ¿ÑĥÑĤÐ°Ð»
ĠÐ½Ð°Ð±Ð¸ÑĢÐ°Ð¹
Ð¿Ð¾Ð¹Ð¼Ð°Ð»
ĠÑıÐ±Ð»Ð¾Ñĩ
ĠÑıÐ±Ð»Ð¾ÑĩÐ½Ð¾Ð³Ð¾
ĠÑĢÐ¾ÑĤÐ°Ð½
ĠÐ¿ÑĢÐµÐ±ÑĭÐ²Ð°ÑĤÑĮ
ĠÐ¼Ð¸ÐºÑĪÐµÑĢ
ĠÑıÐ³ÑĤÑĥ
ĠÑĥÐ´Ð¾ÑģÑĤ
ĠÑĥÐ´Ð¾ÑģÑĤÐ¾Ð²ÐµÑĢ
ĠÑĥÐ´Ð¾ÑģÑĤÐ¾Ð²ÐµÑĢÐµÐ½
ĠÐ·Ð°ÑıÐ²ÐºÐ°
ĠÐ¾ÐºÐ°Ð·Ð°ÑĤÑĮÑģÑı
ĠÐ±ÐµÑģÐ¿ÑĢÐµÐ¿
ĠÐ±ÐµÑģÐ¿ÑĢÐµÐ¿ÑıÑĤ
ĠÐ±ÐµÑģÐ¿ÑĢÐµÐ¿ÑıÑĤÑģÑĤÐ²ÐµÐ½Ð½ÑĭÐ¹
ĠÐ»ÑİÐ´Ð¾
ĠÐ»ÑİÐ´Ð¾ÐµÐ´
ĠÐ¾ÑģÐºÐ¾ÑĢÐ±Ð¸Ð»
ĠÑĩÑĥÑĢÐºÐ°
ĠÑĥÐ²Ð°Ð¶ÐµÐ½Ð¸Ðµ
Ð²ÑĭÑģÑĤÐ°Ð²ÐºÐ°
Ð¿Ð¾Ð²ÑĭÑģ
Ð¿Ð¾Ð²ÑĭÑģÐ¸ÑĤÑĮ
ĠÑĤÐ°Ñħ
ĠÑĤÐ°ÑħÐ¾
ĠÐ²ÑģÐµÐ²Ð¾Ð·
ĠÐ²ÑģÐµÐ²Ð¾Ð·Ð¼Ð¾Ð¶
ĠÐ²ÑģÐµÐ²Ð¾Ð·Ð¼Ð¾Ð¶Ð½ÑĭÑħ
ÐµÐ±Ð°Ð½
ÐµÐ±Ð°Ð½ÑĥÑĤÑģÑı
ĠÑĢÐ¾Ð¶Ð¸
ĠÑĢÐ¾Ð¶Ð¸ÑĨÑĭ
ĠÐ¿Ð¾Ð¼ÐµÐ½ÑıÑĤÑĮÑģÑı
Ð¿ÑĢÐ¾ÑĢ
Ð¿ÑĢÐ¾ÑĢÑĭÐ²Ð°ÐµÑĤÑģÑı
ĠÑģÐ¾ÑĨ
ĠÑģÐ¾ÑĨÐ·Ð°Ñī
ĠÑģÐ¾ÑĨÐ·Ð°ÑīÐ¸ÑĤÑĥ
Ð°Ð»Ð¼Ð°ÑĤÑĭ
ĠÐ³Ð¾Ð½Ñī
ĠÐ³Ð¾Ð½ÑīÐ¸ÐºÐ¸
ĠÐ±Ð°ÑĪÐ½Ð¸
ĠÐ¾ÑģÑĤÐ¾ÑĢÐ¾Ð¶ÐµÐ½
Ð½Ð¾Ð²Ð°Ðº
Ð½Ð¾Ð²Ð°ÐºÐ¾Ð¼
ĠÐ¿Ð¾ÑģÐ¼Ð¾ÑĤÑĢÐ¸ÑĤ
Ð¾Ð´Ð½Ð°Ðº
Ð¾Ð´Ð½Ð°ÐºÐ¾
ĠÐ¿Ð¾ÑħÐ¼ÐµÐ»Ð¸ÑģÑĮ
Ð½Ð°ÑĪÐ»Ð¸
ĠÐ³Ð¾Ð»ÑĥÐ±Ñı
ĠÐ¿ÐµÑĢÐµÐºÐ»Ð°Ð´
ĠÐ¿ÐµÑĢÐµÐºÐ»Ð°Ð´Ð¸Ð½
ÑĩÐµÐ»ÑıÐ±Ð¸Ð½ÑģÐºÐ¸Ð¹
ĠÑĢÐµÐ³ÑĥÐ»ÑıÑĢ
ĠÑĢÐµÐ³ÑĥÐ»ÑıÑĢÐ½Ð¾
Ð²ÐµÑĤÑĢÐ¾Ð²
ĠÐ³Ð¾ÑĢÐ½Ð¾Ð³Ð¾
Ð¿Ð¾Ð´Ð¿Ð¸ÑģÐ°Ð½Ð¸Ñı
ĠÐ·Ð°Ð±ÐµÑĢÑĥÑĤ
Ð°Ð²ÑĤÐ¾Ð¼Ð°Ñģ
Ð°Ð²ÑĤÐ¾Ð¼Ð°ÑģÑĤÐµÑĢ
Ð°Ð²ÑĤÐ¾Ð¼Ð°ÑģÑĤÐµÑĢÑģÐºÐ°Ñı
ÑĩÑĥÐ´ÐµÑģ
ÑĩÑĥÐ´ÐµÑģÐ½Ð¾Ð³Ð¾
Ð¿ÑĢÐµÐ´ÑĥÐ¿ÑĢÐµÐ¶
Ð¿ÑĢÐµÐ´ÑĥÐ¿ÑĢÐµÐ¶Ð´Ð°Ñİ
Ð¿ÐµÑĢÐµÑģÑĤ
Ð¿ÐµÑĢÐµÑģÑĤÐ°Ð½ÑĮ
ĠÐ´ÑĥÑĢÐ°ÑĩÐ¸ÑĤÑĮÑģÑı
Ð´Ð¸ÐºÑĤ
Ð´Ð¸ÐºÑĤÐ°Ð½ÑĤ
ĠÐ´Ð¾Ð½Ð°ÑĤ
Ð³ÐµÑĢÐ¾ÐµÐ²
ĠÑĤÐ²ÐµÑĢÐ¸
ĠÑģÐ°Ð½ÑĤÐµÑħ
ĠÑģÐ°Ð½ÑĤÐµÑħÐ½Ð¸ÐºÐ¾Ð¼
Ð°Ð¼Ð¸Ð½Ð°
ĠÐ¾ÐºÑĥ
ĠÐ¾ÐºÑĥÐµÐ²Ð°
Ð¶Ð¸Ð²ÑĥÑĤ
ĠÑĢÐ°Ð·Ð²Ð¸Ð²Ð°ÐµÑĤÑģÑı
ĠÐ½Ð°Ð»Ð°Ð¶
ĠÐ½Ð°Ð»Ð°Ð¶Ð¸Ð²Ð°ÐµÑĤÑģÑı
ĠÐ¿Ð¾Ð¼Ð¸Ð´Ð¾ÑĢ
ĠÐ¿Ð¾Ð¼Ð¸Ð´Ð¾ÑĢÐ°Ð¼Ð¸
Ð±Ð°Ð½ÐºÐ¾Ð²ÑģÐºÐ°Ñı
ĠÐºÐ°ÑĦÐµÐ»ÑĮ
ĠÐ¿Ð¾Ð·Ð²Ð¾Ð½Ð¾Ðº
ĠÐ¼Ð¾ÑģÑĤÐ¾Ð²Ð¾Ð¹
ĠÐ¿ÑĢÐµÐ´Ð¼ÐµÑĤÐ½ÑĭÐ¹
ĠÐ¿ÑĥÑĤÐµÑĪÐµÑģÑĤÐ²Ð¸Ñı
ĠÑģÑĥÐ±ÐºÑĥÐ»ÑĮÑĤÑĥÑĢÑĭ
ÑĩÑĥÐ´ÐµÑģÐ°
ĠÑģÐ»ÑĥÑĩÐ°ÑİÑĤÑģÑı
Ð²Ð°Ð¿Ð¾ÑĢ
Ð²Ð°Ð¿Ð¾ÑĢÐ°Ð¹
Ð²Ð°Ð¿Ð¾ÑĢÐ°Ð¹Ð·
Ð²Ð°Ð¿Ð¾ÑĢÐ°Ð¹Ð·ÐµÑĢ
ĠÐºÐ¾Ð»Ð¾Ð½Ð½Ð°
ĠÑĥÐ¿ÑĢÐ°Ð²Ðµ
ĠÑĪÑĤÐ¾ÑĢÐ°
ÑĦÐµÑı
ĠÑĢÐµÐ³Ð¸ÑģÑĤÑĢÐ°
ĠÑĢÐµÐ³Ð¸ÑģÑĤÑĢÐ°ÑĨÐ¸Ð¸
Ð¿ÑĢÐ¸ÑĪÐ»Ð°
ĠÐ¿Ð¾ÑĩÑĤÑĥ
Ð°Ð´ÑĢÐµÑģÐ°
ĠÐ¿Ð°ÑĨÐ°Ð½Ð¾Ð¼
ĠÐ²Ð¸ÐºÑĤÐ¾ÑĢÐ¾Ð²
ĠÐ²Ð¸ÐºÑĤÐ¾ÑĢÐ¾Ð²Ð½Ð°
ÐºÑĢÐ¾Ð»Ð¸Ðº
Ð´Ð°Ð³ÐµÑģÑĤÐ°Ð½ÑģÐºÐ¸Ðµ
ĠÐ¶Ð°Ð»ÑİÐ·Ð¸
Ð²ÐµÑģÐ¸Ð»ÑĮ
Ð²ÐµÑģÐ¸Ð»ÑĮÐ½Ð¸
ĠÐºÐ¾Ð²ÑĢÐ¾Ð²Ðµ
ÑįÐ½ÑĤÑĢ
ÑįÐ½ÑĤÑĢÐ¾Ð¿
ÑįÐ½ÑĤÑĢÐ¾Ð¿Ð¸Ð¸
ĠÐ»ÑĭÑģÐµÐ½
ĠÐ»ÑĭÑģÐµÐ½Ð¾Ðº
ĠÐ²Ð¾ÑģÐ¿ÑĢÐ¸Ð½Ð¸Ð¼Ð°ÐµÑĤÐµ
Ð¿ÑĢÐ¾Ð¹Ð´
Ð¿ÑĢÐ¾Ð¹Ð´ÐµÐ½Ð½ÑĭÐ¹
ĠÐ½Ð°ÑĤÐ¾
Ð·Ð°Ð½Ð¸Ð¼Ð°ÐµÐ¼ÑģÑı
ÑĨÐ°ÑĢ
ÑĨÐ°ÑĢÐ¸Ñĩ
ÑĨÐ°ÑĢÐ¸ÑĩÐ°Ð½ÑģÐºÐ¸Ð¹
Ð¾Ð±Ð¸Ð´ÐµÐ»Ð°ÑģÑĮ
Ð»Ð¾Ð²Ð»Ñİ
ĠÐ²Ð¾Ð·Ð»ÑİÐ±
ĠÐ²Ð¾Ð·Ð»ÑİÐ±Ð¸Ð»
ĠÑģÐ²Ð¸Ð´ÐµÑĤÐµÐ»ÐµÐ¼
ĠÐ¼Ð¾ÑĢÐ´Ð°ÑģÑĤ
ĠÐ¼Ð¾ÑĢÐ´Ð°ÑģÑĤÑĭÐ¹
ĠÐºÑĢÐ¾ÐºÐ¾Ð´Ð¸Ð»
ĠÐ·Ð²Ñĥ
ĠÐ·Ð²ÑĥÐºÐ¸
ĠÐºÑĥÐ»ÐµÐ±
ĠÐºÑĥÐ»ÐµÐ±Ð°ÐºÐ¸
Ð¿ÐµÑĢÐ¼ÑģÐºÐ¸Ð¹
ĠÑĢÐµÐ¶Ð¸Ð¼Ñĭ
ĠÐ´ÑĥÐ±Ð»Ð¸
ĠÐ¾ÑĤÑģÐ»
ĠÐ¾ÑĤÑģÐ»ÐµÐ¶
ĠÐ¾ÑĤÑģÐ»ÐµÐ¶Ð¸Ð²Ð°ÐµÑĤÑģÑı
ĠÐºÐ¾Ð»Ð»ÐµÐºÑĤÐ¾ÑĢÑģÐºÐ¾Ð³Ð¾
ĠÐ°Ð³ÐµÐ½ÑĤÑģÑĤÐ²Ð°
ĠÐ°Ð½ÐµÐ¼
ĠÐ°Ð½ÐµÐ¼Ð¸Ñı
ÑģÐ¾ÑħÑĢÐ°Ð½Ð¸ÑĤÑĮ
Ð¼Ð°ÑĢÐ¸Ð½Ð°
ĠÐ½Ð°Ð»Ð¾Ð¶Ð¸Ð»
Ð¼ÑĥÑģÐ¾ÑĢ
ĠÐ±Ð¾Ð»ÑĤÐ°ÐµÑĤÑģÑı
Ð¼ÐµÑĪÐ¾Ñĩ
Ð¼ÐµÑĪÐ¾ÑĩÐµÐº
ĠÐ±Ð¾Ð³Ð°ÑĤÑĭÐµ
ĠÐ¿ÑĢÐ¸Ð¿Ð¸Ñģ
ĠÐ¿ÑĢÐ¸Ð¿Ð¸ÑģÑĭÐ²Ð°ÑĤÑĮ
ĠÐ³Ð°Ð²Ð½Ð¾Ð¼
ĠÐ¿Ð°ÑģÑħÐ°
ĠÐºÐ¾ÑĢÐ¾ÑĤÐºÐ¸Ð¹
ÑĤÐ°Ð½ÑĤÑĢÐ°
ĠÐ¿ÑĢÐ¾ÐºÐ¾Ð»Ð¾ÑĤÑĮ
Ð¿ÑĢÐ¾Ð²ÐµÐ´
Ð¿ÑĢÐ¾Ð²ÐµÐ´Ð¸ÑĤÐµ
Ð¿ÑĥÑħÐ»ÑĭÐµ
ĠÐºÐ¾Ð»Ð¾ÐºÐ¾Ð»Ð°
ĠÐ²ÑĭÑĢÐ°ÑīÐµÐ½Ð¾
ĠÐ²Ð²ÐµÑĢÑħ
ĠÐ·Ð°Ð»Ð°Ð¼
ĠÐ·Ð°Ð»Ð°Ð¼ÑĭÐ²Ð°ÐµÑĤ
ĠÐ¿ÐµÑĢÐµÐ´Ð¾
ĠÑħÐ°ÑĢÐ»Ð°Ð¼Ð¾Ð²
Ð¿Ð¾Ð´ÑĬÐµÐ·Ð¶Ð°Ð¹
ĠÐºÐ°ÑĢÐ°Ð±ÑĥÐ»
ĠÐºÐ°ÑĢÐ°Ð±ÑĥÐ»Ð°Ðº
Ð´ÐµÐ²ÑĥÑĪÐºÐ¸
ĠÐ·Ð°ÑģÐ½ÑĥÑĤÑĮ
ĠÑģÐ²ÑıÐ·Ð°Ð½Ð¾
ĠÐ·Ð½Ð°Ð¼ÐµÐ½Ð¸Ðµ
ĠÐ¾ÑĤÑĢÐµÐ°Ð³Ð¸ÑĢÐ¾Ð²Ð°Ð»
ĠÐ¿Ð¼
ĠÐ¿Ð¼Ð¶
ĠÑģÐ¾Ð±ÑģÑĤÐ²ÐµÐ½Ð½ÑĥÑİ
ÑĢÐ°Ð±Ð¾ÑĤÑĭ
ĠÑĢÐ°ÑģÑģÑĩÐ¸ÑĤÑĭÐ²Ð°ÐµÑĤÑģÑı
ĠÐºÐ¾ÑįÑĦÑĦ
ĠÐºÐ¾ÑįÑĦÑĦÐ¸ÑĨÐ¸
ĠÐºÐ¾ÑįÑĦÑĦÐ¸ÑĨÐ¸ÐµÐ½ÑĤ
ĠÐ¿Ð¾Ð»ÐµÐ·Ð½Ð¾Ð³Ð¾
ĠÐ½Ð¾ÑģÐºÐ¾Ð¼
ĠÐ¸Ð½ÑĤÐµÑĢÐµÑģÐ¾Ð²
ĠÑĪÑĥÑĤÐ¸
ĠÑĦÑĥÐ½ÐºÑĨÐ¸ÑıÐ¼Ð¸
ĠÐ¿ÐµÑĤÑĢÐ¾Ð²Ð¾
ĠÐ´Ð°Ð»ÑĮÐ½ÐµÐµ
ĠÐ³Ð¾ÑĢÑıÑĩÐµÐ¹
ĠÐ²Ð¾Ð´Ðµ
ĠÐ¼Ð¾ÑĢÐ¾Ð·Ð¸ÑĤÑĮ
ĠÐ±Ð°Ð¼Ð±ÑĥÑĢ
ĠÐ±Ð°Ð¼Ð±ÑĥÑĢÐ¾Ð²Ð¾
ÑĥÐ²ÐµÐ»Ð¸Ñĩ
ÑĥÐ²ÐµÐ»Ð¸ÑĩÐ¸ÑĤÑĮ
ĠÐ¿Ð¾ÑĤÐ¾Ðº
Ð¿Ð¸ÑģÐ°ÑĤÐµÐ»ÑĮ
ĠÐ¿ÑĢÐ¸ÑĩÐ¸Ð½Ñİ
ÐºÐ°ÑĤÑĥÑĪÐºÐ°
ĠÐºÐ°ÑĤÑĥÑĪÐºÐ°
ĠÑĢÑĭÐ±Ð¾Ð»
ĠÑĢÑĭÐ±Ð¾Ð»Ð¾Ð²
ĠÑĢÑĭÐ±Ð¾Ð»Ð¾Ð²Ð½Ð°Ñı
ĠÐ³Ð°Ð½Ð´
ĠÐ³Ð°Ð½Ð´Ð¾Ð½ÐºÐ°
ÑģÐ»ÑĥÑĩ
ÑģÐ»ÑĥÑĩÐ°Ð¹
ĠÑĤÐ²Ð¾ÑĢÐ¾Ð³
ĠÐ¿ÑĢÐ¸Ð½ÑĤÐµÑĢ
ĠÑĤÐ¾ÑĢÐ³ÑĥÐµÑĤÐµ
ĠÐºÐ°Ð¶Ð´Ð¾Ðµ
ĠÐ¼Ð¾Ð½ÑģÑĤÑĢÑĭ
ĠÐ»ÑĳÐ³ÐºÐ¾Ð¹
ĠÐ½Ð°Ð¹Ð´ÑĥÑĤÑģÑı
Ð¿Ð¾ÑĩÐ¸ÑģÑĤ
Ð¿Ð¾ÑĩÐ¸ÑģÑĤÐ¸ÑĤÑĮ
Ð¾ÑĤÐ²ÐµÑĤÐ½ÑĭÐµ
ĠÐºÐ¸ÑĢÐ¾Ð²Ð¾
ĠÑĩÐµÐ¿ÐµÑĨ
ĠÑĩÐµÐ¿ÐµÑĨÐº
ĠÐ¼Ð¾ÑĢÐ¾Ð²
ĠÐ¼Ð¾ÑĢÐ¾Ð²Ð°Ñı
ĠÐ»Ð°Ð±
ĠÐ»Ð°Ð±ÑĢÐ°Ð´
ĠÐ»Ð°Ð±ÑĢÐ°Ð´Ð¾ÑĢ
ĠÐ¾Ð³Ð¾ÑĢÑĩÑĳÐ½
Ð´Ð¸ÐºÑĤÐ¾ÑĢ
ĠÐ¼ÐµÐ´Ð»ÐµÐ½Ð½ÑĭÐ¹
ĠÑĩÐ»ÐµÐ½Ð¾ÑĢÐ°Ð·
ĠÑĩÐ»ÐµÐ½Ð¾ÑĢÐ°Ð·Ð´ÐµÐ»ÑĮ
ĠÑĩÐ»ÐµÐ½Ð¾ÑĢÐ°Ð·Ð´ÐµÐ»ÑĮÐ½ÑĭÐ¹
ĠÑĤÐµÐ»ÐµÑĦÐ¾Ð½Ð½Ð¾Ð¹
ĠÑĥÐ¼ÑģÑĤÐ²ÐµÐ½Ð½Ð¾
ĠÐ¾ÑĤÑģÑĤ
ĠÐ¾ÑĤÑģÑĤÐ°Ð»
ĠÐ¾ÑĤÑģÑĤÐ°Ð»Ð°Ñı
ĠÐ°Ð±ÑģÐ¾Ð»ÑİÑĤ
ĠÐ´Ð¾Ð»Ñı
ĠÐ¿ÐµÐ´Ð¾ÑĦÐ¸Ð»Ñĭ
Ð¾Ð±ÑĢÐ°Ð·Ñĭ
ĠÐ¾ÑĤÐ¼Ð°Ñħ
ĠÐ½Ð°Ð¹Ð´Ð¸ÑĤÐµ
ĠÐ¿ÑĢÐ¸Ð¼ÐµÐ½ÐµÐ½Ð¸Ðµ
ĠÑĤÐ¾Ð¿Ð¾ÑĢÐ¸Ðº
ÑįÐ¼Ð±
ÑįÐ¼Ð±Ð»ÐµÐ¼
ÑįÐ¼Ð±Ð»ÐµÐ¼Ð°
ÐµÑĢÐµÑģÑĮ
ĠÐ¾Ð¿ÑĢÐµÐ´ÐµÐ»Ð¸ÑĤÐµÐ»ÑĮ
ÐµÐ±Ð°Ð»Ð¾Ð²Ð¾
ĠÑħÐ¸ÑĤ
ĠÑħÐ¸ÑĤÑĢÐ¾Ð¼
ĠÐµÐ±Ð°Ð½Ð½Ð¾Ðµ
ĠÐ´Ð°ÑĤÑĭ
ĠÑĤÐ¸Ð¿Ð¾Ð²ÑĭÐµ
ĠÐ²Ð¸Ð½Ð¾Ð²Ð°ÑĤÑĭ
ÑĦÑĢÑĥÐ½
ÑĦÑĢÑĥÐ½Ð·
ÑĦÑĢÑĥÐ½Ð·ÐµÐ½ÑģÐºÐ¸Ð¹
ĠÐ¿ÑĢÐ¸ÐºÐ°Ð¶
ĠÐ¿ÑĢÐ¸ÐºÐ°Ð¶ÐµÑĤÐµ
Ð¿ÑĢÐ°Ð²Ð¾ÑģÐ»Ð°Ð²
Ð¿ÑĢÐ°Ð²Ð¾ÑģÐ»Ð°Ð²Ð¸Ðµ
ĠÐ³Ð¾Ð»Ð¾Ð²Ð½Ð¾Ð³Ð¾
ĠÐ¼Ð¾Ð´Ð½Ð¾
ĠÐ´Ð¾ÑĢÐ¾Ð³Ð¸
Ð³Ð¾Ð»Ð¾Ð²
Ð³Ð¾Ð»Ð¾Ð²ÐºÐ¾Ð²
Ð³Ð¾Ð»Ð¾Ð²ÐºÐ¾Ð²ÑģÐºÐ¾Ð³Ð¾
ÐºÑĢÐ¾Ð²ÑĮÑİ
ĠÐ»Ð¸ÑĪÐ¸Ð»Ð°ÑģÑĮ
Ð³Ð¾Ð»Ð¾ÑģÐ°
ĠÐ³Ð¾Ð½ÑĩÐ°
ĠÐµÐ´ÑĥÑĤ
Ð½Ð°ÑĤÑĥÑĢÐ°Ð»ÑĮÐ½ÑĭÐµ
ĠÑģÐµÑĢÐ´Ð¸ÑĤ
ĠÐ¶Ð°Ð»Ð¾Ð²
ĠÐ¶Ð°Ð»Ð¾Ð²Ð°Ð»ÑģÑı
ĠÐ´Ð¶Ð¸Ð³Ð°Ð½Ð°
Ð´Ð°ÑĤÑĭ
ĠÑīÐµÐ½ÐºÐ°
ĠÑĤÐ°ÐµÑĤ
ÑģÐ¼ÐµÑĪÐ½ÑĭÐµ
ĠÑģÐ°Ð¼ÑĨÐ¾Ð²
ĠÐ¾ÑģÑĥÐ¶Ð´ÐµÐ½Ð¸Ðµ
ĠÐ±ÑĥÐ³ÑĥÑĢÑĤÑĭ
ĠÐºÐ¾Ð²Ð°Ð»ÑĮ
ĠÐºÐ¾Ð²Ð°Ð»ÑĮÑģÐºÐ¸Ð¹
ĠÐ¸Ð·ÑĥÑĩÐ°Ñİ
ĠÐ¿ÑĢÐ¸ÑħÐ²
ĠÐ¿ÑĢÐ¸ÑħÐ²Ð°ÑĩÑĥ
ĠÐ¿Ð¾ÑģÑĤÐ¾ÑıÐ½Ð½ÑĭÐµ
ĠÐ³Ð¾Ð»Ð¾Ð²Ð½ÑĭÐµ
ĠÐ³Ð¾Ð±
ĠÐ³Ð¾Ð±Ð½Ð¸ÐºÐ¸
Ð±Ð°Ð±ÑĥÑĪÐºÐ¸
ĠÐ²ÑĭÑģÑĤÑĥÐ¿Ð°ÑĤÑĮ
ĠÐ²ÐµÑĢÐ½ÑĥÐ»
ĠÐ¸ÑģÐºÐ»ÑİÑĩÐ¸ÑĤÐµÐ»ÑĮÐ½Ð¾
ĠÐ¿ÑĢÐ¸ÑħÐ¾Ð´Ð¸Ð¼
ĠÐ±Ð°Ð½Ñİ
ĠÐ¿Ð¸Ð·Ð´ÑİÐºÐ°
ĠÑģÐ¸Ð½Ð¾Ð½Ð¸Ð¼Ñĭ
ÐµÐ±Ð°Ð»ÐºÐ°
ĠÑĢÑĭÐ±Ð°Ð»ÐºÐµ
ĠÐ¸Ð±Ð°Ð»Ð¾
ĠÑĢÐ°Ð·Ð¾Ð±ÑĮÑİ
ĠÐºÑĢÐ°ÑģÐ°Ð²
ĠÐºÑĢÐ°ÑģÐ°Ð²ÑĩÐ¸ÐºÐ°
ÑħÐ¾ÑĢÐ¾ÑĪÐµÐ½ÑĮÐºÐ¾
ĠÐ½Ð°ÑĥÑĤÐ¸Ð»
ĠÐ½Ð°ÑĥÑĤÐ¸Ð»ÑĥÑģÐ°
ĠÐ³Ð°Ð»ÐµÑīÐ¸Ð½Ð°
Ð²ÑĭÐ±Ð¸Ð²Ð°ÑİÑĤ
Ð°Ð¼Ð¾ÑĢ
Ð°Ð¼Ð¾ÑĢÐ°Ð»ÑĮÐ½Ð°Ñı
ĠÐ¼ÑĥÑĢÐ¸Ðº
Ð»ÐµÑĤÐ½Ð¸Ðµ
ĠÐ»Ð°Ð³ÐµÑĢ
ĠÐ»Ð°Ð³ÐµÑĢÑı
ĠÑĥÑĦÐµ
ĠÑĥÑģÑĤÐ°Ð½
ĠÑĥÑģÑĤÐ°Ð½ÐµÑĪÑĮ
Ð¶Ð°ÑĢÐ³
Ð¶Ð°ÑĢÐ³Ð¾Ð½
Ð·Ð°Ð¼ÐµÑĩÐ°ÑĤÐµÐ»ÑĮÐ½Ð¾
ĠÐ¿ÑĢÐµÐ»ÐµÑģÑĤÐ½Ð¾
ĠÐ»Ð°ÑģÐºÐ°
ĠÐ·Ð°Ð¿ÑĩÐ°Ñģ
ĠÐ·Ð°Ð¿ÑĩÐ°ÑģÑĤÑĮ
ÑĥÐ¼Ð½ÑĭÐ¹
ĠÐ¿Ð¾Ð±Ð¾
ĠÐ¿Ð¾Ð±Ð¾ÑıÐ»ÑģÑı
ĠÐ¿ÑĢÐ¾Ð½Ð¸ÐºÐ½ÑĥÑĤÑĮ
ĠÐ½Ð¾Ð¼ÐµÑĢÐµ
Ð¾Ð±Ð¸Ð»ÑĮÐ½Ð¾
ĠÐ²ÑĭÐ´ÐµÐ»ÑıÑİÑĤÑģÑı
Ð´Ð°Ð²Ð»ÐµÐ½Ð¸Ðµ
ĠÑģÑĤÐ¾Ñı
ĠÐ¼Ð¸Ð½Ðµ
ĠÐ¼Ð¸Ð½ÐµÐµÐ²
Ð¿Ð°ÑĤÑĢÐ¾Ð½
Ð¿Ð°ÑĤÑĢÐ¾Ð½Ð°Ð¶
ĠÐ¾ÑģÐ½Ð¾Ð²Ð½Ð°Ñı
ĠÐ¿ÑĢÐ¾Ð¸Ð½
ĠÐ¿ÑĢÐ¾Ð¸Ð½ÑĦÐ¾ÑĢÐ¼Ð¸ÑĢÑĥ
ĠÐ¿ÑĢÐ¾Ð¸Ð½ÑĦÐ¾ÑĢÐ¼Ð¸ÑĢÑĥÑİ
ÑģÐ¿ÑĢÐ¾ÑģÐ¸
ĠÐ¾Ð³Ð¾ÑĢÐ¾ÑĪÐ¸Ð»
ĠÐ¾Ð·Ð°Ð´
ĠÐ¾Ð·Ð°Ð´Ð°Ñĩ
ĠÐ¾Ð·Ð°Ð´Ð°ÑĩÐ¸Ð»Ð¸
ĠÑĢÐ°ÑģÑĤÐµÑĢ
ĠÑĢÐ°ÑģÑĤÐµÑĢÑıÐ»Ð¸
ĠÐ¿Ð¾ÑĤÐµÑĢÑıÐ»Ð¸
Ð°Ð³Ð°ÑĤÐ°
ĠÑİÐ¶Ð½Ð¾ÑĥÑĢÐ°Ð»ÑĮÑģÐºÐ°
ĠÐºÑĢÐ°Ð½
ÑıÑĢÐ¾ÑģÐ»Ð°Ð²
ĠÐ±ÑĥÐ´Ð´Ð°
ĠÐ¿Ð¾Ð¼ÐµÑĪÐ°Ð½Ð½ÑĭÐ¹
ĠÐ¾Ð±Ð¸Ð´ÐµÐ»ÑģÑı
ĠÑĤÐµÑħÐ½Ð¸ÐºÑĥ
ĠÑĩÐµÑĩÐµÐ½ÑĨÐµÐ²
ĠÑģÑĤÐ¾ÑıÐ»Ð¸
ĠÐ´Ð²Ð¾ÑĢÐ°Ñħ
ĠÐ¿Ð¾ÑĢÐ¾Ð´Ñĥ
ĠÐºÑĢÐ°ÑģÐ¸Ð²Ð°Ñı
Ð±ÐµÐ´Ð½ÑĭÐ¹
ĠÐ±ÐµÐ´Ð½ÑĭÐ¹
ĠÐ¼Ð¸ÑģÑĤÐµÑĢ
Ð¸Ð²Ð°Ð½Ð³Ð°Ð¹
Ð·Ð°Ð³Ð°Ð´ÐºÐ¸
ĠÐ¿ÑĢÐ¸ÐºÐ¾Ð»Ð¾Ð²
ĠÐ¿ÑĢÐ¾ÑģÑĤÑĥÑİ
ĠÑĤÐµÑĢÐ°ÐºÑĤ
ĠÐ¿Ð¾ÑģÐ¼Ð¾ÑĤÑĢÐµÐ»Ð°
ĠÑĥÑĤÐ²ÐµÑĢÐ´
ĠÑĥÑĤÐ²ÐµÑĢÐ´Ð¸Ð»Ð¾
ĠÐ¿Ð¾Ð½Ð¸Ð¼Ð°ÐµÑĤÑģÑı
ĠÐ±ÑĢÐ°ÑĤÑĥÑħÐ°
ĠÐ¿ÑĢÐµÑĢ
ĠÐ¿ÑĢÐµÑĢÑĭÐ²Ð°ÐµÑĤÑģÑı
ĠÐµÐ²ÑĢÐµÐµÐ²
ĠÐ¿Ð¾Ð»Ð·ÑĥÐ½Ð°
ĠÑħÑĥÑĳÐ¼
ĠÐ¿Ð¾ÑģÑĤÑĥÑĩ
ĠÐ¿Ð¾ÑģÑĤÑĥÑĩÐ°Ð»Ð¸
ĠÐ±Ð¾Ð»ÐµÐµÑĪÑĮ
ÑĢÐ°ÑħÐ¼Ð°ÑĤ
ÑĢÐ°ÑħÐ¼Ð°ÑĤÐ¸Ð»
ÑĢÐ°ÑħÐ¼Ð°ÑĤÐ¸Ð»Ð»Ð¾
ĠÐ±Ð¾ÑĢÐ¾Ð´Ð°ÑĤÐ¾Ð³Ð¾
ĠÐ³ÑĢÑıÐ·Ð½Ð¾Ð³Ð¾
ĠÐ°Ð´ÑĢÐµÑģÐ¾Ðº
ĠÐºÐ°ÑĢÐµÐ»
ĠÐºÐ°ÑĢÐµÐ»Ð¸Ñı
ÑĤÑĥÐ¿ÑĭÐµ
ĠÐ¿ÑĢÐ¾ÑĪÐ¸Ð²ÐºÐ¸
Ð¿ÑİÑĢÐµ
ĠÑģÐµÑĢÐ³ÐµÐµÐ²
ĠÐ¿ÐµÑĢÐµÐ·Ð²Ð°Ð½Ð¸Ð²Ð°Ð¹ÑĤÐµ
Ð¿ÑĥÑĪÐºÐ¸Ð½Ð°
ĠÐ´Ð¾ÑĢÐ¸Ð½
ĠÐ·Ð¾Ð»Ð¾ÑĤÐ¾Ð¼
ĠÐ´Ð¸Ð·
ĠÐ´Ð¸Ð·Ð°Ð¹
ĠÐ´Ð¸Ð·Ð°Ð¹Ð½Ðµ
Ð³ÐµÑĢÐ¼
Ð³ÐµÑĢÐ¼ÐµÑģ
ĠÐ´Ð¸Ð°Ð¼ÐµÑĤ
ĠÐ´Ð¸Ð°Ð¼ÐµÑĤÑĢ
ĠÐ»Ð°Ð¼Ð¿
ĠÐ»Ð°Ð¼Ð¿Ð¾ÑĩÐºÐ¸
ÑĢÐµÐ·ÑĥÐ»ÑĮÑĤÐ°ÑĤÐµ
ĠÐµÑģÑĤÐµÑģÑĤÐ²ÐµÐ½
ĠÐµÑģÑĤÐµÑģÑĤÐ²ÐµÐ½Ð½Ð¾Ð³Ð¾
ĠÐ¾ÑĤÐ±Ð¾ÑĢÐ°
ÑıÐ±Ð»
ÑıÐ±Ð»Ð¾ÑĩÐ½ÑĭÐ¹
ĠÐ²ÑĭÐ³Ð¾Ð²Ð¾ÑĢ
ĠÐ²ÑĭÐ³Ð¾Ð²Ð¾ÑĢÐ¸ÑĤÑĮÑģÑı
Ð´ÑĢÑĥÐ³Ð°
ĠÐ¾ÑĤÐ¶
ĠÐ¾ÑĤÐ¶Ð¸Ð¼
ĠÐ¼ÑĥÑģÐ¾ÑĢÐ¾Ð²
ĠÐ²ÐºÐ»ÑİÑĩÐ¸Ð»Ð°
ĠÑĤÑİÐ¼
ĠÑĤÑİÐ¼ÐµÐ½ÑĮ
ĠÑĥÐºÐ°Ð·ÑĭÐ²Ð°ÑĤÑĮ
ĠÐ¿ÑİÑĢÐµ
ĠÐ¾Ð¿Ð¾Ð·Ð´Ð°Ð»Ð¸
ĠÐ´ÑĢÐ°Ñĩ
ĠÐ´ÑĢÐ°ÑĩÑĥ
ĠÑģÐµÑĢÐ´Ñİ
ĠÑģÐµÑĢÐ´ÑİÐºÐ¾Ð²
ĠÐ¿Ð¾Ð´ÑħÐ¾Ð´Ð¸Ð»Ð¸
ĠÐ¿Ð¾Ð´Ð²ÐµÐ»Ð¸
ĠÑģÑĤÑĥÑĩÐ°Ð»Ð¸
ĠÐ¿ÑĥÑģÑĤÑĭ
ĠÐ¿ÑĥÑģÑĤÑĭÐ½Ð¸
ĠÐ²Ð»Ð°Ð´ÐµÐµÑĪÑĮ
ĠÐ¿ÑĢÐµÐ´Ð¼ÐµÑĤÐ°Ð¼
Ð¾ÑĤÐºÑĢÑĭÐ²
Ð¾ÑĤÐºÑĢÑĭÐ²Ð°Ð¹ÑĤÐµ
ĠÐ´Ð°ÑĪÑĮ
ĠÑĢÐ°Ð·ÑĢÐ°Ð±Ð¾ÑĤÐ°Ð»Ð¸
ĠÐºÑĢÑĭÐ¼ÑģÐºÑĥÑİ
ĠÐ¼Ð°Ð³Ð¸Ñı
ĠÐ³Ð¾Ð»Ð¾Ð²Ð°Ð¼Ð¸
ĠÐ²ÑĭÐ´ÐµÑĢÐ¶Ð¸Ð²Ð°ÐµÑĤ
ĠÐ¾Ð¿Ð¾Ð»
ĠÐ¾Ð¿Ð¾Ð»ÑĩÐµÐ½
ĠÐ¾Ð¿Ð¾Ð»ÑĩÐµÐ½ÑģÐºÐ°Ñı
ĠÐ¿Ð°ÑĤÑĢÐ¸Ñģ
ĠÐ¿Ð°ÑĤÑĢÐ¸ÑģÐ¸Ñı
ĠÐ¾ÑĤÐ¾ÑĢÐ²Ð°Ð½
ĠÑĢÐ¸Ð½Ð³ÑĤÐ¾Ð½
ĠÐ½ÐµÑĦÐ¾ÑĢÐ¼
ĠÐ½ÐµÑĦÐ¾ÑĢÐ¼Ð°Ð»ÑĮÐ½ÑĭÐ¹
ĠÐ¿ÑĢÐ¾ÑģÑĤÑĥÐ´Ð°
ÑĢÐ°Ð·Ð±Ð¾ÑĢ
ÑĢÐ°Ð·Ð±Ð¾ÑĢÐºÐ°
ĠÐºÑĢÐ¸Ð²Ð¾ÑĢÐ¾Ð¶
ĠÐºÑĢÐ¸Ð²Ð¾ÑĢÐ¾Ð¶ÑģÐºÐ°Ñı
ĠÑģÐ¾Ð²ÐµÑĤÑģÐºÐ¾Ð¼
ĠÐ´Ð¾Ð²ÐµÑĢÐ¸ÑĤÑĮ
Ð¾ÑĤÐ²ÐµÑĩÐ°ÑİÑīÐµÐ³Ð¾
ĠÑģÑĤÑĢÐ°ÑħÐ¾Ð²ÐºÐ¸
ĠÐ·Ð°ÑģÐ½Ñĥ
ĠÐ¿Ð¾ÑĢÐ°Ð¶
ĠÐ¿Ð¾ÑĢÐ°Ð¶Ð°ÑİÑģÑĮ
ĠÐ¼Ð°Ð¹Ð´Ð°Ð½Ð°
Ð¸ÑīÐ¸ÑĤÐµ
Ð´ÐµÐ»Ð°
Ð¼Ð¸ÑĢÐ¾Ð²ÑĭÐµ
ĠÐºÑĥÐ´ÑĢÐ¸
ĠÑħÐ²Ð¾Ð¹Ð½Ð¸ÐºÐ¸
ÑģÐ¾Ð»ÐºÐ¾Ñģ
ÑģÐ¾Ð»ÐºÐ¾ÑģÐµÑĢ
ÑģÐ¾Ð»ÐºÐ¾ÑģÐµÑĢÐ¸Ð»
ĠÐºÐ°ÑĪÐ»Ñı
ĠÑĨÐµÐ¼ÐµÐ½ÑĤÐ°
Ð´Ð°ÑħÑĥÑı
ĠÐ¾ÑģÐ½Ð¾Ð²ÑĭÐ²Ð°ÐµÑĤÑģÑı
ÑģÐºÑĥÐ¼
ÑģÐºÑĥÐ¼Ð±ÑĢ
ÑģÐºÑĥÐ¼Ð±ÑĢÐ¸Ñı
Ð°ÑĥÐµ
Ð½ÐµÑĦÐ¾ÑĢÐ¼Ð°ÑĤ
ĠÐ²Ð°Ðº
ĠÐ²Ð°ÐºÐ°Ð½Ñģ
ĠÐ²Ð°ÐºÐ°Ð½ÑģÐ¸Ð¸
ĠÑĩÐµÑĢÐ´ÑĭÐ½
ĠÑĩÐµÑĢÐ´ÑĭÐ½ÑģÐºÐ¾Ð³Ð¾
Ð¿ÑĢÐ°Ð²Ð°
Ð³ÑĢÐµÑħ
ĠÐ·Ð°ÐºÐ°Ð·Ð°Ð»Ð¸
Ð³Ð»Ð°Ð²Ð²ÑĢÐ°Ñĩ
ÑĢÑĥÑĤÐ¸Ð½Ð°
ĠÐ¾ÑĤÐ¿ÑĢÐ°Ð²Ð»Ñı
ĠÐ¾ÑĤÐ¿ÑĢÐ°Ð²Ð»ÑıÐ»Ð°
ĠÐ·Ð°ÑīÐ¸ÑīÐ°ÑĤÑĮ
ÑįÑģÑįÐ¼ÑįÑģÐºÐ¸
ĠÐ±Ð»ÐµÑģÑĤÑıÑīÐ¸Ðµ
ĠÐ·Ð¾Ð»Ð¾ÑĤÑĭÐµ
ĠÐ·Ð´Ð°Ð½Ð¸Ñı
ÑĩÐ°Ð¹ÐºÐ¾Ð²ÑģÐºÐ¸Ð¹
ĠÑģÐ¾ÑħÑĢÐ°Ð½ÑıÐ¹
ĠÐ¸Ð½ÑģÐ°Ð¹ÑĤ
ĠÐ¸Ð·ÑĥÑĩÐµÐ½Ð¸Ðµ
ĠÐ¿ÑĢÐ¸Ð»Ð°Ð³
ĠÐ¿ÑĢÐ¸Ð»Ð°Ð³Ð°ÑĤÐµÐ»ÑĮ
ĠÐ¿ÑĢÐ¸Ð»Ð°Ð³Ð°ÑĤÐµÐ»ÑĮÐ½ÑĭÑħ
ĠÐ¶Ð¸Ð»Ð°
ĠÐ»ÐµÐ½Ð¸Ð½ÑģÐºÐ¸Ð¹
ĠÐ¾Ð±Ð²Ð¸Ð½
ĠÐ¾Ð±Ð²Ð¸Ð½Ð¸ÑĤÑĮ
ÐºÐ²Ð°Ð´ÑĢÐ¾
ÐºÐ²Ð°Ð´ÑĢÐ¾ÑĨ
ÐºÐ²Ð°Ð´ÑĢÐ¾ÑĨÐ¸Ðº
ÐºÐ²Ð°Ð´ÑĢÐ¾ÑĨÐ¸ÐºÐ»Ñĭ
ĠÐ¾Ð¿ÑĢÐµÐ´ÐµÐ»Ð¸ÑĤÑĮÑģÑı
ÑģÐ²Ð¾Ð¹ÑģÑĤÐ²Ð¾
ĠÐ¼Ñİ
ĠÐ¼ÑİÐ·
ĠÐ¼ÑİÐ·Ð¸Ðº
ĠÐ¼ÑİÐ·Ð¸ÐºÐ°Ð»Ð¸
ÑĪÑĥÑĤÐºÐ°
ĠÐ´Ð¾ÐºÐ°Ð·ÑĭÐ²Ð°ÐµÑĤ
ĠÑģÐ¿Ð¾ÑĢÑİ
ĠÐ¿Ð¾Ð´ÑĢÐ°Ð±Ð°ÑĤÑĭÐ²Ð°Ð»Ð°
ĠÐ¿Ð¾ÐºÐ°Ð·ÑĭÐ²Ð°Ð»Ð°
ÑģÑĥÐ¼ÐµÑĢ
ÑģÑĥÐ¼ÐµÑĢÐºÐ¸
ĠÐ¸ÑİÐ½ÑĮ
ĠÐ±ÑĥÐ¼ÐµÑĢ
Ð¾ÑĢÐ³Ð°Ð½Ð¸Ð·Ð°ÑĤÐ¾ÑĢ
ĠÐ¿Ð¾Ð²ÑĭÑĪÐµÐ½Ð¸Ñı
Ð¼Ð¾Ð¼ÐµÐ½
Ð¼Ð¾Ð¼ÐµÐ½ÑĤÐ¾
ĠÑĤÐ¸ÑĢÐ°Ð¶
ĠÐ³Ð¾ÑĢÐµÑĤ
ĠÐ³Ð¾ÑĢÐµÑĤÐ¾Ð²Ð¾
ĠÐºÑĥÑĢÑĮÐµÑĢ
ĠÐ²ÑĭÐµÐ·Ð¶Ð°ÑİÑĤ
ĠÐ¼ÐµÑģÑĤÑĥ
ĠÐ¶Ð¸ÑĤÐµÐ»ÑĮ
ĠÐ¶Ð¸ÑĤÐµÐ»ÑĮÑģÑĤÐ²Ð°
ĠÑĩÐ°Ð¹Ð»
ĠÑĩÐ°Ð¹Ð»Ð´
ĠÑĩÐ°Ð¹Ð»Ð´ÑĦ
ĠÑĩÐ°Ð¹Ð»Ð´ÑĦÑĢÐ¸
ĠÑģÐ¾Ð¾Ð±ÑīÐ¸
ĠÐ½ÐµÐ¿Ð¾ÑģÑĢÐµÐ´ÑģÑĤ
ĠÐ¿ÑĢÐ¸Ð²ÑĭÐºÐ½Ñĥ
ĠÐ¾Ð±Ð¾Ð·Ð½Ð°ÑĩÐµÐ½Ð¸Ðµ
ĠÐ¿ÐµÑĤÑĮ
ĠÐ¾Ð¿ÑĤÐ¾Ð²
ĠÐ¾Ð¿ÑĤÐ¾Ð²Ð°Ñı
ĠÐ¿ÑĢÐ¾Ð¸Ð·Ð²ÐµÐ´ÐµÐ½Ð°
ĠÐ³ÐµÐ½Ð¸
ĠÐ³ÐµÐ½Ð¸Ð°Ð»ÑĮÐ½Ð¾
Ð¼Ð¸Ð¼Ð¸
Ð¿ÐµÑĢÑģ
Ð¿ÐµÑĢÑģÐ¾Ð½Ð°
ĠÐ²ÑĭÐ±ÑĢÐ°Ð½
ĠÐ²ÑĭÐ±ÑĢÐ°Ð½Ð½ÑĭÑħ
ĠÐ²Ð»Ð°ÑģÑĤ
ĠÐ²Ð»Ð°ÑģÑĤÐµÐ¹
Ð±ÐµÐ½Ñĥ
Ð±ÐµÐ½ÑĥÐ°
ĠÐ°Ð´ÑĢÐµÑģÐ½Ð°Ñı
ĠÐ½ÐµÐ½Ð°Ð²Ð¸Ð´
ĠÐ½ÐµÐ½Ð°Ð²Ð¸Ð´Ð¸ÑĪÑĮ
ĠÐ´Ð¾Ð±ÑĢÐ¾ÑĦÐ¾Ð½
ĠÑĢÐµÐ·ÐµÑĢ
ĠÑĢÐµÐ·ÐµÑĢÐ²Ñĥ
ĠÑĢÐµÐ·ÐµÑĢÐ²ÑĥÐ°ÑĢÑĭ
ĠÐ·Ð½Ð°Ñĩ
ĠÐ·Ð½Ð°ÑĩÐµÐ½Ð¸Ðµ
ĠÐ½ÐµÑĥÐ±
ĠÐ½ÐµÑĥÐ±ÐµÐ´
ĠÐ½ÐµÑĥÐ±ÐµÐ´Ð¸ÑĤÐµÐ»ÑĮÐ½Ð¾
Ð´Ð°Ð»ÐµÐºÐ¾
ĠÐ½Ð°Ð±Ð¸Ð»
Ð³Ð¾ÑĢÐ°
ĠÐ³ÐµÐ»Ð»ÐµÑĢ
ĠÐ³ÐµÐ»Ð»ÐµÑĢÑĤ
ĠÑħÐ¾Ð´Ð¸Ð»Ð¸
ĠÐ¼Ð¾Ð»ÑĩÐ°Ð½Ð¸Ðµ
ĠÑıÐ³Ð½Ñı
ĠÑıÐ³Ð½ÑıÑĤ
Ð·Ð¾Ð»Ð¾ÑĤÐ¾
ĠÑĢÐµÐ´Ð¼Ð¾Ð½Ð´
ĠÐ¿Ð°ÑģÐ¿Ð¾ÑĢÑĤÐ°
ĠÐ²ÑĭÑĢÐ°Ð¶ÐµÐ½Ð°
ĠÐ¾Ð±ÐµÐ·ÑĮÑıÐ½ÐºÐ°
ĠÐ´Ð°ÑĩÑĥ
ĠÐ¼Ð°ÑĤÐµÑĢÐ¸ÑĤÐµÑģÑĮ
ĠÐ´Ð¾Ð½Ð°ÑĤÑĭ
ĠÑģÐ°Ð»ÑĮÐ½Ð¸Ðº
ĠÑģÐ°Ð»ÑĮÐ½Ð¸ÐºÐ¾Ð²
ĠÐ¾ÑĤÐ»Ð¸ÑĩÐ°ÐµÐ¼ÑģÑı
ĠÐ¼ÑĥÐ·ÑĭÐºÐ°Ð»ÑĮÐ½ÑĥÑİ
ĠÐ¿Ð°ÑĥÐ·
ĠÐ¿Ð°ÑĥÐ·Ñĥ
ÐºÑĢÐ¸Ð²
ÐºÑĢÐ¸Ð²Ð¾Ð¹
ĠÐºÐ¾Ð¼Ð¼ÑĥÐ½Ð¸ÑģÑĤÐ¸ÑĩÐµÑģÐºÐ¸Ð¹
ĠÐ±Ð¸ÑĢÐ¶
ĠÐ±Ð¸ÑĢÐ¶Ð°
ĠÑģÐ¾ÑĤÐºÐ¸
ĠÑĢÐ¾Ð´Ð½ÑĭÐµ
ĠÐ³Ð¾ÑģÑĤÑıÐ¼Ð¸
ĠÑģÑĤÑĥÐ´Ð¸Ð¸
ĠÑıÑĢÐ¸ÐºÐ¾Ð¼
ĠÐºÐ¾Ð½ÑĩÐ¸Ð»Ð°ÑģÑĮ
ĠÐ±Ð¸Ð·Ð½ÐµÑģ
Ð³Ð¾ÑĤÐ¾Ð²ÑıÑīÐ¸Ð¹
Ð³Ð¾ÑĤÐ¾Ð²ÑıÑīÐ¸Ð¹ÑģÑı
ĠÐ¾ÑĪÐµ
ÑģÐ²ÑıÑī
ÑģÐ²ÑıÑīÐµÐ½Ð½ÑĭÐ¹
ĠÐ¾Ð±Ð¾Ð³Ð½Ð°ÑĤÑĮ
ÐºÐ½Ð¾Ð¿ÐºÐ°
ĠÐ±Ð¾Ð¼Ð¶
ĠÐ±Ð¾Ð¼Ð¶Ð¾Ð¼
ĠÐ°ÑĦÐ°Ð½
ĠÐ°ÑĦÐ°Ð½Ð°ÑģÑĮ
ĠÐ°ÑĦÐ°Ð½Ð°ÑģÑĮÐµÐ²Ð¸Ñĩ
ÑĤÐ°ÐºÐ¶Ðµ
ĠÐ²Ð°Ð¶Ð½Ð¾Ðµ
ĠÐ»Ð¾Ð³Ð¸ÑĩÐµÑģÐºÐ¸Ð¹
ĠÐ¿ÑĢÐ¾ÑĨÐµÑģÑģ
ĠÑĤÑĢÐµÐ±Ð¾Ð²Ð°ÑĤÑĮ
ĠÐ¾ÑģÑĤÑĢÐ¾Ð²Ð¾Ð²
Ð²Ð¾ÐµÐ½Ð½Ð°Ñı
ĠÐºÐ°ÑĦÐµÐ´ÑĢÐ°
Ð»Ð¾Ð¶Ð¸ÑĤÑĮÑģÑı
ĠÐ¿Ð¾Ð±ÑĥÑħ
ĠÐ¿Ð¾Ð±ÑĥÑħÐ°ÑĤÑĮ
ÑĥÐ»ÑĥÑĩÑĪ
ÑĥÐ»ÑĥÑĩÑĪÐµÐ½Ð¸Ðµ
ĠÐºÐ¾Ð¼Ð±Ð¸Ð½Ð°
ĠÐºÐ¾Ð¼Ð±Ð¸Ð½Ð°ÑĤ
ĠÐ´ÐµÐ¼ÐµÐ½ÑĮÑĪ
ĠÐ´ÐµÐ¼ÐµÐ½ÑĮÑĪÐ¸Ð½
ĠÐ·Ð²Ð°Ð»
ĠÐ¿ÑĢÐµÑģÐ½ÑıÐºÐ¾Ð²Ð°
ĠÐ²ÐºÐ»ÑİÑĩÐ°ÑİÑĤ
ĠÑģÑĤÐµÐ½Ðµ
ĠÑĢÐ°ÑģÐ¿ÑıÑĤ
ĠÑĢÐ°ÑģÐ¿ÑıÑĤÑĥÑİ
ĠÐ¿Ð¾Ð´Ð½Ð¸Ð¼Ð°ÑİÑģÑĮ
Ð·Ð°ÐºÐ¾Ð½ÑĩÐ¸ÑĤÑģÑı
Ð¼ÑĤÑģ
ĠÐ¼Ð°ÑĢÐ¸Ð¹
ĠÑįÐ»
Ð·Ð½Ð°ÐºÐ¸
ĠÐ´Ð¾ÑĢÐ¾Ð¶Ð½ÑĮ
ĠÐ´Ð¾ÑĢÐ¾Ð¶Ð½ÑĮÐ¾Ð³Ð¾
ĠÐ¿Ð¾Ð¸Ð¼Ðµ
ĠÐ¿Ð¾Ð¸Ð¼ÐµÑİ
ĠÑĢÑĥÐ³Ð°ÑĤÑĮ
Ð½ÐµÐ¾Ð½
ĠÑĤÐµÑĤÑı
ĠÐ¿ÑĢÐ¸Ð·Ð½Ð°Ñİ
ĠÑģÑĥÐ´Ð¸ÑĤ
ĠÐ¶Ð°Ð½
ĠÐ¶Ð°Ð½ÑĢÐµ
Ð¾ÑĢÐµÑħ
ÑģÑĤÐ°ÑĢÑĥÑĪÐºÐ¸
ÑģÐ²Ð°ÑĢÐ¸ÑĤÑĮ
ĠÑħÐ¾Ð»Ð¾Ð´ÐµÑĨ
Ð¿ÑĢÐµÐºÑĢÐ°Ñģ
Ð¿ÑĢÐµÐºÑĢÐ°ÑģÐ½Ð¾
Ð¾ÑħÐ¾ÑĤ
Ð¾ÑħÐ¾ÑĤÐ½Ð¸ÐºÐ¸
ÑĢÐµÐºÐ°
ĠÐ¿ÑĢÐµÐ³
ĠÐ¿ÑĢÐµÐ³Ð¾Ð»Ñı
ĠÐ¸ÐºÑģ
ĠÐ½ÐµÑĢÐ°Ð·
ĠÐ½ÐµÑĢÐ°Ð·ÑĥÐ¼
ĠÐ½ÐµÑĢÐ°Ð·ÑĥÐ¼Ð½ÑĭÐµ
ĠÐ±Ð¸ÑĤÐ²Ñĭ
Ð¾Ð»Ð°Ð»Ð°
ÑģÑĦÐ¾ÑĤÐ¾Ð³ÑĢÐ°ÑĦÐ¸ÑĢÑĥÐ¹
ÑıÐºÑĥÑĪ
ÑıÐºÑĥÑĪÐµÐ²Ð°
ĠÐ´Ð¾Ð½Ð¸Ð¼Ð°Ð»Ð¸
Ð¿Ð¾Ð±ÐµÐ´Ð¸Ð»Ð¸
Ð²ÑģÐ¿Ð¾Ð¼Ð½Ð¸
Ð¿ÑĥÐ³Ð°Ñĩ
Ð¿ÑĥÐ³Ð°ÑĩÐµÐ²Ð°
ĠÐ²ÑĭÑģÐ¾ÐºÐ¾
ĠÐ²ÑĭÑģÐ¾ÐºÐ¾ÑĤÐ¾Ñĩ
ĠÐ²ÑĭÑģÐ¾ÐºÐ¾ÑĤÐ¾ÑĩÐ½Ð¾Ð¹
Ð¿Ð¾Ð¿ÑĢÐ¾Ñī
Ð¿Ð¾Ð¿ÑĢÐ¾ÑīÐ°ÑİÑģÑĮ
ĠÐ¿Ð¾Ð¼Ð¸Ð´Ð¾ÑĢÑĭ
ĠÐ´ÐµÐ²Ñĩ
ĠÐ´ÐµÐ²ÑĩÐ¾Ð½Ð¾Ðº
Ð´Ð°Ð½Ð½ÑĭÐ¹
Ð³ÐµÐ½ÐµÑĢ
Ð³ÐµÐ½ÐµÑĢÐ°Ð»ÑĮÐ½ÑĭÐ¹
ĠÐ¿Ð¾Ð´ÑĢÑıÐ´ÑĩÐ¸Ðº
ĠÐ³Ð°ÑĢÐ°Ð¶Ð¸
Ð±ÑĥÐºÐ²
Ð±ÑĥÐºÐ²Ð°Ð»ÑĮÐ½Ð¾
ĠÑģÑĥÑīÐµÑģÑĤÐ²ÐµÐ½
ĠÑģÑĥÑīÐµÑģÑĤÐ²ÐµÐ½Ð½ÑĥÑİ
ĠÐ¾ÑĤÐ²ÐµÑĤÑģÑĤÐ²ÐµÐ½ÐµÐ½
ĠÑĥÐµÑħÐ°Ð»Ð°
ĠÑĦÑĳÐ´
ĠÑĦÑĳÐ´Ð¾ÑĢÐ¾Ð²
ĠÑĢÐ°Ð·Ð¾ÑģÑĤ
ĠÑĢÐ°Ð·Ð¾ÑģÑĤÐ»
ĠÑĢÐ°Ð·Ð¾ÑģÑĤÐ»Ð°Ð½Ð½ÑĭÐ¹
ĠÑīÐµÐºÑĥ
Ð¿Ð¸ÑģÐ°Ð»Ð¸
ĠÑĪÑĥÐ¼
ĠÑĪÑĥÐ¼Ð¸
ĠÑħÐ¾Ð·ÑıÐµÐ²
ĠÐ±Ð¾ÑĢÐ¾Ð²Ð°
Ð´ÐµÐ²Ð¸Ñĩ
Ð´ÐµÐ²Ð¸ÑĩÑĮÑı
ĠÑĤÐ°Ð¼ÑĢÐ°Ð·
ĠÑĤÐ°Ð¼ÑĢÐ°Ð·Ð¾Ð²
ÑħÑĥÐ´ÑĭÐµ
ÐºÐ¾Ð¼Ð±
ÐºÐ¾Ð¼Ð±Ð¸Ð½
ÐºÐ¾Ð¼Ð±Ð¸Ð½Ð¸Ð»
ĠÐ±Ð°Ð»Ð°ÑĪÐ¾Ð²
Ð¿ÐµÑĢÐµÐ¿ÑĢÐ°Ð²Ð°
ĠÐ¸ÑģÑĤÐµÑĢ
ĠÐ¸ÑģÑĤÐµÑĢÐ¸ÑĩÐºÐ°
ÑģÐ²ÑıÐ·ÑĮ
Ð¿ÐµÑĢÐµÐºÑĢ
Ð¿ÐµÑĢÐµÐºÑĢÐµÑģÑĤ
Ð¿ÐµÑĢÐµÐºÑĢÐµÑģÑĤÐ½Ð°Ñı
ĠÐ³Ð¸Ð³Ð°Ð½ÑĤÑģÐºÐ°Ñı
ĠÑĤÑĥÑĪÐ¸
ĠÐ°Ð»ÐµÐºÑģÐ°Ð½Ð´ÑĢÐ¾Ð²
ĠÐ°Ð»ÐµÐºÑģÐ°Ð½Ð´ÑĢÐ¾Ð²Ð½Ð°
ĠÐ½Ð°Ð¿Ð¾Ð¼Ð½Ð¸Ð»Ð°
ĠÑģÐ¾Ð²Ð¿
ĠÑģÐ¾Ð²Ð¿Ð°Ð´Ð°ÑİÑĤ
ĠÑĤÐ°Ð¼Ð°ÐºÑĤ
ĠÑĤÐ°Ð¼Ð°ÐºÑĤÐ°ÑĢ
ĠÐ±Ð°
ĠÐ±Ð°ÑĢÐ°Ð±
ĠÐ±Ð°ÑĢÐ°Ð±Ð°Ð½
ĠÐ±Ð°ÑĢÐ°Ð±Ð°Ð½ÐµÐ½ÐºÐ¾
ĠÐµÐ²ÑĢÐµÐ¹
Ð±ÐµÐ·Ð½Ð°Ð»
Ð±ÐµÐ·Ð½Ð°Ð»Ð¸Ñĩ
Ð±ÐµÐ·Ð½Ð°Ð»Ð¸ÑĩÐ½ÑĭÐ¹
ĠÐ±ÑĥÑħÐ°Ñı
ĠÐ¾ÑĤÐ½Ð¾ÑĪÐµÐ½Ð¸Ñİ
ĠÑĥÐ´Ð¸Ð²Ð»ÑİÑģÑĮ
ĠÐ¿Ð¾Ð¼Ð¾Ð»
ĠÐ¿Ð¾Ð¼Ð¾Ð»ÑĩÐ°ÑĤÑĮ
ĠÐ¿Ð°Ð¿Ð¸Ñĩ
ĠÐ¿Ð°Ð¿Ð¸ÑĩÐ°
ĠÐ·Ð°Ð¿Ð»Ð°Ðº
ĠÐ·Ð°Ð¿Ð»Ð°ÐºÐ°Ð»Ð°
ĠÐ½ÐµÐ¿Ð¸Ð·Ð´Ð¸
ĠÐ°ÑģÑģ
ĠÐ°ÑģÑģÐ°ÑģÐ¸Ð½
ĠÑģÑĤÐ°Ð»Ðº
ĠÑģÑĤÐ°Ð»ÐºÐ¸Ð²Ð°ÐµÐ¼ÑģÑı
ĠÐ²Ð½ÑĥÑĤÑĢÐµÐ½Ð½Ð¸Ðµ
ĠÐ²Ð½ÑĥÑĤÑĢÐ¸Ñģ
ĠÐ²Ð½ÑĥÑĤÑĢÐ¸ÑģÐµÐ¼ÐµÐ¹
ĠÐ²Ð½ÑĥÑĤÑĢÐ¸ÑģÐµÐ¼ÐµÐ¹Ð½ÑĭÐµ
ĠÐ²Ð¾Ð½ÑİÑĩÐºÐ°
Ð´Ð¾Ð¼Ð°ÑĪÐ½Ð¸Ð¹
Ð²ÑĭÐ¿ÑĥÑģÑĤ
Ð²ÑĭÐ¿ÑĥÑģÑĤÐ¸Ð»Ð°
ÑĢÑĥÑģÑģÐºÐ¾Ð³Ð¾
ĠÐ¾ÑĤÐ¾Ð±ÑĢÐ°Ð·
ĠÐ¾ÑĤÐ¾Ð±ÑĢÐ°Ð·Ð¸ÑĤÑĮ
Ð´Ð¸Ð¼Ð°
ĠÐ²Ð¸ÑĤÑı
ĠÐ·Ð°ÐºÐ¾Ð½Ð¾Ð²
ĠÐ¿Ð¾Ð´ÑĢÐ¾ÑģÑĤÐºÐ¸
ĠÑĢÐ°Ð·Ð±ÐµÑĢÑĥÑģÑĮ
ĠÐ²Ð¾ÑģÐ¿Ð¸ÑĤÐ°ÑĤÑĮ
ÑħÐ°Ñģ
ÑħÐ°ÑģÐ°Ð½
ĠÑıÐ·Ð´
ĠÑıÐ·Ð´Ð°Ð½Ð¸
ĠÐ¾Ð±ÑīÐµÑģÑĤÐ²Ð¾
ĠÐ¿Ð¾Ð·Ð²Ð¾Ð»ÑıÐµÑĤ
Ð¸ÑģÐºÐ¾Ð½
Ð¸ÑģÐºÐ¾Ð½Ð½Ð¾
ĠÐºÑĢÐµÐ´Ð¸ÑĤÑĭ
ĠÐ¿ÐµÑĢÐµÐ²Ð¾Ð´Ð¸
ÑĩÑĥÐ²Ð°Ðº
ĠÑģÑĤÐ°Ð½Ð¾Ð²Ð¸ÑĤÑģÑı
ĠÐ±ÑĢÐ°ÐºÐµ
ÑĤÑĢÐµÑĤÑĮ
ÑĤÑĢÐµÑĤÑĮÑı
ĠÐºÐ°ÑĢÑĤÐ¸Ð½Ð°
ĠÐ²ÑĭÐ¿ÑĥÑģÑĤÐ¸
ĠÑģÑĤÐ°ÑĢÐµÐµÑĪÑĮ
ĠÑĢÐ°Ð·Ð³Ð°Ð´ÐºÐ¸
ĠÐ¿ÑĢÐ¸ÐµÐ´ÑĮ
ĠÑıÐ¿Ð¾Ð½Ð¸Ñı
ĠÐ¾Ð±Ð¼Ð°Ð½ÑĭÐ²Ð°Ð»
ĠÐ½Ð°ÑĢÑĥÑĪÐ°ÐµÑĤÐµ
ĠÐºÑĢÐµÐ´Ð¸ÑĤÐ½ÑĥÑİ
ÑģÐ¾ÑĨÐ¸Ð°Ð»ÑĮÐ½ÑĭÐµ
ĠÐ¿Ð¾ÑĤÑĢÐµÐ±Ð½Ð¾ÑģÑĤÐ¸
ĠÐºÐ¾Ð²ÑĢÐ¸Ðº
ĠÐ´ÐµÐ½ÐµÐ¶Ð½ÑĭÐ¹
ĠÑĤÐ°ÑĤÐ°ÑĢÑģÑĤÐ°Ð½
ĠÑĤÐ°ÑĤÐ°ÑĢÑģÑĤÐ°Ð½Ðµ
Ð¾Ð±Ð½Ð¾Ð²
Ð¾Ð±Ð½Ð¾Ð²Ð»ÑıÑĤÑĮ
ÑĤÑĢÐµÑĤÐ¸Ð¹
ĠÑĢÐ°Ð·ÑĢÑıÐ´
Ð¿Ð¾Ð´Ð¾Ð½ÐºÐ¸
ÑģÐ¿Ð¸ÑĢ
ÑģÐ¿Ð¸ÑĢÑĤÐ¾Ð¼
ĠÐ¸Ð·Ð½Ñĥ
ĠÐ¸Ð·Ð½ÑĥÑĤÑĢÐ¸
ĠÑĢÐ°Ð·Ð¾Ð±ÑĢÐ°Ð»
ĠÐºÐ¾ÑĢÐ¿
ĠÐºÐ¾ÑĢÐ¿ÑĥÑģ
ĠÐºÐ¾ÑĢÐµÐ½
ĠÐºÐ¾ÑĢÐµÐ½Ð½Ð¾Ð¹
ĠÐ¼Ð¾ÑģÐºÐ²
ĠÐ¼Ð¾ÑģÐºÐ²Ð¸Ñĩ
ĠÐ½ÐµÑħÐ¾ÑĢÐ¾ÑĪÐ°Ñı
ĠÑģÐ¾Ð·Ð²Ð°Ð½Ð¸Ð²
ĠÑģÐ¾Ð·Ð²Ð°Ð½Ð¸Ð²Ð°Ð»Ð°ÑģÑĮ
Ð¿Ð»Ð¾ÑħÐ¾Ð¹
ÑĤÐµÑĢÐ½Ð¾Ð¿
ÑĤÐµÑĢÐ½Ð¾Ð¿Ð¾Ð»ÑĮ
ÑĤÐµÑĢÐ½Ð¾Ð¿Ð¾Ð»ÑĮÑģÐºÐ°Ñı
Ð¾ÐºÑĥÐ»ÑĮ
Ð¾ÐºÑĥÐ»ÑĮÑĤÑĥÑĢ
Ð¾ÐºÑĥÐ»ÑĮÑĤÑĥÑĢÐ¸Ð²Ð°ÐµÐ¼ÑģÑı
ĠÐ¿ÐµÑĢÐµÐ´ÐµÐ»ÑĭÐ²Ð°Ð»
ĠÐ¿Ð¾Ð²ÐµÐ»ÑģÑı
ĠÐ´Ð¶Ð¾Ð½Ñģ
ÑĨÐµÑĢÐºÐ¾Ð²Ð½ÑĭÐµ
ĠÐ°Ð»Ð¸ÑģÑĭ
ÑģÐ±Ð¾Ð¹
ĠÐ´Ð¾Ð²ÐµÑĢÑıÑĤÑĮ
ĠÐ·Ð½Ð°ÐºÐ¾Ð¼Ð¾Ð³Ð¾
ĠÐ´ÑĥÐ³Ð¾Ð²Ð°Ñı
ĠÑģÐ²Ð°ÑĢÐºÐ°
ĠÑģÑģÐ¾ÑĢÐ¸Ð¼ÑģÑı
ĠÐ·Ð°ÑĤÐ¾Ð½
ĠÐ·Ð°ÑĤÐ¾Ð½ÑĥÐ»
ĠÑģÑĤÑĢÐ¾ÑĩÐºÐ¸
ĠÑĥÐ³Ð¾Ð¼
ĠÑĥÐ³Ð¾Ð¼Ð¾Ð½
ĠÑĥÐ³Ð¾Ð¼Ð¾Ð½Ð¸ÑĪÑĮÑģÑı
ĠÐ¾Ð±Ð½Ð°Ð¶ÐµÐ½Ð½ÑĭÑħ
Ð¿ÑĢÐ°Ð¹
Ð¿ÑĢÐ°Ð¹Ñģ
ĠÐ´Ð¾ÑĢÐ¾Ð¶Ð½Ð°Ñı
ĠÐ¿ÐµÑĢÐµÐ´Ð°Ð²Ð°Ð»Ð°
ÑĤÐ¾ÑĢÐµÐ³Ð°Ð»Ð¸
ĠÐ·Ð°Ð¿Ð¸ÑģÑĭÐ²Ð°ÐµÑĤÑģÑı
ĠÐ¾ÑĤÑĢÐ°Ð·
ĠÐ¾ÑĤÑĢÐ°Ð·Ð¸ÑĤÑģÑı
ĠÐ½Ð°ÑģÐ»
ĠÐ½Ð°ÑģÐ»ÑĭÑĪ
ĠÐ½Ð°ÑģÐ»ÑĭÑĪÐ°Ð½Ð°
ĠÐ¿Ð¾Ð±ÑĢÐµÐ¹
ĠÐ¿Ð¾Ð±ÑĢÐµÐ¹ÑģÑı
Ð³ÐµÐ¼
Ð³ÐµÐ¼Ð°ÑĤÑĥÑĢ
Ð³ÐµÐ¼Ð°ÑĤÑĥÑĢÐ¸Ñı
ĠÐºÐ¾Ð¿ÐµÐ¹ÐºÐµ
ĠÐ¿Ð°ÑģÑģ
ĠÐ¿Ð°ÑģÑģÐ¸Ð²
ĠÐ¿Ð°ÑģÑģÐ¸Ð²Ð½Ð¾Ð³Ð¾
ĠÐ¿ÑĢÐ¾ÑģÐ¼Ð¾ÑĤÑĢÐµÐ½Ð½ÑĭÐ¹
ĠÐºÑĢÐ°ÑģÐ°
ĠÐ²Ð°Ð½Ð¸Ð»Ð¸
Ð²Ð¾Ð·Ð¼Ð¾Ð¶ÐµÐ½
ĠÑĤÐ¾ÑĢÐ³Ð¾Ð²Ð°Ð»
ÑĦÐ°Ð´ÐµÐµÐ²Ð°
ĠÑĦÐ°Ð´ÐµÐµÐ²Ð°
Ð½ÐµÐ´Ð¾Ð³Ð¾Ð²Ð°ÑĢÐ¸Ð²
Ð½ÐµÐ´Ð¾Ð³Ð¾Ð²Ð°ÑĢÐ¸Ð²Ð°ÑĤÑĮ
ĠÐ½Ð¾ÑıÐ±ÑĢÐµ
ĠÑģÐ»ÐµÐ´ÑĥÑİÑīÐµÐ³Ð¾
Ð´ÐµÐ¼Ð¾Ð½
Ð·Ð°Ð½Ð¸Ð¼Ð°Ð¹ÑģÑı
ĠÐ¼Ð°Ð»Ð°Ñħ
ĠÐ¼Ð°Ð»Ð°ÑħÐ¾Ð²Ð°
Ð½Ð°ÑģÐ¼ÐµÑĪ
Ð½Ð°ÑģÐ¼ÐµÑĪÐºÐ¸
ĠÐ²ÑĢÐ°Ð³Ð¸
Ð·Ð°Ð¼Ð¾Ðº
ĠÐ´ÑĥÑĪÐµ
ÑĪÐºÐ¾Ð»Ðµ
ĠÐ´Ð¸ÐºÑĤÐ°Ð½ÑĤ
ĠÐ½Ð°ÑģÑĤÑİ
ÑĦÐ¸Ð·Ð¸ÑĩÐµÑģÐºÐ¾Ðµ
ĠÐ¿Ð¾Ð²ÑĢÐµÐ´
ĠÐ¿Ð¾Ð²ÑĢÐµÐ´Ð¸ÑĤÑĮ
Ð¾ÑĤÐ²ÐµÐ·
Ð¾ÑĤÐ²ÐµÐ·Ñĥ
ĠÐ´ÑĥÑĢÐ´Ð¾Ð¼
ĠÐ¿Ð¾ÑģÑĭÐ»Ð°ÑĤÑĮ
ĠÐ½Ð°ÑĤÑıÐ½ÑĥÐ»
ĠÑĩÐµÑĢÐ½ÑĥÑİ
ĠÐ¼Ð°ÑģÐºÑĥ
ĠÐ¿Ð¸ÑĪÐ¸ÑĤÐµ
ÐºÑĢÐ°ÑģÐ½Ð°Ñı
Ð¾ÑĤÐºÑĢÑĭÐ²Ð°ÐµÐ¼
ĠÑĦÐ¾ÑĤÐ¾Ð³ÑĢÐ°ÑĦÐ¸Ñİ
ĠÐºÐµÐ¿
ĠÐºÐµÐ¿ÐºÑĥ
ÐºÑĢÐ°ÑģÐ¾ÑĤ
ÐºÑĢÐ°ÑģÐ¾ÑĤÑĥÐ»ÑĮÐºÐ°
ĠÑģÑĤÐ¸Ð¼Ð¾Ð¼
ÑĥÐ¿ÑĢÐ°Ð²Ð»ÐµÐ½Ð¸Ðµ
ĠÑĤÐ¾ÑĢÐ³Ð¾Ð²Ð»ÐµÐ¹
Ð½Ð°ÑģÐ»ÐµÐ´
Ð½Ð°ÑģÐ»ÐµÐ´Ð½Ð¸Ðº
ĠÐºÑĢÐ°ÑģÐ½
ĠÐºÑĢÐ°ÑģÐ½Ð¾Ð±ÑĢ
ĠÐºÑĢÐ°ÑģÐ½Ð¾Ð±ÑĢÐ¾Ð´
ĠÐºÑĢÐ°ÑģÐ½Ð¾Ð±ÑĢÐ¾Ð´ÑģÐºÐ¾Ð¼
Ð¹Ð¾ÑĤÐ°
ĠÑĤÑĢÐµÑĤÑĮÐµÐ¼
ĠÐ¾ÑĤÐ´ÐµÐ»ÐµÐ½Ð¸Ð¸
Ð¿Ð¾Ð»ÑĤ
Ð¿Ð¾Ð»ÑĤÐ°Ð²Ð°
Ð¿Ð¾Ð»ÑĥÑĩÐ¸
ĠÐ³Ð»ÑĥÐ¿ÑĭÐ¹
ĠÑĪÐ°ÑĢÑĭ
ĠÑĪÐ°ÑĢÑĭÐºÐ¸Ð½
ĠÐ·Ð°ÑĢÐ°Ð¶
ĠÐ·Ð°ÑĢÐ°Ð¶ÐµÐ½Ñĭ
ÑĨÑĭÐ¿
ÑĨÑĭÐ¿Ð»Ñı
ÑĨÑĭÐ¿Ð»ÑıÑĤÐ°
ĠÑĩÐ¸Ñħ
ĠÑĩÐ¸ÑħÐ°ÑİÑĤ
ĠÐºÐ°ÑĪÐ»ÑıÑİÑĤ
Ð¿ÑĢÐ¾ÑģÑĤÐ¸ÑĤÑĥÑĤ
Ð¿ÑĢÐ¾ÑģÑĤÐ¸ÑĤÑĥÑĤÐºÐ¸
ĠÐ¿Ð¾Ð´Ð½Ð¸Ð¼Ð¸
Ð¾Ð¿ÑıÑĤÐ°
ĠÐ¿ÑĢÐ¾Ð¸Ð·Ð²ÐµÐ»Ð¸
ĠÑģÑıÐ´
ĠÑģÑıÐ´ÑĮ
ĠÑĢÐ°ÑģÐ¿Ð¸ÑĪÐµÑĪÑĮ
ĠÐ¿Ð°ÑĢÐ°ÑĪÑİ
ĠÐ¿Ð°ÑĢÐ°ÑĪÑİÑĤÐµ
ĠÐ¿ÑĢÐ¾ÑĢ
ĠÐ¿ÑĢÐ¾ÑĢÐµÐ·
ĠÐ¿ÑĢÐ¾ÑĢÐµÐ·Ð°ÑĤÑĮÑģÑı
Ð¾ÐºÐ¾ÑĪ
Ð¾ÐºÐ¾ÑĪÐºÐ¾
ÑįÑħÐ¾
ĠÐ·Ð°ÑħÐ¾Ð´Ð¸Ð»
ĠÐ¾Ð±Ð°Ð»
ĠÐ¾Ð±Ð°Ð»Ð´ÐµÐ»Ð¸
ÑģÐ½Ð¸Ð¼Ð°ÐµÑĪÑĮ
ĠÑģÐ°Ð´Ð¸ÐºÐ°
Ð¾ÑĤÐµÑĨ
ĠÐºÑĢÐ°ÑģÐ½Ð¾Ð³Ð¾
ĠÐ³Ð¸Ð³Ð°Ð½ÑĤÐ°
ĠÐ»Ð¾Ð³Ð¾Ð¿ÐµÐ´
ĠÐ¿Ð¾ÑģÐ°Ð´Ð¸Ð»Ð°
Ð¿Ð¾Ð´ÐºÐ»ÑİÑĩÐµÐ½Ð¸Ðµ
Ð¿Ð¾Ð´ÑĢÑĥÐ¶Ð¸ÑĤÑĮ
ĠÐ³Ð½Ð°Ð»Ð¸
ĠÑģÑĥÐ¼Ð°ÑģÑĪÐµÐ´ÑĪ
ĠÑģÑĥÐ¼Ð°ÑģÑĪÐµÐ´ÑĪÐµÐ¼
ĠÐ¿ÑģÐ¸ÑħÑĥÑĪÐºÐ¸
Ð½Ð¾ÑĢÐ¼Ð°ÑĤÐ¸Ð²
ÑħÐ¾ÑĢÐ²Ð°ÑĤÐ¸Ñı
ĠÐ½Ð°ÑĨÐ¸Ñı
ĠÐ¾Ð»ÐµÑģÑı
ĠÐ¾ÑĤÑĩÐ°
ĠÐ¾ÑĤÑĩÐ°Ð¸Ð²Ð°ÑİÑĤÑģÑı
ĠÐ¿ÑĢÐ¾ÑģÑĤÐ¸
ĠÐ¾ÑĤÐ´Ð°Ð²Ð°Ð¹
ĠÐ¸Ð·Ð¸
ĠÐ¿ÑĢÐ¸ÑħÐ¾Ð´ÑıÑĤ
ĠÐ¿ÑĢÐ¾ÑħÐ¾Ð¶Ð´ÐµÐ½Ð¸Ðµ
ÐºÐ¾ÑĤÐ¾Ð²ÑģÐºÐ¸Ð¹
ĠÐ¿ÑĢÐµÐ·Ð¸Ð´ÐµÐ½ÑĤÑģÐºÐ°Ñı
ĠÑĢÐµÑģÐ¿ÑĥÐ±Ð»Ð¸ÐºÐ°Ð½
ĠÑĢÐµÑģÐ¿ÑĥÐ±Ð»Ð¸ÐºÐ°Ð½ÑģÐºÐ¾Ð³Ð¾
ÑĦÑĢÐ°Ð·Ñĭ
ÑĥÑģÐ¿Ð¾ÐºÐ¾ÑİÑģÑĮ
ĠÐºÑĢÐ°ÑģÐ¾ÑĤÑĥÐ»Ñı
Ð²ÐºÐ»ÑİÑĩÐ°Ð¹ÑģÑı
ĠÐ¼Ð°ÑģÑĤÐ¸
ĠÐ¾Ð±ÑĢÐ°ÑīÐ°Ð»Ð¸ÑģÑĮ
ĠÐ»ÑĥÐ½Ñĭ
ĠÑıÐ½Ð²Ð°ÑĢ
ĠÑıÐ½Ð²Ð°ÑĢÐµ
Ð¾ÑĤÐ´ÐµÐ»ÐµÐ½Ð¸Ñı
ĠÐ¿ÑĢÐ¸Ð»Ð¸Ð²Ð°
ĠÑĳÐ¿ÑĢ
ĠÑĳÐ¿ÑĢÑģÑĤ
ĠÑģÐ»Ð¾Ð¼Ð°ÐµÑĤÑģÑı
ĠÐ½Ð°ÑĩÐ¸Ð½Ð°Ð»Ð¸
Ð³ÑĢÐ°Ð½Ð¸ÑĨÑĭ
Ð°Ð·Ð°ÑĢÐ¾Ð²Ð°
ĠÐ¿ÐµÑĢÐµÐ±Ð¾ÑĢ
ÑĢÐ°ÑħÐ¸ÑĤ
ĠÐ°ÐºÑĤÐ¸Ð²Ð¸ÑĢÐ¾Ð²Ð°ÑĤÑĮ
ĠÑĢÐ°Ð´Ð¸Ð¾ÑģÑĤÐ°Ð½ÑĨÐ¸Ð¹
ĠÐ±Ð°Ð±Ð¾ÑģÑĭ
ĠÐ´ÐµÐ»Ð°Ð»Ð°
ĠÐ»ÑİÐ±Ð¸Ð¼Ð¾Ð³Ð¾
ĠÐ¼Ð¾ÐºÑĢÐ°Ñı
ĠÐ¼Ð°ÐºÐ´Ð¾Ð½Ð°Ð»ÑĮÐ´Ñģ
Ð²Ð¾Ð·ÑĢÐ°ÑģÑĤ
Ð¿Ð¾ÐµÑħÐ°Ð²
Ð¿Ð¾ÐµÑħÐ°Ð²ÑĪÐ¸Ðµ
ĠÐ¿ÑĢÐ¾Ð±Ð¸ÑĤ
ĠÐ¿ÑĢÐ¾Ð±Ð¸ÑĤÐ°Ñı
Ð»ÐµÐ½ÑĤÐ°
ĠÐ¼ÑĥÐ¶Ð¸Ñĩ
ĠÐ¼ÑĥÐ¶Ð¸ÑĩÐ¾Ðº
ĠÐ¾Ð¿ÑĢÐ°Ð²Ð´ÑĭÐ²Ð°ÑĤÑĮ
Ð´ÐµÐ¼Ð¾ÐºÑĢ
Ð´ÐµÐ¼Ð¾ÐºÑĢÐ¸ÑĤ
ĠÐºÐ¾Ð¼Ð¿Ð¾Ð·
ĠÐºÐ¾Ð¼Ð¿Ð¾Ð·Ð¸ÑĤÑĭ
Ð¼ÐµÑħ
Ð¼ÐµÑħÑĢÐ¸Ð±
Ð¼ÐµÑħÑĢÐ¸Ð±Ð°Ð½
ĠÑįÐ½Ð³
ĠÑįÐ½Ð³ÐµÐ»ÑĮ
ĠÑįÐ½Ð³ÐµÐ»ÑĮÑģÐµ
ĠÐ³ÐµÐ½ÐµÑĢÐ°Ð»Ð°
[...]
